#version: 0.2
Ð °
Ð° Ð
Ġ Ð
Ð ¸
Ñ ĥ
Ð µ
Ð »
Ñ Ģ
Ó ı
Ñ Ĭ
Ð ¾
Ð°Ð »
Ð ½
Ġ Ñ
Ñ Į
Ð° Ñ
Ð ³
Ð ´
Ñĥ Ð»
ĠÐ ³
Ð¸ Ñ
Ð º
Ð°Ð ±
Ð ±
ĠÐ ±
Ð°Ð ½
Ð° ÑĢ
Ñĥ Ð½
ĠÐ º
ĠÐ³ ÑĮ
Ġ ÑĢ
Ð ²
Ð» ÑĬ
Ñ Ĥ
Ñ ģ
Ð ¼
Ð ·
Ñ ħ
Ð¸ Ð½
Ð°Ð» ÑĬ
Ð³ Ð¾
Ð°Ð ³
Ð´ Ð°
Ð¸Ñ ı
ĠÑ ħ
Ð°Ð ·
Ðµ Ð±
Ð³ Ð¸
Ð°Ð ´
Ð°Ñ ģ
ĠÐ± Ñĥ
Ð°Ñ Ĥ
Ðº Óı
Ð°Ñ ħ
ĠÐ³ Óı
ĩ Óı
Ðµ ÑĢ
Ðµ Ð»
ĠÐ ²
ĠÑ Ĩ
ĠÑ Ĥ
Ñĥ ÑĢ
Ð°Ð ¼
Ð°Ð º
Ð°Ð»ÑĬ ÑĥÐ»
Ð¸ Ð»
ĠÐ ĵ
ĠÐ ¼
Ð¾ Ð»
ĠÐ³ÑĮ Ðµ
Ð¸ Ð·
Óı Ð°Ð»
Ñĥ Ñħ
Ð»ÑĬ ÑĥÐ»
Ñ Ĩ
ĠÐ »
Ð°Ð½ Ð°
Ð´ Ðµ
Ð¾ Ð½
ĠÐ» ÑĬ
Ð°Ð ¹
ĠÐ ´
ĠÑ ģ
ĠÐ ½
Ñ ı
Ð°Ð» Ð´Ð°
ÑĤ Óı
Ð¾ ÑĢ
ĠÐ³ÑĮ Ð°Ð±
ĠÐ ¶
Ð¸ ÑĢ
Ð°Ñ ı
ĠÑĤ Óı
Ñ ĩÓı
Ð¸Ñ ģ
č Ċ
ĠÐº ÑĬ
Ð°Ð ²
Ó Ģ
Ð¾ Ñģ
ĠÑĢ Ñĥ
ĠÐĵ ÑĮ
ĠÐ² Ð°
Ð°Ñħ ÑĬ
Ð¸Ð· Ðµ
Ðº ÑĬ
Ð°ÑĢ Ð°Ð±
ĠÐ±Ñĥ Ð³Ð¾
Ð°Ð³ Óı
Ð¾ Ð²
Ð°Ð· ÑĥÐ»
Ð¸Ñı Ð»
ĠÐº Ðº
Ð ¶
Ñ ĩ
Ð°Ð³ ÑĮ
Ð¸Ñ ħ
Ð¸Ñı Ð±
Ð¸Ñ Ĩ
ĠÐ ¿
ĠÐ ľ
Ðµ Ð½
Ðµ Ð·
ĠÑħ Óı
Ð ¿
ĠÐ±Ñĥ ÐºÓı
Ð³ ÑĮ
ĠÑĨ Óı
Ðº ÑĮ
ĠÐ ¸
Ð´ Ð°Ñģ
Ð¸Ñ Ĥ
Ð¸ Ð±
Ð³ Óı
Ðµ Ð²
ÑĥÑħ ÑĬ
Ð¸ Ð¼
ĠÑĢ Ðµ
ÑĥÐ½ Ð°
ĠÑ ī
ĠÑ ĩ
ĠÑħ ÓıÐ°Ð»
Ñĥ Ð¼
Ð¸Ñı Ð»ÑĬÑĥÐ»
ĠÐ ¥
Ð°Ðº ÑĬ
ĠÐ Ĳ
ĠÐº ÑĮ
Ġ Ð°Ð±
Ð»ÑĬ Ð¸
ĠÐº Óı
Ð ¹
Ð°ÑĢ Ð°Ð»
ĠÑĨ Ð¾
Ð°Ð± Ð¸
Ð°Ñħ Óı
Ð°Ð· Ðµ
ĠÑħÓıÐ°Ð» ÑĤÓı
Ð°Ð³ ÑĬ
Ð°Ñ Ĩ
Ð¸ Ðº
ĠÐ ·
ÑĥÐ» ÐµÐ±
ĠÐ Ķ
ĠÑĢ Ð¾Ñģ
ĠÐ ļ
Ð¸ Ð»ÑĬ
Ð´ Ð°Ð»
Ð´Ð°Ñģ Ð°
ĠÐ³ÑĮ ÐµÐ±
Ðµ Ñģ
ĠÐ±Ñĥ Ð³
Ð¸ ÐºÓı
Ñĥ Ð±
Ð¸Ñģ ÑĤ
Ð¾ Ð±
Ð°ÑĤ Óı
ĠÐ ł
Ðµ Ð´
ĠÐ³Óı Ð°Ð´
ÑĥÐ» Ð°
ĠÐºÐº Ð¾Ð»
ĠÑģ Ð¾Ð½
Ð°Ð· Ð´Ð°
Ġ "
Ñĥ Ñģ
ĠÐĵ Óı
Ñħ ÑĬ
Ð¸ Ð´
Ð¸Ñħ ÑĮ
Ð°Ð ¶
Ð°Ñı Ð»
ÑĥÑħ Óı
ĠÑħ ÑĬ
Ð¸ Ð³Ð¸
ÑĨ Óı
Ð»ÑĬ ÑĥÐ½
ĠÐ² Ñĥ
ÑĩÓı Ð¾
Ð°Ñ ĩ
ĠÐ± Ðµ
ĠÑ ĩÓı
Ñı Ð»
ÑĢ Ñĥ
Ð°Ñ ĩÓı
Ð°Ð³ Ð¸
Ð¸ÑĤ Óı
Ðµ Ð¼
ĠÐ ¡
ĠÑ Ī
Ðµ Ñħ
Ð¸Ð½ Ð°Ð±
ĠÑ ı
Ð°Ñģ ÑĥÐ»
Ð³ ÑĥÐ½
Ð ĵ
Ðµ Ðº
ĠÐ ĳ
Ñ Ī
Ð°Ð³ Ð¾
Ð°Ñı Ð»ÑĬÑĥÐ»
Ñĥ Ð´
ĠÑĢ Ð°Ð¹
Ð°Ð» Ð´Ðµ
ĠÑĢÑĥ ÐºÓı
Ð°Ð¼ Ð°Ð´
Ġ 1
Ð°Ðº Óı
ÑĥÑĢ Ð°Ð±
ĠÐºÑĬ Ð¾
ÐµÐ· Ðµ
ĠÐ³ ÑĬ
ĠÐ½ ÑĥÑħ
ĠÑĤÓı Ð°Ð´
Ġ (
Ð² Ð°ÑĢ
ĠÐ³ÑĮ Ð°ÑĢ
ĠÐ½ Ð¸Ð»ÑĬ
Ð¸ÑĨ Ð°
ÑĥÑħÓı Ð°Ð¼Ð°Ð´
ĠÑĢÐ°Ð¹ Ð¾Ð½
Ðµ ÑĤ
Ð¸Ñ ī
ĠÐ±ÑĥÐ³ ÐµÐ±
ĠÑĢÑĥ Ð³Ð¾
Ð¾ÑĢ ÐºÑĮ
Ð¸ Ð²
ĠÐ³ÑĮ ÐµÐ»
ĠÐ³ÑĮÐµ Ñģ
Ðµ Ð¹
Ð¸ Ðµ
Ñħ Óı
Ñı Ð»ÑĬÑĥÐ»
ĠÐ³ÑĮÐµ Ð·
ĠÐ¥ Óı
Ð¸ Ð¶
Ð¸Ñ ĩÓı
Ð¸ÑıÐ» Ð´Ð°
ÑĥÐ» ÐµÐ»
ĠÑĢ Ð°ÑħÑĬ
Ð¸Ñı Ð»ÑĬ
ĠÑī Ð²
ĠÐ»ÑĬ Ñĥ
Ġ ÑĥÐ½
Ð°Ð»ÑĬ Ðµ
Ð¾ Ð¼
ĠÐ¸ Ð½
Ð°ÑıÐ» Ð´Ð°
ĠÐ´ Ð°Ð½
Ð¾ Ð´
Ð³ ÑĬ
ĠÐľ ÑĥÑħÓıÐ°Ð¼Ð°Ð´
Ñ ī
ĠÐºÐºÐ¾Ð» Ð°
Ð¸Ð½ Ðµ
ĠÐ³ÓıÐ°Ð´ Ð°Ð¼
ĠÑ į
ÐµÐ¼ ÐµÑĢ
Ð¸Ð½ Ð°Ð»
Ð¸ÑģÑĤ Ð°Ð½
ĠÐ± Ð¸ÑĨ
Ð°ÑĢ Ð¾
ĠÐ ¢
Ð³Óı Ð°Ð½
ĠÐ± Ð¾
ĠÐ· Ð°Ð¼
Ðĵ ÑĮ
ĠÐ³ÑĮÐµ ÑĩÓıÐ¾
ĠÐ±ÑĥÐºÓı Ð°Ð½Ð°
ĠÐ³ ÑĥÑĢ
Ð¸Ñ ĩ
Ð°Ð³ÑĬ Ð¸ÑģÑĤÐ°Ð½
ÑĥÐ» ÑĬ
ĠÐ ¦
Ð¸Ð· Ð°Ð±
Ð¸Ð» Ð°
ĠÐ Ŀ
Ð°Ð± Ð°Ð·ÑĥÐ»
ĠÐ¿ ÑĢ
ĠÐº Ð²
Ð°Ñħ ÑĮ
Ð¼ Ð°
ĠÐ»ÑĬ Ð¸ÐºÓı
ĠÐ¶ Ð¸Ð½
Ðº Ð¾Ð»
ĠÐ³ÑĮ Ð¾ÑĢÐºÑĮ
ĠÐ»ÑĬ Ð¸Ð¼
Ð°ÑĢ Ð°Ð²
ĠÑĨ ÓıÐ°Ð»
ĠÐ²Ñĥ ÐºÓı
Ð°Ðº ÓıÐ°Ð»
Ġ 2
ĠÐĵÑĮ ÐµÐ±
ĠÐ³Óı ÐµÐ¼ÐµÑĢ
Ð¸ Ð´Ð°
Ð¾ ÑĨ
Ġ -
ĠÐ·Ð°Ð¼ Ð°Ð½
ĠÐ± Ð¸ÑħÑĮ
Ð¾ ÑħÑĬ
Ñĥ Ð¶
Ðµ Ð³Ð¸
â Ģ
ĠÐ ¾
ĠÑĢÑĥ Ð³
ĠÑĢÐµ Ñģ
ĠÑħ Ð°Ð»
Ð¸ÐºÓı ÐºÓı
ĠÐ¼ Ð°Ð³Óı
ĠÐ³ÑĮÐ°Ð± Ð¸Ð·Ðµ
ĠÑħÑĬ Ð²
ÑĨ Ð°
ĠÑĢ Ð¾
ĠÐ½Ð¸Ð»ÑĬ ÐµÑĢ
Ð°Ð½ Ð¸
ĠÐĶ Ð°Ð³ÑĬÐ¸ÑģÑĤÐ°Ð½
Ð°Ð» Ð°
Ð¸Ð» Ð°Ð½
Ġ Ð°Ñģ
ĠÐ ¨
Ð°Ð± Ð°Ð·
ĠÐ³Óı Ð¾Ð»
ĠÑħ Ð°Ð´
Ñı Ð»ÑĬ
ĠÐ´Ð°Ð½ Ð´Ðµ
Ð¼ Ð°ÑĤ
ĠÑĢÐ°Ð¹Ð¾Ð½ Ð°Ð»ÑĬÑĥÐ»
ĠÐ±ÑĥÐºÓı Ð¸Ð½
Ð´ ÑĥÐ»
Ñĥ ÑĤ
ĠÐ ĺ
ĠÐ°Ð± ÑĥÐ½
Ð°Ð» Ð³Ð¸
ĠÐ³ÑĮÐµ ÑĩÓı
Ð°Ðº ÑĮ
ÑĤÓı ÐµÑĢ
Ð¸Ñħ ÑĬ
ÑĥÐ¼ ÑĢÑĥ
ĠÐ³ÑĮÐ°Ð± ÑĥÐ½
Ð¾Ð² Ð°Ñģ
Ñĥ ÑĤÓı
ĠÐ³ÑĮÐµ Ð½
ÐµÐ± Ðµ
Ġ âĢ
Ð´Ð°Ñģ Ð°Ð½
Ð¸ Ð´Ðµ
ĠÐ± Ð°ÐºÓı
ĠÑĩ Ð¸
ĠÐ± Ð¾Ñģ
ĠÐ Ł
Ð°Ð µ
ĠÐ± ÐµÑĢ
ĠÑĨÐ¾ Ð³Ð¸
ĠÐ½ Ð¸Ð¶
Ð¾ Ð³Ð¾
ĠÐ´ ÑĥÐ½
ĠÐ»ÑĬÑĥ Ð³ÑĮ
Ð¸ ÐºÑĬ
ĠÐ³ÑĮÐ°Ð± ÑĥÐ»ÐµÐ±
Ð Ķ
ĠÐ± Ð°ÑħÑĬ
Ð· ÑĥÐ»
ĠÐĵÓı Ð°Ð±
ĠÐ±Ðµ ÑĤÓıÐµÑĢ
Ð ł
Ð°Ñ Ī
ĠÑĪ ÐºÐ¾Ð»
ĠÑĢÐ¾Ñģ Ð´Ð°Ð»
ĠÑĢ Ð°Ð³ÑĬ
ĠÐ± Ð°Ð¹
Ð¸Ñı Ñģ
ĠÐ³Óı ÑĥÐ¼ÑĢÑĥ
Ð°Ð»ÑĬ ÑĥÐ½
ÑĥÑĢ Ð°Ð»
ĠÐ¶Ð¸Ð½ Ð´
Ð°ÑħÑĮ Ð°Ð»
Ñ Ħ
Ñĥ ÑĨÓı
ĠÑ Ħ
ĠÐ½ Ð°ÑħÑĬ
ĠÐ¶ Ð¾
ĠÐ³ÑĮÐµ Ð´
Ð°Ñı Ð»ÑĬ
ĠÑĢ Ð°Ð³Óı
Ð°ÑĨ Óı
Ð ļ
Ð Ĳ
ĠÐ± Ð°ÑĤ
ĠÐ½ÑĥÑħ Ð¼
ĠÐĵÑĮ ÐµÐ´
ĠÐ±Ð¾ ÐºÑĮ
ĠÐ¶ Ð°Ð½
Ð°Ð ¿
ĠÐ Ľ
ĠÐ±Ðµ Ð³ÑĮ
ĠÑĨÓı ÑĥÐ½
Ð°Ð» Ð´Ð°ÑģÐ°
ĠÐł Ð¾Ñģ
ĠÑī Ð¸Ð±
ÐµÐ½ ÑĤ
Ð¸ Ð³Ð¾
ĠÑĢÐµ ÐºÑĬ
ĠÐºÓı ÑĥÐ´
Ð°Ð³Óı Ð°ÑĤ
Ð°Ðµ Ð²
ĠÐ¸ ÑĪ
Ð´ Ð°Ð³Ð¸
Ð°ÑĢ Ðº
ĠÑĢÐ¾Ñģ ÑĥÐ»ÑĬ
ĠÐ³ÑĮÐ°Ð± ÑĥÐ½Ð°
ĠÐ Ĵ
Ġ Ð°ÑħÓı
ĠÐ´ Ð¸ÑĢ
Ð¾ Ðº
Ñħ ÑĥÐ½
ĠÐ³Óı ÑĥÑĨÓı
ĠÐ³Óı Ð°ÑħÑĮÐ°Ð»
ÑĥÐ½ ÐµÐ±
ÑĨ Ð¾
Ñ İ
Ð¸Ð½ Ð³Ð¾
Ð ¥
ĠÐ³Óı Ð°ÑĢ
Ð¸Ð½ Ð¸ÑģÑĤ
Ð ¡
ĠÐ ĸ
ĠÑģ Ñĥ
ĠÐ³ÑĮÐµ Ð²
ĠÐ ¹
ĠÑĤÓıÐ°Ð´ Ðµ
ĠÐ³ ÓĢ
Ð°Ð½ Ð¸Ð³Ð¸
Ð± Ð¸ÑħÑĮ
Ð¸Ð» ÐµÐ±
ÑıÐ» Ð´Ð°
ĠÑĨ ÐµÐ±Ðµ
ĠÑĢÑĥÐ³ ÐµÐ»
Ð¼ Ð°Ð½
ĠÑģÐ¾Ð½ Ð°Ð»ÑĬ
ĠÐ²Ñĥ Ð³Ð¾
ĠÐ»ÑĬÐ¸Ð¼ Ð°Ð»
Ġ Ð°Ð²
ĠÐĲ Ð»
0 0
ĠÐ¼ ÐµÑħ
Ð°Ð» Ð°Ð³ÑĮ
ĠÐºÑĮ Ð¾Ð»
ÐµÐ» ÑĮ
Ñĥ Ðº
Ð» Ð°Ð³ÑĮ
Ð² Ð°Ð»
Ð¸ÑıÐ» Ð´Ðµ
ĠÑħ Ð°Ñģ
Ð°ÑĤ Ð°Ð»
Ð°ÑĢ ÑĥÐ»
ĠÐĵÑĮ ÐµÐ»
ĠÐ³ÑĮ Ð°Ð½
ĠÐļ ÑĬ
Ġ1 9
Ð¸ ÐµÐ²
ĠÑħÓıÐ°Ð»ÑĤÓı Ð¸
Ð ľ
ĠÐ¼ Ñĥ
ĠÑĢ Ð°ÑĩÓı
Ð¸ÑıÐ»ÑĬ Ðµ
Ðµ Ð»ÑĬÑĥÐ»
ĠÐ»ÑĬ Ð°Ð»
ĠÐĵ ÑĬ
Ñģ ÑĤ
ÑĥÐ¼ ÐµÐº
Ð» Ð¸Ðº
ÐµÐ· Ð°Ð±
ĠÐ §
ĠÐĲ Ð¼
Ð´ Ð°Ð»ÑĬÑĥÐ½
Ð¸Ñ Ī
ĠÐ¢ Óı
Ñĥ Ñĩ
Ġ Ð°Ð´
ĠÑħÐ°Ð» ÐºÑĬ
Ð¿ ÑĥÐ±
Ġ Ð°Ð¼
ĠÑħ ÑĮ
Ð°Ð´ Ð°ÑħÑĬ
ĠÐ± Ð°ÑĩÓı
Ð¿ÑĥÐ± Ð»Ð¸Ðº
ĠÐ¶Ð¸Ð½Ð´ Ð¸ÑĢ
ĠÐ Ĺ
ĠÑħÐ°Ð´ ÑĥÐ±
ĠÐº ÑĥÐ¼ÐµÐº
ĠÐ² Ð°Ñģ
Ð¸Ð» Ð»
ĠÑħÓı Ð°ÐºÑĬ
ĠÐ°Ð± ÑĥÑĢÐ°Ð±
ĠÑģÑĥ Ð°Ð»
ĠÑĢ Ð°ÐºÓı
Ġ Ð°Ð½
ĠÐºÑĬ Ð²
ĠÑĨÓı Ð¸ÐºÓıÐºÓı
Ð¸Ð½Ð¸ÑģÑĤ ÑĢ
ĠÐ± Ð°ÐºÓıÐ°Ð»
Ñħ ÑĮ
ĠÐº Ð¸Ð½Ð°Ð±
Ð°Ð¼ Ð¸Ð»
Ð°Ð´ Ð°
Ð³Ð¸ Ð»
Ð°Ñĩ Ð°Ð»
ĠÑĢÐµÐºÑĬ Ð¾Ð½
ÐµÐº ÑĤ
ĠÐº Ð¾Ð¼
Ð ĳ
Ð¾ Ð³
Ð¸Ñı Ð²
Ð°Ð»ÑĬÑĥÐ» ÑĬ
Ð² ÐµÑĢ
ĠÐ±Ð°Ð¹ Ð±Ð¸ÑħÑĮ
Ð½ Ð¸Ð³Ð¸
ĠÐ± Ð°ÑĤÓı
ĠÑĨ Ð°Ð´Ð°ÑħÑĬ
Ð¸Ð¼ Ð°ÑĤ
ĠÐ³ÑĮÐµÑģ ÑĥÐ»
ĠÐĵÓıÐ°Ð± Ð´ÑĥÐ»
Ġ Ð°Ñħ
Ðº ÓĢ
ĠÐ³ÑĮÐµÐ· ÑĥÐ»
ĠÑĢ Ð°ÐºÑĮ
Ð¸Ñģ Ð°
ÑĥÐ» ÐµÐ²
ĠÑĢÑĥÐºÓı Ð°Ð½Ð°
Ð¸Ñı ÑĤ
ĠÑĤÓı Ð¾Ð±
Ð¾ÑĢ ÑĤ
ĠÐĶÐ°Ð³ÑĬÐ¸ÑģÑĤÐ°Ð½ Ð°Ð»ÑĬÑĥÐ»
ĠÐºÓıÑĥÐ´ Ð¸ÑıÐ±
Ñı Ð±
ĠÑĤÓıÐ¾Ð± Ð¸ÑĤÓı
Ð°Ð· Ð°Ð±
Ð°Ð» Ð¸ÑıÐ±
ĠÑħ ÑĥÑĤÓı
ĠÐº Ð¸Ð½
Ð¸Ñĩ Ñĩ
Ð¸Ð´ ÐµÑĢ
ĠÑĨ ÐµÑĢ
ĠÑĨÓı Ð°ÑĢ
ĠÑĤ Ð°ÑĢ
Ð°Ð± Ð¸Ð»ÐµÐ±
ĠÑĤÓı ÑĥÐ±
Ðµ ÑıÐ»ÑĬÑĥÐ»
Ð¾Ð½ Ð¸
Ð°Ð½ Ð´
ĠÐłÐ¾Ñģ Ñģ
ĠÐĽ ÑĬ
ĠÑĪ Ð°Ð³ÑĮ
ĠÐ £
Ð°Ð± Ð°Ð·Ð´Ð°
ĠÐ³ÑĮÐµ Ð»ÑĬÑĥÐ»
ĠÐºÑĬ Ð°Ð´
ÑĥÑħÑĬ Ðµ
ĠÐ½Ð¸Ð»ÑĬ Ðµ
ĠÐ´ Ð°Ð³ÑĮ
ÐµÑģ ÐµÐ±
Ð¾ ÑĤ
ĠÐº Ð¸Ð½Ð°Ð»
ĠÐ½Ð°ÑħÑĬ Ðµ
Ñĥ ÑĨ
ĠÐ°Ð¼ Ð¼Ð°
ĠÐĲÐ» Ð»Ð°Ð³ÑĮ
ĠÑħ Ð²
Ð°ÑĤ Ð°Ð»ÑĬÑĥÐ»
ĠÑħÓıÐ°Ð»ÑĤÓı ÑĥÑħÑĬ
ĠÑĨÓı Ð°ÐºÑĬ
Ð°ÐºÑĬ Ð°
Ð¸Ñī ÑĥÐ½
Ð¸ Ð³
. .
ĠÐ½ÑĥÑħÐ¼ Ð°Ð»ÑĬÑĥÐ»
ĠÑĢÐµÑģ Ð¿ÑĥÐ±Ð»Ð¸Ðº
ĠÐ³ÑĮÐ°Ð± ÑĥÑĢÐ°Ð±
Ð°Ð ¸
Ð± ÐµÐ»
ÑĢ Ð°Ð¼
ĠÐ· Ð°ÑħÓı
Ð°ÑĢ ÑĤ
Ð½ Ð¸Ðº
ĠÐ±ÑĥÐºÓı Ð°ÑĢÐ°Ð±
Ð¸Ð· Ð°ÑĢ
Ð¸ Ð¿
ĠÐ³ÓıÐ°Ð´Ð°Ð¼ Ð°Ð»
Ð»ÑĬ Ð¸ÑıÐ»ÑĬÑĥÐ»
Ð°Ð· Ð´Ðµ
Ðµ ÑĩÓıÐ¾
ÐµÑģ ÑĤ
Ð¼ Ð¸Ð½Ð¸ÑģÑĤÑĢ
Ð¸ÑĩÓı Ð¾Ð³Ð¾
Ñĩ Ð¸
Ð°Ñı Ð½
ĠÐºÐºÐ¾Ð» ÐµÐ±
Ñ ĭ
ÑĥÑĢ Ð°Ð´
ĠÐ¶ Ð°Ð¼
ĠÐ·Ð°Ð¼Ð°Ð½ Ð°Ð»Ð´Ð°
ĠÐ³ÑĮÐ¾ÑĢÐºÑĮ Ð¾Ð±
ĠâĢ ĵ
ĠÐĲÐ¼ Ð¼Ð°
ĠÐºÑĬÐ² Ð°ÑĤÓı
Ð¼ Ð°Ð´
Ð Ŀ
Ð°Ð± Ð³Ð¾
ĠÑı Ñģ
Ð°Ð· Ð°ÑĢ
ĠÑĢÐµ Ñħ
Ð°Ñģ Ð¸Ð»
ĠÐ»ÑĬÑĥ Ð³Óı
Ñı Ð·
Ð°Ð»ÑĬ Ð¸
Ð°Ð½ Ð³Ð¾
ĠâĢ Ķ
ĠÑģ Ð¿
ĠÐ½ ÑĥÐ¶
ĠÐ»ÑĬÐ¸ÐºÓı Ð°Ð±
ÑĥÐ» ÑĥÑħÑĬ
ĠÑģ Ð²ÐµÑĢ
Ð¸ Ð³Óı
ĠÐ»ÑĬ Ð°Ð¹
Ð¼ Ñĥ
ÑĤ ÑĥÑĢ
ĠÐ¶ Ð¸Ð´ÐµÑĢ
ĠÑĤÓı Ð¾ÑĨ
Ġ 3
ĠÐĵ ÓıÐ°Ð»
Ñı Ð½
ĠÑħ ÑĥÑĢ
Ð¾ Ð·
ÐµÐ· ÑĥÐ»
ĠÑĩ Ð¸ÑıÑģ
Ð± Ð¸ÑĢ
ĠÑĢ Ð°ÐºÓıÐ°Ð»
ĠÐ¥Óı Ð°Ð¶
ĠÑĥÐ½ ÑĤ
Ðµ Ð»ÑĬ
ĠÐ¼ ÑĥÐ½
Ð· Ð°Ð±Ð¸
ĠÑħÓıÐ°ÐºÑĬ Ð°Ð»ÑĬÑĥÐ»ÑĬ
Ð°Ð·Ðµ ÑĤ
ĠÐ± Ð°Ñĩ
ĠÐºÐº ÑĥÐ½
ĠÐ¿ Ð¸Ðº
ĠÐ± Ð°ÑĢÐº
ÐµÐ± ÐµÑģÐµÐ±
ĠÐ¼ ÑĥÑħÑĬ
ĠÑĢ Ð¸ÐºÓıÐºÓı
Ð°Ñģ Ð°
Ð°Ð» Ð¸
Ð¸ÑĩÓı ÑĩÓı
ĠÐĵÑĮ ÐµÑģ
ÑĥÑģ ÑĤ
ĠÐľ Ð°ÑħÓı
Ð¸Ð½ Ð°
ĠÐ³Óı Ð°Ð³
Ð°ÑĩÐ°Ð» Ð¸ÑħÑĬ
ĠÑħÑĬ ÑĥÐ»ÑĥÑħÑĬ
ĠÐ°Ð± ÑĥÐ½Ð°
ĠÐ¼ Ð°ÑĨÓı
Ð¸Ñģ Ð°Ð±
Ð¸ Ð³ÑĮ
ĠÐ³Óı ÐµÐ»
Ð² Ð°Ð½
ĠÐ±ÑĥÐºÓı ÑĥÐ½
ĠÐ´Ð°Ð½ Ð´
ĠÐ±Ð¸ÑĨ Ð°Ð½Ð°
ĠÐ¶ Ð¸Ð´Ðµ
ÑĥÐ»Ð° Ð°Ð½
ĠÐºÑĮ ÐµÐ·Ðµ
ĠÑĢÐ°ÑħÑĬ Ð°Ð»ÑĬ
ĠÐ´ Ð¸Ð´Ð°
ĠÐ¼Ð°Ð³Óı Ð°ÑĢÑĥÐ»
Ġ ÑĥÑĩ
ĠÐ´ Ñĥ
Ð¾ Ñĩ
ĠÑĩ Ð°Ð³Óı
ĠÐºÑĮ ÑĥÐ½Ð°
ĠÐ±Ð¸ÑħÑĮ Ð¸Ð·Ð°Ð±
Ð´ Ð°Ð³Ð¾
ĠÐ±ÑĥÐ³ Ð¸Ð½
ĠÑĢ Ð°Ð³ÑĮ
ĠÑĨÐ¾Ð³Ð¸ Ð´Ð°Ð»
Ð¶ Ðµ
ĠÐ¶Ð°Ð½ Ð¸Ð±
Ð¼Ð¸Ð½Ð¸ÑģÑĤÑĢ Ð°ÑĨ
ĠÐ³ÑĮ Ð°Ð²
Ñĥ Ð²
) .
ĠÐ³ÓıÐ°Ð´ Ð¸Ð½
Ð ¦
ĠÑħÓı Ð°Ð´
ĠÐºÓı Ð°Ð»ÑĬ
ĠÐ³ Ð°Ð·ÐµÑĤ
Ð¾ ÑĨÓı
Ð°Ð´ Ð±Ð¸ÑĢ
ĠÑĢÐ¾Ñģ Ñĥ
ĠÐºÓı Ð²Ð°ÑĢ
Ð¾ Ñħ
ĠÐ´ Ð°ÑĢ
ĠÑħÓı Ð°Ð¶
ĠÑį Ð±ÐµÐ»
ĠÐ± Ð¸ÑīÑĥÐ½
ĠÐ ©
Ñģ Ðº
ĠÐĵÑĮÐµÐ´ Ð¸Ð½
) ,
ÑĢ Ð°Ð½
Ð³ ÓıÐ°Ð»
Ð¸ Ð¹
ĠÐ¶Ð¸Ð½Ð´Ð¸ÑĢ Ð³Ð¾
ĠÐ¦ Ð¾
Ð ¢
Ð°ÑıÐ» Ð´Ðµ
ĠÐ± Ð°Ð»Ð°Ð³ÑĮ
ĠÐ³ÑĮÐµÐ½ Ð¸Ð±
ĠÑĨÓıÐ°Ð» Ð´
ĠÐ¦ Óı
ĠÐ¸Ð½ Ñģ
ĠÐºÑĮ ÑĥÐ½
Ðµ ÑĩÓı
ĠÐļ Óı
" ,
ĠÐ½Ð¸Ð¶ Ðµ
Ð°Ð³ ÓĢ
" .
Ð¾Ð» ÐµÐ±
ÐµÐ·Ðµ Ð³ÓıÐ°Ð½
Ð°Ð³Óı Ð¸Ð´
ĠÐ²ÑĥÐºÓı Ð°Ð½Ð°
ĠÐºÐ¸Ð½Ð°Ð» Ð³Ð¾
ĠÑĪÐ°Ð³ÑĮ Ð°ÑĢ
ĠÑĢÐ°Ð³ÑĬ ÑĥÐ»
ĠÐ´ Ð¸ÑĨÐ°
ĠÐºÐ² ÐµÑĢ
Ñĥ Ð·
ĠÐ°Ñħ Ð¸ÑĢ
Ð°ÑĢ ÐµÐ±
Ð¸ÑĤ ÐµÐ»ÑĮ
ĠÐ»ÑĬ Ð°Ð·Ð°Ð±
Ġ2 0
ĠÐĲ ÑħÓı
Ðµ ÑĨ
Ðº ÑĥÐ½
ĠÐºÑĬÐ¾ ÑıÐ»ÑĬ
ĠÐ² Ð°ÑĩÓı
ĠÐ± Ð¸ÑĩÓıÑĩÓı
ĠÑħÓı Ð°ÑģÐ¸Ð»
Ð¸ Ð¾Ð½
ĠÑħÓı Ð¸ÑģÐ°Ð±
ĠÐ³Óı Ð¾Ð´
Ð¸ ÐºÑĮ
ĠÐ¼ÐµÑħ Ð°Ð»ÑĬ
ĠÐ°Ð± ÑĥÐ»ÐµÐ±
Ð°Ð¼ Ð·
Ð½ Ð°
ĠÐĵÑĮ ÐµÐ½
ÑıÐ» Ð´Ðµ
Ð°Ñģ Ðµ
ĠÐ¿ Ð°ÑĩÐ°Ð»Ð¸ÑħÑĬ
Ð¸Ñħ Óı
ĠÐ³ÓıÐ°ÑĢ Ð°ÑĨ
Ñ į
ÑĥÐ» ÑĮ
ĠÑģ Ð°Ñħ
Ð¾Ð² Ð°
Ð¸Ñı Ð·
Ð°Ð³ ÓıÐ°Ð»
Ðĵ Óı
ĠÐ·Ð°ÑħÓı Ð¼Ð°ÑĤ
Ðµ Ð¿
ÑĩÓı Ð²
ĠÑħÓı ÑĥÐº
ĠÑĤ Ð°Ð´Ð±Ð¸ÑĢ
ĠÑĨÐµÑĢ Ðµ
ĠÐ¼Ð°Ð³Óı Ð¸ÑĪ
Ð¾ÑĢ Ñħ
ĠÑħÑĬ Ð¸Ð·
Ð°ÑĢ Ð°Ðº
ĠÐ³ÑĮ Ð°Ð»
ĠÐº Ð¸Ð´
ĠÐ³ÓıÐ¾Ð» Ð¾ÑħÑĬ
ĠÑīÐ² Ð°Ð½Ð°
ĠÐ²Ñĥ Ð³
ĠÑĨÓıÐ°Ð»Ð´ Ð¾ÑħÑĬ
Ð°Ð² Ð°Ð±
ĠÐºÑĬ Ð²Ð°ÑĢ
Ð¸ÑĢ Ðµ
Ð°Ð» ÐµÐ±
ĠÑĢÐµ ÐºÓı
ĠÐ Ń
ĠÐ± Ð°ÑıÐ½
Ð°Ð» Ð°Ð¼
Ð°Ð± Ð°Ð·Ðµ
ĠÑĢÑĥ ÐºÑĬ
ÑĨ Ð¸Ð½
Ñĩ Ð°Ð³Óı
Ð¾Ð² Ð°ÑģÑĥÐ»
ĠÐ¿ Ð¾Ð»
ĠÐ¿Ð¸Ðº ÑĢÑĥ
ĠÐºÐº Ð°Ð½Ð°
ĠÐłÐ¾ÑģÑģ Ð¸ÑıÐ»ÑĬÑĥÐ»
ĠÐ¨ Ð°Ð¼Ð¸Ð»
ÑĢ Ð¾
ĠÐ±Ñĥ Ð³Ð¸Ð»
Ð»ÑĬÐ¸ Ð³Ð¸
Ñħ Ð°
ĠÐ¼ Ð¸Ð»Ð»
ĠÐ±ÑĥÐºÓı Ð¸Ð½Ðµ
ÑĥÐ» Ð°ÑĢÐ¾
ĠÑģÐ¾Ð½ Ð°Ð»ÑĬÑĥÐ»
Ð ĺ
ĠÐ¶ Ð°Ð²Ð°Ð±
ĠÐ³ÓıÐµÐ¼ÐµÑĢ Ð°Ð»
ĠÑĤÓı Ð°Ð¼
Ð»ÑĬ Ð°Ð½Ð°
Ð¼ ÐµÐ½
Ñģ Ñģ
Ð»ÑĬ Ð¸ÑıÐ»Ð´Ð°
ĠÑĢÑĥÐºÓı Ð¸Ð½
ÐµÐ· Ð°ÑĢ
ĠÐº Ð¾Ð»
ĠÐ¼ Ð°Ñħ
ĠÐºÑĬÐ¾ ÑĤÓı
Ð» Ð°Ñģ
Ð°Ð¼ Ð°Ð»
ĠÑı Ð½
ÑĥÑĢ Ð°Ð²
ĠÐ³ÑĬ ÑĥÑĢ
ĠÐ¶ ÐµÐ³Ð¸
ĠÐ³ÑĬ Ð¾ÑĢ
ÐµÑħ ÑĥÐ½
ĠÐĲ Ð±
Ð¸Ñı Ð·ÑĥÐ»
ĠÑĤÓı Ð¾ÑĢ
Ġ ÑĥÐ»
ĠÐ± Ð°Ð½
ĠÐ¼ Ð°ÑĪ
ĠÐ± Ð°Ð¶
Ñĥ Ð³
ĠÑħ ÓĢ
Ġ 5
ĠÑĢÐ¾ ÐºÑĬ
ĠÑĤ ÑĥÐ½
Ñĥ Ð´Ð°
ĠÐ°Ñģ Ð»
Ð°Ð½ Ð°Ð»
ĠÐĲÑħÓı Ð¼Ð°Ð´
ĠÐºÓı Ð¸Ð³Ð¾
Ð°Ð±Ð¸ Ð³Ð¸
ĠÐĵÓı ÑĥÐ¼
Ð Ł
ĠÐ±ÐµÐ³ÑĮ ÑĥÐ»Ð°
Ð¸Ð½ ÐºÑĬ
ĠÑĢÐµÑħ Ñģ
Ġ 4
ĠÐºÑĬÐ°Ð´ Ð°ÑĢ
Ð± Ð°ÑĤÓı
Ð°ÑĤ Ð°Ð±
ĠÑĤ ÓĢ
ĠÑħÓıÐ°Ð»ÑĤÓı ÑĥÐ»
Ð Ľ
ÑĤ ÓĢ
ĠÑģÐ¿ Ð¾ÑĢÑĤ
ĠÑĤÐ°ÑĢ Ð¸Ñħ
ĠÑĤ ÓıÐ°Ð»
ĠÑĤÓıÐ¾ÑĢ Ð¸ÑĤÓı
ĠÑĢ Ð°ÑĤ
Ð°Ð³ÑĮ Ð¸ÑĢ
ĠÑĢÐµÑģÐ¿ÑĥÐ±Ð»Ð¸Ðº Ð°ÑıÐ»ÑĬÑĥÐ»
ĠÐ¼ Ð°ÑĨ
Ð»ÑĬÐ¸ Ðµ
ĠÐ± Ð¸ÑĩÑĩ
Ð°Ð´ Ðµ
ĠÐ½Ð¸Ð¶ ÐµÑĢ
ĠÐ³ÑĮÐµ Ð»ÑĬ
ĠÐ±ÐµÑĢ Ð³ÑĮ
Ðº Ð°
ÐµÑħ ÑĮ
ĠÐ°Ð´ Ð¼Ð¸Ð½Ð¸ÑģÑĤÑĢÐ°ÑĨ
ĠÑħÓıÐ°Ð´ ÑĥÑĢ
ĠÐ³ÑĥÑĢ Ð¾Ð½Ð¸
ĠÐ± Ð¸ÑĤÓı
Ð°Ð½ Ð¸Ð½
ĠÐºÑĮÐ¾Ð» ÐµÐ±
Ñģ Ð»
ĠÐ¾ ÑĤ
Ð°Ð¼Ð· Ð°ÑĤ
Ð¸ Ð´Ð°Ð»
ÑĥÐ½ Ð·
Ñĥ ÑĪ
ÑıÐ»ÑĬ Ðµ
Ñĥ Ð³ÑĬ
ĠÐ³ÑĮÐµÑĩÓı ÐµÐ±
ĠÐ±Ñĥ ÑĤÓı
ĠÐ¶ Ð°Ð»
Ñĥ Ñī
ÑĥÐ½ ÐµÐ»
ĠÐ² Ð°ÑħÑĬ
ĠÐºÐ¸Ð½Ð°Ð± Ð³Ð¾
ĠÐ±ÑĥÐ³ ÐµÐ»
Ð°Ñģ Ð°Ð½
ĠÑģ ÑĤ
Ð¾Ð» Ð°
ÑĥÑģ Ñģ
Ðµ Ð³Ð¾
Ð°Ð» Ð´Ð°ÑģÐ°Ð½
Ð°Ñģ Ð´Ð°
ĠÐ±Ð°ÑĤÓı Ð¸
ĠÑĢ Ð¸ÑħÑĮ
Ð¾Ð² ÐµÑĤ
ĠÑħ Ð¸Ñģ
Ð°ÑĢ Ð°
ĠÐ³ÑĬ Ð¾ÑĢÐºÑĮ
ĠÐĵÑĮ ÐµÐ·
ÑĥÑĢ Ð½
ĠÐ³ÑĥÑĢ ÐµÐ±
Ð½ ÑĤ
ĠÑĢ Ð°Ð·
Ð¾Ð´ Ð¾
ĠÐ¶Ð¸Ð´ÐµÑĢ Ð³Ð¾
Ġ ÑĥÑĢ
ĠÑį Ðº
Ð» Ñĥ
Ġ Ð°Ð½Ð°
ÑĢ Ðº
Ñĥ ÑĩÓı
ĠÐľÐ°ÑħÓı Ð°Ñĩ
Ñĥ Ð¿
ĠÐ°Ð² Ð°ÑĢ
Ð Ĵ
ĠÐ³ÓıÐ¾Ð» Ð¸Ð»
ĠÑĢ Ð°Ñĩ
ĠÑĢÐ°ÐºÓıÐ°Ð» Ð´Ðµ
ĠÑĨ ÓĢ
Ð¾Ð½ Ð¸Ð³Ð¸
ĠÑħÓı Ð¸Ð½ÐºÑĬ
Ð°ÑĢ ÑĥÑħÑĬ
ĠÐ¥Óı Ð°Ð¼Ð·Ð°ÑĤ
Ð°ÑĢÐ°Ðº Ð°ÑĤ
ĠÐºÑĬ Ð°Ð³ÓıÐ¸Ð´
ÑĥÐ½Ð· Ð°ÑħÑĬ
ĠÑĢÐ°Ð¹Ð¾Ð½ Ð°Ð»Ð´Ð°
Ð°ÑĤÓı Ð°Ð½
ĠÐ¸ Ð´
Ð¸Ñģ ÐµÐ»
ĠÐºÐ² Ðµ
ĠÐ±Ð¾Ñģ ÑĥÐ½
Ð¥ Óı
ĠÑģÐ¾Ð½ Ð°Ð»Ð´Ð°
ĠÐ´ Ð¸Ðµ
ĠÐ³ÑĮÐµÑĩÓıÐ¾ Ð³Ð¾
ĠÐ¼ ÑĥÑĢÐ°Ð´
ĠÑı Ð³Ð¸
Ñħ Ð¾Ð·
ĠÐ³ÑĮÐ°ÑĢ Ð¸Ð·Ðµ
Ñħ Ð°Ð½
ĠÑĤÓıÐ¾ÑĨ ÐµÐ±ÐµÑģÐµÐ±
Ð°Ð· Ð´Ð°ÑģÐ°
ÑıÐ» Ð´Ð°ÑģÐ°
Ð°ÑĨÓı ÑĨÓı
ÑħÑĬ Ð°Ð»
ĠÑĢÑĥÐºÓı Ð°ÑĢÐ°Ð»
ĠÑĩÓı Ð²
ĠÑħ Ð°ÑĢ
ÐµÑĢ Ð¸Ð»
ĠÐ¶Ð°Ð¼ Ð°Ð³ÓıÐ°ÑĤ
Ð½ Ð¸
ĠÐ³Óı ÑĥÑĢ
ĠÐ¶ Ð¸Ð²
ĠÐ¸ Ð¼
ÐºÑĬ Ð¾
ÑĥÐ»ÑĮ ÑĤÑĥÑĢ
Ñĥ Ð´Ðµ
ĠÐ¶ Ð°ÐºÑĬÐ°
ĠÐ³ÑĮÐµÐ´ Ð¸Ð½
Ñħ ÓıÐ°Ð»
ĠÐ±Ð°ÐºÓıÐ°Ð» Ð´Ð°
Ð±Ð°ÑĤÓı Ð¸ÑıÐ»
Ð°Ð» Ð¸Ð¼
ĠÐ¹ Ð¸ÐºÓı
ĠÐ³ÑĮÐµÐ» Ð´Ð°
ĠÐ ¤
ĠÑħ Ð°Ð±
Ð¸Ñģ Ð°Ð»
ĠÐ± Ð°ÐºÑĬ
ĠÐ´ÑĥÐ½ ÑıÐ»
ÑĢ Ð°Ð»Ð´Ð°
ĠÑĨÐ¾Ð³Ð¸ Ð´
ÑĢÐº ÐµÐ½
Ðµ Ð³
ĠÑĢ Ð¸ÑĤÓı
ĠÑĤÓıÐ°Ð» Ð°Ð±
Ð± Ð°ÑħÑĬ
Ð¸ Ð°Ð»
Ñĥ ÐºÑĬ
ĠÐ³ÑĮ Ð¸ÑĤÓı
Ð´ ÐµÐ»
ĠÐ±Ð°Ð¶ Ð°ÑĢ
ĠÐ³ÑĮ Ð°Ð´
ĠÐ³ÑĮÐµÐ· Ð´Ð°
ĠÐ¼ Ð°Ñģ
1 9
ĠÐ³ÓıÐ°Ð´Ð°Ð¼ Ð°Ð·ÑĥÐ»
ĠÐĵÓıÑĥÐ¼ Ð°ÑĢ
ÑĥÑĢ Ð±
ĠÐºÓı Ð¾Ð´Ð¾
Ð¸ÑĩÓı Ð¾
ĠÑģÐ¾Ð½ Ð°Ð·
ĠÐ³ÑĬÐ¾ÑĢ Ð»ÑĬ
ĠÐ³ÑĮÐ°Ð± ÑĥÐ»Ð°
ĠÐ· Ð°Ð³ÑĮÐ¸ÑĢ
ÑĥÑĢ Ð¼Ð°ÑĤ
ĠÐ¿ÑĢ ÐµÐ´
ĠÐº Ð¾Ð½
ĠÐ´ Ð¾Ð±
ÐĵÑĮ ÐµÐ±
ĠÐ³ÑĮÐµÐ½ Ð¸ÑĢ
ĠÐ´Ð°Ð½Ð´ ÑĩÓıÐ²
ĠÐ² Ð°Ðº
ĠÑħÓıÐ°Ð»ÑĤÓı Ð¸Ð·Ðµ
ĠÐ¥ ÑĥÐ½Ð·Ð°ÑħÑĬ
ĠÐ³ÑĮÐ¾ÑĢÐºÑĮ Ð¾ÑĢ
Ð°ÑħÓı Ð°ÑĢ
ÐµÑĩÓıÐ¾ Ð³Ð¾
ÑĤ ÐµÑĢ
Ð² Ð¾
ĠÐ´ Ð¸Ð½
Ð ŀ
Ġ ÑĥÐ¼
ÑĢ Ð³
Ð»Ð°Ñģ Ñģ
ĠÐ³Óı ÑĥÐ½
ĠÐºÐº Ð°ÑĢÐ°Ð±
ĠÐĵÑĮ Ð°Ð±
ÑĤ Ð¾ÑĢ
ĠÐ¼ Ð°Ð¶
ĠÐ°Ñģ ÐºÓı
Ð¸Ð½ Ð°ÑĢ
ĠÐľ ÑĥÑģ
ÑĥÐ´ ÑĥÐ»
ĠÐ¸Ð½ Ðµ
Ñĥ Ð³Ð¾
Ð· Ð°Ð±Ð°Ð·
Ð°Ð² Ðº
Ð¸Ñı ÑĢ
Ñĥ Ð³ÑĮ
ĠÑħÑĬÐ¸Ð· Ð°Ð½
Ð°Ð´ ÑĥÐ»
ĠÑĢÐ¾ ÐºÑĮ
Ð¾Ð» ÑĮ
ĠÐºÑĬÐ¾ ÐºÑĬ
ĠÐºÐ¸Ð´ Ð°Ð³Ð¾
ĠÐĵÑĮÐµÐ´ Ð¸Ð½Ð³Ð¾
ÑĥÐ» Ð°Ð³Ð¾
ĠÑħÑĮ Ð²
ĠÐ³ÑĮÐµÐ´ Ð¸Ð½Ð³Ð¾
ĠÐĿ Ð¸Ð»ÑĬ
Ð°Ð» Ð´Ð°Ð³Ð¸
ĠÑĥÑĢ Ð³ÑĬ
Ñĥ Ð³Óı
ĠÑĪÐºÐ¾Ð» Ð°Ð»ÑĬÑĥÐ»
ĠÐº Ð»Ð°ÑģÑģ
ĠÐ»ÑĬÐ¸ÐºÓı Ð°Ð»
Ġ 6
Ð°Ð»ÑĬ ÑĥÑħÑĬ
ĠÐľÑĥÑħÓıÐ°Ð¼Ð°Ð´ Ð¾Ð²
Ð°Ñ Ħ
ĠÐ ŀ
ĠÐºÑĬ Ð¸Ð¼Ð°ÑĤ
Ñĩ Ñĩ
ĠÐ°ÑģÐ» Ð¸ÑıÐ±
Ð°ÑıÐ»ÑĬ Ðµ
ĠÐ¼ Ð¾ÑĨÓı
Ð»ÑĬÐ¸ Ð´Ð°Ð»
ĠÐ¥ Ð°Ð´
ĠÐĲÐ»Ð»Ð°Ð³ÑĮ Ð°Ñģ
Ð¸Ð½ Ð³Ð¸
ĠÐºÑĬ Ð°Ð½
Ġ 8
Ð Ń
ĠÐ¾ÑĤ Ð´ÐµÐ»
ĠÐ¸ Ñħ
ĠÑĩ Ð°Ð½Ð³Ð¾
Ð» ÐµÐ½
ĠÐ¼ Ðµ
ĠÐĵÑĮ Ð°Ð½
ĠÑĢÐ¾ Ñħ
Ġ 7
Ð°Ð½ Ð¸Ð»Ð°
Ð¸ Ð³ÓıÐ°Ð½
ĠÐ² Ð°ÑĨ
Ð¸Ð·Ðµ Ð³Ð¸
Ð³ÓıÐ°Ð» Ð¸Ð¼
ÑĥÑħ ÑĮ
ĠÑī Ð°Ð¹
Ð ĸ
ĠÐ½ÑĥÐ¶ Ðµ
Ð¸ÑıÐ» Ð´Ð°ÑģÐ°
ĠÐ¼Ð°Ð³ÓıÐ¸ÑĪ Ð°ÑĤ
Ð°Ð´ Ð°Ð½
ĠÐ³ÑĮÐµÐ· Ð¸Ðµ
Ð°ÑĢ Ð°Ð·ÑĥÐ»
ĠÐ± Ð°Ñħ
Ð°Ð»ÑĬÑĥÐ» Ð°Ð±
ÑĥÑĢ Ñģ
ĠÐ½ÑĥÑħÐ¼Ð°Ð»ÑĬÑĥÐ» ÐµÐ²
ĠÐ³ÑĮÐ°Ð½ Ð¶Ðµ
Ð°ÑĢ Ð°Ð¹
ĠÐ¼ ÑĥÑģÑĤ
.. .
ÐµÐ¿ ÑĥÑĤ
Ð°ÑħÓı Ð¸ÐºÑĬ
ĠÐºÓı Ð²
Ð³ ÓĢ
ĠÐ¹ Ð¸Ð³Ð¾
ĠÐ°Ð±ÑĥÐ½ Ð¸
ĠÑĨÓıÐ¸ÐºÓıÐºÓı ÑĥÐ½
Ð°Ðº Ðº
Ð°Ð» Ð°Ð»Ð´Ð°
ĠÑħÓı Ð°ÑĢÐ°ÐºÐ°ÑĤ
ĠÐ³ÓıÐ°Ð´Ð°Ð¼ Ð°Ð·
ĠÐĵÓıÐ°Ð± Ð´
ĠÑĥÐ¼ ÑĥÐ¼
ĠÑĥÐ» Ðº
Ð°Ð¹ Ð´
ĠÐł Ð°ÑģÑĥÐ»
ĠÐ¼Ð°Ñħ Ñī
ĠÐ±Ñĥ ÐºÓĢ
Ð³ ÑĥÑĤÓı
ÑĥÐ´ Ð¸Ð½
Ð°ÑĨ Ð°
Ð¿ ÐµÑĢ
ĠÐ¼ÐµÑħ Ð°Ð»Ð´Ð°
ĠÐ±ÑĥÐºÓıÐ¸Ð½ ÑĩÓıÐ¾
ÑĢ Ð°Ð»ÑĬ
ĠÐľÐ°ÑħÓıÐ°Ñĩ ÑħÑĬÐ°Ð»
Ð°Ð´ Ð¸
Ðº Ð²
ĠÐ¼ÑĥÑģÑĤ Ð°ÑħÓıÐ¸ÐºÑĬ
ĠÐºÐ²Ðµ ÑĪ
Ñı Ð²
ĠÑĩÐ°Ð³Óı Ð¸
ĠÑĨÓı Ð¸ÑıÐ±
Ð £
Ñģ Ð°Ð³ÓıÐ°ÑĤ
Ð°Ð» Ð¸Ð»
ĠÐºÑĬ Ð°ÑĩÓı
ĠÐ³ÑĮÐ°ÑĢ ÑĥÐ½
ĠÐ»ÑĬ Ð°Ð»Ð°
ĠÐ³ÑĬÑĥÑĢ ÑĥÑī
ĠÑģÐ²ÐµÑĢ ÑĥÑħÑĬ
ĠÑīÐ¸Ð± Ð°Ð±
ĠÑħÑĬÐ² Ð°Ð½
ĠÐ´ ÑĥÑĢ
ĠÐ´ ÐµÐ¿ÑĥÑĤ
ĠÐ¼Ñĥ Ð³ÓıÐ°Ð»Ð¸Ð¼
ĠÐ³ÓıÐ°Ð´ Ð°ÑĤ
ĠÐ¥ ÑĬ
ĠÐ³ÓıÐ¾Ð» Ð¾
Ð¸Ð½ Ð´
Ðµ Ñĩ
Ð¾ ÐºÑĮ
Ð³ Ð¸ÑĤ
ÑĥÐ½Ð° Ð°Ð½
Ð°Ñ ī
ĠÐºÑĬÐ²Ð°ÑĢ Ð¸Ð³Óı
ĠÐ»ÑĬ Ð°Ð±
ĠÑī ÑĥÐ½
ÑĢ ÑĤ
ĠÐ¸Ð½Ñģ Ð°Ð½
ĠÐ»ÑĬ ÑĥÐ½
Ġ Ð°Ð·Ð°ÑĢ
Ñĥ ÑĨÐ°
ÑħÑĬ Ð²
ĠÐº ÑĥÐ»ÑĮÑĤÑĥÑĢ
ĠÑĨ ÐµÐ²
ĠÐ¿ÑĢ Ð¾
Ð¸ÑĨ Ð¸Ð½
Ð¸Ð± Ðµ
ĠÑĤÓı Ð¾
ĠÐĶÐ°Ð³ÑĬÐ¸ÑģÑĤÐ°Ð½ Ð°Ð»Ð´Ð°
ÑħÓı Ð°Ð¶
Ð°Ð¹ Ð¾Ð½
Ð± Ð°ÐºÑĬ
ĠÐŁ Ð°ÑĤÓı
Ð°Ð´ Ð°Ð»
ĠÐ°Ð± Ð¸Ð·Ðµ
Ġ 9
Ð· Ð°Ð±Ð°Ð·ÑĥÐ»
ĠÑĨÓı ÐµÑħ
ĠÐºÐºÐ¾Ð» ÐµÐ»
ĠÐºÐ² Ð°Ð½
ĠÐ³ÓıÐ°Ð³ Ð°ÑĢ
Ð°ÑĢ ÐµÐ»
Ð°Ð²Ðº Ð°Ð·
Ð¾ Ð¹
Ð¸ Ð°Ð±Ð¸Ð»ÐµÐ±
Ð°Ð· Ð°Ð½
Ð°ÑĢÐ°Ð» Ð´Ð°ÑģÐ°
ĠÐ°ÑħÓı Ð²Ð°Ð»
ĠÐ½ÑĥÑħ Ð°Ð»ÑĬ
ĠÐĿ Ð¸Ð¶
ĠÐĵ ÓĢ
ĠÑħ Ð¸ÑĢ
ĠÐ± Ð¾ÑĢÑħ
Ð¸Ñģ ÐµÐ±
Ð°Ð± ÑĥÐ»
ĠÐ²Ð°Ðº Ð¸Ð»
ĠÐ±Ð¾ÐºÑĮ ÑĥÐ½
ÐµÐºÑĤ Ð¾ÑĢ
ĠÐº ÑĥÑĨ
ÑģÐ» Ð°Ð¼
Ñĥ Ð·ÑĥÐ»
ĠÑĥÐ½ ÐµÐ±
ĠÐº ÓĢ
ĠÐ½ÑĥÑħÐ¼ Ð°Ð»ÑĬ
ĠÑħÐ°Ñģ Ð°Ð±
ĠÐ±Ð°Ð¹ ÑĢÐ°Ð¼
ĠÐ»ÑĬ Ð°Ð±Ð³Ð¾
ÐĵÑĮ ÐµÐ´
ĠÑĤ ÐµÑĢ
ĠÑĨÐ¾Ð³Ð¸Ð´Ð°Ð» Ð³Ð¸
ĠÐºÐ¾Ð» ÑħÐ¾Ð·
ÐµÑģ Ñģ
ĠÐºÑĬ ÑĥÐ²
ÑĤ Ð°Ð»
ĠÑĨÐµÐ±Ðµ ÑĤÓı
ĠÑĤÓıÐ¾Ð±Ð¸ÑĤÓı Ð°Ð½Ð°
ĠÐ¶Ð°Ð¼ Ð³Óı
Ð¸Ð· Ð¼
ĠÐ¼ Ð¸Ð½
ĠÐº ÓıÐ°Ð»
ĠÑĤÓı ÑĥÑĢ
Ð»ÑĬ Ð¸ÑıÐ»ÑĬ
ĠÐ±Ð°ÑĢÐº Ð°Ð»Ð°
Ð» Ð°Ð½
ĠÐ³ÑĮ ÑĥÐ´ÑĥÐ»
ĠÐĵÑĮ ÐµÐ²
ĠÐ»ÑĬÐ¸Ð¼Ð°Ð» Ð°Ð·ÑĥÐ»
Ġ Ð°Ð»
ĠÐ³ÑĮÐ°ÑĢ ÑĥÐ»ÐµÐ»
ĠÐŁÐ°ÑĤÓı Ð¸Ð¼Ð°ÑĤ
Ð´ Ð¸Ð½
Ðº ÐºÑĥÐ½
ĠÐ± Ð°ÑħÓıÐ°ÑĢ
ĠÑĨÓıÐ°ÐºÑĬ Ð³Ð¾
ĠÐĴ Ð°ÑĤÓıÐ°Ð½
ÐµÑĢ Ð°Ð»
Ñģ Ð°Ð½Ð°
ĠÐ±ÐµÑĢÐ³ÑĮ ÐµÐ½
ĠÑĤÓı Ð¾Ð»
ĠÐºÑĬ Ð°Ð±ÑĥÐ»
ĠÑĩÓı ÐµÐ·Ð°Ð±
Ñģ ÐµÐ´
ĠÐ§ Óı
Ñĥ Ð¹
ĠÑĨÐ¾ ÑĨ
ĠÑģ Ð°Ð¹
ĠÐ±ÑĥÐ³Ð¸Ð» Ð°Ð½
Ðµ Ð¶
ĠÐľ ÑĥÑħÓı
ĠÐ²ÑĥÐºÓı Ð°ÑĢÐ°Ð²
ĠÐ¸Ð¼ Ð°Ð¼
ĠÐ² Ð°ÑĤ
ĠÐ³ÑĮÐµ Ð»ÑĬÐ¸Ðµ
Ð°ÑĨ Ð¸Ñı
ĠÑĤÓı Ð°Ð³Óı
ĠÐ´Ð°Ð³ÑĮ Ð°Ð±
ĠÐ ¯
ĠÑĤÓı Ð°ÑģÐ°
ĠÐ³ÓıÐ°ÑĢ ÑĨ
Ð¸ Ð»ÑĬÐ¸
ÑģÐµÐ´ Ð°ÑĤ
ĠÐ¥ Ð°Ñģ
ĠÐ»ÑĬÑĥÐ³ÑĮ Ð°Ð½Ð°
ĠÑħÐ°Ð± Ð°ÑĢ
ĠÐĶ ÑĥÐ½
ÐµÑĤ ÐµÑĢ
Ð¸Ñģ Ñģ
ĠÑĢÐ¾Ñģ Ð°Ð±
ÑĥÐ´ Ð¸ÑıÐ±
ĠÐºÑĬÐ¾ ÑıÐ·
ĠÑĤ ÐµÐ»
ĠÐ³ÑĮÐµÑģ Ð´Ð°
Ð» Ð¸Ð¼
Ð ¨
ĠÐ»ÑĬÐ¸Ð¼ ÐµÑĢ
ĠÐĵÑĮ ÐµÐ»ÑĬÑĥÐ»
Ð´Ð°Ñģ Ð°Ð³Ð¸
ÐµÐ» Ð³Ð¸
ĠÑīÐ² ÐµÐ·ÐµÐ³ÓıÐ°Ð½
ĠÑĥÑĩ Ð¸ÑĤÐµÐ»ÑĮ
ĠÐ±ÐµÑĢ ÑĨ
Ġ20 1
ĠÐº Ð°Ðº
ĠÐ³Óı Ð°ÐºÑĬ
ĠÐ·Ð°Ð¼ ÐµÑģÑĤ
ĠÑĤ Ð¾Ñħ
Ð¸ÑĨ Óı
ĠÐ³ÑĮÐµÑģ Ð¸Ðµ
ĠÐ°Ð´ Ð°Ð±
ĠÐ´ÐµÐ¿ÑĥÑĤ Ð°ÑĤ
ĠÐ±Ð¸ÑīÑĥÐ½ Ð³Ð¾
ĠÐºÐ¾Ð¼ Ð°Ð½Ð´
ĠÐ°Ñģ Ð°ÑĢ
ĠÑĢ Ð¸Ñī
ĠÑĢÑĥ ÑĩÑĩ
ĠÐ³ÓıÑĥÑĢ ÑĥÑģ
Ðµ ÑıÐ½
ĠÐ¼Ð°Ð¶ Ð³Ð¸ÑĤ
ĠÐ±ÑĥÐºÓı ÑĥÐ½Ð°
ĠÑĢÐ°Ð³Óı Ð¸
ĠÑĩÓı ÑĥÐ½
ĠÐºÑĮ ÐµÑıÐ»ÑĬÑĥÐ»
Ġ Ð°ÑĢ
Ð°Ð¹ Ð³Ð¸
ĠÐ¿ÑĢÐµÐ´ ÑģÐµÐ´Ð°ÑĤ
Ð¸Ðº Ð¸ÑıÐ±
ĠÑĤÓıÐ°Ð´Ðµ Ð³ÓıÐ°Ð½
Ð°Ð½ Ð³Ð¸
Ð°ÑıÐ» Ð´Ð°ÑģÐ°
ÐµÐ½ÑĤ ÑĢ
ĠÑī Ð¸Ð²
ĠÐ³ÑĮÐ¾ÑĢÐºÑĮ Ð¾ÑħÑĬ
ĠÐ¼Ð°ÑĨ ÓıÐ°Ð»
ĠÐ¥ Ð°Ð»
Ð¸ Ð°Ð»Ð¸ÑıÐ±
ĠÐ³ÓıÐ°Ð´Ð°Ð¼ Ð°Ð·Ðµ
ĠÐ±Ð¸ÑĨ ÑĥÐ½
ĠÑĢÑĥÐºÓı ÑĥÐ½
ĠÐ³ÑĮÐ°ÑĢ ÑĥÐ½Ð°
ĠÐ³ÑĮÐµÐ´ Ð¸Ð½Ð°Ð±
ĠÐ ®
ĠÑħÑĥÑĢ Ñħ
Ð¸Ð·Ð°Ð± Ð¸Ð·Ðµ
ĠÑħÓıÑĥÐº ÑĥÐ¼
ĠÐ¸Ñħ ÑĤ
Ð»ÑĬ Ð¸Ð·Ðµ
ĠÑģ ÑĥÑĢ
ĠÐĵÑĮÐµÐ½ Ð¸Ð±
Ð´ ÐµÑĢÐ¸Ð»
ĠÐº Ð°Ð¼
ĠÐ±Ð¸ÑĨ ÑĥÐ½ÐµÐ±
ĠÐº Ð°Ð³ÑĬ
ĠÐ²ÑĥÐ³ ÐµÐ²
ĠÐ³ÑĮÐµ Ð¹
Ġ Ð°ÑĢÐ°Ð±
Ð¾Ð± Ðµ
ĠÐ²ÑĥÐºÓı Ð¸Ð½
Ð¸ÑıÑģ ÑĥÐ»
ĠÐ³Óı Ð°Ð»Ð¸Ð¼
Ð¸Ð² Ðµ
Ð· Ð°Ð»
ĠÐĲ Ð½
ÐĽ ÑĬ
Ð°ÑĢ Ð¸Ð½
Ð¢ Óı
Ð°Ð¹ Ð¸Ð±
ĠÐ³ÓıÐ°ÑħÑĮÐ°Ð» Ð»ÑĬÐ¸
ĠÐ³ÓıÐµÐ¼ÐµÑĢ Ð°Ð±
Ð°ÑĨÓıÑĨÓı Ð°Ð´
ĠÐĲ Ñħ
ĠÑħÑĥÑĢ ÑħÑĥÐ½
Ð¾Ñģ Ð°
Ðº Ð°ÑĢ
ĠÐ³ÑĥÑĢ Ð¾
Ð¾ Ð»ÑĬ
ĠÐ±Ñĥ ÑħÑĮ
Ð» Ð¸
ĠÑĢ ÑĥÑħÓı
ĠÐ»ÑĬÑĥÐ³ÑĮ ÑĥÐ½
Ð¾Ð» ÐµÐ»
Ð°ÑĤ Ð°Ð»Ð´Ð°
ĠÐ³ÑĮÐ°Ð± ÑĥÐ»ÐµÐ»
ĠÐĲ Ð²Ð°ÑĢ
ĠÑĢÑĥÐºÓı Ð¸Ð½Ðµ
ĠÐ¼Ð°ÑĪ Ð³ÑĮ
ĠÐ½Ð¸Ð»ÑĬÐµ Ð´Ð°
ĠÐ ķ
ĠÐļ Ð°Ð²ÐºÐ°Ð·
ĠÑħÓıÑĥÐº Ð¼Ñĥ
ĠÐ³Óı Ð¸Ð»Ð»
Ð³ÑĮ Ð°Ð½
ĠÐ³ÑĮÐ°Ð± Ð¸
ĠÑģ Ð°Ð½
2 0
ĠÐ³ÑĮÐ°ÑĢ ÑĥÑĢÐ°Ð»
Ð± Ð°Ð»
Ð¾Ð» Ð¾Ð³
ĠÐĵÑĮÐµÑģ ÑĥÐ»
ĠÐºÑĬ ÐµÑĨ
Ð¾Ð»ÑĮ Ð½
ĠÐ´Ð¸ÑĢ ÐµÐºÑĤÐ¾ÑĢ
ĠÑ İ
ĠÐ±Ð¾ Ð¶
ĠÑīÐ² ÐµÐ·Ðµ
ĠÐĵÑĮ ÐµÐ·ÑĥÐ»
ĠÑĩ ÑĥÑĢ
ĠÑĨÐµÐ² Ðµ
Ð°Ð¼ Ð°Ð·Ð°Ð½
ĠÑĢÑĥÐ³ Ð¸Ð½
ĠÑĪÐºÐ¾Ð» Ð°
ĠÐ°Ð½ ÑĨÓı
Ð°Ðº Ð°ÑĢ
ĠÐ¼Ð°Ñģ ÑĬ
ĠÐ³Óı ÐµÐ·ÐµÐ³ÓıÐ°Ð½
ĠÑģÐ°Ñħ Ð»ÑĬÐ¸
ĠÐ´ Ð¾Ðº
ÐµÑĢ Ð±
ÑĥÑĢÐ½ Ð°Ð»
Ð°Ñģ ÑĤ
ÐµÐ» Ð°
Ð°Ð½ Ð´Ðµ
ÑĥÐ½ Ð°ÑĢ
Ð¾ÑĢ Ð¼
Ð°Ð» Ð¸ÑħÓı
ĠÐ³ÓıÐ°Ð´ Ð°Ð½
Ð´Ðµ Ð½
Ð°Ñģ ÐµÐ±
ĠÐ°Ð·Ð°ÑĢ Ð³Ð¾
Ð°ÐµÐ² Ð°Ñģ
ĠÐ±Ð°Ð¹Ð±Ð¸ÑħÑĮ Ð°Ð½Ð°
Ð°ÑĨ Ð¸ÑıÐ»ÑĬÑĥÐ»
ĠÑħÑĮÐ² Ð°Ð´
ĠÐ© Ð¸Ð±
ĠÑĤÐ°ÑĢ Ð±
Ð°Ñı Ð±
ĠÐ±ÑĥÐ³ ÐµÐ²
ĠÐ¼ Ð°ÐºÑĬ
Ð¸Ð± Ð¸ÑĢ
ĠÑĢÐ¾Ñģ Ð°Ð±Ð°Ð·ÑĥÐ»
ĠÐ±Ðµ Ñĩ
ĠÑį ÑĢÐºÐµÐ½
ĠÐ»ÑĬÐ°Ð» ÐµÐ±
Ġ1 0
Ġ2 00
Ð¸Ð´Ðµ Ð½ÑĤ
ĠÐºÓı Ð¾Ñĩ
ĠÐ¸ÑħÑĤ Ð¸ÑıÑĢ
Ð¾Ð½ Ð¾Ð¼
Ð¸ÑĤ ÐµÑĤ
Ð°Ð» ÐµÐ»
ĠÐ³ÑĮÐ¾ÑĢÐºÑĮÐ¾ÑħÑĬ ÐµÐ±
Ñĩ ÓĢ
Ð³Óı Ð°Ð³Ð¸
ĠÐ¼ÑĥÑħÑĬ Ð°Ð»ÑĬÑĥÐ»
ĠÑį Ð¼ÐµÐ½
ĠÐ¼ Ð¸ÑģÐ°Ð»
ĠÐĲ ÑĢ
Ð°Ð»ÑĬ Ð³Ð¸
ĠÐ°Ð´Ð¼Ð¸Ð½Ð¸ÑģÑĤÑĢÐ°ÑĨ Ð¸ÑıÐ»ÑĬÑĥÐ»
ĠÐºÑĮÐ¾Ð» Ð°
ĠÐ¿ Ð°ÑĢ
ĠÐ´Ð°ÑĢ Ð°Ð¶
ÐµÐ· Ð¸Ð´ÐµÐ½ÑĤ
Ðµ Ð´Ð°
Ð´ Ð¾
Ð°ÑĢ Ð°Ð·Ðµ
ĠÑħÓı ÑĥÑĢÐ¼Ð°ÑĤ
Ñĥ Ðµ
ĠÐ¡ Ð¾Ð²ÐµÑĤ
ÑĥÐ» ÐµÐ¹
ÐµÐ¼ Ð¿
Ð¾ÑĢ Ðµ
ÑĢ Ð°Ð²
ĠÐ± Ð°ÑĢÐ°Ð±
ĠÐ· Ð°Ðº
ĠÐ¥ÓıÐ°Ð¶ Ð¸Ð¼
Ð°Ð½ ÑĨÓı
ĠÐ±Ð¾Ñģ Ð¸Ð·Ðµ
ĠÑģ Ð¾ÑĨ
ĠÐ¾ Ð±
Ð¸Ð·Ð°Ð± ÑĥÐ½
ĠÐ·Ð°Ð¼ÐµÑģÑĤ Ð¸ÑĤÐµÐ»ÑĮ
ÑĥÑĢ Ð¼
ĠÐ¸ ÑĢÐ³
Ð°Ð± Ð¸Ð»
ĠÐĺ Ð½
ĠÐ± Ð¸Ð³ÑĮ
ĠÐ½Ð¸Ð¶Ðµ ÑĨÐ°
Ð¸Ð¼ Ð°Ð»
ĠÑĤÐµÑĢ ÑĢ
Ð¹ Ð³Ð¸
ĠÑĨÓıÐ¸ÐºÓıÐºÓı Ð°ÑĢÐ°Ð±
ĠÑĢÐ°Ð³ÑĬÑĥÐ» Ð°Ð±
Ð¸Ð»ÑĬ ÑĥÐ½
Ð°Ð½ Ð°Ð»Ð´Ð°
ĠÑīÐ² Ð°ÑĢÐ°Ð±
ĠÐ±Ñĥ Ñģ
Ð°Ð³ÑĮ Ð°Ð»
ĠÑĤÐ¾Ñħ ÑĤÑĥÑĢ
Ð¾ Ð¶
Ñģ ÑĥÐ»
ĠÑĢÐ¾ÑģÑĥÐ»ÑĬ Ð°
Ðµ Ðµ
ÑĥÐ³ÑĬ ÑĢÐ°Ð»ÑĬ
ĠÐ±ÑĥÐ³Ð¸Ð» Ð°
ĠÑĪÐºÐ¾Ð» Ð°Ð»Ð´Ð°
Ð¸Ð· Ð°Ð¼
Ñİ ÑĢÑĤ
ĠÐ³Óı Ð°Ð¹Ð¸Ð±
ĠÑĩÓı Ð°ÑħÓı
ĠÐ³ÑĮÐµÐ´ Ð¸Ð½Ð°Ð»
Ð¾Ð² Ðµ
ĠÑĩ ÓĢ
ÑĢ ÐµÑħ
ĠÐ³ÑĮÐµÑĩÓı ÐµÐ»
ĠÑĢÐ¾ÑģÑĥÐ»ÑĬ Ðµ
ĠÑĤÓıÐ¾ ÐºÓı
ĠÑħÓı ÑĥÐ¶
Ġ1 8
Ð°Ð· Ð³Ð¸
Ð¾Ð» Ð°ÑĢÐ¾
ĠÑĤÐ°ÑĢÐ± Ð¸Ñı
Ð¾Ð² Ð¸Ñĩ
ĠÑĢ Ð°Ð³ÓıÐ°Ð»
ĠÐ³Óı Ð¾ÑĢ
ĠÐ±Ð°ÑĩÓı ÑĥÐ½ÐµÐ±
ĠÐ¸Ð´ Ð°ÑĢÐ°Ð±
ĠÑģ ÑĥÐ½
Ð ¤
ĠÐ± Ð°Ð³ÑĮ
ĠÐĵÑĮ ÐµÐ»ÑĬ
Ġ Ð°Ðº
. )
ÑħÓı Ð¾
Ð°Ð¸ Ð±
ĠÐ¿Ð¾Ð» Ð¸ÑĤ
ĠÐ¶ Ð¸Ð±
Ð¸ÑıÑĤ Ð°Ð»ÑĬÑĥÐ»
ÑģÑĤ Ð²Ð¾
ĠÐ³ÑĮ Ð¸ÐºÑĬ
ĠÐ±Ð°ÑħÑĬ ÑĥÐ½
ĠÑģ Ð°Ð³ÓıÐ°ÑĤ
Ð°Ð´ Ð¸ÑĢ
ĠÐ±ÑĥÐ³Ð¾ Ð½Ð¸Ð³Ð¸
Ð¸Ð» Ð¸Ð½
ÐĿ Ð¸Ð»ÑĬ
ĠÐ¶ Ð¸Ð³
ĠÑĨÓıÑĥÐ½ Ð¸Ð·Ðµ
ĠÑĨ ÐµÐ±
Ð¾Ð»ÑĮÐ½ Ð¸ÑĨ
ĠÐ± Ð°Ð·Ðµ
Ð°ÑĤ ÓĢ
Ð¾Ñģ ÐºÐ²
Ð°Ðº ÓĢ
ĠÑĨÓıÐ°Ð» Ð¸Ð·Ðµ
ĠÐºÑĮ ÑĥÑĢ
ĠÐºÑĮ ÑĥÑĢÐ°Ð±
ĠÐºÓı Ð¸Ð°Ð±Ð¸Ð»ÐµÐ±
Ð»ÑĬÑĥÐ½ Ð³Ð¸
ÐµÐ¼Ð¿ Ð¸Ð¾Ð½
Ð¸Ðº ÓĢ
ĠÐ³ÑĮÐµÑĩÓı Ð¸Ð½
ĠÐĶ Ð¸ÑĢ
Ðł Ð¾Ñģ
ĠÑħÐ°Ð´ ÑĥÑĢ
Ð°ÑĤ ÑĥÑĢ
Ð°Ð¼ Ð¼
ĠÑĢÐ¸ÑħÑĮ Ð¸Ð·Ð°ÑĢ
Ð Ĺ
ĠÑī ÑĥÐ»
ĠÐ²ÑĥÐºÓı ÑĥÐ½
ĠÐ±Ñĥ ÑģÑģ
Ð°ÑħÑĬ Ðµ
Ðµ ÑĨÐ°
ĠÐ³ÓıÑĥÐ¼ÑĢÑĥ ÑıÐ»ÑĬÑĥÐ»
ĠÐ»ÑĬÑĥÐ³ÑĮ Ð°
Ð¼ Ð°Ð³ÑĬ
ĠÐĸ Ð°ÐºÑĬÐ°
Ð¾ Ñį
ÑĨ ÑĨ
ÑĨÐ¾ ÑıÐ·
ĠÐ°Ð½ ÐºÑĮ
Ð°Ð» Ð´Ð°Ð»ÑĬÑĥÐ½
Ð¸Ðº Ð°ÑıÐ»ÑĬÑĥÐ»
ĠÐ¿ÑĢÐµÐ´ÑģÐµÐ´Ð°ÑĤ ÐµÐ»ÑĮ
Ð°Ð» Ð°ÑĤ
Ð°Ð½ Ð°Ð±
ĠÐĵÓıÐ°Ð±Ð´ ÑĥÑĢ
ĠÑĢÐµ Ð´
Ð¸ÑħÑĬ Ðµ
ĠÐ¿ Ð°Ð¹
ĠÐ¼Ð°ÑħÑī ÐµÐ»
Ðµ ÑıÐ»ÑĬÐµ
ĠÐ¼ Ð°Ð´
Ð°Ð±Ð¸ Ð³Óı
Ð°Ð³ ÑĥÐ½
ĠÐĵÓıÐ°Ð» Ð¸ÐµÐ²
ĠÐ¼ ÐµÐ´
ĠÐ·Ð°ÑħÓı Ð¼
Ġ Ð°Ð¹
ÑĢ ÑĥÐ»
ĠÐĶ Ð¸ÑĨÐ°
ÑĥÑĤ Ð°Ðº
ĠÐ½Ð¸Ð»ÑĬÐµ ÑĨÐ°
ĠÑħÓıÐ¸ÑģÐ°Ð± Ð°Ð»Ð´Ð°
ĠÑģ Ð°Ð±
ĠÑģÑĥÐ°Ð» Ð°Ð»
Ð± ÑĢ
ĠÑĢÑĥ Ð³Ð¸Ð»
ĠÑĢÐµ ÑĤÓı
ÑıÐ± ÑĢÐ°Ð»Ð´Ð°
ĠÐĵÑĮÐµÐ» Ð´Ð°
ĠÐł Ð°Ð¼Ð°Ð·Ð°Ð½
ĠÑĩ ÐµÐ¼Ð¿Ð¸Ð¾Ð½
Ð°Ð³Óı Ð¸ÑĢ
ĠÐº ÑĥÑĩÓı
ĠÐ¶ ÑĥÑĢÐ½Ð°Ð»
ĠÐ´Ñĥ ÑĨÐ°
Ñĥ ÐºÓı
ĠÐ½ÑĥÑħ Ð´Ð°
ĠÑĢ Ð¸ÑĩÑĩ
Ð°Ð½ Ð¾Ð²
ĠÐĵÑĬ Ð°Ð·
Ðµ ÑıÐ»Ð´Ð°
ÐµÑģ ÐµÐ»
ĠÐ³Óı Ð°Ð¼Ð°Ð»
ĠÐ³ÓıÐ°ÑħÑĮÐ°Ð» Ð»ÑĬÐ°Ð½Ð°
ĠÑħÐ°Ñģ Ð°Ð»
Ð°Ð¹Ð¾Ð½ Ð°Ð»ÑĬÑĥÐ»
ĠÐ± Ð°Ñī
ĠÑħÑĬÐ² Ð°Ð¹
ĠÑĢÐ¾ÑģÐ°Ð± Ð°Ð»ÑĬ
Ð°ÑĤ Ð³Ð¸
ÑĤ Ð¸Ð½
Ð¸Ñģ Ð°Ð½
ĠÐ¼Ñĥ Ð³Óı
Ðº ÑĤ
ĠÐ¿ Ð°ÑĢÑĤ
Ð §
ĠÑĤ ÑĥÑĢ
ĠÐ±Ð¸ÑħÑĮ ÑĥÐ»ÐµÐ±
ÑĥÐ½ Ð³Ð¾
Ðļ ÑĬ
Ð¸Ñı Ð½
ÐµÑĤ ÑĢ
ĠÐº Ð¾Ð´
Ð¾ÑĢ ÑĩÓı
ĠÐ±ÐµÐ³ÑĮ ÑĥÐ»
Ð¸ÑĨÓı Ð³Ð¾
ĠÑĢ Ð°Ñħ
Ð¸Ð» Ð°Ð±
ĠÐ³ÑĮÐ°Ð± Ð¸ÑıÐ»ÑĬÑĥÐ»
ĠÐľ Ð¾ÑģÐºÐ²
Ð¾ Ð´Ð°
ĠÐĲ Ð³ÑĬ
Ñī Ð¸Ð½Ð°Ð±
Ð°Ñģ ÑĢÑĥ
ĠÐ±Ñĥ ÑħÓı
Ð± Ð°Ñģ
Ð°Ð»ÑĬÑĥÐ» Ð³Ð¸
Ð»ÑĬ Ð°Ð±Ð¸
Ġ1 5
ÑĨ Ð°Ð³Ð¾
ĠÑĢÐµÐ´ Ð°Ðº
Ð¾Ð³ ÑĢÐ°Ð¼
ÑĢÐ¾ Ð¿
ĠÑĥÐ½ ÐµÐ»
ĠÐ³Óı Ð°ÑĤÓı
Ð¸Ð² Ð¸ÑıÐ±
ĠÐ´Ð°ÑĢ Ñģ
ĠÑħÓıÐ°Ð»ÑĤÓı ÑĥÐ»ÐµÐ»
Ñģ Ð¸ÑĢ
Ð¸Ð» Ð°ÑĢÐ¾
ÑĨ Ð¸Ñı
ÐºÑĮ ÐµÑıÐ»ÑĬÑĥÐ»
ĠÐ±Ð¾ ÑĨÓı
ĠÐ°Ð± ÑĥÐ»Ð°
ĠÑĩÓı Ð²Ð°Ð½
Ð²Ð°ÑĢ Ð¸
ĠÐºÑĥÐ»ÑĮÑĤÑĥÑĢ Ð°ÑıÐ»ÑĬÑĥÐ»
ĠÐ© Ð°Ð¹
ÐĵÑĮ ÐµÐ»
ĠÐĵÑĮÐµÐ´Ð¸Ð½ Ð»ÑĬÐ¸Ð´Ð°Ð»
ÑĥÐ½ Ð¸Ð±
Ð» ÑĮ
ĠÑı Ñĩ
ĠÐºÐº Ð²
ĠÐ»ÑĬ Ð°Ð·Ðµ
Ð°Ð·ÑĥÐ» ÑĬ
ÑĢ Ð°ÑħÑĬ
ĠÐ³ ÑĥÐ³
ĠÑģÐ°Ð¹ Ð³ÑĬ
Ð¸Ð½Ð°Ð± Ð¸Ð·Ðµ
ĠÑħÐ°ÑĢ Ð¶
ĠÐ¸Ð½ ÑĦ
ĠÐ¼Ð°ÑĨ ÓĢ
ĠÐĺ Ñģ
Ð¸Ð½Ð¸ÑģÑĤ ÐµÑĢ
Ð³ÑĮ Ð°Ð±
ĠÑħÐ°Ð»ÐºÑĬ Ð°Ð»ÑĬÑĥÐ»
Ð°Ð±Ð°Ð· Ð´Ðµ
ĠÐºÐºÐ¾Ð» Ð¸Ð½
ĠÐĵÑĮÐ°Ð½ Ð¶Ðµ
Ðµ Ð³Óı
Ð± Ð¸
ĠÐ± Ð¸Ñĩ
ĠÐ³ÑĮÐ¸ÑĤÓı Ð¸Ð½Ð°Ð±
Ð°Ð½ Ð°Ð»ÑĬÑĥÐ»
ĠÑĢ Ð°ÑħÑĮ
ĠÐ³ÑĮÐ°Ð½ Ð¸Ð±
Ð¸Ð½ ÑĩÓı
Ð¸ÑıÐ· Ð´Ð°
ĠÑħÓıÐ¸Ð½ÐºÑĬ Ð¸
ĠÐ¼ Ð°Ð»ÑĬ
ĠÐ· Ð°ÑĢÐ°Ð»
ĠÑħÑĮ Ð¸ÑħÑĮ
ĠÑħÓıÐ°Ð¶ Ð°ÑĤ
ĠÐ½ Ð°Ñģ
ĠÑħÐ°Ñģ Ð³Ð¾
ĠÐ±Ð°ÐºÓıÐ°Ð» Ð´Ðµ
ĠÑĤÓı ÐµÑħÑĮ
ĠÑĨÐ¾ Ð¹Ð³Ð¸
ĠÑħÐ°Ð´ ÑĥÑģ
ĠÐ¶Ð¸Ð² Ð³Ð¾
Ðµ Ð´Ðµ
Ðµ Ð´Ð°Ð»
ĠÐº ÑĥÑĤÐ°Ðº
ĠÑĤ Ð°Ð»Ð¸ÑħÓı
ĠÐĿÐ¸Ð»ÑĬ ÐµÑĢ
ÑģÑĤ Ð¸ÑĤ
ĠÐ³ÓıÐ°ÑĢÑĨ ÑĥÐ»
ĠÑĤ ÐµÐ·Ðµ
ĠÐ³ÑĮÐµ ÐºÑĬ
ĠÐļ Ð¸Ð½
ĠÐ½Ð¸Ð»ÑĬÐµ Ðµ
Ð°Ð³ÑĮ Ð°Ð±
Ð°Ð¹ Ð¿
ĠÐ³ÓıÐ°Ð³ Ð°ÑĢÐ°Ð±
ÑĥÑĢ ÑĤ
ĠÑĪ Ð°Ð³ÓıÐ¸ÑĢ
Ðļ Óı
ĠÐ± Ð¸Ð¶
Ð°Ð¹ Ð±
ĠÑħ ÐµÑĢ
ĠÑĢÐ°ÑĩÓı Ð°ÑĢÐ°Ð»
Ð°Ðº Ð¸Ð¼
ĠÑģÐ¾Ð½ Ð°Ð·Ð´Ð°
Ð´ Ð°Ð¹
ÐµÐ· Ð´Ð°
ĠÐļÑĬ ÑĥÑĢ
ĠÐ±Ð°ÐºÓı Ð°ÑĢ
ĠÐĵÓı ÐµÐ¼ÐµÑĢ
ÑĥÐ¼ ÐµÐ½ÑĤ
ĠÑı ÑĢ
Ð± Ð¾Ð»
ĠÑħÓıÐ°Ð»ÑĤÓıÑĥÑħÑĬ Ð°Ð±Ð¸
ĠÐºÐº Ð°Ð½Ð¸
ĠÐ·Ð°ÑħÓıÐ¼Ð°ÑĤ Ð°Ð±
Ð°Ñ İ
ĠÑĪÐ°Ð³ÑĮÐ°ÑĢ Ð°Ð»ÑĬÑĥÐ»
Ð¸Ð½ Ð°Ð»ÑĬÑĥÐ»
ĠÐ±ÑĥÐºÓı Ð°Ð½Ð¸Ð³Ð¸
ĠÐ³ÑĮ ÑĥÐ½Ð°ÑĢ
ĠÐľÑĥÑħÓıÐ°Ð¼Ð°Ð´ Ð¸Ð»
ĠÐ¶Ð¸Ð½Ð´ Ð¸Ðµ
ĠÑĪÐ°Ð³ÑĮÐ°ÑĢ Ð°Ð»Ð´Ð°
ĠÐ¼Ð°Ð³ÓıÐ¸ÑĪ Ð°ÑĤÐ°Ð»ÑĬÑĥÐ»
Ð°ÑĢ Ð°Ð»Ð´Ð°
ĠÑħ Ð°Ð½
ĠÐ¿ÑĢ ÐµÐ·Ð¸Ð´ÐµÐ½ÑĤ
Ð»ÑĬ Ð°ÑĢÐ°Ð»
ĠÐ¸ÑĪ Ð°Ð»
Ð» ÐµÐºÑĤ
ĠÐĲ Ñģ
ĠÑĢÐ¾Ñģ Ð´
ĠÐ»ÑĬÐ°Ð» Ð°ÑĢÐ¾
Ð°Ð· Ð´Ð°Ð³Ð¸
ĠÑĤ Ð°Ð¼
ĠÐ³ÓıÐ°Ð´Ð°Ð¼ Ð°Ð·Ð´Ð°
ĠÐºÐº Ð°ÑĢÐ°Ð»
Ð¿ ÑĢ
Ð¾Ð± ÑĢÐ°Ð½
ĠÑĩÓı ÑĥÐ¶
ĠÑħ ÐµÑħ
ĠÐ¥ ÓıÐ°Ð»
ĠÑĨÐ¾ ÑıÐ±
Ð°ÑĢ Ð¸
ĠÐ»ÑĬÐ¸Ð¼Ð°Ð» Ð°Ð·Ðµ
Ð°Ð» Ð³ÑĥÐ½
Ð°Ð»ÑĬ Ð³Ð¾
ĠÐĵÑĮ Ðµ
ĠÐº Ð¸Ð³ÓıÐ°Ð½
Ð¸Ð½ ÑĩÓıÐ¾
Ð¸ÑĨ Ð°Ð³Ð¸
ĠÐ³Ð°Ð·ÐµÑĤ Ð°Ð»ÑĬÑĥÐ»
Ñı Ð·ÑĥÐ»
ĠÐ±ÐµÑĢ ÑĨÐ¸Ð½
Ð°ÑĤÓı Ð¸Ð¿
ĠÐ³ Ð°ÑĢÐ°
Ð°Ð· ÑĥÑħÑĬ
ĠÐ· Ð°Ð²
ĠÐ½ÑĥÐ¶ ÐµÑĢ
ĠÐ¸Ð½ ÑĤÐµÑĢ
Ð» Ð°
ÑĥÐ½ Ð³Ð¸
ĠÐ¿Ð°Ð¹ Ð´Ð°
ĠÐĳ ÐµÑĢ
ĠÐ°Ð² ÑĤ
ĠÑĢÐ°ÐºÓıÐ°Ð» Ð´Ð°
Ðµ ÐºÓı
ĠÑĨÓıÐ°Ð» ÑĥÐ»
ĠÐº Ð¾
ĠÐ±Ð¸ÑĨ Ð¸Ð½Ðµ
Ð² Ð°Ð³ÑĮ
Ñĩ Ð¸Ð»ÑĬ
ĠÐ±Ð°ÑĤÓı Ð¸ÑıÐ±
ĠÐ¶ Ð°ÐºÑĬ
Ð¾Ð² Ð°Ð»ÑĬ
ĠÑĤÓı Ð°Ð±Ð¸Ð³Óı
ĠÐ¸ ÑģÐ»Ð°Ð¼
Ðº ÑĥÑĢÑģ
ĠÐ¼ Ð¸Ð½Ð¸ÑģÑĤÐµÑĢ
ĠÐĵÑĮ Ð°Ð»
ĠÐ±ÐµÑĤÓıÐµÑĢ Ð°ÑģÑĥÐ»
ĠÐ¶Ð¸Ð½ Ð´Ð°
Ð»ÑĬ Ð°ÑĢÐ°Ð±
Ñı Ñģ
Ð°Ð³Óı Ð¸Ð»
Ð°ÑĢÐ°Ð» Ð´Ðµ
ÐĵÑĮ Ð°Ð±
ĠÐºÐ¾Ð¼ Ð¸ÑģÑģ
Ð°Ð³ÑĮ Ð¸Ð¼
ĠÐ³ÑĥÑĢÐµÐ± Ð³Ð¸
Ð°Ð» Ð°Ð±Ð¸
ĠÐ½ Ð¾Ð¼
Ð°ÐºÑĬ ÑģÐ¸ÑĢ
ĠÑħÑĬÐ² Ð°ÑĢÐ°Ð±
ĠÐ¥ÓıÐ°Ð¶Ð¸Ð¼ ÑĥÑĢÐ°Ð´
ĠÑĢÑĥ ÑģÑģ
ĠÐº ÐµÑĩÓı
ĠÑĤ ÑĢ
ĠÐ±Ð°ÑħÑĬ Ð°ÑĢÐ°Ð±
ĠÑĢÐ°ÑĩÓı ÑĥÐ½
Ð½ Ñĭ
Ð¦ Ð¾
ĠÑĨ ÐµÐ½ÑĤÑĢ
ÑĢÐ°Ð² Ð»ÐµÐ½
ĠÑħÐ°Ð´ ÑĥÐ²
ÑĮ Ð½Ð¸Ðº
ĠÐºÐ²ÐµÑĢ Ð±Ð°ÐºÑĬ
ĠÑħÓıÐ°Ð»ÑĤÓıÑĥÑħÑĬ Ð°Ð½
Ð»ÑĬ Ð¸ÑıÐ»Ð´Ðµ
ĠÐ± Ð¾Ð»ÑĮÐ½Ð¸ÑĨ
ĠÑĤ Ð¾Ðº
ĠÐ´ Ð°Ð³ÑĬÐ¸ÑģÑĤÐ°Ð½
Ð¸ÑĨ Ð¸ÑıÐ»ÑĬÑĥÐ»
Ð°Ñĩ Ð°Ð½
ĠÑĤÓıÐ°Ð´ÐµÐ³ÓıÐ°Ð½ Ð°Ð±
ĠÑĨÐ¾ ÑħÓıÐ¾
ĠÑĩÓı Ð°Ð³Ð¾
ĠÐ½ÑĥÑħÐ¼ Ð°Ð»ÑĬÐ¸
Ð°Ð· Ð´Ð°ÑģÐ°Ð½
ĠÐ² Ð¸ÑħÑĮ
ĠÐĺ Ð±ÑĢ
Ð¸Ð³Óı Ð¼Ð°ÑĤ
Ð¡ Ð¡
Ð°ÑĤÓı Ð°
ĠÑĤÓıÐ¾Ð±Ð¸ÑĤÓı Ð°ÑĢÐ°Ð±
ĠÐł ÐµÑģ
ÑĥÑĢÐ½ Ð¸ÑĢ
ĠÑĨ Ð¾Ð½Ð¸Ð³Ð¸
Ð°ÐºÑĬ Ð¸ÐºÑĬ
ĠÐ¿ÑĢ Ð¾Ð³ÑĢÐ°Ð¼
ĠÑįÐº Ð¾Ð½Ð¾Ð¼
Ð ©
ĠÐºÑĬ ÐµÑĢ
ĠÐ·Ð°Ðº Ð¾Ð½
ÑĥÑħÓı Ðº
Ð²Ð°ÑĢ Ð°Ð²
ĠÐļÓı ÑĥÐ´Ð¸ÑıÐ±
Ñģ Ð°Ð½
ĠÐ³Óı Ð¸ÑĨÓıÐ³Ð¾
ĠÐĵÓıÐ°Ð±Ð´ÑĥÐ» Ð°Ð³ÑĮ
Ð» Ð°Ð´
ĠÐ±Ð°Ð¹Ð±Ð¸ÑħÑĮ ÑĥÐ½
Ð°ÑĢ ÐµÐ²
ĠÐ³ÓıÐµÐ» Ð¼
Ð± Ð°Ð»Ð°Ð³ÑĮ
ĠÑī Ð¾Ð»ÐµÐ±
Ð°Ñħ Ð°
Ġ1 2
ĠÐ¥ÓıÐ°Ð¶ Ð¸ÐµÐ²
ĠÑģ Ð¾Ð²ÐµÑĤ
ĠÑĤÓı Ð°ÑģÐ°Ð½
ĠÑĢÐ¾ ÑħÑĮ
ĠÐ¾ÑĤÐ´ÐµÐ» Ð°Ð»ÑĬÑĥÐ»
ĠÑĨÐ¾Ð³Ð¸Ð´ Ð°Ð±
Ð»ÑĬÑĥÐ½ Ð¸
ÐµÐ´ ÐµÑĢ
ÐĶ Ð°Ð³ÑĬÐ¸ÑģÑĤÐ°Ð½
ĠÐºÑĬÐ²Ð°ÑĤÓı Ð¸Ð±Ðµ
Ð°Ð´ Ð°ÑģÐ°
ĠÐ³ÓıÐ°ÑħÑĮÐ°Ð» ÑĩÐ°Ð³Óı
ĠÑĩÓı ÑĥÑħÓı
Ð¾ Ðµ
Ð¾ ÐºÑĬ
Ðº Ð¾Ð¼
Ġ Ð°Ð¿
Ð¸Ð·Ð°Ð± ÑĥÐ»ÐµÐ±
Ð¸Ñı Ð¹
Ð´ Ð¶
Ð³ ÑĥÑĢ
ĠÐ± Ð°Ñģ
ĠÑħÓıÐ°Ð»ÑĤÓı Ð°Ð½Ð°
Ð¸Ð·Ð°Ð± ÑĥÐ½Ð°
ĠÑĩÐ¸ÑıÑģ ÑĥÐ»
ĠÐ² Ð°Ñĩ
ĠÐ¼ ÑĥÑħÓıÐº
Ð°ÑĩÓı Ð¾Ð³Ð¾
ĠÑĢÐ°ÑħÑĬ Ð°Ð»Ð´Ð°ÑģÐ°Ð½
ĠÐºÑĮÐ¾Ð» ÐµÐ»
Ð³ÑĮ ÑĥÐ½
Ð¾ÑĢ Ð´Ð¾
ĠÐ»ÑĬÑĥÐ³Óı ÑĥÐ½
Ð³ Ð¸Ð½
ĠÑħÓĢ Ð°Ð»
Ð°ÑĤ ÑĢ
ÐµÐ½ Ñģ
Ð¸ Ð´Ð°ÑģÐ°Ð½
ĠÐ±ÑĥÐ³Ð¾ Ð½Ð¸
ĠÐĶ Ð¸Ð´Ð°
ĠÐ±Ð¸ÑĨ ÐµÐ½
Ð¾Ð½ ÑĤ
ĠÐ²Ð°ÑĩÓı ÑĥÐ½
Ð¸Ñħ Ñħ
ÐµÑĢ Ñģ
ĠÐ¶Ð°Ð½ Ð¸ÑĢ
ĠÑħÓıÐ°Ð»ÑĤÓı Ð°Ð±Ð¸
Ð°ÑħÓı Ð¼Ð°Ð½
ĠÑĨÓıÐ°ÑĢ Ð°Ð»Ð´Ð°
Ð¦ Óı
ĠÐº Ð³
ĠÐ½ Ð¸Ð³ÓıÐ¼Ð°ÑĤ
Ð²Ð°Ð» Ð¸
Ð°Ð½ ÑĤ
ĠÑħÓıÐ°ÐºÑĬ Ð¸ÐºÑĬ
ĠÐ³ Ð¾Ñĩ
ĠÐ³Óı Ð¸
ĠÑĤ Ð°ÐºÑĬÑģÐ¸ÑĢ
ĠÐ¥Ð°Ð» ÐºÑĬ
Ð¾Ñģ ÑĤ
ĠÐºÑĮ Ð²Ð°Ð³ÑĮ
Ð°Ð± Ð»ÑĬÑĥÐ½
ĠÑĢÐ¸ÑĤÓı ÑĥÑħÑĬ
ÑĢ Ð°ÑĤ
ĠÐ¸Ð´ Ð°ÑĢ
ĠÐ»ÑĬÐ°Ð± Ð°Ð±Ð¸Ð»ÐµÐ±
Ġ Ð°Ð·
ÐĵÑĮ ÐµÐ½
Ð¸Ðº Ð°
ĠÐĲÐ»Ð»Ð°Ð³ÑĮ Ð°ÑģÑĥÐ»
ĠÐ± Ð°Ð»ÐµÐ±
Ñħ Ð°Ð»
ĠÐºÓıÐ°Ð»ÑĬ Ð°Ð·Ðµ
ĠÐ±ÐµÑĢ Ð±Ð°Ð»Ð°Ð³ÑĮ
ĠÐ³ÑĬÐ¾ÑĢÐ»ÑĬ Ðµ
ĠÐºÑĬ Ð°Ð¹
ĠÐ±Ðµ Ð³
Ð´Ðµ ÑħÑĥÐ½
ÑĨ Ð¸ÑıÐ»ÑĬÑĥÐ»
ĠÐ½ Ð°ÑĩÐ°Ð»
ĠÐĵÓıÐ°Ð±Ð´ÑĥÐ» Ð¼
Ð°Ð· Ð´Ð°Ð»ÑĬÑĥÐ½
ĠÐ² Ð¸ÑĤÓı
ĠÐºÑĬÐ°Ð³ÓıÐ¸Ð´ Ð°ÑıÐ»ÑĬ
ĠÐ»ÑĬ ÐµÐ·Ðµ
ĠÐ³ÑĮÐµÐ± Ð³Ð¾
ĠÑħ ÑĥÐ½
Ð°Ð´Ð¸ Ð¾
ĠÐºÐ¸Ð½ Ð°Ð·
ĠÑĤ ÐµÑħ
ĠÑĪ Ð°ÑĢÑĤ
ÐµÐ½ ÐµÐº
ĠÑģÐ²ÐµÑĢ ÑĥÐ½
ĠÐ³ÑĮÐ°Ð± ÑģÐ°Ð³ÓıÐ°ÑĤ
ĠÐºÑĬ Ð°Ñģ
Ð°Ð·ÑĥÐ» Ð³Ð¸
ĠÑħÐ² ÐµÐ·Ð°Ð±
Ð°ÑĤ Ð°Ð»ÑĬ
ĠÐ¼ Ð¸Ð½Ð¸ÑģÑĤÑĢ
ĠÐºÐºÐ¾Ð»Ð° Ð°Ð½
ĠÐĵÓıÐ°Ð±Ð´ÑĥÐ» Ð°ÑĤÓıÐ¸Ð¿
ĠÐ² ÐµÑĤÐµÑĢ
ĠÐ´Ð°Ð½Ð´Ðµ Ð»ÑĬÐ¸
Ð¸Ð½ Ð°Ð²
ÑĢ Ð°Ð±Ð¸
ĠÐº Ð¼
ÐµÑĢ ÐµÐ½
ĠÑĤ ÑĥÑĪ
Ð¸Ð» Ð°Ð»
ĠÐĺÐ±ÑĢ Ð°Ð³ÑĮÐ¸Ð¼
ĠÐ±Ð°ÑħÑĬ Ð¸Ð·Ðµ
Ð°ÑĢ Ð´
ĠÐ±Ð°ÑĤ Ð°Ð½Ð¸
ĠÐ¶Ð°Ð» Ð³Ð¾
Ð°Ñģ Ð°Ð»Ð°
ĠÐ¡ ÑĥÐ³ÑĬÑĢÐ°Ð»ÑĬ
ĠÐ± Ð°Ð»
Ð°Ð¼Ð¼ Ð°Ð±
ĠÐºÑĮ ÑĥÑĩÓı
Ð¸Ð»Ð° Ð°Ð½
ĠÐ½Ð°ÑĩÐ°Ð» ÑĮÐ½Ð¸Ðº
Ð°Ð± Ð¸Ð±
Ð°Ñħ ÓĢ
Ð¸ÑĨ Ð¸Ð¿
ĠÐ³ÓıÐ°Ð´ Ð°Ð±
ĠÑħÑĬÐ² Ð°Ð·Ðµ
ĠÐºÑĮ ÐµÑĢ
ĠÑĢÐ¾ÐºÑĮ Ð¸
ĠÑĥÐ¼ÑĥÐ¼ ÑĥÐ·ÑĥÐ»
Ġ ÑĥÐ½Ð°
ĠÐ·Ð°Ð¼Ð°Ð½ Ð°ÑıÐ»ÑĬ
ÑĩÐ¸ Ð»ÑĬÐ¸
ĠÐ±ÑĥÑħÑĮ ÐµÐ½
Ð°Ð½ Ñģ
Ð»ÑĬ Ð¸ÑıÐ»ÑĬÐµ
ĠÐ±ÑĥÑģ ÑĥÑĢÐ±
ĠÐ´ Ð¸Ð²
Ð°Ð² ÑĥÐ»
Ġ1 1
Ð°Ð´ Ð¼Ð¸Ð½Ð¸ÑģÑĤÑĢÐ°ÑĨ
ÑħÑĬ Ðµ
ÑĢÑĥ Ð·
Ñģ ÑĥÐ¿
ĠÑĨÓı Ð°ÑĢÐ°Ð»
ĠÑħÑĬÐ² Ð°Ð»ÐµÐ±
ĠÐ´Ð¾Ðº ÑĥÐ¼ÐµÐ½ÑĤ
ĠÐºÑĥÑĩÓı Ð´ÑĥÐ»
ĠÐ½ ÑĥÑģ
ĠÑīÐ¸Ð± Ð³Ð¾
ĠÐ»ÑĬÐ°Ð·Ð°Ð± ÑĥÐ½Ð°
ĠÐ¾ Ð¿ÐµÑĢ
ĠÐ¼Ðµ ÐºÑĬ
Ð°Ð·ÑĥÐ» Ð³ÑĥÐ½
ĠÑı Ð»ÑĬÑĥÐ½Ð¸
ĠÐºÐ¾Ð¼ Ð¿
ĠÑħÑĥÑĤÓı ÑĥÐ½
ĠÑħÓıÐ°Ð»ÑĤÓıÑĥÑħÑĬ Ð°Ð±Ð°Ð·
Ð¿ Ð¾ÑĢÑĤ
ÐºÓı Ð°Ð»
ĠÐľ Ð°ÑĢ
ĠÐ³ÑĮÐ°ÑĢ ÑĥÐ»Ð°
ĠÑĤÓı Ð°Ð»ÑĬ
Ð¾Ð²Ð°Ñģ Ðµ
ĠÑĩÓı ÐµÐ·Ðµ
ĠÐ³ÓıÐµÐ» Ð¼Ñĥ
ĠÐľÐ°ÑħÓıÐ°ÑĩÑħÑĬÐ°Ð» Ð°ÑıÐ»Ð´Ð°
ĠÐ¸Ð½ÑĦ Ð¾ÑĢÐ¼
ĠÑī ÑĥÐ³Ð¾
ĠÐ½ÑĥÑħ Ð°Ð»Ð´Ð°
ĠÑĪÐ°ÑĢÑĤ ÓıÐ°Ð»
Ð°Ð¿ Ð°ÐºÑĬ
ĠÑĢÐ°ÐºÓı Ð°ÑĢ
ĠÑĢÐµ Ð³Ð¸
ĠÐºÓıÐ¾Ñĩ Ð¾Ð½
ÑĨÐ¾ ÑıÐ»
ĠÑĨÓıÐ°Ð»Ð´Ð¾ÑħÑĬ Ð°Ð½
Ð°Ð½ Ð¸Ð»Ð°Ð½
ĠÐ³Óı Ð¸Ñģ
ÑģÑĤ ÑĢ
ĠÐ³ÓıÐ°ÑĢ Ð·
Ð¸ÑıÐ» Ð´Ð°Ð»ÑĬÑĥÐ½
ÑĥÑģ ÐµÐ½
ĠÐ¸ ÑģÐ°Ð½Ð°
ĠÐ³ ÑĢ
ĠÐº Ð¸Ð»
ĠÐ¼Ð°ÑĨÓıÐ°Ð» Ð´Ð°
ĠÑģ Ð°Ð¿
ÐµÑĢ Ñħ
ĠÐ± Ð¾ÑĢ
ĠÐ±Ð°ÑĤ Ð¸Ð»Ð°
ĠÐ±Ð¸ÑĤÓı Ð°ÑĢÐ°Ð±
ĠÐ¸ Ñİ
ĠÐĵÓı Ð°Ð´
ĠÑħÓıÐ°ÑģÐ¸Ð» Ð°Ð»Ð´Ð°
ĠÐ¹Ð¸ÐºÓı Ð°Ð½Ð°
ĠÐº Ð°Ð½
ÑĢÑĥ Ð·ÑĥÐ»
Ð°Ð»Ð´Ðµ ÑħÑĥÐ½
ĠÑĢÐµÑģÐ¿ÑĥÐ±Ð»Ð¸Ðº Ð°ÑıÐ»Ð´Ð°
ĠÐ±Ð°Ð»Ð°Ð³ÑĮ ÑĥÐ½
ĠÑħÓıÐ°Ð» Ð±Ð¸ÑħÑĮ
Ðĵ ÑĬ
ĠÐ½ÑĥÑħ Ð°Ð»
Ð°Ð´ Ð°ÑĢÑĥÑħÑĬ
ĠÐ±Ð°ÑĩÓı Ð°Ð½Ð°
ĠÑĨÓıÑĥÐ½ Ð¸ÑıÐ»ÑĬÑĥÐ»
ĠÐ²ÑĥÐ³ Ð¸Ð½
ĠÑĤÐµÑĢÑĢ Ð¾ÑĢ
ĠÐ¢Óı Ð°Ð´Ðµ
ĠÑĤ Ðµ
ĠÑĢÐµ Ð»ÑĬ
ĠÐ¶ÑĥÑĢÐ½Ð°Ð» Ð¸ÑģÑĤ
ÑĢ Ð°Ð±
Ð°Ð·Ðµ Ð³Ð¾
ĠÐ´Ñĥ Ðµ
ĠÐĵÑĮÐµ Ð»ÑĬÐ¸Ðµ
Ġ1 4
ĠÐ½Ð¸Ð»ÑĬÐµÑĢ Ð³Ð¾
ĠÑĤÐ°Ð´Ð±Ð¸ÑĢ Ð°Ð»
ĠÑĢÐµÐºÓı ÐµÐ»ÑĬ
ĠÐºÓıÑĥÐ´ Ð¸ÑıÐ²
ĠÐ¨ Ð°Ð¼
ĠÑħÑĬÐ¸Ð· Ð°Ð¼
Ð´ Ð°Ð±
ĠÐ³ ÑĢÐ°Ð¼
ĠÐ³ÓıÑĥÑĨÓı ÑĥÐ½
ĠÑĤÓıÐ¾Ð» Ð°Ð±Ð³Ð¾
ĠÐ® ÑģÑĥÐ¿
Ð¼ ÐµÐ´
ĠÑĪ Ð°Ð¿Ð°ÐºÑĬ
ÑĥÑĨ ÓĢ
ĠÐ¿ÑĢÐ¾ ÐµÐºÑĤ
ĠÐ£ Ð½
ÑĢ Ð°ÐºÓı
ĠÑħÓı Ð°ÐºÐ¸Ð¼
ĠÐ¿ÑĢ Ð¾ÑĨ
ĠÑĪ Ð°ÑĢ
ĠÐľÑĥÑħÓıÐ°Ð¼Ð°Ð´ Ð¸ÑĨÐ°
ĠÐ¸ÑĪ Ð°Ð·ÑĥÐ»
ÑĢ Ð°Ð»
ĠÑĢÐµ ÑħÑĥÐ½
ĠÐ³ÑĮÐ°Ð½ Ð¶
ĠÑĥÐ½ Ð³Ð¾
ĠÐºÐ¾Ð½ ÐºÑĥÑĢÑģ
Ð· Ðµ
ĠÐ±ÐµÐ³ÑĮ ÑĥÐ»Ð°ÑĢÐ¾
ĠÑģ Ð¾ÑĢÐ´Ð¾
ĠÐ¼Ð°ÑĨÓı Ð°Ð»ÑĬÑĥÐ»
ĠÐ³ÑĮÐ°Ð± ÑĥÐ»
ĠÐĽÑĬ Ð°ÑĢ
ĠÐºÑĬÑĥÐ² Ð°ÑĤ
Ð¸Ð¼ Ð½
ÑĥÑħ ÓĢ
ĠÐĲÑħ Ð¸ÑĢ
Ñĥ ÐºÑĮ
ĠÐļ Ð¸Ð½Ð°Ð±
Ð¸Ð» Ð¾Ð²
Ð°ÑĢÐ°Ð± Ð³Ð¾
ĠÐºÐº ÐµÐ·Ðµ
ĠÐ¶Ð¸Ð½ ÑĨÐ°
ĠÐ³ÑĮÐ°Ð± ÑĥÐ»ÐµÐ²
Ð½ Ð¸ÑıÐ±
ĠÐ´ Ð¾Ð»
ĠÐºÐ¸Ð´ Ð°Ð½Ð¸Ð³Ð¸
Ð² Ðµ
ĠÑĨÓıÑĥÐ½ ÑĥÐ½
ÑĤÓĢ ÐµÑĢ
ĠÑĢ Ð°ÐºÑĬ
ĠÐºÐº ÐµÐ»
ĠÑĨÓı Ð°
ĠÐ±Ð¾ÐºÑĮ Ð°ÑĢÐ°Ð±
ĠÑĩÓıÐ°ÑħÓı Ð¸ÑıÐ»
ĠÐ±Ð¸ÑħÑĮÐ¸Ð·Ð°Ð± ÑĥÐ½Ð°
Ð¾ÑĨ ÐµÐ±ÐµÑģÐµÐ±
ĠÐ±ÐµÑĢÑĨ Ð¸Ð½Ð°Ð±
ĠÐ± Ñİ
ĠÑĢÑĥÐºÓı ÑĥÐ½Ð°
ĠÐĵÑĬ ÑĥÐ½Ð¸Ð±
ĠÑħÓıÐ°Ð»ÑĤÓı ÑĥÐ»ÐµÐ²
ĠÑħÓıÐ¸ÑģÐ°Ð± Ð°Ð»Ð´Ðµ
ĠÐ¿ Ð¾Ñį
ĠÑĩÓı ÐµÐ·Ð°ÑĢ
ÑĥÐ¿ ÑĢÐ°Ð²Ð»ÐµÐ½
ÑĢ Ð¾Ñģ
ĠÑĢÑĥ Ð³ÑĮÑĥÐ½
ĠÐ³ÑĮÐµÑĩÓıÐ¾ Ð»ÑĬÐ¸
Ð¼ ÑĥÐ´
ĠÐ°ÑħÐ¸ÑĢ Ð°Ð»Ð´Ð°
ĠÑħÓıÐ°ÑģÐ¸Ð» Ð°Ð»
ĠÐºÑĬÐ°Ð³ÓıÐ¸Ð´ Ð°ÑıÐ»Ð´Ð°
Ð¸ Ð´Ð°ÑģÐ°
Ðº ÑĢ
ĠÐ¼ Ð¸Ð½Ð°
ĠÑħÓıÐ°Ð¶ Ð°ÑĤÐ°Ð±
ÐµÑģ ÑĥÐ»
ĠÐ³Óı ÐµÐ½ÐµÐº
ĠÑĤÓıÐ°Ð´ ÐµÐ³Ð¸
ÑģÑĤÐ¸ÑĤ ÑĥÑĤ
ĠÑĤÓı Ð¸Ð±
ĠÑĢÐ¾ÐºÑĬ Ð¾Ð±
ĠÑĢÐ°ÑħÑĮ Ð´Ð°Ð»
ĠÑĢ Ð°ÑħÓı
ĠÐ³ÓıÐ°Ð´ Ð»Ñĥ
Ð°ÑĢ Ð°Ð·
Ð°Ð¼ Ð¼Ð°Ð´
ĠÐ»ÑĬ ÑĥÑĢÐ°Ð±
ĠÐºÐ² ÐµÐ½
ĠÐ±Ð¾Ñģ Ð°Ð½Ð°
Ð°Ð¸ Ð½
Ð¸Ð½Ð´ Ð¸ÑĢ
ĠÑĢÐ°Ð· Ð¸
ĠÐļ ÑĮ
ĠÑħÓıÐ°Ð»ÑĤÓı Ð¸Ð·Ð°ÑĢ
ĠÑĢÐ°Ð³Óı Ð°Ð±Ð¸
ĠÐ±ÑĥÑĤÓı Ð°
ĠÐłÐµÑģ Ð¿ÑĥÐ±Ð»Ð¸Ðº
ÑĤÓı Ð°
ĠÐºÑĬÐ²Ð°ÑĤÓı Ð¸ÑĢÐµ
ÑħÓıÐ°Ð¶ Ð¸
ĠÐ¼ Ð°ÑĢ
ĠÑĢÑĥ ÐºÓĢ
ĠÐĵÑĮÐµÐ´ Ð¸Ð½Ð°Ð±
ĠÐ³ÑĮ Ð¾Ð±
ĠÐ³ Ð°Ð·
ĠÐĵÑĮÐµÐ· Ð´Ð°
ÑĩÓı ÑĥÐ½
Ð¸Ñģ Ðº
Ð°Ð·Ðµ Ð³Ð¸
ĠÑħÑĮ ÑĥÐ»
ĠÐĵÓı Ð°ÑĢ
ĠÐ³Ð°Ð·ÐµÑĤ Ð°
ĠÐ¥ ÓĢ
ĠÐºÑĬÐ°Ð½ ÑĥÐ½
ĠÐ»ÑĬ ÐµÐ»
ĠÑĢÐ°Ð¹ Ð°Ð´Ð¼Ð¸Ð½Ð¸ÑģÑĤÑĢÐ°ÑĨ
ĠÑĢ Ð¸Ð³ÑĮ
ĠÐ´Ñĥ Ð´Ð°
ĠÐ·Ð°ÑħÓıÐ¼ Ð°Ð»ÑĬ
ĠÐ»ÑĬ Ð°Ð³ÓıÐ°Ð»
ĠÐ· Ð°Ð»Ð°Ð»Ð´Ð°
Ġ19 4
ĠÐ³ÓıÐ¾Ð»Ð¾ÑħÑĬ Ð°Ð½
ĠÐ¥Ð°Ð´ ÑĥÐ±
ĠÐ± Ð¸ÐºÑĮ
Ð¸Ð½ Ð³
ĠÐºÑĮ ÐµÐ¹
ĠÐ¡ Ð°Ð³ÓıÐ¸Ð´
Ð°ÑĪ Ð¼Ð°Ð½
ĠÑĤÓıÐ¸Ð± Ð¸ÑĤÓı
ĠÐºÑĬ Ð¸Ñģ
ĠÑĢ Ð°Ð´Ð¸Ð¾
Ġ1 7
ĠÐ³ Ð¸Ð¼Ð½
ĠÐ°ÑĢ Ð¼
ĠÑĤ Ð°Ð¹Ð¿
ĠÐ³ÑĮÐµÐ» Ð´Ð°ÑģÐ°
ÑĤ Ð°
Ñģ Ð¸ÑıÐ»ÑĬÑĥÐ»
ĠÑĢÐµÐ³Ð¸ Ð¾Ð½
ĠÐľ Ð°ÑģÐ°Ð»Ð°
Ð¸ÐºÓĢ ÐºÓĢ
Ð°Ñı Ð·
ĠÐ¥Óı Ð°ÑģÐ°Ð½
ĠÐ±ÐµÐ³ Ð°Ð²ÑĥÐ»
ĠÐ³ÓıÑĥÑĨÓı Ð¸ÑıÐ»ÑĬÑĥÐ»
ÑĢ Ð°
ĠÑĢ Ð°Ð»Ð°Ð³ÑĮ
ÐµÐº Ñģ
Ġ19 9
ĠÐ±Ð°ÑĩÓı Ð°ÑĢÐ°Ð±
ĠÑĥÐ½ ÐºÑĬ
Ð¾ Ð³ÑĮ
Ð°ÑĤ Ð°Ð·ÑĥÐ»
ĠÐ¼ Ð°ÑĤ
ĠÐ½ Ð°Ð»
Ñİ Ð·
ĠÐ»ÑĬÐ°Ð¹ ÐºÑĮÐµÑıÐ»ÑĬÑĥÐ»
Ð¸Ñ Ħ
Ð¸ÑĢ Ð°
ĠÑĢÐ¸ÐºÓıÐºÓı ÑĥÐ½ÐµÐ±
Ð°Ð¹ Ð¸ÑĢ
ĠÑĨÓı Ð°Ð¹
ĠÐ³ÓĢ ÑĥÑĨÓĢ
ĠÑĤ ÑĥÑĢÐ½Ð¸ÑĢ
ĠÐ³ÑĮÐ°ÑĢ Ð°ÐºÑĮ
Ð°Ð» Ð´Ð°Ð³Ð¾
ĠÐ½ Ð¸Ð·Ð°Ð¼
Ð± Ð¸Ð»
ĠÐ³Óı Ð°Ð½
ĠÐ¼ÑĥÐ½ Ð¸ÑĨÐ¸Ð¿
ĠÐº Ð¾ÑĢ
Ð¸ÑĢ Ð·
ÑĢ Ð°ÑģÑĥÐ»
ĠÐ°Ð²Ð°ÑĢ Ð°Ð³
ĠÐ²Ð°ÑħÑĬ Ð°Ð½Ð°
Ð³ ÑĥÑģÑĤ
ÐµÑģ ÐµÐ´
Ð¾Ð´ Ð¾ÑĢ
ĠÐ½Ð¾Ð¼ ÐµÑĢ
Ð¸Ð½ Ñģ
Ð¸Ð´ Ð°Ð±
ĠÑī Ð¾Ð»Ð°
ĠÐĵÓıÐ°Ð» Ð¸
ĠÐ¿ÑĢÐ¾ ÑĦ
ÐµÑĢ ÑĤ
Ð´Ð¶ ÐµÑĤ
ÐµÑĢ Ðµ
ĠÐºÑĬÐµÑĢ ÐºÑĮ
Ð¸ÑĢ Ð¾Ð²
Ð°ÑĢ Ð°Ð»ÑĬ
ĠÐĵÑĮÐµÐ» Ð´Ð°ÑģÐ°
Ð¾ Ð¿
ĠÐ³ÑĮÐ°Ð´ Ð¸Ð½Ð°Ð±
ĠÑħÓĢÐ°Ð» ÑĤÓĢ
ĠÑĢÑĥÐ³ ÐµÐ±
ĠÑīÐ² ÐµÐ·Ð°Ð±
ĠÐ¨ Ð°Ð³ÑĮ
ĠÐº Ð°Ð»Ð°Ð¼
ĠÑı ÑħÓı
ĠÐ³ÑĮÐ¾ÑĢÐºÑĮ Ð¾Ñģ
ĠÐ¼Ð°Ð³Óı Ð½Ð°
ĠÐ³ÓıÐ¾ÑĢ ÑħÑĬ
ÐĵÑĮÐµÐ´ Ð¸Ð½Ð³Ð¾
ĠÑģÐ¾ÑĨ Ð¸Ð°Ð»Ð¸ÑıÐ±
Ð°Ð² ÑİÑĢÑĤ
Ð¶ Ð°Ð½
Ñĩ Ð¸ÑıÑģ
ÑĥÑħÑĬ Ð°
Ñĥ Ð´Ð°ÑģÐ°
ĠÑģÐ¾Ð½ Ð°Ð»Ð´Ð°ÑģÐ°
Ð°Ð»ÑĬÑĥÐ» Ð°Ð»
Ð¸ÑıÐ± Ð³Ð¾
ĠÐ² Ð¸Ñī
ĠÐ½Ð°ÑħÑĬ Ð°
Ð°Ð³Óı Ð°ÑĢÑĥÐ»
ÑĥÐ³ÑĮ Ð°Ð»
ĠÐ°Ð± Ð¸Ð»ÐµÐ±
ĠÐ¡ ÑĥÐ»
ĠÑį Ñħ
ĠÐ¼Ðµ Ð´Ð°Ð»
ÑĥÑģ Ð¼Ð°Ð½
ÑĪ Ð°Ð³ÑĮ
ĠÐ¿ Ð°ÑĪÐ¼Ð°Ð½
ĠÐ³ÓıÐ°ÐºÑĬ Ð»Ñĥ
ĠÐŁ ÑĢ
ĠÐļÐ°Ð²ÐºÐ°Ð· Ð°Ð»ÑĬÑĥÐ»
Ð¾ ÑİÐ·
Ð°ÑĢ Ð¸Ñī
ĠÐĵÑĮ Ð°ÑĢ
Ð°Ð´ Ð¸Ð½
ĠÐ¸ Ð·
ĠÐ³ÑĮÐµÐ± Ð³Ð¸
ĠÐ¶ ÑĥÐ±
Ð¸Ð·Ðµ Ð³ÓıÐ°Ð½
ĠÐ³ÓıÑĥÑĨÓı Ð°ÑĢÐ°Ð±
ĠÑīÑĥÐ» Ð¸ÑıÐ±
Ð°ÑĢ Ð°Ð»ÑĬÑĥÐ»
ĠÑĨÓı Ð¸ÑıÐ»
ĠÐ´Ð°Ð³ÑĮ Ð°Ð»
ĠÐ¼ÑĥÑĢÐ°Ð´ Ð°Ð»Ð´Ð°
ĠÐĵÓıÐ°Ð±Ð´ÑĥÑĢ Ð°ÑħÓıÐ¼Ð°Ð½
Ð± ÑĥÐ»
ĠÑīÐ² Ð°ÑĢÐ°Ð»
ĠÐ³ÓıÐ¾Ð»Ð¾ÑħÑĬ Ð°Ð±Ð¸
ÑĤ Ð½Ð¸Ðº
ĠÐ² ÑĥÑģÑģ
ĠÑĤÓıÐ°Ð´ ÐºÑĬ
ĠÐ±Ð°ÑħÑĬ Ð°Ð½Ð°
ĠÐ¼ÑĥÑħÑĬ Ð°Ð»Ð´Ð°
ĠÐ¼ Ð°Ð´Ð°Ð½
ĠÐĳ Ðµ
Ð±Ð°ÑħÑĬ Ð¸Ð½
ĠÐĲÐ³ÑĬ Ð²Ð°Ð»Ð¸
ĠÑĢÐ°ÑħÑĬ ÑĥÐ½
Ð³ÑĬ ÑĥÐ»
ĠÐ°ÑħÓı ÑĥÐ½
ĠÑĥÑĢÐ³ÑĬ ÐµÐ»
ĠÐ»ÑĬ ÑĥÐ½Ð°
Ð°Ð³Óı Ð±
ĠÑĩÐ¸ÑıÑģ Ðµ
ĠÐºÐ²ÐµÑĪ Ð°Ð±
Ð½ Ñĥ
Ġ ÑĥÐ¿ÑĢÐ°Ð²Ð»ÐµÐ½
Ð¸Ð´ Ð°Ð³Ð¾
Ð°Ð»ÑĬÐµ Ð³Ð¸
Ð³ÑĥÑĢ ÐµÐ»ÑĬÑĥÐ»
Ġ ÑĥÑģÑĤ
Ð°ÑĢ Ð¸ÑıÐ»ÑĬÑĥÐ»
ÑıÐ± ÑĢ
ĠÐ°ÑģÐºÓı Ð¾Ð±
ĠÐĲ Ð·
Ð¸Ð½Ð°Ð» Ð³Ð¾
ĠÐ¿ÑĢÐ¾ÑĨ ÐµÐ½ÑĤ
Ð½ Ð°ÑħÑĬ
ÑĪ Ð°Ð²
Ġ Ð°ÑĢÐ°Ð»
ĠÐ¢ ÑĥÑĢ
ĠÐ±ÐµÑĢÐ³ÑĮÐµÐ½ Ð»ÑĬÐ¸
ĠÑģÐ°Ð¹Ð³ÑĬ Ð°ÑĤ
Ðµ ÐºÑĬ
Ð¾Ð» Ð¾
ÑĥÐ¼ Ð¾
ĠÐ³ÑĮÐµÐ½ Ð¸Ð²
Ġ1 00
ÑĢÐºÐµÐ½ Ð»ÑĬÐ¸
ĠÐºÑĬÐ²Ð°ÑĢÐ¸Ð³Óı ÑĥÐ½
ĠÐºÐ¾Ð»ÑħÐ¾Ð· Ð°Ð»ÑĬÑĥÐ»
ĠÐ¿ Ð°Ð¹Ð´
ĠÑĥÐ½ÑĤ Ð¸
ĠÐĵÑĮÐµÐ½ Ð¸ÑĢ
ĠÐ³ÑĮÐ¾Ð± Ð¾Ð»
Ð¸ÑĤ ÐµÐ»
ĠÑĢÐ°ÑĩÓı ÑĥÐ½ÐµÐ»
Ð¸Ð» Ð¸Ð¼
Ð¸ÑĤ ÓĢ
ĠÐºÑĥÑĤÐ°Ðº Ð°Ð»Ð´Ð°
Ð°Ð³Óı Ð°Ð½
ĠÐ³ÑĮÐµÐ½ Ð¸ÑĢÐµ
Ð°ÑĤ Ð¸ÑĨÐ°
Ġ1 3
ĠÐ µ
ĠÑĢ Ð°Ð³ÓĢ
ĠÑĤÓıÐ°Ð´ Ð°Ð±
Ð°Ð¹ Ð½
ĠÐ³ÓıÐ¾Ð´ Ð¾Ð±Ðµ
ÑĥÑħÑĬ Ð°Ð½
Ð¸ÑĩÓı ÐµÐ±
ĠÐ½Ð¸Ð¶Ðµ Ð´Ð°
ĠÐ¿ ÐµÐ´
Ð¸Ð¼ Ð°Ð»Ð¸ÑıÐ±
ĠÐºÑĬÐ¾ Ð¹
ĠÐ±ÑĥÐºÓıÐ¸Ð½ ÑĩÓı
ÑĥÑĤ Ð¸Ð½
ĠÐ±Ñİ Ð´Ð¶ÐµÑĤ
Ðµ ÑĦ
ĠÐĿ ÑĥÑĢÐ¼
Ð» Ñı
Ð°Ñħ Ð°Ð½
Ð°Ð¼ ÑĥÑģ
ĠÑĢÐ°ÑħÑĬ Ð°Ð½Ð°
ĠÑĤÓıÐ¾Ð±Ð¸ÑĤÓı ÑĥÐ»ÐµÐ±
ÑĥÑĢÐ± Ð°Ð½
Ð¸Ð· Ð°Ð²
Ð» Ð¸Ñģ
Ð¸Ð»ÑĬ Ð»ÑĬ
ĠÐ°Ð± ÑĥÑĢÐ°Ð»
Ð°Ð´ÑĥÐ» Ð°Ð±
Ð°ÑĤ Ð¾ÑĢ
Ð³ Ð¸ÑĨÐ¸Ð½
Ð¸Ð½ Ð´Ð°Ð»
ĠÐ³ÑĮÐ°Ð± Ð¸ÑĩÓıÐ¾Ð³Ð¾
ÐµÑģÑĤ Ð²Ð¾
Ð°Ð½ Ð´Ð°
ĠÐĿ ÑĥÐ¶
ÐĿÐ¸Ð»ÑĬ ÐµÑĢ
Ð¡Ð¡ Ðł
ĠÐ´Ð¸ÑĢ Ð³Ð¾
ĠÐ°Ð² Ð³ÑĥÑģÑĤ
ĠÑĤ Ð°Ð½Ð°
ĠÐ±Ð°ÑĩÓı ÑĥÐ½
Ð´ ÐµÑĢ
ĠÐ³ÑĮÐ°Ð² ÑĥÐ½Ð°
ĠÑģ Ð²
ĠÑĢÐ°ÑħÑĬ Ð°ÑĢÐ°Ð»
Ð¸Ð°Ð» Ð¸ÑģÑĤ
ÐµÐ³Óı ÐµÑĢ
ĠÑģ ÐµÐ½ÑĤ
ĠÐºÑĬÐ¾ ÑıÐ»Ð´Ð°
ĠÐ±ÑĥÐºÓı ÑĥÐ½ÐµÐ±
ĠÐ¥ ÑĮ
ĠÐĶ Ð¾Ð±
ĠÐ¥Óı ÑĥÑģÐµÐ½
Ð» Ð°Ð¼
ĠÐº ÑĢ
Ð² Ð°Ñħ
ĠÐ¿ÑĢÐ¾Ð³ÑĢÐ°Ð¼ Ð¼
ĠÑħÓıÐ°Ð» Ð°Ð»Ð´Ð°
ĠÐ±ÐµÐ³ÑĮ ÑĥÐ»ÐµÐ±
ĠÐ± Ð°ÐºÓĢ
ĠÑĨÓıÐ°Ð»Ð´Ð¾ÑħÑĬ Ð°Ð±Ð¸
ĠÐ½Ð°Ð» Ð¾Ð³
Ðº Ð°Ð±Ð¸
ĠÐ³ÓıÐµÐ¼ÐµÑĢ Ð¸ÑģÐµÐ»
ÐĲ Ð»
ĠÐ±ÑĥÐºÓıÑĥÐ½ Ð°ÑĢÐ¾
ĠÐºÑĬÐ¾ÑıÐ· Ð´Ð°
ĠÑĩ Ð¾ÑĢÑħ
ĠÑħÓıÐ°Ð»ÑĤÓı ÑĥÐ»ÑĬ
Ð°Ð¶ Ð°Ð¸Ð±
Ð°Ð» ÑĮ
ĠÑĢÐ¾Ñħ ÐµÐ»
ĠÑı ÑĨ
ÐĶ Ð°Ð½Ð´Ðµ
ĠÐ±Ð°ÑħÑĬ ÑĥÐ»ÐµÐ±
Ð°ÑĤ Ð¸Ð»
ĠÐ¼ Ð°ÑĢÑĤ
ĠÐľ ÑĥÑĢÑĤ
ĠÐºÐºÐ¾Ð» Ð°ÑĢÐ¾
ĠÐ¼Ñĥ Ð·
Ġ I
Ð»ÑĬÑĥÐ» Ð°
ĠÐ»ÑĬÐ°Ð·Ð°Ð± ÑĥÐ½
ĠÐ±ÑĥÐºÓĢ Ð°Ð½Ð°
ÐĵÑĮ Ð°Ð»
ĠÐ´ÑĥÐ½ÑıÐ» Ð°Ð»ÑĬÑĥÐ»
1 8
ĠÑĦ Ð¸Ð»
ĠÐ¿Ð¾Ð» Ð¸ÑĨÐ¸ÑıÐ»ÑĬÑĥÐ»
ĠÐ±ÑĥÐºÓıÐ¸Ð½ Ð°
ĠÐºÓıÐ°Ð»ÑĬ Ð°Ð¹
ĠÐ³ÑĬ ÑĥÑĤ
ĠÐ³ÑĬ Ð²Ð°ÑĢ
Ġ2 5
Ðł ÑıÐ»ÑĬÑĥÐ»
ĠÐºÓı Ð°Ð½ÑĨÓı
ĠÐľÑĥÑħÓıÐ°Ð¼Ð°Ð´ Ð¾Ð²Ð°Ñģ
ĠÐľ ÑĥÐ½
Ð¸ÑıÐ»ÑĬÑĥÐ» ÑĬ
Ð¥Óı Ð°ÐºÑĬÐ¸ÐºÑĬ
ĠÐķ Ð²
Ð³ÑĮ Ð°Ð»
ĠÐ²Ñĥ Ð³Ð¸Ð»
ĠÑģ ÐµÐº
ĠÐ± Ð°ÑĨÓıÑĨÓıÐ°Ð´
ÐµÑģ Ðº
ĠÐ¶Ð¸Ð´Ðµ ÑĨÐ°
ĠÑĥÑĩ Ð°ÑģÑĤ
Ð¸Ð¼ ÑĥÑħÓıÐ°Ð¼Ð°Ð´
Ð¸ÑıÐ»ÑĬ ÑĥÑħÑĬ
Ð¾ÑĤ ÐµÐº
ĠÐº Ð¸ÑĢ
ĠÑĦ Ð¾Ð½
Ðº Ð¾Ð²
ÐµÑĢ Ð³
ĠÐ¼ÑĥÐ½ Ð°Ð³ÑĮÐ°Ð»
Ð¸Ðº Ð°Ð»
ÑĥÐ³Óı Ð°Ð´Ð°Ð½
ĠÐ³ÑĮÐ°ÑĢ Ð¸
ĠÐ´Ð°Ð½Ð´Ðµ Ð»ÑĬÐ¸ÑıÐ»Ð´Ð°
ĠÐ³ÑĮÐµÑĩÓı Ð¸Ð»Ð°Ð½
Ðĸ Ð°ÐºÑĬÐ°
ĠÑħÑĥÑĤÓı Ð°Ð½Ð°
Ð°ÑĢ Ð°Ð·Ð´Ð°
Ð°Ñģ Ð°ÑĢ
ĠÐ¢Óı Ð°Ð´
ĠÐ¥Ð°Ñģ Ð°Ð²ÑİÑĢÑĤ
ĠÐ¡ Ð¸ÑĢ
ÑĥÐº ÑĥÐ¼
ĠÐļÑĬÑĥÑĢ ÑĬ
ĠÑħÓı ÑĥÑħÑĮ
ĠÐ³ÑĥÑĢ ÐµÐ»
ĠÐ¼Ð°Ð´ ÑĥÐ³ÑĮÐ°Ð»
ĠÐ± Ð¸Ñī
ĠÑĢ Ð°Ð»ÑĬ
ÑĥÑħ ÑĥÐ¼
Ð¸Ð½Ð°Ð± ÑĥÐ½
ĠÐ±Ð¸ÑħÑĮÐ¸Ð·Ð°Ð± ÑĥÑĢÐ°Ð±
ĠÐºÐº ÑĥÐ½Ð°
ÐµÐº ÐºÑĥÐ½
ĠÐ³ÑĢÐ°Ð¼ Ð¾ÑĤ
Ñħ ÓĢ
ĠÐ²Ñĥ ÐºÓĢ
ĠÑĤÓıÐ¾ÑĨ ÐµÐ±Ðµ
ĠÑħÓı Ð°Ð¹
ĠÑĢÐµ ÑĩÓı
ĠÐĳ Ð°ÑĢÐº
ĠÑĢÐ°Ð³ÑĮ ÑĥÐ½
ĠÐ³ÑĮ ÑĥÐºÑĬ
ĠÑħÓıÐ°Ð»ÑĤÓı Ð¸Ð³Ð¸
âĢ ĵ
ÑĨ ÓĢ
ĠÑĥÐ»Ðº Ð°ÑıÐ»ÑĬÑĥÐ»
ĠÐ± Ð°Ð³ÑĬ
ĠÑĢÐ¾Ñģ ÑĥÐ½
ĠÐ±Ð°Ñĩ ÑĥÐ½
ĠÑĢÐ°Ð³ÓıÐ°Ð» Ð´Ðµ
ĠÐºÑĬÐ¸Ñģ Ð¼Ð°ÑĤ
ĠÑĢÑĥÐ³Ð¸Ð» Ð°Ð½
Ð°ÑĢ Ð±
ĠÐ³Óı Ð°Ð¼Ð¼Ð°Ð±
ĠÑĤÐµÑħ Ð½Ð¸Ðº
Ð»ÑĬÑĥÐ» ÐµÐ±
Ð°ÑĢÐ°Ð» Ð³Ð¸
ĠÐłÐ¾ÑģÑģ Ð¸ÑıÐ»Ð´Ð°
Ð°Ñı Ð²
Ð¸ÐµÐ² Ð°Ñģ
ĠÐ¼Ð¸Ð»Ð» Ð¸Ð¾Ð½
ÑħÑĬÐ² Ð°Ð³Óı
ĠÐºÐ¸Ð½ Ð°Ð·ÐµÐ³Ð¾
ĠÐ³ÑĮ ÑĥÐ¼
ĠÐ½Ð¸Ð¶Ðµ Ðµ
Ð¾Ð±ÑĢÐ°Ð½ Ð¸ÑıÐ»ÑĬÑĥÐ»
Ð°Ð½ Ð°Ð·ÑĥÐ»
ĠÐĲ Ð´
ÐĲ Ð¼
ĠÐ¼Ð°ÑĪ Ð¸Ð½
ĠÑħÓıÑĥÐºÑĥÐ¼ Ð°ÑĤÐ°Ð»ÑĬÑĥÐ»
ÑĤÓı ÑĥÐ½
ÐµÐ´ ÑĥÑħÑĬ
Ġ3 0
ÐĶ ÑĥÐ½
ĠÑģÐ¿Ð¾ÑĢÑĤ Ð°Ð»ÑĬÑĥÐ»
ĠÐĴÐ°ÑĤÓıÐ°Ð½ Ð¸ÑıÐ±
ĠÐ°ÑħÓı Ð¸
ĠÐ» Ð¸ÑĤ
ÑĥÑģ Ð»Ð¸Ð¼
ĠÑĢÐ°ÐºÓı Ð±
Ð»ÐµÐºÑĤ Ð¸Ð²
ĠÐ¼ Ð°ÑħÓı
ÐµÐ½ ÐµÑĢ
ĠÐ¾ ÑĢÐ³
Ð¾Ðº ÑĥÑĢ
ĠÑĨ Ð¸Ð½
ĠÑĤÓıÐ¾Ð±Ð¸ÑĤÓı Ð¸Ð·Ðµ
ĠÐ½ÑĥÐ¶Ðµ Ð´Ð°
ĠÐº Ð°Ð¿
Ð¸Ð± Ð»Ð¸
ĠÐ³ÑĮÐ¾ÑĢÐºÑĮ Ð¾Ð²
ĠÐ¦Ð¾ Ð³Ð¸
ĠÐ³ÓıÑĥÐ½ Ð³ÑĥÑĤÓı
Ð°Ð³Ð¾ Ð¼ÐµÐ´
ĠÐ¸Ð½ÑĤÐµÑĢ Ð½
ĠÐ´ ÐµÐº
ĠÐ°ÑħÓı Ð°Ð½Ð°
ĠÐºÑĬÐ°Ð´ ÑĢÑĥ
Ð½Ñĭ Ð¹
ĠÑħÐ°Ð» Ð°ÑĤ
ĠÑĤÑĥÑĪ Ð¼Ð°Ð½
ĠÑħ Ð¸ÑģÐ°
ÐµÐ¹ Ð³Ð¸
ĠÐĿÑĥÑĢÐ¼ ÑĥÑħÓıÐ°Ð¼Ð°Ð´
ĠÑĢ Ð¸ÐºÑĮ
ĠÐĵÑĮ Ð¸ÑĤÓı
ĠÐ±Ð°Ñĩ Ñĩ
Ð¸Ð±Ð»Ð¸ Ð¾ÑĤÐµÐº
ĠÑĥÐ½ ÐºÑĬÐ¾
ÑĥÐ» Ð°ÑĢÐµÐ±
Ð· Ð°Ð±Ð°Ð·Ðµ
ĠÑĨ ÐµÐ±ÐµÑģÐµÐ±
ĠÐ¼ Ð¾ÑĨ
ÑĢÐ°Ð½ Ñģ
ĠÐĵÑĮÐ°Ð± ÑģÐ°Ð³ÓıÐ°ÑĤ
ĠÐ³Óı Ð°ÑģÑĢÑĥ
ĠÐ³ÓıÐ°Ð´ Ð°Ð»
ĠÑĤÓıÐ¾ÑĢÐ¸ÑĤÓı ÑĥÐ»ÐµÐ»
ĠÑħÑĥÑĢÑħ Ð°ÑĢÐ°Ð»
Ð¸ÑĤÐµÑĤ Ð°Ð»ÑĬÑĥÐ»
ÑħÑĬ Ð°Ð½
ĠÐĵÑĮÐµÐ´ Ð¸Ð½Ð°Ð»
ĠÐ± Ð°Ð½Ð°
ĠÐ±ÑĥÐ³Ð¾ Ð°Ð½
Ð°Ðº ÑĤ
ĠÐ¼ Ð»
ĠÐ¹ Ð¸Ð³
ĠÑħ Ð¸Ð½
ĠÐĳ Ð°Ð¹
ĠÐ¸Ð½ ÑģÑĤÐ¸ÑĤÑĥÑĤ
ĠÐ»ÑĬÐ¸ÐºÓı Ð°Ð²
ĠÐ³ÑĮÐµÐ» Ð´Ðµ
ĠÑĢÐ°Ñĩ ÑĥÐ½
ĠÐ±Ð¸ÑħÑĮ ÑĥÐ½
ĠÐĵÑĬ Ð¾ÑĢÐºÑĮ
ĠÐ³Óı ÑĥÑĢÐ°Ð±
Ð°Ð¼ Ð°
ĠÐłÐ¾Ñģ Ð´Ð°Ð»
ĠÑīÐ¸Ð± Ð½Ð¸Ð³Ð¸
ĠÐĵ ÑĥÑĢ
ĠÐ±Ð°ÐºÓı Ð°Ð·Ð´Ð°
ĠÐ±Ð°ÑĤ Ð°Ð½Ð°
ĠÐ¶Ð°Ð¼Ð³Óı Ð¸ÑıÐ±
ĠÐ³ Ð¾ÑĢ
ĠÑĩ Ð²Ð°Ñħ
Ð¸ÑĩÓı Ð¾Ð½Ð¸
Ð°Ð» Ð³Ð¾
ĠÐºÑĮ Ð°Ð±
ĠÐ´ÑĥÐ½ÑıÐ» Ð°Ð»Ð´Ð°
Ð´ Ð°Ð³ÑĮ
ĠÑĤ Ð°Ñħ
ĠÐ¿ Ð»Ð°Ð½
ĠÑħÑĬÐ² Ð°Ð´Ð°ÑĢÑĥÑħÑĬ
Ð² Ð¾ÑĢ
ĠÐ³ÑĮÐ°Ð± ÑĥÐ»Ð°Ð°Ð½
ĠÑģÑĥ Ð³ÑĬÑĥÐ»
ĠÑī Ð°Ðº
ĠÑģÐ¾Ð½ Ð°Ð»
ĠÑĤÓıÑĥÐ± Ð°Ð·Ð°Ð±
ĠÐľÐ°ÑħÓı Ð¼ÑĥÐ´
ĠÐ± Ð°Ð»ÑĬÐ³Ð¾
Ð² ÑĥÑģÑģ
ĠÑģÐ¾Ð½ Ð°Ð»Ð´Ðµ
ĠÐ±Ð¸ÑĤÓı ÑĥÐ½
ĠÐ¼ Ð°ÑĢÐº
ĠÐ¾ ÐºÑĤ
Ð» ÓĢ
ĠÐº Ð°ÑĢ
ÑĩÓı Ð²Ð°ÑĢ
ĠÐĵÓı ÑĥÑģÐ¼Ð°Ð½
ĠÐ±Ð¸ÑħÑĮÐ¸Ð·Ð°Ð± ÑĥÐ½
ĠÐĳ Ð°ÐºÑĬ
ĠÑĢÐ°ÐºÑĮ Ð°Ð»Ð´Ð°
ÐĿ Ð¸Ð¶
ĠÐ³ÓıÐ¾Ð»Ð¸Ð» Ð°Ð·ÑĥÐ»
ĠÐº Ð°Ð¼Ð¸Ð»
Ð°ÐµÐ² Ð°ÑģÑĥÐ»
ÑĢ ÐµÑĤ
ĠÑĩ Ð¸Ð³Ð¸
ĠÐ¨Ð°Ð¼Ð¸Ð» Ð¸Ð»
ĠÑĢ Ð°Ñģ
Ð¸ÑıÐ» Ð³Ð¸
ĠÐ¼ÐµÐ´ Ð¸ÑĨÐ¸Ð½
ĠÐ±ÐµÑĤÓıÐµÑĢ Ð³ÑĮÐ°Ð½
ĠÐ¸Ð½Ñģ ÑĥÐ»
ĠÑģ Ð¸Ñı
ĠÐºÑĮ Ð¾
ĠÐĵÓı Ð¸Ñģ
ĠÐ¿Ð°ÑĩÐ°Ð»Ð¸ÑħÑĬ Ð°Ð»ÑĬÑĥÐ»
ĠÐ¼Ð¸Ð»Ð» Ð¸ÑıÐ±
ĠÐ²Ð°ÐºÐ¸Ð» Ð·Ð°Ð±Ð¸
ÐµÑĢÐ± ÐµÐ½ÑĤ
ĠÐºÐºÐ² ÐµÐ·Ðµ
ĠÐ½ Ð¾
ĠÐŁ ÑĥÑĤÐ¸Ð½
Ð°ÐµÐ² Ð°
Ð°ÑĤ Ð¸Ð²Ð¸ÑıÐ±
ĠÐ±ÑĥÐºÓı Ð°Ð½Ð¸Ð½
ĠÐ³ÑĮÐµÑĩÓı Ð¾Ð½Ð¸
ĠÑĤÓıÑĥÐ± Ð°Ð½Ð³Ð¾
ĠÐºÐ¾Ð» Ð»ÐµÐºÑĤÐ¸Ð²
Ð½ ÑĥÑģ
ĠÑĩ Ð°Ð½
ĠÐ¿Ð¸ÐºÑĢÑĥ ÑıÐ»Ð´Ð°
Ð»Ð°Ñģ ÑĤ
ĠÐ³ÑĮÐ°Ð´ Ð¸Ð½
Ð¾ ÑĦ
Ð· Ð°Ð¼
Ð°Ð´ ÐµÑĢÐ¸Ð»
ĠÐ³ÑĮÐ°Ð± ÑĥÑĢÐ°Ð»
Ð± Ð¾ÑĨÓı
Ð°Ð»ÑĬÑĥÐ» Ð°
ĠÐ³ÑĮÐ¾ÑĢÐºÑĮ Ð¾ÑģÐ°
ĠÑĩ ÐµÑĢÑħ
ÑģÐº Ð¸Ð¹
ĠÑħÓıÐ°Ð»ÑĤÓı ÑĥÐ»ÐµÐ±
ĠÐ±Ð¸ÑħÑĮ Ð¸Ð½
ĠÐ¼Ð°ÐºÑĬ Ð°Ð»
Ð² ÐµÐ½
Ð°Ð¹ ÑĪ
ĠÑĨÓı Ð¾ÑĢ
ĠÐĲÐ± Ð°ÐºÐ°ÑĢ
ĠÑĥÑģÑĤ Ð°ÑĢ
ĠÑģÐ¿ ÐµÑĨ
ĠÑĩÐ¸ÑıÑģ Ð´Ð°
ĠÑĢÐµ Ðº
Ð°Ð»Ð´Ðµ Ð³Ð¸
ĠÐºÐ² Ð°Ð»
ĠÐ³ÑĮÐ°Ð½ Ð¸ÑĢ
ĠÐĿÐ¸Ð¶ ÐµÑĢ
ĠÐ±ÐµÑĩ ÐµÐ´
ĠÐ³ ÐµÐ½
ÐºÑĢ Ð°Ð¸Ð½
Ð¸Ð» ÐµÐ»
ĠÐ¿ ÐµÐ½Ñģ
ĠÐ½ÑĥÐ¶Ðµ Ðµ
ĠÐ°Ð½ÑĨÓı Ð³Ð¾
ĠÑįÑĢÐºÐµÐ½ Ð°Ð±
Ð»ÑĬÑĥÐ» ÐµÐ»
ĠÐł Ð°Ð¹Ð¾Ð½Ð°Ð»ÑĬÑĥÐ»
ĠÐ¡ Ð°Ð³Óı
ĠÐ³ÓıÐ¾Ð» ÐµÐ±
ĠÐĵÑĬ Ð¸Ð·
ĠÑĨÐµÐ±ÐµÑĤÓı ÐµÐ·Ð°Ð±
ĠÑĢÐ°Ð¹Ð°Ð´Ð¼Ð¸Ð½Ð¸ÑģÑĤÑĢÐ°ÑĨ Ð¸ÑıÐ»ÑĬÑĥÐ»
ÓıÐ°Ð» Ð´Ð°
ĠÑĥÑĩ ÑĢ
ĠÑĢÐµÑħÑģ Ð°ÑĢÐ°Ð±
Ð± ÐµÐº
ĠÐºÑĮ ÑĥÑĢÐ°Ð»
ÑĥÑģ Ð½Ð°ÑħÑĬ
Ð°Ð´ Ð¶
ĠÐ³ÑĬ ÑĥÐ½
ÐµÐ² Ð°Ñģ
ĠÐĶ ÐłÑıÐ»ÑĬÑĥÐ»
ĠÑĢÐ°Ð³Óı ÑĥÐ»Ð°
ĠÐ³ÑĮÐ°Ð» Ð¼Ð°Ð³ÑĬ
ĠÐ±ÐµÑĤÓıÐµÑĢ Ð°Ñģ
ĠÑĤ ÑĥÑħÑĥÐ¼
Ñī Ð¸Ð½Ð°Ð»
ĠÑĤÓıÑĥÐ± Ð°ÑĢÐ°Ð±
ĠÐľÐ°ÑħÓıÐ°ÑĩÑħÑĬÐ°Ð» Ð°ÑıÐ»ÑĬÑĥÐ»
ÐŃ ÑĢÐºÐµÐ½Ð»ÑĬÐ¸
ĠÑİ Ð±Ð¸Ð»
Ðľ ÑĥÑħÓıÐ°Ð¼Ð°Ð´
ĠÐ±Ð°ÑıÐ½ Ð°Ð»
ĠÐ±Ð°ÑıÐ½ Ð°Ð·Ð´Ð°
ĠÐ³ÑĮÑĥÐ¼ ÐµÑĢ
ĠÐ¿ÑĢ Ð¾ÐºÑĥÑĢ
ĠÑĢÐµÑħÑģ Ð°ÑĢÐ°Ð»
ĠÐ³ÓıÐµÐ½ÐµÐº Ðº
Ð¾Ð» ÐµÐ¹
ÑħÑĬ Ð¸Ð½
ÐĶ Ð¸ÑĢ
ĠÐ´Ð¸Ð² Ð°Ð½
ÑĤ Ð°Ð½
Ð¸Ñģ ÐµÐ·ÑĥÐ»
ÐĵÑĮ Ð°Ð½
Ð°Ð±Ð¸Ð» ÐµÐ»
ĠÑģÑĥÑĢ Ð°ÑĤ
ĠÐļ Ð°Ð¼Ð¸Ð»
ĠÐł Ð°Ð¶
ĠÐĽ ÐµÐ½
ĠÑĢÐ°Ð³ÑĮ Ð°Ð½Ð°
ĠÐ³Ð¸Ð¼Ð½ Ð°Ð·
ĠÐºÑĬÐ¾ÑĤÓı Ð¸
ĠÐ³Óı Ð°Ð»Ð°Ð¼
ĠÑĤ Ð°ÑĢÐ°Ð±
ĠÑĩ Ñĥ
ĠÐ± Ð¸Ð±Ð»Ð¸Ð¾ÑĤÐµÐº
ĠÐĲÐ¼ Ð¸Ð½
ĠÑĩÓı Ð°ÑĢÐ°Ð»
ĠÐºÑĬÐ¾ ÑıÐ»
ĠÐ±ÐµÑĤÓıÐµÑĢ Ð°Ð²
ĠÐĲÐ²Ð°ÑĢ Ð°Ð³
ĠÐ¼Ð°ÑĢÐº Ð°Ð·
Ð· Ð°Ð±
ĠÑĩÓıÑĥÐ¶ ÑĥÐ³ÓıÐ°Ð´Ð°Ð½
ÑĢ ÑĥÑģÑģ
Ð± ÑĥÐ·
ĠÑĢÐ°ÑĩÓı Ð°Ð½Ð°
ĠÐ¿ ÐµÑĢ
ĠÑĨÓıÑĥÐ½ ÑĥÐ»
ĠÐ»ÑĬÐ°Ð·Ð°Ð± ÑĥÐ»ÐµÐ±
ÑĩÐ°Ð³Óı Ð¸
Ð°Ð½ ÑĩÓı
ĠÐ³ÓıÑĥÐ¼ÑĢÑĥ ÑıÐ»Ð´Ðµ
ĠÐ±ÐµÑĢÐ±Ð°Ð»Ð°Ð³ÑĮ Ð¸
ĠÐºÓı Ð¸ÑıÐ±Ð³Ð¾
Ġ1 6
ĠÐ´ÑĥÐ½ Ð³Ð¸
ĠÐ± Ð¸
ÐµÑĢ Ð¼
ĠÐľ Ð°Ð»
ĠÐºÑĥÐ¼ÐµÐº Ð°Ð»ÑĬÐµ
ĠÑĥÐ¼ÑĥÐ¼ ÑĥÐ·
ĠÐ´Ð°Ð½Ð´Ðµ Ð»ÑĬ
ĠÐ´Ð°Ð½Ð´Ðµ ÑĩÓı
ÐĲ Ñħ
ĠÐ¥Ð°Ð´ Ð¸Ð¶
ĠÐ¸ ÑĢ
ÐĵÑĮÐµÐ´ Ð¸Ð½
ĠÐ³ÓıÐ¸Ð»Ð» Ð°
ĠÐº Ð»
ĠÐĽÑĬ Ð¸ÐºÓı
ĠÐ± Ð¸ÑħÑħ
ĠÑĢÐµ ÑĨÑĨ
ĠÐļ Ð°Ð·
ĠÑħÐ°Ñģ Ð¸ÑıÑĤ
Ð°Ð» Ð¸ÑıÐ»
Ð°Ð´ Ð°Ð±
ĠÐ±ÑĥÐºÓıÐ¸Ð½ Ð°Ð»ÑĬ
ĠÐ¡ Ð°Ð»
ĠÐ¸Ð½ÑģÐ°Ð½ Ð°ÑģÑĥÐ»
ĠÐ°Ð²ÑĤ Ð¾Ð¼
Ð°Ð» Ð»ÑĬÑĥÐ½
Ð°Ð½ Ð·
ĠÐ¿ Ð°Ñģ
ĠÐ¥ÓıÐ°Ð¶ Ð¸
ĠÐ¶Ð¸Ð³ Ð°ÑĢ
ĠÐ±Ð¾ÑĨÓı Ð¸
ÑĨ Ð¸ÑıÐ»Ð´Ð°
ĠÐ±Ð°Ð¶ Ð°ÑĢÑĥÐ»
ĠÐºÑĬÐ°Ð¹ Ð¸
ĠÐĶ Ð¸Ð±Ð¸ÑĢ
ĠÐ½ÑĥÑħÐ¼Ð°Ð»ÑĬ Ð¸ÑıÐ»Ð´Ð°
Ð°Ð´ ÐµÑĢ
ĠÐ³ÑĮÐµÑĩÓı ÐµÐ²
ĠÑĦ ÐµÐ²
ĠÑĤÓıÐ°Ð¼ ÑĥÐ½
ÐµÐ¶ Ð´ÐµÐ½
Ð°Ð³Óı ÐµÐ»
ĠÐ¿ Ð¾Ð´
ĠÐĳ ÑĥÐ¹
ĠÐľÑĥÑĢÑĤ Ð°Ð·
ÑĢ Ð°Ñĩ
ĠÐĳ Ð¾ÐºÑĮ
ĠÐºÐ² Ð°ÑĤÓı
ĠÐ»ÑĬÐ°Ð» ÐµÐ»
ĠÑĢÐµÐ´Ð°Ðº ÑĤÐ¾ÑĢ
ĠÐ¢ÓıÐ°Ð´Ðµ Ð³ÓıÐ°Ð½
ĠÐ³ÑĥÑĢ Ð¾Ð³Ð¾
ĠÑĢÐ°Ð³ÑĬ Ð´Ð°
ĠÐ¿Ð°ÑĩÐ°Ð»Ð¸ÑħÑĬ Ð¸ÑıÐ±
ÑĢ Ð°ÑĦ
Ð°Ð³ Ð°ÑĢ
ĠÑĤ Ð°Ð²
ĠÐ³ÓıÑĥÐ¼ÑĢÑĥ Ð´ÑĥÐ»
ĠÑıÑĢ Ð°Ð³ÑĬ
Ġ5 0
Ð½ Ð°Ðº
ĠÑĤ ÑĥÑģÐ½Ð°ÑħÑĬ
ĠÐ³ÓıÐ°Ð´Ð°Ð¼ Ð°Ð»Ð³Ð¸
ĠÐ¿ÑĢ Ð¸Ð·
ĠÑĢÐ°ÑħÑĬ Ð°Ð»Ð´Ð°
ĠÐ²ÑĥÐºÓı Ð¸Ð½Ðµ
ĠÐ§ Ð°ÑĩÐ°Ð½
ĠÐ±Ð°Ñĩ Ð¸Ð½Ðµ
Ð ķ
ÐµÐ¹ Ð¸Ð½
ÐµÐ¹ Ð¸Ð»Ð°Ð½
ĠÐºÑĥÑĨ Ð°Ð»Ð´Ð°
ĠÐºÑĬÐ¾ ÑıÐ»Ð´Ðµ
ÐºÐ¾Ð» Ð°
ĠÑĨÓĢ Ð°ÑĢ
Ð± Ð°ÐºÐº
ĠÑĢ Ð¸Ñĩ
Ð¾Ð» ÐµÐ²
ĠÐ¾ ÑĢ
ĠÑı ÑĩÓı
Ð¸Ð· Ð°Ð±Ð¸
ĠÑĢÑĥÐºÑĬ Ð°Ð»ÑĬÑĥÐ»
ĠÐ¼Ð¾ÑĨÓı Ð°Ð»ÑĬ
ĠÐ¥ÓıÐ°Ð» ÑĤÓı
ÑĥÑĢ ÑĥÑģ
ĠÐ±Ðµ ÐºÑĮ
ÑĦ Ð¸ÑĨ
ĠÐ»ÑĬÐ¸Ð¼Ð°Ð» Ð°Ð·Ð´Ð°
ĠÑģÐ¿ÐµÑĨ Ð¸Ð°Ð»Ð¸ÑģÑĤ
ĠÐ³ÑĮ Ñĥ
Ð°ÑĢ ÑĮ
ÐµÑĢ ÐµÑģ
ĠÐľ Ð°Ð³Ð¾Ð¼ÐµÐ´
Ðµ ÑıÐ»Ð´Ðµ
ĠÐ±ÑĥÐ³ Ð¸Ñī
ĠÐ±Ð¾Ñģ Ð°ÑĢÐ°Ð±
ĠÐ°Ð¿ ÑĢ
Ð°ÑĢ Ð¸Ð»Ð°Ð½
ĠÑĤÓı Ð°ÑĤ
Ð¸ÑĤ Ð¾ÑĢ
ĠÑħÑĬÐ² Ð°ÑĢÐ°Ð»
ĠÐ³ÓıÐ¾Ð»Ð¸Ð» Ð°Ð»
ĠÐ±Ð°ÑħÓıÐ°ÑĢ Ñĩ
ĠÐ´ÐµÐº Ð°Ð±
Ð°ÑĤ ÑĤÐ°
ĠÑĨÐ¾ ÑıÐ²
ĠÐłÐµÑģÐ¿ÑĥÐ±Ð»Ð¸Ðº Ð°ÑıÐ»ÑĬÑĥÐ»
Ð¸ÑıÐ» Ð´Ð°Ð³Ð¸
ĠÐ¸ Ð¼Ð°Ð½
ĠÐ³Ð°Ð·ÐµÑĤ Ð°Ð»Ð´Ð°
ĠÐ©Ð¸Ð± Ð°Ð±
ĠÐ³ Ð¾
ĠÑħÓıÐ°Ð»ÑĤÓı ÑĥÐ´Ðµ
ĠÐ±Ð¸ÑħÑĮ Ð°Ð½Ð°
Ġ19 7
Ð¸Ð°Ð» Ð¸ÑıÐ»
Ñħ ÑĥÐ»
Ð°Ð»ÑĬ Ð°
ĠÐ³Óı Ð°Ð¶Ð°Ð¸Ð±
ĠÐ±ÑĥÐ³ÐµÐ± Ð°Ð»Ð¸
ĠÐ¥Óı Ð°Ð±Ð¸Ð±
ĠÐ¸ÑĢÐ³ Ð°Ð´ÑĥÐ»Ð°Ð±
ĠÑĢÐµÐºÓı ÐµÐ»
ÐµÑĢ Ð°ÑĤÑĥÑĢ
Ð°Ð¶ Ð¸Ð´
ĠÐłÐ¾Ñģ Ñĥ
ĠÐ³Óı Ð°Ð»
ĠÐ¿ Ð¸ÑĪ
ĠÑħÓı Ð°ÑĢ
Ð°Ð±Ð°Ð· Ð´Ð°ÑģÐ°
ĠÐ±Ð¸ÑĩÑĩ Ð°Ð½
ĠÐ£ ÐºÑĢÐ°Ð¸Ð½
Ð°Ð³ÑĬ Ð°Ð»
ĠÐ¦Óı Ð¸ÑıÐ±
ĠÑħÐ¸ÑĢ Ð¸ÑıÐ±
Ð· Ð°Ð±Ð°Ð·Ð´Ð°
ÑĢ Ð°ÐºÑĮ
ĠÐĺ Ð¼
ĠÐºÐ°Ð³ÑĬ Ð°ÑĤ
ĠÑħÐµÑħ Ð³Ð¾
Ð¸Ðº Ð¸ÑıÐ»
ÑĥÑĤ ÓĢ
ĠÑĥÑĩÑĢ ÐµÐ¶Ð´ÐµÐ½
ĠÐ¸Ð½ ÐºÐ°ÑĢ
ĠÐºÓıÑĥÐ´ Ð¸ÑıÐ»
ÑĥÐ»ÑĮ ÑĤ
ÐµÐ´ÐµÑĢ Ð°Ð»Ð¸ÑıÐ±
ÐµÑĦ Ð¾Ð½
Ð°Ð» Ð°Ð»
ĠÐ£ Ð¼
Ð¸Ð» Ð³Ð¸
ĠÐ°Ñģ ÐºÐ°ÑĢ
Ð¸ÑģÑĤ ÐµÐ¼
ĠÐ»ÑĬÐ°Ð» ÐµÐ²
ĠÐ¼Ð°ÑģÑĬ Ð°Ð»
ĠÐº Ð²Ð°ÑĢ
ÐµÑĢ Ð½
ÐµÑģ ÐµÐ²
ĠÐ¼Ð¸Ð»Ð» Ð°ÑĤ
ĠÐķÐ² ÑĢÐ¾Ð¿
Ġ Óı
Ð°Ð³Óı Ð°ÑĢÐ°Ð±
ĠÑĢÐ°ÐºÑĮ Ð°Ð»
ĠÐĵÓıÐ°Ð» Ð¸Ð±
1 0
Ð² Ð°
Ð»ÑĬ Ð¸Ð¼Ð°Ð»
ĠÑĢÑĥÐºÓı Ð°
ĠÐ¼ÑĥÑģÑĤÐ°ÑħÓıÐ¸ÐºÑĬ Ð»ÑĬÐ°Ð½Ð°
Ð¸Ð¼ Ð¸ÑĢ
ĠÐĸ Ð°Ð¼
ĠÐ¾ÑĢÐ³ Ð°Ð½
Ð°ÑĢ Ð³
ĠÐ½ ÑĥÐ³Óı
ÑĢÑĥ Ð´Ð¸Ð½
ĠÑĢÑĥÑħÓı Ð¸ÑıÐ±
ÑĥÐ»ÐµÐ¹ Ð¼Ð°Ð½
ĠÐºÐ¸Ð½Ð°Ð· Ð´Ð°Ð³Ð¾
ÑĥÐ½ Ð¸
ĠÐ³ÑĮ Ð°Ñİ
ĠÐ³Óı Ð°Ðº
Ð¸Ð» Ð¸Ñī
ĠÐ³ÑĮÐµ ÑĩÓĢ
Ð°ÑĤÓı Ð°Ð»ÑĬ
ĠÐł Ð°Ð³ÑĬ
ĠÐ¶Ð¸Ð´Ðµ Ðµ
ĠÐ³ÑĬÐ¾ÑĢ Ð»ÓĢ
ĠÑįÐº Ñģ
ĠÑıÑĩ ÑĥÐ½
ĠÐĸ Ð¸Ð½Ð´Ð¸ÑĢ
Ð³ÓĢ Ð°Ð½
Ð¸Ð± Ð³Ð¾
ĠÑĤÓıÐ°Ð´ ÐµÑħÑĥÐ½
ĠÐ»ÑĬÑĥÐ³ÑĮ Ð¸Ð½Ðµ
ĠÐ¼ Ð°Ð³ÓĢ
ĠÐ³ÓıÐ°ÑħÑĮÐ°Ð» Ð»ÑĬ
Ñģ Ð¼ÐµÐ½
ĠÐ² Ð°Ñħ
ĠÐ¸ÑĢ Ñģ
Ðµ ÑıÐ»
ĠÑħÐ°Ð»ÐºÑĬ Ð°Ð»ÑĬÐµ
ĠÐ°Ð½ Ð»ÑĬ
ĠÐ¸ÑħÑĤÐ¸ÑıÑĢ Ð°Ð»
Ðº Ðº
ĠÐ°Ð² ÑĤÐ¾ÑĢ
ĠÐĶ ÐµÑĢÐ±ÐµÐ½ÑĤ
ĠÐ³ÓıÑĥÑĨÓı Ð¸Ð·Ðµ
00 0
ĠÐ¾ÑĤÐ´ÐµÐ» ÐµÐ½
ĠÐŁ Ð°ÑĩÐ°Ð»Ð¸ÑħÑĬ
ĠÑħÑĬÐ² Ð°Ð½Ð°
ĠÑħÐ°Ð»ÐºÑĬ Ð°Ð»Ð´Ð°
Ð°Ð»ÑĬÑĥÐ» Ð³ÑĥÐ½
ÐµÐ· Ð°Ð²
ĠÑĤÓıÐ¾ÑĨ ÐµÐ²
ĠÐ¥ÓıÐ°Ð¼Ð·Ð°ÑĤ Ð¾Ð²
ÑģÑĤÐ²Ð¾ ÑıÐ»ÑĬÑĥÐ»
ĠÐĴ Ð»Ð°Ð´
ĠÐ¿Ð¸Ðº ÑĢÐ°Ð±Ð¸
ĠÑģ Ð¸ÑģÑĤÐµÐ¼
ĠÐ³ÑĮÐ°ÑĢ ÑĥÐ»ÐµÐ±
ĠÐ¦ Ð¸Ð½Ð³Ð¸
ĠÐ³ÓıÐ¾Ð´ Ð¾ÑĢ
ĠÐ³ÑĮÐ°Ð» Ð±
Ð°Ð» Ð¸Ð½
Ð± ÐµÐ³
ĠÑĢ Ð°ÑĨÓıÑĨÓı
ĠÑĢÐµ Ñī
ĠÐ¼Ð°Ð³ÓıÐ°ÑĢÑĥÐ» Ð°Ð·ÑĥÐ»
ĠÑĢÑĥÐ³Ð¸Ð» Ð°
ĠÐľ ÑĥÑĢÐ°Ð´
Ð¸Ð² ÐµÑĢÑģ
Ðº Ð²Ð°Ð»
ĠÐ² Ð°Ð»Ð°Ð³ÑĮ
Ðł Ð°Ð¹Ð¾Ð½Ð°Ð»ÑĬÑĥÐ»
ÑĢ Ð°Ñģ
ĠÑĩ Ð°Ð½Ð³Ð¸
ĠÐ¼ Ð¸ÐºÑĮ
ÑĢÑĥ Ð¿
Ñī Ð¸Ð½
ĠÐ¢ ÓĢ
ĠÐ¸ÑĢÐ³ Ð°ÑıÐ»Ð´Ð°
Ð³ÑĮ Ð°Ðº
Ð³ÑĮ ÐµÐ½
ĠÑĨÐ¾ Ð³Ð¾
Ġ19 6
ĠÐ½ÑĥÑħÐ¼Ð°Ð»ÑĬÑĥÐ» ÐµÐ»
ĠÐ³ÓıÐ°ÑĢÐ°ÑĨ Ð³Ð¸
ÐµÐ» Ð°Ð»Ð´Ð°
ĠÐĶ Ð¸Ð»Ð¸Ð¼
ĠÐĳ Ð¸ÑīÑĥÐ½
ĠÐ³ÑĬ ÑĥÑĤÓı
ĠÐ² Ñĭ
ĠÑĩ Ð°ÑĢÐ°
ĠÐ²Ð°ÑħÑĬ Ð°ÑĢÐ°Ð²
ĠÐ½ÑĥÐ¶Ðµ ÑĨÐ°
ÑĥÐ» Ð°Ð»
ÐĶ ÑıÐ»ÑĬÑĥÐ»
ĠÑĢÐ°ÑĩÓı Ð¸Ð½Ðµ
ĠÑħÑĥÑĢÑħ Ð°ÑĢÐ°Ð±
Ð¸Ð» ÑİÑĢÑĤ
ĠÑħÑĬ Ð°Ð»
ĠÐĽÑĬÐ°ÑĢ Ð°ÑĤÓıÐ°
ĠÑģÐµÐº ÑĢÐµÑĤ
ĠÐĲ ÑģÐ»
ĠÐł Ð°ÐºÓıÐ°Ð»
ĠÐ³ÓıÑĥÐ¼ÑĢÑĥ ÑıÐ»Ð´Ð°
Ð²Ð¾ÑĢ Ñĩ
ĠÐºÓı Ð¸
Ġ20 2
ĠÐºÐ°Ð³ÑĬ ÑĤ
ĠÐĵÑĬÐ°Ð· Ð¸Ð¼ÑĥÑħÓıÐ°Ð¼Ð°Ð´
ĠÑĢ Ð¸
Ð·Ð°Ð±Ð¸ Ð³Ð¸
Ð¾ÑİÐ· Ð°Ð»ÑĬÑĥÐ»
ĠÑĢ Ð°Ð´Ð°Ð»
ĠÐľ ÑĥÑħÓĢ
ÑħÓı Ð°Ð±
ĠÐ³ÑĥÑĢ ÑħÓı
ĠÑĢÐ°Ð³ÑĮ Ð°ÑĢÐ°Ð±
3 0
ĠÑĤ ÑĥÐº
ĠÐĶ Ð¸Ðµ
ĠÐ¡ ÑĥÐ»ÐµÐ¹Ð¼Ð°Ð½
ĠÐľÑĥÑħÓıÐ°Ð¼Ð°Ð´ ÑĢÐ°ÑģÑĥÐ»
ĠÐ¶Ð¸Ð½ ÑĨÐ°Ð³Ð¾
ĠÐĵÓı Ð°Ð¹ÑĪ
ĠÐ²Ð°ÑħÑĬ ÑĥÐ½
Ð³ÑĥÑĤÓı Ð¸
Ð¸Ð½ÑĩÓıÐ¾ Ð³Ð¾
ÐĶÐ°Ð³ÑĬÐ¸ÑģÑĤÐ°Ð½ Ð°Ð»ÑĬÑĥÐ»
Ðº Ñģ
ĠÐ³ÓıÐ°ÑħÑĮÐ°Ð» Ð»ÑĬÐ¸Ð·Ðµ
ĠÑĪÐºÐ¾Ð» Ð°Ð»Ð´Ðµ
ĠÐ³ÓĢ ÐµÐ¼ÐµÑĢ
ÑĢ Ð¸
Ð°Ð· Ñĥ
ÑĤÓı Ð°Ð½
ĠÐ³ÑĬ Ð°Ð»
Ð°Ð·Ð´Ðµ ÑħÑĥÐ½
ĠÑıÑģ Ð»Ð¸
ĠÐ± Ð°Ðº
ĠÐĳ Ð°ÑĤ
ĠÐ¢Óı Ð¾Ð»
ĠÐ¼Ð°ÑĤ ÐµÑĢ
ĠÑĤÓıÑĥÑĢ Ð°Ð·Ð°ÑĢ
ĠÐ¡ Ð¡Ð¡Ðł
ĠÐ»ÑĬÑĥ ÐºÑĬ
ĠÐĵÑĮÐµÐ± Ð³Ð¾
ĠÐ±ÐµÑĢÑĨ Ð¸Ð½Ð³Ð¾
ĠÐ¿ÐµÐ´ Ð°Ð³Ð¾
Ð°ÑĢ Ð¾Ð²
ĠÐ¥ ÑĥÑĪ
ĠÐºÐ²Ð°Ð½ Ð¸Ð»
Ð»Ð¸Ð¼ Ð¿
ĠÐ¡Ð¾Ð²ÐµÑĤ Ð°Ð»ÑĬÑĥÐ»
ÐĲÐ¼ Ð¼Ð°
Ð½Ð°Ðº ÑģÐº
ĠÐĶ Ð¶
ĠÐĺ ÑģÐ»Ð°Ð¼
ĠÑħÓıÐ°Ð»ÑĤÓıÑĥÑħÑĬ Ð°Ð±Ð°Ð·ÑĥÐ»
ĠÐĳÐµ ÑĤÓıÐµÑĢ
ĠÐ¼Ð» Ð½
ĠÐ»ÑĬ Ð°ÑĢ
ĠÐĳ Ð¾Ð»ÑĬ
ĠÐ±Ð¸ÑħÑĮ Ð¸Ð·Ðµ
ĠÐ³ÓĢ Ð°Ð´
ĠÑħÑĥÑĤÓı Ð°ÑĢÐ°Ð»
ĠÐºÐ»Ð°ÑģÑģ Ð°Ð»ÑĬÑĥÐ»
ĠÐ´Ð°ÑĢÑģ Ð°Ð»
ĠÑĢÐ°ÑħÓı Ð°ÑĤ
Ð¹ Ð¸Ñī
ĠÐ¿ Ð°Ñĩ
ĠÑĨÐµÑĢÐµ ÑĤÓı
ĠÐľÑĥÑħÓı Ð°Ð¼Ð¼Ð°Ð´
ÑĮ Ñı
Ð°Ð² Ð°ÑĤ
Ð°Ð½Ð´ Ð¸Ð´
Ð¸ Ð³ÑĥÐ½
ĠÐ¦ ÓıÐ°Ð»
ĠÐ¸Ð· Ð½Ñĥ
Ð°ÑĢ Ð°ÑĤ
ĠÐ³Óı ÑĥÐ¶
ĠÐ»ÑĬ ÑĥÐ»
ĠÐ·Ð°Ð¼Ð°Ð½ Ð°Ð»ÑĬ
Ð¾Ð»ÐµÐ¹ Ð±Ð¾Ð»
ĠÐ³ÑĬÑĥÑĢ Ñī
ĠÑĢÐ°Ð· Ð¸Ð»ÑĬ
ĠÑĤÐµÐ» ÐµÑĦÐ¾Ð½
Ð ¯
Ð¾ ÐºÐ¾Ð»
ĠÐ¼ Ð¸ÑģÐº
ĠÑĩ Ð»ÐµÐ½
ĠÐ¶Ð¾ Ð³Ð¸
ÑģÑĤÑĢ ÐµÐ¼
ÐĲÑħ Ð¸ÑĢ
Ð°ÑĢÐ¾ Ð°Ð½
ĠÐ³ÑĥÑĢ ÐµÐ»ÑĬÑĥÐ»
ÑĥÑĨ Ð°Ð»
Ð¸Ð½Ð° ÑĥÐ»
ĠÐ²Ð°ÑĩÓı Ð°Ð½Ð°
Ð°Ð±Ð°Ð· Ð´Ð°Ð»ÑĬÑĥÐ½
ĠÑĢÑĥÐºÓıÐ¸Ð½ ÑĩÓıÐ¾
ĠÑĦÐ¾Ð½ Ð´
Ð°Ð± Ð´ÑĥÐ»
Ð¸Ð½ Ð¸Ð»
ÑĥÐ³ Ðµ
ĠÐ³ÓıÐ¾Ð»Ð¸Ð» Ð°Ð·Ð´Ð°
1 5
Ð°Ð¼ Ð¸ÑĢ
ĠÐ¼ Ð¾Ð½
Ð°ÑĪ Ð¸Ð´
ĠÐ´Ð°Ð½Ð´ ÑĩÓı
ĠÐ»ÑĬ Ð°Ð³ÓıÐµÐ»
ĠÐºÓı Ð¾Ð»Ð°ÑĢÐ¾
Ð°ÑĨ Ð¸ÑıÐ»Ð´Ð°
ĠÐºÐºÐ¾Ð» ÐµÐ²
ĠÐ¶Ð¸Ð³ Ð°ÑĢÐ°Ð±
ĠÑĤ Ð²Ð¾ÑĢÑĩ
Ð¾Ð» Ð´
Ð¾Ð» Ð°ÑĢÐµÐ±
ĠÐºÐº ÐµÐ»Ð°
Ġ19 8
ĠÐ¼Ð°Ð³ÓıÐ°ÑĢÑĥÐ» Ð°Ð»
ÐĲÐ» Ð»Ð°Ð³ÑĮ
ĠÑĢ Ð¸ÐºÓĢÐºÓĢ
Ð¸ÑĤÓı Ð°Ð±
ĠÑı ÑħÑĬ
ĠÑĢÐµÐºÓı ÐµÐµ
1 2
ĠÐº Ð°Ð½Ð´Ð¸Ð´
ĠÐ»ÑĬ ÑĥÑĢÐ°Ð»
ĠÑĨÓı Ð¸Ð´Ð°ÑģÐ°Ð½
ĠÑĤÓıÑĥÐ± Ð°Ð½
ĠÐĺÑģ Ð¼
ĠÐºÑĬÐ²Ð°ÑĢ Ð¸Ð»ÑĬÐ¸
ĠÑĢÑĥÑĩÑĩ Ð°Ð±Ð°Ð·ÑĥÐ»
ĠÐ»Ð¸ÑĤ ÐµÑĢÐ°ÑĤÑĥÑĢ
ÑĩÓı Ð²Ð°ÑĢÐ¸
Ð°Ð³Óı Ð¸Ð´Ð°
ĠÑĤÓıÑĥÐ± Ð°Ð·Ðµ
ĠÑĢÐ¸ÐºÓıÐºÓı ÑĥÐ½Ð°
ĠÐ¶Ð¸Ð± Ð³Ð¾
ĠÐºÑĥÐ¼ÐµÐº Ð°Ð»Ð´Ð°Ð»ÑĬÑĥÐ½
ĠÐ±ÑĥÑģÑģ Ð¸Ð½Ð°Ð±
Ðº Ð°ÑıÐ»ÑĬÑĥÐ»
Ð°Ñģ ÑĢ
Ð¸ÑģÑĤ Ð°Ð·ÑĥÐ»
ĠÑĢÐ°ÐºÑĮ ÑĥÐ»
ĠÐ¼Ð°ÑģÑĬ Ð°Ð»Ð°
Ð°Ñģ Ð¿
ĠÑĨÓı Ð°Ð´
ĠÐ³ÑĮÐ°ÑĢ ÐºÑĮ
Ð²Ð°Ð» ÐµÐ»
ĠÑħÐ² Ð°Ð½Ð°
Ñį Ð¼ÐµÐ½
ÑĩÐ°Ð³Óı Ð°Ð·
ĠÑħÓıÑĥÑħÑĮ Ð±Ð°ÑħÑĬ
Ð» ÑĥÐ»
Ð² Ð°ÑĤÓı
ĠÑĤ ÐµÐ¼
Ð¿ Ð¾Ð»
Ð°ÐºÓı ÐºÓı
ĠÑħÐ°Ð´ÑĥÐ± ÐºÐºÑĥÐ½
ĠÐ±Ð¸ÑħÑĮÐ¸Ð·Ð°Ð± ÑĥÐ»ÐµÐ±
ĠÑģ Ð°Ð´
ĠÐĺ ÑģÐ°Ð½Ð°
ĠÐ³ÑĮÐµÐ½ Ð¸ÑģÐ°
ÐµÐ³Ð¾ Ð²
ÑĬ ÐµÐºÑĤ
Ð°Ñģ ÑĥÑħÑĬÐµ
ĠÑģ ÑĥÐ±
Ð¾ÑĨ ÐµÐ±Ðµ
ĠÐ£ Ð·
Ð°ÑĢÑĥÑħÑĬ Ð°Ð½
ĠÑĪÐ°Ð¿Ð°ÐºÑĬ Ð°ÑĤ
ĠÐ¼ÑĥÐ½Ð¸ÑĨÐ¸Ð¿ Ð°Ð»Ð¸ÑıÐ±
ĠÑĥÐ¿ÑĢÐ°Ð²Ð»ÐµÐ½ Ð¸ÑıÐ»ÑĬÑĥÐ»
ĠÐ¼ ÐµÑģÐµÐ´
ĠÑģ Ð°Ð»Ð°Ð¼
ĠÑīÐ² ÐµÐ·Ð°ÑĢ
ĠÑĨÓıÐ°Ð»Ð´Ð¾ÑħÑĬ Ð°Ð±Ð°Ð·
ĠÑģÐ¿Ð¾ÑĢÑĤ ÑģÐ¼ÐµÐ½
Ð¸Ð½ Ð°Ð»Ð´Ð°
ĠÑĢÐ¾Ñģ Ð°Ð±Ð¸
ĠÑĩÓı Ð°Ð½Ð°
ĠÐ¼ÑĥÐ³Óı ÑĢÑĥÐ·ÑĥÐ»
ĠÑħ Ð¾Ð±
ĠÐ³ÑĮÐ°Ð± ÑĥÑĢÐ°Ð²
Ġ Ð°Ð³
ĠÑħÓıÐ°Ð»ÑĤÓı ÑĥÐ´Ð°
ÐµÑĤ Ð°Ð»Ð´Ð°
ĠÐ¥ÓıÐ°Ð¼Ð·Ð°ÑĤ Ð¾Ð²Ð°ÑģÑĥÐ»
Ð°Ñģ Ð´
ĠÑĤÓı ÑĥÑĢÐ°Ð»
ĠÑĤÓı Ð°ÑħÑĮÐ°Ð»
ĠÐ¿ ÑĥÐ»
ĠÑĦ Ð¸Ð·
ĠÐŃ Ð±ÐµÐ»
ĠÑģÑĤ Ð°ÑĤ
ĠÐºÑĬ Ð°Ð³ÓıÐ¸Ð´Ð°
ĠÑħÓıÐ°Ð»ÑĤÓı Ð¸Ð·Ð°Ð±
ĠÑĢÐµÐºÑĬ Ð°ÑĢÐ°Ð±
Ġ19 5
ĠÐ½ÑĥÑħÐ¼Ð°Ð»ÑĬ Ð¸ÑıÐ»ÑĬ
ĠÐ¸Ñİ Ð½
ĠÐ³ÑĮÐ¾ÑĢÐºÑĮÐ¾Ñģ ÐµÐ±
ĠÐ¾ ÑĦÐ¸ÑĨ
ĠÐ²Ð°Ñģ Ð°ÑģÑĥÐ»
ĠÐ±Ð°ÑĢÐº Ð°Ð»
ĠÑĤÓıÐ¾ÑĢÐ¸ÑĤÓı Ð°Ð½Ð°
ĠÑĥÐ»Ðº Ð°ÑıÐ»Ð´Ð°
ĠÐ¾ÑĢ Ð´ÐµÐ½
ĠÐ¿ÑĢÐ¾ÑĦ ÐµÑģÑģ
ĠÐ¼ Ð°Ð½Ð·
ĠÐ¼Ð°Ð³Óı Ð°ÑĢ
ÑĨÐ¾ ÑıÐ²
ĠÐ¶Ð¸Ð´Ðµ Ð´Ð°
Ðŀ ÑıÐ»ÑĬÑĥÐ»
ĠÑĨÐµÐ± ÐµÑħÑĥÐ½
Ð¼ ÑĥÐ½
ÐµÐ» Ð°Ð»
ÑĥÐ¼ Ð°Ð´Ð°
Ð¸Ð´ Ð°Ð³Ð¸
ĠÐºÐ¸Ð½Ð°Ð± Ð³ÓıÐ°Ð³Ð¸
ĠÑĨÐµÑĢ ÐµÑģÐµÐ»
ĠÑħÐ² Ð°ÑģÐ°ÑĢ
ĠÐ¸Ð´Ð°ÑĢÐ°Ð± Ð°Ð·ÑĥÐ»
ĠÐ½ Ð°ÑĢÐº
ĠÐ¿ Ð¸ÑħÑĬ
ĠÐ°Ð± ÑĥÑħÑĬÐµ
Ð°Ð»Ð¸Ð» Ð°Ð±
ĠÑĨ Ð¸Ð½Ð³Ð¸
ĠÐ·Ð°ÑħÓıÐ¼Ð°ÑĤ Ð°Ð»ÑĬÑĥÐ»
ĠÐ³ÑĥÐ³ Ð°ÑĢÐ¸ÑıÐ»ÑĬÑĥÐ»
Ð´Ð°Ñģ Ð°Ð³Ð¾
ĠÐĲ Ð¹
ĠÐ±Ð°Ð³ÑĮ Ð°
ĠÐĴÐ»Ð°Ð´ Ð¸Ð¼Ð¸ÑĢ
ĠÑĤÓıÐ°Ð´ Ð²ÑĥÑģÑģ
ĠÐ±Ð¾Ñģ ÑĥÐ»ÐµÐ±
ĠÑĢÐ°Ð³Óı Ð°Ð±Ð°Ð·Ð´Ð°
Ð¼Ð¸Ð½Ð¸ÑģÑĤÑĢ Ð°ÑĤÐ¸Ð²Ð¸ÑıÐ±
ĠÐ¶Ð°Ð¼Ð°Ð³ÓıÐ°ÑĤ Ð°Ð»ÑĬÑĥÐ»
ĠÐ¼Ð°ÑĪÐ³ÑĮ ÑĥÑĢÐ°Ð²
ĠÐºÐ¾ ÑĩÓıÐ¾
ĠÐ² Ð¾Ð»ÐµÐ¹Ð±Ð¾Ð»
ĠÐ±ÑĥÐ³ ÐµÐ»ÑĬÑĥÐ»
ĠÑĢÐ°Ð¹Ð¾Ð½ Ð°Ð»Ð´Ð°ÑģÐ°
ĠÐłÐ¾Ñģ ÑĥÐ»ÑĬ
ĠÐ´Ð°Ð½Ð´ÑĩÓıÐ² Ð°Ð¹
ĠÑĢÐµÑĩÓı ÑĩÓı
ĠÑĢÐ°ÐºÓıÐ± Ð°ÑĨÓıÑĨÓıÐ°Ð´
ĠÑĤ ÐµÑĩÓıÐ¾Ð³Ð¾
ĠÐļ Ð¸Ð½Ð°Ð»Ð³Ð¾
ĠÐ°Ñģ Ð°ÑĢÐ°Ð»
ĠÐĴ Ð°
ĠÐº Ð¸ÑģÐ°
ĠÑĤ ÑĢÐ°Ð½Ñģ
Ð¾Ð½ Ð¾
Ð°ÑħÓı Ð¼Ð°ÑĤ
ĠÐ±Ð¸ÑĨ ÑĥÐ½Ð°
", -
ĠÐļ Ð°ÑĢ
ĠÑĢ Ð¾ÑĢÑħ
ĠÐ¼Ð°Ð³Óı Ð½
ĠÑģÑĥÐ°Ð» Ð°Ð»Ð´Ð°
ĠÐĲÐ»Ð»Ð°Ð³ÑĮ Ð°ÑģÐµ
ĠÐ³ÑĮÐµÐ´Ð¸Ð½ Ð»ÑĬÐ¸Ð´Ð°Ð»
ÑĤÓĢÐµÑĢ ÑħÑĮ
Ð³ÑĮÐ°Ð» Ð¼Ð°Ð³ÑĬ
Ð°Ð»ÑĬÑĥÐ» ÐµÐ±
ĠÑĤÓıÐ¾ÑĢÐ¸ÑĤÓı Ð¸Ð·Ðµ
ĠÐºÑĬÐµÑĨ Ð°Ð»
1 7
ĠÐ³ÑĮÐ°Ð² ÑĥÐ½
ĠÐ²Ð°ÑĩÓı Ð°ÑĢÐ°Ð²
Ð¸Ð·Ð¼ Ð°Ð»ÑĬÑĥÐ»
Ð¥ÓıÐ°ÐºÑĬÐ¸ÐºÑĬ Ð°ÑĤ
ĠÑĤÓı Ð°Ñģ
ĠÑĢÐ°Ð³ÑĬ ÑĥÑħÑĬ
ÐµÑĩÓı ÐµÐ±
ĠÑĢÑĥÑĩÑĩ Ð°Ð±Ð¸
Ð´ ÑĥÐ·
Ñģ Ð°Ð»
ĠÐ³ÓıÑĥÐ¼ÑĢÑĥ ÑıÐ»Ð´Ð°ÑģÐ°
ĠÐ¶Ð°Ð½ Ð¸Ð²
ĠÐ¶Ð¸Ð´Ðµ ÐµÐ³Ð¾
ĠÐĳÑĥÐ¹ Ð½Ð°ÐºÑģÐº
ĠÑĦ Ð¾ÑĢ
ĠÐºÑĬÐ¾ÑĤÓı ÑĥÐ½
ĠÐ¼Ð°ÑĪ Ð¸Ð½Ð°
ĠÐ³Óı Ð°ÑĢÐ°Ð±
Ð¸ÑıÐ± Ð°Ð·ÑĥÐ»
ĠÑĢÐµ Ð¼
ĠÑĢÐ°Ð¹Ð¾Ð½ Ð°Ð»Ð´Ðµ
ĠÐ¼ÑĥÑģÑĤÐ°ÑħÓıÐ¸ÐºÑĬ Ð°Ð²
ĠÐ± Ð°ÐºÐº
ĠÑĢ Ð°Ðº
ĠÐ³ÑĮÐ°Ð± ÑĥÑĢ
ĠÐ¨ Ð¸Ð¼Ð°Ð»Ð¸ÑıÐ±
ĠÐ²ÑĥÐ³ ÐµÐ±
ĠÐ´Ð°ÑĢÐ°Ð¶ Ð°ÑıÐ»Ð´Ð°
ĠÐ²ÑĥÐ³Ð¸Ð» Ð°Ð½
ĠÐ± Ð¸ÐºÑĬ
Ð°Ñģ Ð´Ðµ
Ð³ÑĮ Ð°Ð¹
ÑĥÑħÑĬ Ð´Ð°
ĠÑĪÐºÐ¾Ð» Ð°Ð·Ð´Ð°
ĠÐļÑĬ ÑĥÑĢÐ±Ð°Ð½
ĠÑĤÓıÐ°Ð¼ ÑĥÐ½Ð°
ÐŁ Ðļ
ĠÑĤÓıÐ¾ÐºÓı Ð°Ð±
Ñĥ Ð³Ð¸
ĠÐ± ÑĢ
ÑĨÓı ÑĨÓı
ĠÐ³ÑĬ Ð¸ÑĢÐ°
ĠÐ°Ð½ Ð¸Ñī
ĠÑĢÐ¸ÐºÓıÐºÓı ÑĥÐ½
ĠÑĢÐ°ÑħÑĬ Ð°Ð»
ĠÐ³ÑĮÐ°Ð±ÑĥÐ½ Ð¸
ĠÐ»ÑĬÑĥÐ³ÑĮ ÑĥÐ½Ð°
ĠÑħÓıÐ°Ð¶ Ð°ÑĤÐ°Ð»
ĠÐłÐ°Ð¶ Ð°Ð±
ĠÑħÐ°Ð» Ð³ÑĮÐ°Ð±
ĠÑĨÐ°Ð´Ð°ÑħÑĬ Ð³Ð¾
Ð¸Ð·Ð°ÑĢ Ð¸Ð·Ðµ
ĠÑģÐ°Ð± Ð°Ð±Ð»ÑĬÑĥÐ½
ĠÐ¥Ð°Ð»ÐºÑĬ Ð¸ÑıÐ±
ĠÐ¥ Ð°ÑĢ
ĠÑĢÐµÑĤÓı ÐµÐ»
Ð´ ÑĥÑĢ
Ð¹ Ð¸Ð»Ð°Ð½
ĠÑįÐº ÑģÑĤÑĢÐµÐ¼
ĠÐ¿Ð¾Ñį ÑĤ
ĠÐ± Ð°ÑĢ
ĠÐ± Ð°ÐºÑĮ
ĠÐ´ Ð¾Ð²
ĠÑħÓıÐ°Ð» Ð°Ð»ÑĬ
ĠÐĶ Ð°Ð½Ð´Ðµ
ĠÐ¼Ð°Ð½Ð· Ð¸Ð»
I I
ĠÐ³ÑĮ ÐµÑĢÐµÑģ
ĠÑħÑĥÑĤÓı Ð°ÑĢÐ°Ð±
ĠÑĤÓı Ð°ÑħÑĮ
ĠÐ½ÑĥÑħÐ¼Ð°Ð»ÑĬÑĥÐ» ÐµÐ·
ĠÐ±ÐµÑĢÐ³ÑĮÐµÐ½ Ð»ÑĬÐ°Ð±Ð¸
ĠÑĤÓıÐ¾Ð» Ð³Ð¾
. ),
ĠÐĽÑĬ Ð¸Ð¼Ð°Ð»
ĠÐ³ÑĮÐ°Ð» Ð±Ð°Ð»
ĠÑıÐ½ Ð²Ð°ÑĢ
ĠÑĨÓıÐ°Ð¹ Ð¸ÑıÐ»Ð´Ð°
" -
Ð¾ ÑĤÓı
ĠÐ°Ð± ÑĥÐ»Ð°Ð°Ð½
ÑħÐ°Ð½ Ð¾Ð²
ĠÐ¶Ð°Ð¼Ð³Óı Ð¸ÑıÐ»
ĠÐ³ÑĬÐ¾ÑĢÐ»ÓĢ Ðµ
ĠÐĳÐ¾Ð»ÑĬ Ð¸ÑħÑĬ
ĠÐ¼ ÐµÑĤÑĢ
Ġ2 2
ĠÐ±Ð°ÑĤ ÓĢ
ĠÑĢÐ¾ÑģÐ´ Ð°Ðµ
Ġ Ð°
Ð³Ð¾ Ð³Ð¸
Ð¾ÑĢ Ð¾Ðº
ĠÐ¿ Ð¾Ñģ
Ð°Ð½ Ð°Ð½Ð¸
Ð°Ð· ÑĥÑħÑĬÐµ
ĠÐ¥ Ð¸Ð·
Ð°Ð¼ Ð¸Ð´
ĠÐ¿Ð°ÑĢÑĤ Ð¸ÑıÐ»ÑĬÑĥÐ»
Ð°Ð¹ Ð¸Ð»
ĠÑħÓı ÐµÑħÑĮ
Ð°Ð¶ Ð´
ĠÐ¼Ñĥ Ð³ÑĬ
ĠÑħÐ°Ð»ÐºÑĬ Ð°Ð»ÑĬ
ĠÐ±Ð°Ñī Ð´Ð°Ð±
Ð¹ Ð¸Ð½
ÑħÑĬ Ð°Ð»Ð°
ĠÐ¦Óı Ð°ÐºÑĬ
ĠÑĩÓıÐ² Ð°Ð·Ðµ
ĠÐ¼ÐµÐ´Ð¸ÑĨÐ¸Ð½ Ð°ÑıÐ»ÑĬÑĥÐ»
ÑħÑĬÐ² Ð°Ð¹
ĠÐ±ÐµÑĩ Ðµ
ĠÐ² Ð¸ÑĩÑĩ
ĠÑħÐ°Ð» Ð°ÑĤÐ°Ð±
ĠÐ±Ð°ÑĤ Ð°Ð½Ð¸Ð³Ð¸
Ñİ ÑĢ
Ġ19 2
ĠÐºÑĬ ÑĥÐ»
ĠÐºÑĮÑĥÑĢ Ð´
Ðµ Ð³ÑĮ
Ð°Ð¼ Ñı
ĠÐ³ÑĮÐ°Ð± Ðµ
ĠÐļ Ð¾Ð½
ĠÐ¶Ð°ÐºÑĬ Ð°ÑģÐµÐ±
ÐºÐ¾Ð¼ Ð°Ð»ÑĬÑĥÐ»
ĠÐ³ÓıÐ¸Ñģ Ð¸Ð½Ð°Ð»
ĠÐ² Ð¸Ð´Ðµ
ĠÐ½ Ð°Ð¸Ð±
Ð¿ ÑĥÑģ
ĠÑı ÑĪÐ°Ð²
Ð» Ð¾
ĠÑħ Ð¸ÑĤÓıÐ°Ð±
ĠÐĶ ÑĥÑĢ
ĠÐ¾ Ðº
ĠÐ³ÑĮÐ°Ð±Ð¸Ð·Ðµ Ð³Ð¸
Ð°ÑĤÐ°Ð» Ð´Ð°Ð³Ð¸
ĠÐ³ÓıÐ°ÑĤÓı Ð¸Ð´
ĠÐĵÓıÐ°Ð±Ð´ÑĥÐ»Ð°ÑĤÓıÐ¸Ð¿ Ð¾Ð²Ð°Ñģ
ĠÐ¼Ð°Ð³Óı Ð°ÑĢÑĥÑħÑĬ
ĠÐ±ÑĥÐºÓıÐ¸Ð½ Ð°Ð»Ð´Ð°
ĠÐ´Ð°Ð½Ð´ÑĩÓıÐ² Ð°Ð½Ð°
Ð³Óı Ð¸ÑıÐ±
ÑĥÐ¼ Ð±
Ð¾Ð± Ð¸Ð»
ĠÐ³ÓıÐ¾Ð´ Ð¾Ð²
ĠÑīÐ¸Ð² Ð°Ð²
ĠÐ¼ Ð°Ð¹Ð´
Ð¸Ñĩ ÐµÑģÐº
ĠÐĵÓıÑĥÐ¼Ð°ÑĢ Ð¾Ð²
ĠÐľÐ¾ÑģÐºÐ² Ð°ÑıÐ»Ð´Ð°
Ð© Ð¸Ð±
ÑĤ ÑĢ
ÐµÑĢ Ð°ÑħÑĬ
ĠÐ³ÑĮÐ°Ð± Ð¸ÑıÐ»ÑĬÐµ
ĠÐĵÑĮ ÐµÐ¹
Ġ Ð°ÑĢÐ°Ð²
Ñĩ ÐµÐ½
Ð°ÑıÐ» Ð´Ð°Ð³Ð¸
ÐµÑĤ Ð°Ð»ÑĬÑĥÐ»
ĠÐ±Ð¸ÑħÑĮ ÑĥÐ»Ð°
ÐĶ Ð¸ÑĨÐ°
ĠÑĨÓıÐ°ÑĢ Ð³Ð¸
ĠÐ±ÑĥÑĤÓı ÑĢÑĥÐ»
ĠÐ¥Ð°Ð´Ð¸Ð¶ Ð°ÑĤ
ĠÑĢ Ð°Ð½
ĠÐºÐºÐ¾Ð» Ð¸Ð»Ð°Ð½
ĠÐļÑĬ Ð°Ð´
Ð°ÑħÓı Ð°Ð±
ĠÑĥÐ½ Ð¸Ð²ÐµÑĢÑģ
ĠÐºÑĬÐµÑĨ Ð°Ð·Ð´Ð°
ÐµÑĢ ÐµÑģÐµÐ»
Ð°Ð·ÑĥÐ» Ð³Ð¾
2 00
ĠÑħÓıÐ°Ð» ÑĥÑĨ
ĠÑĢÐ¾Ñģ Ð°ÑĢÐ°Ð»
ĠÐĳ Ð¸ÑĨ
ĠÐ±Ð°Ð¶Ð°ÑĢ Ð¸
ĠÐľÑĥÑģ Ð°ÐµÐ²
ĠÑģÐµÐ½ÑĤ ÑıÐ±ÑĢÐ°Ð»Ð´Ð°
ĠÑĤÐ°Ñħ ÑĪÐ°Ð³ÑĮ
ĠÐ³ÑĮÐ°Ð± ÑĥÐ»Ð°Ð³Ð¾
ĠÑĢÐµÑģ Ð°Ð»
Ð°ÑĪ Ð°
ĠÐĵÑĮÐ°Ð» Ðµ
Ð¸Ð½ Ð°Ð»ÑĬÐµ
ĠÐ³ÓıÑĥÐ½ ÑĤÓı
ĠÐ°Ð½ÑĨÓı Ð¸Ð»Ð°
ĠÑĤÓıÐ°Ð±Ð¸Ð³Óı Ð°ÑĤ
ĠÐĵÓıÐ°Ð±Ð´ÑĥÐ»Ð¼ ÑĥÑģÐ»Ð¸Ð¼
ĠÑģÐ°Ð± ÑĢÑĥ
ĠÐ¶ Ð¸Ð¹
ĠÑĢÐ°ÑħÑĬ Ð¸Ð½Ð°ÑĢ
ĠÑĥÐ½ ÐµÐ²
ĠÐ±Ð¸ÑĨ Ð°ÑĢÐ°Ð±
ĠÐ³ÑĬÐ¾ÑĢÐºÑĮ Ðµ
ÑĥÐ´Ðµ Ð½ÑĤ
ĠÐºÑĬÐ°Ð½ Ð°Ð³ÓıÐ°ÑĤ
Ð¾Ð³ ÑĢÐ°ÑĦ
ĠÐ³ÓıÐ¾Ð´ Ð¾Ð±
Ð°Ð¹Ð³Ð¸ Ð´
Ð»ÑĬ Ð¸ÑıÐ»Ð´Ð°ÑģÐ°
Ð¸ÑıÐ» Ð´Ð°ÑģÐ°Ð½
ĠÑĨÓı Ð¾Ð´Ð¾ÑĢ
ĠÐ¡ ÑĥÑĢ
Ġ19 3
ĠÑĩÑĥÑĢ Ð°ÑıÐ²
ĠÐ±Ð°Ñħ Ñĩ
Ð°Ð» Ð´
Ð² Ð°ÑĤ
ĠÐºÐº ÐµÑĩÓıÐ¾
Ð¸ÑģÑĤ Ð°Ð»
ĠÐ¡ Ð¾Ð±ÑĢÐ°Ð½Ð¸ÑıÐ»ÑĬÑĥÐ»
ĠÐ·Ð°Ð¼Ð°Ð½ Ð°ÑıÐ»Ð´Ð°
ÑĨÐ¾ ÑıÐ·ÑĥÐ»
Ð¿ÐµÑĢ ÑĤ
ĠÑĢ Ð°ÐºÐº
ĠÐ³ÑĮÐ°ÑĢ Ð°Ð½Ð°
ĠÐ³ÑĮÐµÑĩÓı Ð¸Ð»Ð°
ĠÐºÐ¸Ð½Ð°Ð» Ð½Ð¸Ð³Ð¸
ĠÐ°ÑģÐºÓı Ð¾ÑĢ
ĠÐºÐ¾Ð´ Ð¾Ð±
ĠÐĵ ÐµÑĢ
ĠÐľ Ñĥ
ĠÑĤÓĢ Ð°Ð´
ĠÐ± Ð°Ð´
ĠÐ± Ð¾Ð»
ĠÐ½ ÐµÐºÓı
ĠÑĨÓı Ð¸Ð³ÑĮ
ĠÐºÓı Ð¾Ð»ÐµÐ±
ĠÐ»ÑĬÐ¸Ð¼ Ð°Ð»Ð³Ð¸
ĠÐĹ Ð°Ð³ÑĮ
ĠÐ³ÓıÐµÐ» Ð°Ð»ÑĬÐµ
ĠÐ´Ð°ÑĢ Ñĥ
Ð¼ ÑĥÑħÓıÐ°Ð¼Ð°Ð´
ĠÐľ Ð°Ñħ
ĠÑĨÓıÐ°Ð» ÑĥÐ»ÐµÐ»
Ð¡ ÑĥÐ³ÑĬÑĢÐ°Ð»ÑĬ
ĠÐ¼Ð°Ð¶ Ð»Ð¸Ñģ
Ñħ Ð°Ñģ
ÐºÑĬ Ð°Ð´
ĠÐ°ÑħÐ¸ÑĢ Ð¸ÑģÐµÐ±
ĠÐ½Ð¸Ð³ÓıÐ¼Ð°ÑĤ Ð°Ð»
Ð°Ð½ ÐºÓı
ĠÑĢ Ð¸Ð¶
ĠÐ¼ Ð¸Ð»
ĠÑī Ð²Ð°ÑĢÐ°Ð²
ĠÑĢÐ¾Ñģ Ð¸Ð·Ðµ
ĠÐ³ÓıÐ°Ð³ Ð°
ÑĢ Ð°Ð´
Ð°Ð· Ð´
ĠÑħÓı Ð°ÑĤÑĤÐ°
Ð¸Ð´ ÑĥÐ»
ĠÐ²Ð°Ñģ Ð°Ð»
ĠÐ¼Ð¸Ð½ Ð°Ð±Ð¸
ĠÐ´ Ð°Ð³ÓıÐ±
ĠÐ¦ ÓĢ
ĠÐ°ÑĢ Ñħ
ĠÐ¼Ð°ÑģÑĬ Ð°Ð»Ð°Ð±Ð¸
ĠÐºÑĬÐ°Ñģ Ð¸
ĠÐ°Ð²Ð³ÑĥÑģÑĤ Ð°Ð»Ð´Ð°
ĠÐĺÐ¼ Ð°Ð¼
ÑĥÐ´ Ð¾Ð¶
ĠÐľ Ð°Ð³ÓıÐ°ÑĢÑĥÐ»
ĠÑĨÐ¾ ÑıÐ»
ĠÐ¥Óı ÑĥÐºÑĥÐ¼
ĠÑıÑĢ Ð³ÑĬ
ĠÐĺÑģÐ¼ Ð°Ð³ÓıÐ¸Ð»
Ð½ Ð°Ð»
ĠÐ· ÑĥÐ»
ĠÑĩÓı ÐµÐ³ÓıÐµÑĢ
ĠÐ³ÑĮÐ°ÑĢ Ð¸ÑıÐ»ÑĬÑĥÐ»
ĠÐ°ÑħÐ¸ÑĢ Ð°Ð±
ĠÐºÑĮ ÐµÐ³Ð¸
ĠÐ±ÐµÑĤÓıÐµÑĢ Ð³ÑĮ
ĠÐ¶Ð¸Ð´Ðµ ÑĨÐ°Ð³Ð¾
Ġ7 0
ÑĥÐ» Ð¸Ð½
ĠÑħ Ð°Ð¹Ð¸ÑĢ
Ð°Ð´ Ð°ÑĤ
Ð°ÑĤÐ°Ð» Ð´Ð°Ð»ÑĬÑĥÐ½
ĠÐ±Ð¸ÑĩÑĩ Ð°ÑĢÐ°Ð±
ĠÑħÐ¸ÑĢ Ð¸ÑıÐ»
Ð´ ÑĢ
Ñģ Ð°Ð»Ð°Ð¼
ÐµÑħ Ð°
ĠÑĤÓıÐ°Ð´ ÑĢÑĥÑģÑģ
ĠÑħÓıÐ°Ð´ Ð¸Ñģ
ÐĵÑĮ ÐµÑģ
ĠÐŁ Ð°ÑĤ
ĠÐŃ Ðł
ĠÐ¼ Ñį
Ð¸Ð· Ð°ÑĨ
ĠÑĨÓıÐ°Ð»Ð´Ð¾ÑħÑĬ Ð°Ð±Ð°Ð·ÑĥÐ»
Ð°Ð¼Ñı ÑĤÐ½Ð¸Ðº
ĠÐ¼ ÑĥÑħÑĮ
Ð´Ðµ Ð³Ð¸
ĠÑĨÓıÐ°Ð» Ð°Ð½Ð°
ĠÐ»ÑĬÑĥÐ³Óı Ð¸Ð·Ð°Ð±ÑĥÐ½
ĠÐĲÑħÓıÐ¼Ð°Ð´ Ð¸Ð»
ĠÑĤÐµÐ» ÐµÐ²
ĠÐ°Ð½ÐºÑĮ Ð³Ð¾
ÑĤ Ð°ÑĢ
Ð¸Ñī ÑħÐ°
ĠÐ±Ð°Ð»Ð°Ð³ÑĮ Ð¸Ð·Ðµ
ÐĵÓı ÐµÐ¼ÐµÑĢ
Ð¸ÑģÐ°Ð» Ð°Ð»ÑĬÐµ
ĠÐĿÐ¸Ð¶ ÐµÑĨÐ°
ĠÑģÑĥÑĢ Ð°ÑĤÐ°Ð»
ĠÐ¼Ð°ÑĪÐ³ÑĮ ÑĥÑĢÐ°Ð»
ĠÑĤÐµÑĢÑĢ Ð¸ÑĤÐ¾ÑĢ
ĠÑģÐ°Ð¿ Ð°ÑĢ
ĠÑĢÐµÑī ÑĤÓı
ÑĨ Ð¸ÑıÐ»Ð´Ðµ
ĠÐĵÑĮÐµÐ± Ð³Ð¸
ĠÐ°ÑģÐ» Ð¸ÑıÐ»
Ð¸Ñı Ð³Ð¸
ĠÑĩÓıÐµÐ·Ð°Ð± ÑĥÐ½
ĠÑĢ Ð°Ð»ÐµÐ»
ÑĤ ÑĥÐ½
ĠÐĹ Ð°Ð¹Ð½
ĠÐºÓıÐ¾Ñĩ ÐµÐ½
ĠÑģÑĥÐ½ Ð´
ĠÐ¸Ð´Ð°ÑĢ Ð°ÑıÐ»ÑĬÑĥÐ»
Ð» Ð¾Ð²
Ð» Ð¾Ð¼
Ð°Ð± Ð¸Ð·Ðµ
ÐµÐ² ÐµÑĢ
ĠÑĥÐ½ÑĤ ÑĥÐ½
ĠÑĢÐµÐ¼ Ð¾Ð½ÑĤ
ĠÐ³Óı ÐµÐ·Ð°ÑĢ
Ġ2 4
ĠÐ³ÑĮÐµÑĩÓı Ð¾Ð½Ð¸Ð³Ð¸
ĠÐĵÓıÐ°Ð´ Ð°Ð¼
ĠÐĵÑĮ Ð¸Ð³ÑĮ
Ð³Óı ÐµÑĢ
ĠÐ³ Ð°Ð¼
ĠÑĤÓı Ð¸ÑĢ
ĠÐ¸ ÐºÑĬ
ĠÐ±Ðµ ÑĨÓı
ĠÑīÐ² ÐµÐ»
ĠÑĨÓıÐ°Ð» ÑĥÐ½
ĠÐ´ÐµÐ¿ÑĥÑĤÐ°ÑĤ Ð°Ð·ÑĥÐ»
Ġ Ð°ÑĢÑĤ
ĠÑĦ ÐµÐ´ÐµÑĢÐ°Ð»Ð¸ÑıÐ±
Ð¥ Ð°Ð´
ĠÐ¨Ð°Ð¼ ÑħÐ°Ð»
Ð°Ð´ ÐµÐ¼
ĠÑĩÓı Ð°ÑĢÐ°Ð±
Ð¸ÑĩÓı ÐµÐ»
Ġ2 3
ÑĥÐ¶ Ñĥ
ĠÐ¼ÑĥÑħÓıÐº Ð°Ð½Ð³Ð¾
ĠÐº Ð¸Ð±
ĠÑĨÓı Ð¸
ĠÐĳ Ð°Ð³ÑĮ
ĠÑģÑĤ ÑĥÐ´ÐµÐ½ÑĤ
Ġ9 0
ĠÐ°Ð´Ð°Ð± Ð¸ÑıÑĤ
ĠÑĪÐ°ÑĢ ÑĤÓı
Ð¾ ÑıÐ»Ð´Ð°
ĠÑĢ Ð°Ð·Ðµ
ĠÑħ Ð²Ð°Ð»
ĠÐ±Ð¸ÑĩÓıÑĩÓı ÑĥÐ»ÐµÐ±
ĠÐ²ÐµÑĤÐµÑĢ Ð°Ð½
Ð½ ÐµÑģ
ĠÑħÐ°Ð´ÑĥÑģ ÐµÐ±
ĠÑĤ Ð°ÑĢÐ°Ð»
ĠÑĩ Ñĩ
Ð¸Ðµ Ð³Ð¸
Ġ4 0
ĠÐĳÐµÑĢ Ð³ÑĮÐµÐ½
ĠÐ¢ÓıÐ°Ð´ÐµÐ³ÓıÐ°Ð½ Ð°Ð²
1 6
ĠÐ¢ ÓıÐ°Ð»
ĠÑģÑĤ Ð¾Ð»
ĠÐľÑĥÑģ Ð°
Ð» ÐµÐ±
ÑĥÐ» Ð³Ð¾
Ñĩ Ð¸ÑıÑģÑĥÐ»
ĠÐ³ÓıÑĥÑĨÓı Ð¸
ĠÑĩÓıÑĥÐ¶ Ñĥ
ĠÐºÐ» ÑĥÐ±
Ð¸Ð± Ð¸Ð»
ÐµÐ¼ Ð¸ÑĢ
ĠÐ¡ ÐŁÐļ
ĠÐ±Ð°Ð¹ ÑĢÐ°ÑħÑĬ
ĠÐ´Ð¸Ð½ Ð°Ð»ÑĬÑĥÐ»
ĠÐºÐº ÐµÐ·Ð°Ð±
ĠÐ½ÑĥÑħ Ð»ÑĥÐ»
ĠÐºÑĬÐ²Ð°ÑĤÓı Ð¸ÑĢ
ÐºÑĬÐ¾ ÑĤÓı
ĠÐ±Ð°Ñħ ÑĥÐ½
ĠÑħÓıÑĥÐ¶ Ð°Ð±Ð¸
ĠÐ³ÑĮÐ°Ð±ÑģÐ°Ð³ÓıÐ°ÑĤ Ð°Ð»Ð´Ð°
ĠÑĤÐµ Ð°ÑĤÑĢ
ĠÐ½Ð¾ ÑıÐ±ÑĢÐ°Ð»Ð´Ð°
Ð´ Ð°ÑĢ
Ð°Ðº ÑĢ
Ð¾ÑĨ Ð°
ÐĲ Ð±
ĠÐ±Ð°ÑĤ Ð¸Ð·Ðµ
Ð¥ ÑĬ
ĠÐ¢Óı Ð¸Ð½Ð´
ĠÑħÐ°ÑĢ Ð±Ð°Ð»
ĠÐºÐ²Ð°Ð½ Ð°Ð·Ðµ
Ð¼ Ð¸Ð½
ĠÐļ Ð°ÑģÐ¿
Ñī ÐµÐ»
ĠÐĶÐ°Ð³ÑĬÐ¸ÑģÑĤÐ°Ð½ Ð°Ð»Ð´Ðµ
Ð¾Ð²Ð°Ñģ Ð´Ð°
ĠÑĩÐ°Ð³Óı Ð°Ð·
ĠÐ¼Ð°ÑĢÑĤ Ð°Ð»Ð´Ð°
Ð¾ ÐºÓı
ĠÐ»ÑĬ Ðµ
ĠÐ¢Óı Ð¾ÑĨÐµÐ±ÐµÑģÐµÐ±
ĠÐ½ÑĥÑħÐ¼Ð°Ð»ÑĬÑĥÐ» ÐµÐ¹
ĠÑĤÐ°Ð´Ð±Ð¸ÑĢ Ð°Ð»Ð´Ð°
ĠÑĨÐµÑĢÐµ ÑħÑĬ
ĠÐ¥Ð°Ñģ Ð³Ð¾
ĠÐ¼Ð°ÑĪÐ³ÑĮ ÑĥÑĢ
Ð¸Ð» Ð°Ð²
ĠÑĦ Ð°Ðº
ĠÐ¶Ð°Ð½ Ð¸ÑģÐµÐ»
ĠÑįÐ±ÐµÐ» Ð°Ð»ÑĬÑĥÐ»
ĠÑīÐ°Ð¹ Ð³ÑĥÑĢÐµÐ»ÑĬÑĥÐ»
Ð»ÑĬ ÑĥÑħÑĬ
ĠÐ³Óı ÐµÐ·Ð°Ð±
ĠÐĵÑĮ Ð¾ÑĨÓı
ĠÐ³ÓıÐµÐ¼ÐµÑĢ Ð³Ð¾
ĠÑĤÓıÐ¾ÑĨÐµÐ² ÐµÑģÐµÐ²
Ðº Ð°Ð»ÑĬÑĥÐ»
Ð°Ð± Ð¸Ð½
ĠÐ³ÑĮ ÑĥÑĢÐ¼
ĠÐ»ÑĬ Ð°Ð½
ĠÑģ ÑĥÑĢÑģ
ĠÐ±Ð¾ÐºÑĮ ÑĥÐ»ÐµÐ±
ĠÐ³ÑĮÐ¸ÑĤÓıÐ¸Ð½Ð°Ð± Ð³Ð¾
ĠÐ¼ÐµÐºÑĬ Ð¸
ĠÐ°Ð½Ð»ÑĬ Ð³Ð¾
Ð¾ Ð³Ð¸
ĠÑħÓıÐ°Ð»ÑĤÓıÑĥÑħÑĬ Ð°Ð±Ð°Ð·Ðµ
ĠÑĤÐ¾Ðº Ð°Ð»ÑĬÑĥÐ»
Ð°ÑĤ Ð¸Ð²
Ð¸ÑĤ Ð°Ð»
ĠÑħÓıÐ°Ð»ÑĤÓı ÑĥÐµ
ÑĢÑĥ Ð³
ĠÑīÐ² ÐµÐ´Ð°Ð»
ĠÐ¶Ð°Ð½ Ð¸ÑĢÐµ
ĠÐ³ÓĢ ÑĥÐ¼ÑĢÑĥ
ĠÐĹ Ð°Ðº
ĠÑħÓıÑĥÐºÑĥÐ¼ Ð°ÑĤÐ°Ð»ÑĬ
ĠÐ¾Ð± ÑĬÐµÐºÑĤ
Ð¸ÑıÐ»ÑĬ Ð³Ð¸
Ġ2 7
ĠÑģÐ¾ÑĨ Ð¸Ð°Ð»Ð¸ÑıÐ»
ĠÐ¶Ð¸Ð½Ð´Ð¸Ðµ Ð³Ð¾
ĠÑĢÐ°ÐºÑĬ Ð»
ĠÐ¾ÐºÑĤ ÑıÐ±ÑĢÐ°Ð»Ð´Ð°
ĠÐĵÓıÐ°Ð¹ÑĪ Ð°ÑĤ
ĠÐ±Ñĥ ÑĤÓĢ
ĠÐ±ÑĥÐºÓıÐ¸Ð½ Ð°Ð»ÑĬÑĥÐ»
ÐµÐ½ÑĤ ÑĢÐ°Ð»Ð´Ð°
ĠÑģÑĥÐ³ÑĬÑĥÐ» Ð´ÐµÑĢÐ¸Ð»
ĠÐ»ÑĬÐ¸ÐºÓı Ð»ÑĬ
ĠÑĥÐ¼ÑĥÐ¼ ÑĥÐ»
ÐºÑĬ Ð°Ð¹
ĠÐĳ ÑĥÐºÓı
ĠÐ³ÑĥÑĢ Ð¶
Ðľ Ð°ÑħÓı
ĠÐºÐ¾Ð¼ Ð°Ð½Ð´Ð°
Ð°Ð¸ Ð¼
Ð°Ð·Ð°ÑĢ Ð³Ð¾
ĠÐ¼Ð°Ñħ Ñģ
ĠÐ±Ð°Ñģ Ð¼
1 3
â Ħ
Ð± Ð°ÐºÓı
ĠÑĢÑĥ Ð³ÑĬ
ĠÐºÐº ÐµÑıÐ»ÑĬÑĥÐ»
ÑħÓı Ð°ÑĤ
Ð°Ð»Ð° Ð°Ð½
ĠÐ´Ð¾ÐºÑĥÐ¼ÐµÐ½ÑĤ Ð°Ð»
Ð°ÑģÐ´ Ð¸ÐºÑĬ
âĦ ĸ
Ð³Óı Ð°
ĠÑĩ Ð¾ÑĢÐ¾Ðº
ĠÐ±Ðµ ÑĤÓĢÐµÑĢ
ĠÐ»ÑĬÑĥÐ³ÑĮ Ð°ÑĢÐ°Ð±
ĠÑīÐ°Ðº Ð»ÑĬÐ¸
ĠÑıÑĩÑĥÐ½ ÐµÐ¹
Ñ ĳ
Ð°Ð± Ð°ÑĢ
ĠÑģ ÑĥÐ´
Ð¸Ñħ ÓıÐ°Ð»
ĠÐľ ÐµÐ»
Ġ6 0
ĠÑįÐºÐ¾Ð½Ð¾Ð¼ Ð¸ÐºÐ¸ÑıÐ±
Ð» ÐµÐºÑģ
Ð°Ð³ Ð°Ð³ÑĮ
Ð°Ñģ Ð³Ð¸
ĠÐ³Óı Ð¸ÑıÐ»
ĠÐ°Ð± ÑĥÐ»ÐµÐ»
ĠÐ¨ ÐºÐ¾Ð»
ĠÑĦ ÐµÑĢÐ¼
ĠÐ±Ð°ÑĩÓı Ð¸Ð½
ĠÐ£ Ð»
Ðĺ Ð½
ĠÑģÐµÐºÑĢÐµÑĤ Ð°ÑĢÑĮ
5 0
ĠÑĢ Ð¸ÑĪ
Ñģ Ð¾ÐºÐ¾Ð»
ĠÐ² Ð¾Ñģ
Ð¸ÑĢ ÑĥÑģ
ĠÐ¿ Ð°Ð¼ÑıÑĤÐ½Ð¸Ðº
ĠÐļ Ð¸Ð³ÓıÐ°Ð½
Ð¸ÑĤÓı ÑĥÐ½
ĠÑĨÐµÐ±Ðµ Ð³Ð¾
Ð¸Ð¿ Ð°ÑĤ
ĠÑĢÐ¸ÐºÓıÐºÓı Ð°Ð´
ĠÐĲÑĢ Ð°Ð±
ÐµÑĢ Ð³Ð¾
ĠÐŁ Ð°ÑĢ
ĠÐºÑĬÐ²Ð°ÑĤÓı Ð¸Ð²Ðµ
Ð¸ÑıÐ· Ðµ
ÑĥÑĢ Ð³
ÐµÐ½ Ð´
ĠÐł Ð°Ð¹Ð¾Ð½
Ð°Ð¶ Ð¸
ĠÐºÑĬÐ¾ ÑıÐ»ÑĬÑĥÐ»
ĠÐ±Ð°Ñĩ Ð°Ð½Ð°
ÐłÐ¾Ñģ Ð´Ð°Ð»
ĠÑħÓıÐ°Ð»Ð±Ð¸ÑħÑĮ Ð¸
1 4
ĠÐ³ÑĮ Ð°Ð¹Ð±
Ñģ Ð¸ÑıÐ±
ĠÐ»ÑĬ Ð°ÑĩÓıÐ¾Ð³Ð¾
ĠÐ½ Ð°Ñħ
Ð¾ÑĢ Ð°Ð»ÑĬÑĥÐ»
ĠÐļ ÓĢ
ĠÐĿ Ð°ÑħÑĬ
ĠÑĪÐºÐ¾Ð» Ð°Ð·ÑĥÐ»
ĠÐºÑĬÐ°ÑĩÓı Ð°Ð·Ðµ
? !
ÑĢ Ð°Ð»Ð°Ð»Ð´Ð°
ĠÐ³ Ð²Ð°Ð½
Ð¸Ð½ Ð¾Ð²
Ð¸Ð· Ð½ÐµÑģ
ÑĦ ÑĤ
ĠÐĵÑĮÐµÑģ Ð´Ð°
Ð±Ð°ÑĤÓı Ð¸ÑıÐ±
ÑĢÐ°ÐºÓı Ð°Ð»ÑĬÑĥÐ»Ð°Ð±
ÑĥÐ¼Ð± ÐµÑĤ
Ð¸ Ð³ÑĬ
Ð°Ð½ ÑĥÑģ
ĠÐ¡ Ð°Ð¹Ð³Ð¸Ð´
ĠÑĨÓıÑĥÐ½ Ð¸
ĠÐ²Ð°Ñĩ ÑĥÐ½
ĠÑĢÐ°Ð´Ð¸Ð¾ ÑıÐ»ÑĬÐµ
ĠÐ¿Ð°Ð¹Ð´ Ð°ÑıÐ±
Ð± Ð°Ð½
ÑĩÓı ÐµÐ¹
ĠÐ±Ð¸ÑĨ Ð°Ð½Ð¸
ĠÐ¿ÑĢ ÐµÐ¼
ĠÐ±Ð¸Ð³ÑĮ Ð°ÑıÐ±
ĠÐ·Ð°Ð² Ð¾Ð´
ĠÐĵÓıÐ°Ð±Ð´ÑĥÐ»Ð°Ð³ÑĮ Ð¸Ð»
ĠÐ³ÓıÐµÐ»Ð¼ Ð°Ð±Ð°Ð·ÑĥÐ»
Ðµ ÑĤÓı
ĠÑĢ Ð¸ÑĨ
ĠÑĩ Ð°ÑĩÐ°Ð½
ÐµÑģ Ð´Ð°Ð»
ĠÐ·Ð°Ð¼Ð°Ð½ Ð°Ð»ÑĬÑĥÐ»
ĠÑĢÐ¾ÐºÑĬ Ð¾Ð²Ðµ
ÑĥÐ´Ðµ ÑħÑĥÐ½
. -
Ñĥ Ñİ
ĠÐ² Ð°ÑĤÓıÐ°Ð½
ĠÑĤ Ð°ÑģÐ´Ð¸ÐºÑĬ
ĠÐĲ Ð²
Ð¸Ð¿ Ð»Ð¾Ð¼
ĠÐ¸Ð½Ñģ ÑĥÑĨÐ°
ĠÐ¼ ÐµÑĤ
ĠÐ³ÑĮÐ°Ð± Ð¸Ð»ÐµÐ±
Ð¸ÑıÐ»ÑĬÑĥÐ» Ð°Ð±
ĠÐ³ÓıÑĥÑĨÓı Ð°Ð½Ð°
ĠÑĤÑĢ ÐµÐ½ÐµÑĢ
ĠÐ±ÐµÑĩÐµÐ´ Ð°Ð±
ĠÑĤ Ð¾Ð»ÐµÐ±
ĠÐĵÓı Ð°Ð¼Ð¸ÑĢ
ĠÐ¶Ð°Ð½Ð¸Ð± Ðµ
ĠÑĨÓıÐ°Ð»Ð´Ð¾ÑħÑĬ Ð°Ð±Ð°Ð·Ðµ
ÐĴ ÐĶÑıÐ»ÑĬÑĥÐ»
ĠÐ³Ð¸Ð¼Ð½Ð°Ð· Ð¸ÑıÐ»ÑĬÑĥÐ»
Ð¾Ð² Ð³Ð¸
ĠÑħÓıÐ°Ð»ÑĤÓı ÑĥÐ½
ĠÑĢÐ°Ð¹Ð¾Ð½ Ð°Ð·ÑĥÐ»
ĠÐ±Ð¾ÐºÑĮ Ð¸Ð»Ð°Ð°Ð½
ĠÑĨÓıÑĥÐ½ Ð¸ÑıÐ»ÑĬÐµ
ĠÑħÐ¸Ñģ ÑĥÐ½
Ð¸ÑĨ Ð°Ð³Ð¾
ĠÑĨÓı Ð¸ÐºÓı
ĠÑħÓıÐ°Ð» ÑħÑĮ
ĠÐ³ÓıÑĥÑĨÓı Ð°Ð±Ð°Ð·ÑĥÐ»
Ð¸ÐµÐ² Ð°
ĠÑħ ÑĥÐ´Ð¾Ð¶
ĠÐ¼ Ð°ÑıÐ»Ð´Ð°
ĠÐ»ÑĬÐ°Ð» Ð°ÑĢÐµÐ±
Ð°Ð» Ð°ÑĢÐ¾
Ð°Ð± ÑĢ
ĠÑĤ Ð¾Ð½
Ð¸Ñģ ÐµÐ·
Ð°ÑĩÓı Ð¾
ĠÐ²ÑĥÐºÓıÐ¸Ð½ ÑĩÓıÐ¾
ĠÐ°Ð¿ÑĢ ÐµÐ»Ð°Ð»Ð´Ð°
Ġ âĦĸ
ĠÐ³ÑĮ Ð°Ð¹
ĠÑĢÐ°ÑħÑĬ Ð°Ð»Ð´Ðµ
ĠÐ´Ð°Ð½Ð´Ðµ ÐºÐºÑĥÐ½
ÑģÑĤ Ð²
ĠÑĨÐ¾ÑıÐ± Ð»ÑĬÑĥÐ½
Ð¾ ÑħÑĮ
ĠÐ³ ÐµÐºÑĤ
ĠÐ¸ ÑĨÑĨ
ĠÐ±Ð°ÐºÓı Ð°Ð»ÑĬÑĥÐ»
Ñĭ Ðº
ĠÑĢÐ°Ð³ÑĮ Ð¸Ð·Ðµ
ĠÐ³ÓıÐ°ÑĢÐ· Ð°
ĠÐľÑĥÑĢÑĤÐ°Ð· Ð°Ð³ÓıÐ°Ð»
Ð½ Ð¸Ð·Ð°Ð¼
ĠÐ¥Óı ÑĥÑĢÐ¼Ð°ÑĤ
ĠÐľÑĥÑħÓıÐ°Ð¼Ð°Ð´ Ð¾Ð²Ð°
ÐĲ ÑĢÐ°Ð±
ĠÑģÐ¿Ð¾ÑĢÑĤ Ð¸Ð²Ð¸ÑıÐ±
ĠÐ¼Ð°ÐºÑĬ Ð°Ð»Ð°
Ð»Ð°Ð¼ ÐµÐ½ÑĤ
ĠÐļÑĬÑĥÑĢÑĬ Ð°Ð½
Ð°Ð»ÑĬ Ð°Ð±Ð¸
Ð°Ñħ ÓıÐ°Ð»
ĠÐ³ÑĮÐµÐ» Ð³Ð¸
ĠÐ¸Ð½ Ð¶
ĠÐ½Ð°ÑħÑĬ ÐµÐ³Ð¸
ĠÐ³ÑĢ Ð°Ð¶Ð´
ÑĥÑĢ Ð¸
ĠÐºÐº ÐµÑĩÓıÐ¾Ð³Ð¾
ĠÐĲ ÑĦ
ĠÐ¶Ð¸Ð½Ð´ Ð°Ð³Ð¾
ĠÐ³ÓĢ Ð°ÑģÑĢÑĥ
ÑĩÐ°Ð³Óı Ð°Ð·ÑĥÐ»
ĠÐ³ÐµÐ½ ÐµÑĢÐ°Ð»
ĠÐ³ÑĥÑĢ Ð¸Ñī
Ð¸Ð³ ÓĢ
ĠÐ±Ð°ÐºÑĬ Ð±Ð°ÐºÐº
Ð°Ð» Ð¸Ð´Ð°
ĠÐ² Ð°ÑħÓı
Ð°Ð¼ Ð°Ð½
ĠÐ»ÑĬÐ¸Ð¼Ð°Ð» Ð°Ð·
ĠÑĨÓıÐ¸ÐºÓıÐºÓı Ð°ÑĢÐ°Ð»
ĠÑħÓıÑĥÐ¶ Ð°
ĠÐ¶Ð°ÐºÑĬ Ð°Ð³Ð¸
ĠÐ´ÐµÐºÐ°Ð± ÑĢÐ°Ð»Ð´Ð°
Ð¼ Ð°ÑħÑĬ
ĠÐĳ Ð°ÐºÑĮ
ĠÐĿ Ð°Ð¶
ĠÐ±Ð°ÑħÑĬ ÑĥÐ»Ð°
ĠÑħÐ² ÐµÐ»
ĠÑģÐ°Ð¹Ð³ÑĬ Ð°ÑĤÐ°Ð»
ĠÐºÐ¾Ð¼Ð¸ÑģÑģ Ð¸ÑıÐ»ÑĬÑĥÐ»
ĠÐºÐ¸Ð» Ð¾Ð¼
Ġ Ð°ÑĤ
ĠÐ³ÑĮ Ð¸Ð¼
Ð¼ Ð°Ð»
ĠÐľ Ð°Ð´
ĠÐºÑĮ ÐµÐ»
ÑĥÑĤ Ð±Ð¾Ð»
Ð°Ð½Ð´ Ð¸
ĠÐ±Ð¸ÑħÑĮÐ¸Ð·Ð°Ð± Ð¸Ð·Ðµ
ĠÑĢÑĥÐºÑĬ Ð·Ð°Ð»
ĠÐ¿Ð°ÑĢ Ð°Ñħ
ĠÑħÓıÑĥÑĢÐ¼Ð°ÑĤ Ð°Ð»Ð´Ð°
ĠÑĢÐ¾ÑģÐ´ Ð°Ð´Ð°
ĠÐºÐ°Ð½ Ð»ÑĬÐ¸
1 1
Ð°Ð¸ Ð´
ĠÐ³ÓıÐ°Ð»Ð¸Ð¼ ÑĩÐ¸
ĠÐ¼Ð¾ÑĨ ÓıÐ°Ð»Ð´Ð°
ĠÑĦÐµÐ² ÑĢÐ°Ð»Ð°Ð»Ð´Ð°
Ðµ ÑıÐ»ÑĬ
Ð± Ð°ÑĢ
ĠÐº Ð°Ð½Ð°Ð»
ĠÑģ Ð°Ð»
ĠÑħÓı Ð°ÑĢÐ°Ðº
ĠÑĢÐ¾ÐºÑĬ Ð¾ÑĢÐµ
ĠÐ´Ð¸Ð½ Ð¸ÑıÐ»
Ñģ ÐµÐ±
Ð¾Ð» Ð¾ÑħÑĬ
ĠÑĪ ÑĤ
ĠÐ¸Ñİ Ð»
? "
Ð¸Ð½ Ð°Ð»ÑĬ
ĠÐ² ÐµÑħÑĮ
ĠÐ² ÑĢÐ°Ñĩ
ĠÑģ Ð°Ð¼
ĠÑĨÓı ÑĥÐ¼
ĠÐĶ Ð°Ð²
ĠÐ¦ ÐµÐ±Ðµ
ĠÐºÓıÐ°Ð»ÑĬ Ð°ÑıÐ»
ĠÐºÓıÐ² Ð°ÑĢÐ°Ð±
ĠÐºÑĬÑĥÐ² Ð°ÑĤÐ°Ð»ÑĬÑĥÐ»
ĠÐ³ÑĬÐ²Ð°ÑĢ Ð¸Ð´Ð°Ð±
ĠÐ¼ Ð°Ð»
Ð°Ð¹ Ð¸Ñħ
ĠÑĤÐ°ÑĢÐ¸Ñħ Ð°Ð»ÑĬÑĥÐ»
ĠÐ³ÓıÐ°ÑĢÑĨÑĥÐ» Ð°Ð»
ĠÑħÓıÐ°Ð¹ Ð²Ð°Ð½
ĠÐ±ÑĢ Ð¸Ð³
ĠÐº Ð°ÑĢÑĤ
ĠÐº ÑĥÑĢÑģ
ĠÑĢ Ð°ÑĢÐ°Ð»
ĠÐ» Ð°ÑħÓı
Ð°Ñı Ð·ÑĥÐ»
ĠÐł Ð°ÐºÓı
ĠÐ¶Ð°Ð²Ð°Ð± Ð¸ÑıÐ»
ĠÑĩÓıÐµÐ·Ð°Ð± Ð¸Ð·Ðµ
ĠÐĲÑģÐ» Ð¸ÑıÐ±
ĠÑĢÐ¸ Ð¸Ð´Ð°Ð»
ĠÐ¼Ð°ÑĤÐµÑĢ Ð¸Ð°Ð»
ĠÐ² Ð°Ð³ÑĬ
Ð¸Ðº Ð°ÑıÐ»Ð´Ð°
ĠÐ¼Ð¸Ð»Ð» Ð°ÑĤÐ°Ð»ÑĬÑĥÐ»
ĠÐĵÑĬÐ¸Ð· Ð¸Ð»ÑİÑĢÑĤ
ĠÑĦÐ°Ðº ÑĥÐ»ÑĮÑĤ
ĠÐºÑĮ Ð²Ð°ÑĢ
ĠÐĸ Ð°Ð½
ĠÐ½ÑĥÑħÐ¼Ð°Ð»ÑĬÑĥÐ» ÐµÑģÑĥÐ»
ĠÐ±Ð°Ñģ ÑĢ
Ð°Ð½ Ð¸Ñī
ĠÐ´ Ð¸Ð¿Ð»Ð¾Ð¼
ĠÐ½ ÑĥÑĨÓı
ĠÑħÓıÐ°Ð»ÑĤÓı Ð¸Ð·Ð°Ð±Ð¸Ð·Ðµ
ĠÐĶ Ð°Ð³ÑĬ
ĠÑĢÐ¾ÑģÑĥ ÑĨÐ¾ÑıÐ·
ĠÐ³ÓıÐ°Ð´Ð°ÑĤ Ð¸ÑıÐ»
Ð§ Óı
ÑĥÐ» Ð°ÑĢÐµÐ»
Ð¸Ð·Ð°Ð± ÑĥÐ»Ð°
ÐĶ Ð¸Ð´Ð°
ĠÑĦ ÑĢ
ĠÐ°ÑħÓı ÑĥÐ»ÐµÐ»
ĠÑĢÐ¾ÐºÑĬ Ð¾ÑĢ
ĠÑĤÐ°ÑĢÐ¸Ñħ Ð°Ð»Ð´Ð°
ĠÐ±Ð¸ÑĩÑĩ Ð°Ð·Ðµ
ÐµÑĢÐ³ ÐµÐ¹
ĠÐ¼ ÐµÑĤÐµÑĢ
ĠÐľ Ð¸ÑģÐ°Ð»Ð°Ð»ÑĬÐµ
ĠÐĳ Ð¸ÑħÑĮ
ĠÐ±Ð¸ÑħÑĮ Ð°ÑĢÐ°Ð±
Ð¸ÑħÓı Ð°ÑĤ
Ð°ÑıÐ· Ð´Ð°
ĠÐ¢ÑĥÑĢ Ðº
Ñĥ ÐµÐ²
Ð¾ ÑĩÓı
ĠÐ»ÑĬ Ð°Ð´Ð¸
ĠÐĸ Ð¸Ð²
ĠÑĢÐ¾Ñħ Ð°Ð»Ð¸Ð»Ð°Ð±
ĠÐ± Ð¸Ð·Ð½ÐµÑģ
Ð² Ð°ÑĢÐ°Ð±
Ð² Ð¾Ðº
Ð¸Ð½ ÑģÑĥÐ»
ĠÐ³ÓıÐ°Ð´ Ð°ÑĤÐ°Ð»
ĠÑħÓıÐ°Ð´ÑĥÑĢ ÑĥÐ½
ĠÐºÑĬÐ¾ÐºÑĬ Ð°
ĠÐ²Ð°ÑĨ Ð°Ð»
ĠÑįÑħ ÐµÐ´Ðµ
ĠÐľÑĥÑħÓĢ Ð°Ð¼Ð°Ð´
ÑĥÑİ Ñī
Ð°Ð½ Ñĩ
Ð°Ð¼ ÑĥÑħÓıÐ°Ð¼Ð°Ð´
ĠÐļÑĬ Ð¾
ĠÑĨÐµÑĢ ÐµÑĢÐ°ÑħÑĬ
Ð¸Ð·Ð°ÑĢ ÑĥÐ½
ĠÑĨÐµÑĢÐµ Ð³ÓıÐ°Ð½
ĠÑĤÐµÑĢÑĢÐ¾ÑĢ Ð¸Ð·Ð¼
ĠÐ±ÑĥÐºÓı Ð°Ð½Ð¸Ð»Ð°
ĠÐ³ÑĥÑĢ ÐµÐ»Ð³Ð¸
ĠÑĢÐ°ÑħÑĬÐ°Ð»ÑĬ Ð°Ð½
ÐĵÑĮÐµÐ½ Ð¸Ð±
Ð¸ Ð°Ð´
ĠÑħÑĬ ÑĥÑĤ
ĠÐ³ÑĬÑĥÑĤÓı Ð±Ð¸
Ñģ Ð°
ĠÐ»ÑĬ Ð¾Ð»ÐµÐ±
ĠÑī Ñĥ
ĠÑĢÑĥÐ³Ð¾ Ð½Ð¸
ĠÐ¿ÑĢ ÐµÑģÑģ
ĠÐ§ ÓĢ
ĠÐ±Ð°ÑĩÓı ÑĥÐ½Ð°
ĠÐ¼Ð°ÑĨÓı Ð³Ð¸
ÑĥÐ»ÑĮÑĤÑĥÑĢ Ð°ÑıÐ»ÑĬÑĥÐ»
ÐºÑĬ ÑĥÐ»
ĠÐºÑĮ Ð¸Ð¶
Ð°Ð³ÑĬ Ð°Ð·
ĠÐ°ÑħÓı Ð¸Ð·Ðµ
ÐłÐ¾Ñģ ÑģÐ¸ÑıÐ»ÑĬÑĥÐ»
Ð³ÑĮÐ°Ðº Ð²Ð°ÑĢÐ¸
ĠÐ£Ð½ ÑģÐ¾ÐºÐ¾Ð»
ĠÑħÓı Ð¾ÑĢ
ĠÐ¥Óı Ð°Ð¹Ð±
ĠÐ±Ð¸ÑĩÓıÑĩÓı Ð°Ð½Ð°
ĠÑĢÐ°Ñĩ Ð¸Ð½Ðµ
ĠÐĲÐ½ Ð²Ð°ÑĢ
ĠÐ³ÑĬÑĥÐ½ Ðº
ĠÐ¼Ð¸ÐºÑĮ Ð³Ð¾
Ðµ ÑıÐ»Ð´Ð°ÑģÐ°
Ð°Ð¹ Ð¸Ð½
ĠÑīÐ² ÐµÐ¹
Ġ2 6
ĠÐĵÓıÐ°Ð±Ð´ÑĥÐ» Ð°ÐµÐ²
ĠÐ¼ÑĥÐ³Óı ÑĢÑĥÐ»
ĠÐ½Ð¾Ð¼ÐµÑĢ Ð°Ð»Ð´Ð°
Ð°Ð» ÐµÐ²
ĠÐ´ Ð°ÑĢÐ°Ð±
ĠÑı ÑĤ
ĠÐ½ÑĥÑħ Ð´Ðµ
Ñģ Ð¾Ð½
ĠÑĢ Ð¸ÑĩÓıÑĩÓı
ĠÐ½ Ð°Ð¼ÑĥÑģ
ĠÑĤÓı ÑĥÐ½
ĠÐºÑĬ ÑĥÐ½
ĠÐ±Ð¾Ñģ Ð°Ð½Ð¸
ĠÐ¼ÑĥÑħÑĬ Ð°Ð»
ĠÐ±Ð¾Ð¶ Ð¸Ð»ÑĬÐ¸
Ð±Ð°Ñģ Ð¸ÑıÐ»
ĠÐĵÑĥÑĢ Ð¶
Ð°Ð´ ÑĥÑĢ
ĠÐ¡ ÑĤÐ°Ð»
ÑĥÐ´ Ð¸ÑıÐ²
ĠÐ±Ð°ÑĤ Ð°Ð³Ð¸
ĠÑħÐ°Ð»ÐºÑĬ Ð°Ð·Ð´Ð°
ĠÑįÐ±ÐµÐ» Ð°Ð»ÑĬ
ĠÑĥÐ» ÐºÐ°
ĠÐ¥ÑĬ Ð²
ĠÐºÐ¸Ð½Ð°Ð· Ð³Ð¾
ĠÐ±Ð°ÐºÑĮ ÑĥÐ»ÑĬ
ĠÐ± Ð°Ð³Óı
Ð°Ð´ Ð°ÑĢ
ĠÐ»ÑĬ Ð°Ð·Ð°ÑĢ
Ð°Ð¶ ÑĥÐ´Ð¸Ð½
ĠÐ³ÓıÐ¾Ð» Ð°ÑĢÐ¾
ĠÑĩÓıÐ² Ð°Ð½Ð°
Ġ8 0
ĠÐºÓĢ ÑĥÐ´Ð¸ÑıÐ±
ĠÐºÑĬÐ¾Ð¹ Ð¸Ð»
Ġ %
ĠÑĤ ÑĥÐ¼
ĠÐºÑĬ Ð°Ð·Ðµ
ÐµÑĩ ÐµÐ´
ĠÑħÓıÑĥÐºÑĥÐ¼ Ð°ÑĤ
ĠÐºÐ°Ð³ÑĬ ÑĤÐ°Ð»
ĠÐļÐ°Ð²ÐºÐ°Ð· Ð°Ð»Ð´Ð°
ĠÑħÓıÐ°ÐºÑĬÐ¸ÐºÑĬ Ð°ÑĤ
ĠÑįÐºÑģ Ð¿ÐµÑĢÑĤ
ĠÐ¾Ðº ÑĢÑĥÐ³
Ñĥ Ð´Ð°Ð»
Ð°Ð½ ÑħÑĬ
Ñĩ Ð¸Ðº
ĠÑħÓı Ð¸Ðº
ĠÑĢÐ°Ð³ÑĬ ÑĥÐ»ÑĬ
ĠÐºÑĬÐ² Ð°ÐºÓı
ĠÑģÐ°Ð¹ ÑĤ
ĠÐºÑĮÐ¾Ð»Ð° Ð°Ð½
ĠÑıÑĩ Ð°Ð½Ð°
ĠÐ¿ÑĢÐ¾ÐºÑĥÑĢ Ð°ÑĤÑĥÑĢ
ÑĮ ÐµÑĢ
ÐµÑĢ Ðº
ĠÐĵ ÐµÐ½
ĠÐ³ÑĬ Ð¸ÑĢ
ĠÐ»ÑĬÐ°Ð» Ð°ÑĢÐµÐ»
ĠÐ»ÑĬÑĥÐ³Óı Ð¸Ð·Ð°Ð±ÑĥÐ½Ð°
ĠÐ³ÓıÐ°Ð´Ð°ÑĤ Ð¸ÑıÐ±
ĠÐ¼ÑĥÐ³Óı ÑĢÑĥÐ·
ĠÐ± Ð°ÑĢÐ°ÐºÐ°ÑĤ
ĠÑģ Ð¾Ð»Ð´
ĠÑĢÐµ ÐºÑĮ
ĠÐĳ Ð°ÑħÓıÐ°ÑĢ
ĠÑħÐ°Ð´ÑĥÐ± Ð³Ð¸
ĠÑħÐ² ÐµÐ·Ð°ÑĢ
ĠÐ³ÓıÐ¾Ð»Ð¾ÑħÑĬ Ð°Ð±Ð°Ð·
ÑĢÐ°ÐºÓı Ð°Ð»ÑĬ
Ð·Ð°Ð¼ ÐµÐ½
Ð¸Ð» Ð¸Ð»Ð°Ð½
ÑĨ ÐµÐ½
ĠÑħÐ°Ð»ÐºÑĬ Ð¸ÑıÐ±
ĠÐ»ÑĬÐ°Ð·Ð°Ð± Ð¸Ð·Ðµ
ĠÑĤÓıÐ°Ð¼ Ð¸Ð·Ðµ
ĠÐ»ÑĬÐ°Ð»Ð° Ð°Ð½
ĠÑĢÐ¸ÑħÑĮÐ¸Ð·Ð°ÑĢ ÑĥÑĢÐ°Ð»
ĠÐļÐ°ÑģÐ¿ Ð¸Ð¹
Ðº ÐºÐ²
ĠÐ» Ð°Ð³ÑĬ
Ð°Ð¹ Ð¸Ð»Ð°Ð½
ĠÐ´ Ð°Ð¸Ð¼
Ð¸ÑĩÓı Ð¾Ð½Ð¸Ð³Ð¸
ĠÐ³ÑĮÐµÐ½ Ð¸Ð²Ðµ
ĠÐ°ÑħÐ¸ÑĢ Ð°Ð»Ð´Ðµ
ĠÐ¸Ñħ Ð´Ð°Ð»
ÐĵÑĮÐ°Ð½ Ð¶Ðµ
Ð°ÑĢ Ð°Ñģ
ĠÐºÐº ÑĥÑĢÐ°Ð»
ÐµÐ¼ ÑĨ
ĠÐ¡ ÐµÑĢÐ³ÐµÐ¹
ĠÑıÑģ Ð°Ð»
ĠÑĥÐ½ÑĤ Ð°ÑĢÐ°Ð»
ÑħÓıÐ°Ð» Ð°Ð»ÑĬÑĥÐ»
ĠÐĺÐ½ Ñħ
ĠÑĢÑĥÐ³Ð¾ Ð½Ð¸Ð³Ð¸
ĠÐĶÐ°Ð³ÑĬÐ¸ÑģÑĤÐ°Ð½ Ð°Ð»Ð´Ð°ÑģÐ°
ÐĲ Ð½
ĠÑħÑĬÑĥÐ»ÑĥÑħÑĬ Ð°Ð»Ð´Ð°
ÑĥÐ»Ð°ÑĢÐ¾ Ð°Ð½
ĠÑĤÓıÐ¾ÑĢÐ¸ÑĤÓı Ð°ÑĢÐ°Ð»
ĠÐĲÐ¼Ð¸Ð½ Ð°ÑĤ
Ð± ÑĥÐ·ÑĥÐ»
ĠÐ±Ð°ÑĨÓıÑĨÓıÐ°Ð´ Ð°Ð±
Ðº Ð¾
ĠÐĸ ÐµÐ³Ð¸
ĠÐ²ÑĥÐ³Ð¾ Ð½Ð¸Ð³Ð¸
ĠÐ© Ð¸Ð²
ĠÐ¿ÑĢÐµÐ´ Ð¿ÑĢ
ĠÐ½Ð°ÑĢÐº Ð¾ÑĤ
ĠÑĢ Ð¾ÑĢÑĩÓı
ĠÑģÐ¾Ð½ Ð°Ð·ÑĥÐ»
ĠÐ±ÐµÑĢ ÑĤÐ¸Ð½
ÑĦ ÐµÑĢÐµÐ½
ĠÐ³ÓıÐ°ÑħÑĮÐ°Ð» Ð»ÑĬÐ°ÑĢÐ°Ð»
ĠÐ»ÑĬÐ°Ð» Ð°ÑĢÐµÐ²
ĠÐ»ÑĬÐ°Ð¹ Ð³Ð¸
ĠÐ¨Ð°Ð¼Ð¸Ð» Ð¸ÑĨÐ°
ĠÐ±Ð°Ð¶Ð°ÑĢ Ð°ÑĢÐ°Ð±
ĠÐºÐ»Ð°ÑģÑģ Ð°Ð·ÑĥÐ»
ĠÐ¸Ð½ÑĦÐ¾ÑĢÐ¼ Ð°ÑĨÐ¸Ñı
ĠÑĩÐ¾ÑĢÑħ Ð¾Ð»ÑĬ
ÑħÑĬÐ²Ð°Ð³Óı Ð°Ð¹
Ðº Ð°ÑıÐ»Ð´Ð°
Ð¸ÑħÑĬ Ð°Ð½
ĠÐłÐ¾ÑģÑģ Ð¸Ñı
ĠÐ¶Ð°Ð¼Ð³Óı Ð¸ÑıÑĤ
Ð¾Ð² Ð½Ð°
Ð¸Ð·Ð°Ð± ÑĥÑĢÐ°Ð±
ÐĿ ÑĥÐ¶
ĠÐ¼ÑĥÐ³ÓıÐ°Ð»Ð¸Ð¼ Ð·Ð°Ð±Ð¸
ĠÑĨÐµÐ± ÐµÐºÐºÑĥÐ½
ĠÐ³ÓıÐµÐ»Ð¼ Ð¸ÑıÐ±
ĠÐº Ð°Ð±Ð¸Ð½
ĠÐ¿ Ð°Ð»Ð°ÑĤ
ÐµÐ· Ð°Ð±Ð¸
ĠÐ°Ð± ÑĥÐ»ÐµÐ²
ÑģÑĤ Ð°Ð½
ĠÑħÐ² ÐµÐ·Ðµ
ÑħÓıÐ°Ð» Ð°Ð»Ð´Ð°
ĠÑħÑĮÐ² Ð°Ð´Ð°
ĠÐ± Ð°ÑĢÐ°Ð²
Ñı Ð¹
Ð¾ÑĢ Ð°
Ð³ÑĬ Ð°Ð½
ĠÐ·Ð°ÑħÓıÐ¼Ð°ÑĤ Ð°Ð»
ĠÐ¨Ð°Ð¼Ð¸Ð» ÑĮ
ĠÐ¿ÑĢÐµÐ´ÑģÐµÐ´Ð°ÑĤ ÐµÐ»
ĠÑĨÐµÐ²Ðµ ÑħÑĬÐ°Ð½
ĠÐ³Ð²Ð°Ð½ Ð³ÑĬ
Ñħ ÐµÑĢ
ĠÐ² Ð¾ÐºÑĮ
ĠÐ» ÓĢ
ĠÐļ ÐºÐ¾Ð»Ð°
Ð¸ÑģÑĤÐ°Ð½ Ð°Ð»ÑĬÑĥÐ»
ĠÑĢÐ°Ð³ÑĬÑĥÐ» Ð°Ð»
ĠÐ³ÑĮÐ°Ð´ Ð¸Ð½Ð°Ð»
ĠÑĢÐ¾ÑģÐ°Ð± Ð°Ð»ÑĬÐµ
ĠÐºÐ¾Ð´ Ð¾Ð±Ðµ
Ð¸ Ð¾ÑĤ
ĠÐ² Ð¾Ñħ
ĠÑī ÑĥÑī
ÐĵÑĮÐµÐ½ Ð¸ÑĢ
ĠÐ½ÑĥÑģ Ð³Ð¾
ĠÐŁÐ°ÑĩÐ°Ð»Ð¸ÑħÑĬ Ð¸ÑıÐ±
ĠÐ¥Ð°ÑĢ Ð°ÑħÑĮ
Ð´ ÑĥÐ·ÑĥÐ»
Ð°Ð»ÑĬ Ð°Ð·Ðµ
Ð¸Ð» Ð°Ð»Ð´Ðµ
ĠÐ³ÑĮÐ°Ð± Ð¸ÑıÐ»Ð´Ð°
ĠÐ³ÑĮÐ°Ð± Ð¸Ð»Ð°
Ð³ÓıÐ°Ð» Ð¸ÐµÐ²
ĠÑģÐ¾Ð²ÐµÑĤ Ð°Ð»ÑĬÑĥÐ»
ĠÐ¼Ð¸ÑģÐº Ð¸Ð½
Ð¾Ð½ Ð°Ð²
ĠÐºÐº Ð°Ð½Ð¸Ð³Ð¸
ĠÐ¿ Ð°ÑĤÑĢ
Ð¸ÑıÐ»ÑĬÑĥÐ» Ð³Ð¸
Ð¥ Ð°Ð»
Ð¤ ÑıÐ»ÑĬÑĥÐ»
ĠÑħÐ°Ð´ÑĥÑģ ÐµÐ»
ĠÐ³ÑĥÑĢ Ð¸Ð½
ĠÐĸ Ð¸Ð½
Ð½ Ð°Ð¼ÑĥÑģ
Ð°Ð´ Ð°Ð¹
ĠÐ³Óı Ð¸Ð½
ĠÐ³ÑĮÐ°Ð± ÐµÑıÐ½
ĠÐ¡ ÐĴ
ĠÑĢÑĥÐºÓı Ð°Ð½Ð¸Ð³Ð¸
Ð¾ ÑĪ
Ð³Óı ÑĥÐ½
ĠÐºÑĮ ÐµÑĩÓıÐ¾Ð³Ð¾
ĠÐł ÑĥÐºÑĬ
ĠÐł ÑĥÐ³Ð¾
ĠÑĢÐ°Ð¹Ð¾Ð½ Ð°Ð»ÑĬÐµ
Ð¸ÑıÐ· Ð´Ðµ
ĠÐ´Ð°ÑĢÐ°Ð¶ Ð°
ĠÑĤÐ²Ð¾ÑĢÑĩ ÐµÑģÑĤÐ²Ð¾
Ð½ Ð°Ð»ÑĬÑĥÐ»
ĠÐ¡ ÑĥÐ³ÑĬ
ĠÑį Ð½
ÑĥÐ¶ ÑĥÐ¼
ĠÐ°Ð´Ð¼Ð¸Ð½Ð¸ÑģÑĤÑĢÐ°ÑĨ Ð¸ÑıÐ»ÑĬ
ĠÑħÐ¸Ñģ Ð¸Ð·Ðµ
ÑĢÐµÑħ Ð°Ð»ÑĬÑĥÐ»
ĠÐ¼ÐµÐºÑĬ Ð°Ð±
ĠÐ³ÓıÐ°ÑģÑĢÑĥ ÑıÐ»ÑĬÑĥÐ»
ĠÐĸÐ¸Ð½Ð´Ð¸ÑĢ Ð³Ð¾
Ð°ÐºÑĢ Ð°ÑĢ
Ð» ÐµÐ¼
Ðº ÐºÐ¾Ð»
ĠÑĨÐ¾ Ð»ÑĬ
Ð¾Ð± Ð¾Ð³Ð¾
ĠÑĢÑĥÐ³Ð¾ Ð°Ð½
Ð¸Ð½Ðµ Ð³ÓıÐ°Ð½
Ð¥ ÓıÐ°Ð»
ĠÑħÐ°ÑĢ Ð±
ĠÐ¿ÐµÐ´Ð°Ð³Ð¾ Ð³
Ġ ÑĥÐ½Ð°Ð°Ð½
Ð¸Ð· Ð°ÑĨÐ¸Ñı
Ð°Ð² Ð»
ĠÐ· Ð¸Ð³
ĠÐĵÑĮÐ°Ð½ Ð¶
ĠÐ¼ÑĥÑģÑĤÐ°ÑħÓıÐ¸ÐºÑĬ Ð°Ð±
ĠÐ³ÓıÐ¸Ð»Ð» Ð°Ð»ÑĬÑĥÐ½
ĠÐ±ÑĥÐºÓıÐ¸Ð½ÑĩÓı ÐµÐ±
ĠÐĸÐ°Ð¼ Ð³ÓıÐ¸ÑıÐ±
ĠÐľÐµÐ» Ð¸Ðº
ĠÐ± Ð°ÑĨÓı
ĠÐº ÑĥÐ»
ĠÑī ÑĥÐ»Ð°
Ð°Ð±Ð¸ Ð³ÑĥÐ½
ĠÐĳ ÑĥÐ³Ð¾
ĠÐ°Ð² Ð°Ð»
ĠÐ°Ð´ Ð¼Ð¸Ð½Ð¸ÑģÑĤÑĢÐ°ÑĤÐ¸Ð²Ð¸ÑıÐ±
ĠÐ»ÑĬÑĥÐ³Óı Ð°Ð½Ð°
ĠÐ±Ð°Ñĩ ÑĥÐ½ÐµÐ±
ĠÐ³ÑĮÐ¸ÑĤÓı Ð¸Ð½Ð°Ð²
ĠÑģÐ°Ð½ Ð°Ð³ÓıÐ°ÑĤ
ĠÐ±Ð°ÑĢÐº ÑĥÐ»Ð°
ĠÐ¿Ð¾Ð» Ð¸ÑĨ
ĠÐ¿Ð°ÑĢ Ð»Ð°Ð¼ÐµÐ½ÑĤ
ĠÐ©Ð°Ð¹ Ð³ÑĥÑĢÐµÐ»ÑĬÑĥÐ»
Ð°Ð³Ð°ÑĢ Ð³Ð¾
ĠÐ´ Ð¾
ĠÐ³ÑĮÐ°Ð± Ð¸ÑĩÓıÐ¾
ĠÑĢÑĥ Ð·
ĠÑħÓı ÐµÐ¶
ĠÐºÑĮ Ð°Ð»
Ġ2 8
ĠÑħÐ°Ð»ÐºÑĬ Ð°Ð·ÑĥÐ»
ĠÐĵÑĮÐ°Ð½ Ð¸Ð±
ĠÑĤÑĥÑĢ Ðº
ĠÐ¥ÑĥÑĪ ÑĤ
ĠÐ± ÐµÑģÐ´Ð°Ð»
ĠÑħ Ñħ
ĠÐ¿ Ð¸ÑĢ
ĠÐľ ÑĥÑħ
ĠÑĩ Ð¸ÑıÑĢ
ĠÐĲ ÑĤ
ÑĥÐ± Ð°ÐºÐ°ÑĢ
Ð¸ÑĩÓı ÐµÐ²
ĠÐ°Ð¼ ÑĢÑĥ
ĠÐ±Ð¸ÑĩÑĩ Ð°Ð»ÐµÐ±
ĠÐ¶Ð°Ð¼Ð°Ð³ÓıÐ°ÑĤ Ð°Ð»ÑĬ
ĠÑĢÐ¸ÑĤÓı ÑĥÐ½
ĠÐ°Ð´Ð°Ð± Ð¸ÑıÑĤÐ°Ð»ÑĬÑĥÐ»
ĠÐĵÑĮÐ°Ð±ÑģÐ°Ð³ÓıÐ°ÑĤ Ð°Ð»Ð´Ð°
ĠÑıÑĢÐ³ÑĬ Ð¸Ð´
ĠÐ³ÓıÐ°Ð´ Ð¸Ð½Ð°Ð±
ĠÐºÑĬÐ°Ð´ Ð°ÑĢÐ°Ð»Ð´Ðµ
ĠÑĥÑĩ Ð¸ÑĤÐµÐ»
ĠÐ±Ð°ÐºÑĬ ÑĤÓĢÐµÑĢÑħÑĮ
Ð°Ñ į
Ð´ Ð¸
ĠÐ¥ Ð°Ð»Ð¸Ð»
ĠÐĳ Ð°Ñħ
âĢ Ķ
ĠÑĢÐ¾ÑģÑĥÐ»ÑĬ ÑĥÐ½
ĠÑĢÐ°ÐºÓıÐ°Ð»Ð´Ðµ Ñī
ĠÐ½ÑĥÐ³Óı Ð»ÑĬÐ¸
Ð°Ð· Ð°Ð±Ð¸
Ð°Ð´ Ð³Ð¾
Ð°Ð³Óı Ð¸Ð¿
ĠÑĢÐ°Ð¹ ÑĨ
Ð¸Ð² Ð¸ÑıÐ»
ĠÐ¢ ÐµÐ¼Ð¸ÑĢ
Ðĳ Ð°ÑĢÐº
Ñĭ ÑĪ
ĠÑĩÐ°Ð³Óı Ð°Ð·ÑĥÐ»
ĠÑĨÐ¾Ð³Ð¸Ð´ Ð°Ð·Ð³Ð¸
ĠÐ°ÑĢÐ¼ Ð¸ÑıÐ»Ð´Ðµ
ÑıÐ±ÑĢ ÑĮ
ĠÐ³ÑĮ ÑĥÐ¶ÑĥÐ¼
Ð°Ð³ÑĮ ÐµÑĩÓı
ĠÑĦ Ð¸Ð½
ĠÐºÑĬÐ²Ð°ÑĤÓı Ð¸Ð±
ĠÑıÑģ Ð°Ð»ÑĬÑĥÐ»
ĠÐºÓıÐ²Ð°ÑĢ Ð°Ð»ÑĬÑĥÐ»
ĠÑĢÐ°Ð³ÓıÐ°Ð» Ð´Ð°
ĠÑĨÐµÐ½ÑĤÑĢ Ð°Ð»ÑĬÑĥÐ»
ĠÐ²Ð¸ÑħÑĮ Ð¸Ð·Ð°Ð²
Ð°Ñı ÑĤ
ĠÐ³ÑĮÐµÐ· Ð´Ð°ÑģÐ°
ĠÐĺ Ð»ÑĮ
ĠÑĢÐ°Ð³ÑĬ Ð´Ðµ
ĠÑĦ ÑĥÑĤÐ±Ð¾Ð»
Ðĺ ÑģÐ°Ð½Ð°
ÑĮ Ñİ
Ð² ÐµÐ»
Ð¿ Ð°Ð½
ĠÐ³ÑĮÐµÑĩÓıÐ¾ Ð»ÑĬÐ¸ÑıÐ»ÑĬ
ĠÐĵÑĮÐµÐ½ Ð¸Ð²
ĠÐ±ÐµÑĩÐµ Ð»ÑĬÐ¸
Ð¿ÑĥÑģ Ðº
ĠÐĵÓı Ð°Ð·
ĠÐ±ÑĥÐºÓıÐ°ÑĢÐ°Ð± Ð°Ð½Ð¸
ĠÐķÐ²ÑĢÐ¾Ð¿ Ð°ÑıÐ»ÑĬÑĥÐ»
ĠÐºÓı Ð¾Ð»Ð°
ĠÑħÓıÐ°Ð»ÑĤÓı ÑĥÐ´Ð°ÑģÐ°
ĠÑį Ð»ÐµÐºÑĤ
ĠÐ±Ð°Ð¹Ð±Ð¸ÑħÑĮ ÑĥÐ»
ĠÐºÐ¸Ð½ Ð°Ð·ÑĥÐ»Ð³Ð¾
ÑĤÐ½Ð¸Ðº Ð¸ÑıÐ±
Ð± ÐµÑĢ
Ð¼ Ð¸Ð»
ĠÑĨ ÑĨ
ĠÐ»ÑĬ Ð¸Ð»
ÐµÐ½ Ð¸Ð³Ð¸
Ð¿ Ð¸Ñģ
ĠÑħÓıÐ°Ð»ÑĤÓı Ð¸Ð·Ð°Ð±ÑĥÐ»ÐµÐ±
Ð¸Ð´ Ð°Ð½Ð¸Ð³Ð¸
ĠÐ±Ð¾ Ñħ
ĠÑħÓıÐ°Ð¶ Ð°Ð»ÑĬÐ¸
ĠÐ¿Ð°ÑĩÐ°Ð»Ð¸ÑħÑĬ Ð°Ð»ÑĬ
ĠÑĪÐ°Ð¿Ð°ÐºÑĬ Ð°ÑĤÐ°Ð»
ĠÑıÐ½Ð²Ð°ÑĢ Ð°Ð»Ð´Ð°
ĠÑĦÑĢ Ð¾Ð½ÑĤ
. ,
Ġ Ð°Ð³ÑĮ
ĠÐºÐº ÑĥÑĢÐ°Ð±
ĠÐ³ÓıÐ°ÑħÑĮÐ°Ð» ÑĩÐ¸
ĠÐ±Ð°Ð¹Ð±Ð¸ÑħÑĮ ÑĥÐ´Ð°
ĠÐ½Ð¸Ð¶Ðµ ÑħÑĬÐµ
ĠÐĵÓıÑĥÐ¼Ð°ÑĢ Ð¾Ð²Ð°Ñģ
ĠÑģÐ°Ð½ Ð°Ð³Óı
ĠÐ´Ð°ÑĢÐ°Ð¶ Ð°ÑıÐ»ÑĬÑĥÐ»
ĠÐ¿Ð¾Ð»Ð¸ÑĤ Ð¸ÐºÐ¸ÑıÐ±
Ð» Ð¸Ð½
ĠÑģ Ð°ÑĢÐ´
ĠÑĢÐ°Ð¹Ð¾Ð½ Ð°Ð·Ð´Ð°
Ð¸Ñĩ ÓĢ
ĠÐ°Ð´ Ð²Ð¾Ðº
ĠÐ½ÑĥÑħÐ¼Ð°Ð»ÑĬÑĥÐ» ÐµÑģ
ĠÑĤÓıÑĥÑĢ Ð°Ð·Ðµ
ĠÐºÐ²Ð°Ð» ÐºÐ²Ð°Ð»
ĠÑĤÑĢÐ°Ð½Ñģ Ð¿Ð¾ÑĢÑĤ
Ð°Ð·ÑĥÐ» Ð°Ð±
ÑĥÐ¼ Ð°ÑĢ
ĠÐĶ ÑĥÑĨÐ°
ĠÑĨÓıÐ°Ð» Ð¸
ĠÐ±Ð°ÐºÓı Ð°Ð»ÑĬÐµ
ÐĲ Ð²Ð°ÑĢ
ĠÐ±Ð°ÑĤ ÑĥÐ½
ĠÐĵÓıÑĥÐ¼ Ð°ÑħÐ°Ð½
ĠÐ°Ð» Ð°ÑĤ
ĠÐ³ÑĮÐ¸ÐºÑĬ Ð°Ð½Ð°
ĠÐ·Ð°Ð² ÐµÐ´
ĠÐļÐ¸Ð½Ð°Ð± Ð³Ð¾
ĠÐ³ÓıÑĥÐ½Ð³ÑĥÑĤÓı Ð°Ð±Ð¸
ĠÐºÐºÐ¾Ð» Ð¸Ð»Ð°
ÐµÐ¹ Ð½
Ðļ Ð¸Ð½
ĠÐĵÓıÐ°Ð» Ð¸Ð»
ĠÐ¿Ð¸Ðº ÑĢ
ĠÐ±ÐµÐ³ÑĮÑĥÐ» Ð°ÑĢÐµÐ±
ĠÐ¼Ð°Ð´Ð°Ð½ Ð¸ÑıÑĤ
ĠÐ´ ÐµÐ»
ĠÑĨÓı ÑĥÑĢÐ°Ð±
ĠÐļ Ð°Ð¼Ð°Ð»
ÑĢÑĥ Ðº
ĠÐ²ÑĥÐºÓı ÑĥÐ½Ð°
ĠÐ±Ð°ÐºÓı Ð³Ð¸
ĠÐ±Ð°ÑĤÓı Ð¸ÑıÐ»
ĠÐ¼ÑĥÐ½ Ð°Ð³ÑĮ
ĠÑħÐ¸ÑĢ Ð¸ÑıÐ²
ĠÐ¼ÐµÑģÐµÐ´ Ð¸Ð»
Ð°ÑĢ Ð¸Ð»Ð°
ĠÑī Ð¾Ð»ÐµÐ»
ĠÐ· Ð¾Ð½
Ð¸Ð½Ð°Ð» Ð´Ð°ÑģÐ°
ĠÐ±Ð°ÑĢÐº Ð°Ð½Ð°
ĠÑįÐº Ð·Ð°Ð¼ÐµÐ½
ĠÐľÑĥÑģ Ð°Ð»
ĠÐ¼Ð¸Ð½ ÑĥÑĤ
ĠÐ±Ð¾Ð»ÑĮÐ½Ð¸ÑĨ Ð°ÑıÐ»Ð´Ð°
ĠÐ²ÑĥÐºÓĢ Ð°Ð½Ð°
ĠÑģÐ¸Ñı ÑħÓı
ĠÐ¼ ÑĥÑħ
ĠÑħÓı ÐµÑĢÐµÐ½
ĠÐ¸ ÑģÐ°Ð½
ĠÐ¡ ÑĤ
ĠÐľÑĥÑħÓıÐ°Ð¼Ð°Ð´ Ð¸Ðµ
ĠÐ¦ Ð°Ð´Ð°ÑħÑĬ
ĠÐ±Ð°ÑĤÓı Ð°
ĠÑĨÐµÑĢ ÐµÑħÑĥÐ½
ĠÑĢÐµÑħÑģ ÐµÐ·Ðµ
ĠÐ²Ð°ÐºÐ¸Ð» Ð·Ð°Ð±Ð°Ð·
ĠÐ¾Ð± Ñī
ĠÐ¸Ð´Ð°ÑĢÐ°Ð± Ð°Ð·
ĠÐ°Ðº Ð°Ð´ÐµÐ¼
ĠÐ¹Ð¸Ð³ ÐµÐ¹
ĠÐ³ÑĮ Ð¾ÑĢ
Ð¶ Ð¸Ð´ÐµÑĢ
ÑħÑĬ Ð¸
Ðĵ ÐŃ
ĠÐ³ÑĮÐ°ÑĢ Ð·
ĠÐ¥ÓıÐ°Ð¼Ð·Ð°ÑĤ Ð¸Ð»
ĠÐĵÓıÐ°Ð±Ð´ ÑĥÐ»Ð°
ĠÐºÐ²ÐµÑĢÐ±Ð°ÐºÑĬ Ð¸
ĠÐºÐ¾Ð¼Ð¿ Ð»ÐµÐºÑģ
ĠÑįÑħ ÐµÑĤ
ÑĥÐ± Ð°
ĠÐ°Ñģ Ð¸ÑĢ
ĠÐ²Ð°Ñģ Ð³Ð¸
Ð¸Ð·Ð°ÑĢ ÑĥÐ»ÐµÐ»
ĠÑĢÐ°ÑĤ Ð¸Ð»Ð°
ĠÐºÐ¾Ð¼Ð°Ð½Ð´ Ð¸ÑĢ
ĠÐ¼ÑĥÑħÓıÐº Ð°Ð½
ĠÐĵÑĮÐ°ÑĢ ÑĥÐ»Ð°
ĠÐĲÐ· ÐµÑĢÐ±
ĠÐ¾ÑĢÐ³Ð°Ð½ Ð¸Ð·Ð°ÑĨ
ĠÐ³ÑĮÐµÑĢÐµÑģ Ð¸
ĠÐ¢ÓıÐ°Ð» ÑħÓıÐ°ÑĤ
Ð¾ Ð´Ðµ
ÑĩÓı ÑĥÐ¶Ñĥ
Ð¸Ð½Ð°Ð± ÑĥÐ»ÐµÐ±
ĠÐ¸Ð½ ÑĩÓıÐ¾
Ð¡ Ð°Ð»ÑĬÑĥÐ»
Ð¸Ð¾Ð½ ÐµÑĢ
ĠÑĢÐµÐºÓı ÑĥÐ½
ĠÑĢÐ°ÑĤ Ð°Ð½Ð°
ĠÐ±Ð¾ÑĢÑħ Ð°Ð»ÑĬ
ĠÐ±Ð°Ð³ÑĬ Ð°ÑĢ
ĠÐ·ÑĥÐ» Ð¼Ñĥ
ĠÐ³ Ð°Ð½ÑĩÓı
Ð°ÑĢ Ð°Ð´Ð°
ĠÑĤ ÐµÑĩÓıÐ¾
ĠÐ´ Ð¾Ñģ
ĠÐ¸ Ð´Ðµ
ĠÐ¢ Ð°ÑĢ
ĠÐĿ ÑĥÑĢ
ĠÑĨÓıÐ°Ð» ÑĥÐ»ÐµÐ±
ĠÐ¢Óı Ð¾ÑĨÐµÐ±Ðµ
ĠÐ³ÓıÐ°Ð³ Ð°ÑĢÐ°Ð»
ĠÑĩÐ°Ð³Óı Ð¸Ð³Ð¸
Ð³ÓıÐ°Ð» Ð¸
ĠÑĢÑĥÐºÓıÐ¸Ð½ Ð°Ð»ÑĬ
ĠÐĵÑĮÐµÐ· Ð¸Ðµ
ĠÐºÑĬÐ°Ð³ÓıÐ¸Ð´ Ð°Ð±Ð¸
ĠÐ¸Ð¼Ð°Ð¼ Ð°ÑģÑĥÐ»
ĠÐ³ÑĮÐ°Ð½Ð¶ ÐµÑģÐµÐ±
ĠÐºÐ°Ð½Ð´Ð¸Ð´ Ð°ÑĤ
Ð°Ð´ Ð¸Ñģ
ĠÑĤ Ð¸ÑĢ
ĠÑĤ Ð°ÐºÑĢÐ°ÑĢ
ÑĢÑĥ ÐºÑĬ
Ðĵ ÓıÐ°Ð»
ĠÑį Ð±
ĠÐ¦ ÐµÐ½ÑĤÑĢ
Ġ2 1
ĠÑħÑĬÑĥÐ»ÑĥÑħÑĬ Ð°Ð»Ð´Ðµ
ĠÐºÑĬÐ²Ð°ÑĢ Ð¸Ð»ÑĬ
ĠÐºÑĬÐ¾ÑĤÓı Ð½
ĠÐºÑĬÐ¾ÑĤÓı Ð¸Ð·Ðµ
ĠÐ´Ð°Ð³ÓıÐ± Ð°
ĠÐ»Ð°ÑħÓı Ð·
ĠÑĢÑĥÐ· Ð¼Ð°Ð½
ĠÑĤ Ð¾Ð»Ð°ÑĢÐ¾
ĠÐ»ÑĬ Ð¸
ĠÐ¸ Ð»Ð°Ð½
ĠÐ±Ð°Ñĩ ÓĢ
ĠÐ±Ð°Ð¶Ð°ÑĢ ÑĥÐ»ÐµÐ±
ĠÑīÑĥÐ» Ð°Ð»ÑĬ
Ð²Ðµ ÑĤÓı
ĠÐ¿Ð°Ñĩ Ð°Ñı
ĠÐ²Ð°ÑħÓı ÑĪ
Ðº Ð»
ĠÐ± Ð°Ð·Ð°ÑĢ
ĠÑĤÓı ÑĥÐ³ÑĮ
ĠÐ· Ð°Ð»
ĠÐ³ÑĬ Ð¾Ð±
ĠÑĨÓıÑĥÐ½ ÑĥÐ»ÐµÐ»
Ġ19 0
Ðľ Ð°Ð³ÓıÐ°ÑĢÑĥÐ»
ĠÐºÐ¾Ð¼ Ð¼ÑĥÐ½
ÑģÐº ÑĥÑģ
ĠÐ¥ÑĥÐ½Ð·Ð°ÑħÑĬ Ð°
ĠÑħÑĮÐ²Ð°Ð´ Ð¸Ð·Ðµ
ĠÑģÐ¾ÑĢÐ´Ð¾ ÑıÐ»ÑĬ
ĠÑĨÓıÑĥÐ½ÑĥÐ» ÐµÐ·
ĠÑĢ Ð¸Ñħ
Ð»ÑĬ ÑĥÐ´Ð°
ĠÐ· Ð¸ÑıÑĢ
ĠÐ· Ð°Ð³ÓıÐ¸Ð¿
âĢ ¦
ĠÐ±ÑĥÐºÓıÐ¸Ð½ ÐµÐ±
ĠÐºÑĬÐ²Ð°ÑĤÓı Ð¸ÑģÐµÐ»
ĠÐĲÑĢ Ð¼
ĠÑĨÐ¾Ð³Ð¸Ð´Ð°Ð± Ð³Ð¸
ĠÐ·Ð°Ð²ÐµÐ´ ÑĥÑİÑī
ĠÐ´ Ð¸ÑħÑĬÐµ
ÐµÐ½ Ð¸Ðµ
ĠÐ±ÑĥÐºÓı Ð°
ĠÐ¸ ÑĩÓı
ĠÐ±Ð°Ð¹Ð±Ð¸ÑħÑĮ Ð°ÑĢÐ°Ð±
ĠÐłÐ°ÑģÑĥÐ» Ð¸Ð»
ĠÑĨÐµÐ±ÐµÑĤÓı ÐµÑıÐ»ÑĬÐµ
ĠÐ¡Ð¡Ð¡Ðł Ð°Ð»ÑĬÑĥÐ»
Ð»Ð¸Ð¼Ð¿ Ð¸Ð°Ð´
Ð°ÑĢ Ð°Ð»ÑĬÑĥÑħÑĬ
ĠÐ¶Ð°Ð½ ÑĥÐ±
ĠÐĲÐ± ÑĥÐ±Ð°ÐºÐ°ÑĢ
ĠÐľÑĥÑģ Ð»Ð¸Ð¼
ĠÑĤÓıÐ°Ð´ÐµÐ³ÓıÐ°Ð½ Ð°Ð»
Ð¸ÑĤ Ð¸Ð½Ð³
ĠÐĵÓı Ð¾Ð±
ĠÐĳ Ð°ÑĤÓı
ÑħÓı ÑĥÑĢÐ¼Ð°ÑĤ
ĠÐĿ ÑĥÑħ
Ð¸Ð´Ðµ Ð½
ĠÐĲÐ» ÐµÐºÑģ
ĠÑħÐ² Ð°ÑĢÐ°Ð±
ÑıÐ· Ð´Ð°
ĠÐ´Ð¸Ð½ Ð¸ÑıÐ±
ĠÑİ ÑĢ
ĠÐ¡Ð¾Ð²ÐµÑĤ Ð¸ÑıÐ±
Ð¾Ñį ÑĤÐ½Ð¸ÐºÐ¸ÑıÐ±
ĠÐ¼Ð¾Ð½ Ð¾ÑįÑĤÐ½Ð¸ÐºÐ¸ÑıÐ±
ĠÑħ Ð°ÑĢÐ°Ð±
ĠÑĤ Ð¾Ð»Ð°
ĠÐ¼ Ð°ÐºÑĮ
ĠÑħÓı Ð°Ð¼
ÐµÐ¼ Ð°ÑĤ
ĠÐ±Ð¾ ÑĤÓı
ÐĵÑĮ ÐµÐ²
ĠÑĢÐ°ÑĩÓı ÑĥÐ½Ð°
ĠÐ¶Ð°Ð²Ð°Ð± ÑĩÐ¸Ð»ÑĬÐ¸
ĠÑħÐ¸Ñģ Ð°Ð½Ð°
ĠÐ°Ð²Ð°ÑĢ Ð°Ð·ÑĥÐ»
ĠÐºÑĬÐ²Ð°ÑĢÐ¸Ð³Óı Ð°ÑĢÐ°Ð±
ĠÑĢÐ¸Ñī Ð¸ÑıÐ»
ĠÐ¿Ð¾Ð»Ð¸ÑĤ Ð¸Ðº
ĠÑħÑĮÐ¸ÑħÑĮ Ð¸Ð·Ðµ
ĠÐ£Ð½ÑģÐ¾ÐºÐ¾Ð» Ð¾
ÑĥÐ» Ð°Ð±
ĠÐ¶ ÑĥÑĢ
Ð°ÑĨ Ð¸Ð½
ĠÐł Ð°ÐºÑĮ
ÐµÑĤ Ð°Ð»
Ð¥ Ð°Ñģ
ĠÐ³ÑĮÐµÐ½Ð¸Ð± Ðµ
ĠÐ¼Ð°Ð´Ð°Ð½ Ð¸ÑıÑĤÐ°Ð»ÑĬÑĥÐ»
ĠÐº ÑĥÐ½
Ð¿ Ð°ÑĢ
ĠÐ³ÓıÑĥÐ¼ÑĢÑĥ ÑıÐ»ÑĬ
ĠÑĢÐ¸ÐºÓıÐºÓı Ð¸Ð½Ðµ
ĠÐ³ÑĮÑĥÐ´ÑĥÐ» Ð»ÑĬÐ¸
ĠÐ¥ÓıÐ°Ð¶Ð¸Ð¼ ÑĥÑħÓıÐ°Ð¼Ð°Ð´
ĠÐ½Ð°Ñģ Ð»
ĠÑĢÐ°Ð»ÑĬ Ð´Ð°Ð»
Ð°ÑĤ ÓıÐ°Ð»
ĠÐ½ Ð°Ð»ÑĬÐ¸
ĠÐ³ÑĮÐ°Ð± Ð¸ÑıÐ»Ð´Ðµ
ĠÐļ Ð¾Ð¼
ĠÑĥÐ½ Ð°Ð³Ð¾
ĠÑį ÑĤ
ĠÐ°ÑħÓı ÑĥÐ»ÐµÐ±
ĠÑĢÐ¸ÐºÓıÐºÓı Ð°Ð½Ð°
ÐµÑĩÓı ÐµÐ»
ĠÐ±Ð°ÑħÓıÐ°ÑĢ ÑĩÐ¸Ð»ÑĬ
ĠÐ¥ÓıÑĥÐºÑĥÐ¼ Ð°ÑĤÐ°Ð»ÑĬÑĥÐ»
2 3
ĠÐ± Ð°Ð·
Ð¸ÑıÐ± Ð¸
ĠÐ¥ Ð°Ð½
ÑĥÑĢÐ°Ð» Ð´Ð°ÑģÐ°
ĠÐ¼Ñĥ ÑĦÑĤ
ĠÐºÑĬÐ°ÑĩÓı Ð°Ð½
ĠÐ±Ð¾Ð»ÑĮÐ½Ð¸ÑĨ Ð°ÑıÐ»ÑĬÑĥÐ»
ĠÑħÑĬÐ²Ð°Ð´Ð°ÑĢÑĥÑħÑĬ Ð°Ð½
ĠÐ¼Ñį ÑĢ
Ð¸Ð½ Ð°Ð»Ð´Ðµ
ĠÐļ ÑĢ
ĠÐ¥Óı Ð°Ð¼Ð¸Ð´
ĠÐ³ÓıÐµÐ» Ð°Ð»Ð´Ð°
ĠÐ±Ð°Ð»Ð°Ð³ÑĮ Ð¸ÑĩÓıÐ¾Ð³Ð¾
Ð¾Ð»Ð¾Ð³ Ð¸ÑıÐ»ÑĬÑĥÐ»
ĠÐ±Ð¸Ñĩ ÑĥÐ½
ĠÐĵÑĮÐ¾ÑĨÓı Ð°Ð»ÑĬ
Ð¸Ð» ÑĮ
ĠÐ±Ð°ÑĤ Ð°ÑĢÐ°Ð±
ĠÐĵÑĮÐµÐ» Ðµ
ĠÐ°Ð´Ð¼Ð¸Ð½Ð¸ÑģÑĤÑĢÐ°ÑĨ Ð¸ÑıÐ»Ð´Ð°
Ð¥Óı Ð°Ð¶
2 5
Ð°Ð± Ð°ÑħÑĬ
ĠÐ»ÑĬ ÐµÐ±
ĠÐĵÑĮ Ð°Ð²
ĠÐºÓı ÐºÓıÐ°Ð»
ĠÐ²Ñĥ ÐºÑĬ
ĠÑĩÓı Ð¾ÑĢ
ĠÐ³ÓĢ ÐµÐ»
ĠÐ³ÑĮÐ°Ð»Ð± Ð°Ð´ÐµÑĢ
ĠÐ» Ð¸ÑĨ
ĠÐ»ÑĬ Ð¸ÐºÓĢ
Ð°ÑĢÐ°Ð² ÑĥÐ»
ĠÐ¢Óı Ð°Ð³ÑĮÐ¸ÑĢ
ĠÐºÐ¾Ð½ ÑĨ
ĠÐĿÐ¸Ð»ÑĬ ÐµÐ´Ð°
ĠÐ¼Ð°ÐºÑĬÐ°Ð» Ð°ÑıÐ»Ð´Ð°
Ð° ÑĥÑĢ
Ð°Ð½ Ð¸ÑıÐ»
Ð¼ ÐµÑħ
ĠÐ² Ðµ
Ð°Ð¹ Ðº
Ð¾Ñģ ÐµÐ±
ĠÐ¸ ÑģÐºÑĥÑģ
ĠÑĩÓı Ð¾Ð±Ð¾Ð³Ð¾
Ð¸ÑĤÓı Ð°ÑĢÐ°Ð±
ĠÐĲÐ¼ ÐµÑĢ
Ð°Ð¸ ÑĢ
ĠÐĲÑħÓıÐ¼Ð°Ð´ Ð¸ÑĨÐ°
ĠÐĵÓıÑĥÐ¼Ð°ÑĢ Ð¸Ð»
ĠÑħÑĮÐ²Ð°Ð´ ÑĥÐ»ÐµÐ»
ĠÐ³ÓıÐ¾Ð»Ð¾ÑħÑĬÐ°Ð½ ÑĩÐ¸
Ð°Ð» Ð°Ð±
ĠÐ³ÑĮ Ð±
Ð°Ð³ Ð°ÑĢÐ°Ð±
ĠÐ»ÑĬ Ð¾Ð»Ð°
ĠÐĿ Ð°Ð´Ð¸ÑĢ
ĠÑħÓıÐ°Ð¶ Ð°Ð»ÑĬ
ĠÐ¦Óı ÑĥÐ¼Ð°Ð´Ð°
Ð»Ñı ÑĢ
ÑĢÑĥÐ¿ Ð¿
ĠÐ¸ÑİÐ½ Ð°Ð»Ð´Ð°
Ð°Ð» Ð¸Ð´Ðµ
ĠÐ± Ð¾ÑĢÑĤ
ÐµÐ² Ð°ÑģÑĥÐ»
ĠÑĢÐ¾ Ð³ÑĮ
Ð¸ÑıÐ² Ð³Ð¾
ĠÐ£ Ð½Ð°
ĠÐ¹Ð¸ÐºÓı Ð°ÑĢÐ°Ð¹
ĠÑĤÓıÐ°Ð»Ð°Ð± Ð°Ð»
ĠÐ¿ÑĢÐ¾Ð³ÑĢÐ°Ð¼ Ð¼Ð°
ĠÐĳÐ°ÐºÑĮ Ð°Ð³ÑĮÐµÑĩÓı
Ð± Ð°Ñĩ
ĠÑĤÓı Ð¾Ñħ
Ð¿ Ð°ÑĪÐ°
ĠÐºÓı Ð¾Ð»
ĠÐł Ð°Ð¸
ÑĪ Ð°Ð³Ð°ÑĢÐ³Ð¾
ĠÐ±Ð¾ÐºÑĮ Ð°ÑĢÐ°Ð»
ĠÑħÑĥÑĤÓı Ð¸Ð·Ðµ
ĠÐºÑĬÐ¾ÐºÑĬ Ð°Ð±
ĠÐ±ÑĥÐºÓĢ Ð°ÑĢÐ°Ð±
ĠÐ¸Ð½ÑĦÐ¾ÑĢÐ¼ Ð°ÑĨÐ¸ÑıÐ»ÑĬÑĥÐ»
Ð½ Ð¾
ĠÐ³Óı Ð¸Ð±
ĠÐĵ ÑĢ
ĠÐĵÑĮ Ð¾ÑĢÐºÑĮ
ĠÐĽÑĬ Ð°Ð±
ĠÐ³ÓıÑĥÐ¼ÑĢÑĥÑıÐ»ÑĬÑĥÐ» ÑĬ
ĠÐ¸Ð½ÑĤÐµÑĢ ÐµÑģ
ĠÐ¸ÑģÐ»Ð°Ð¼ Ð¸ÑıÐ±
ĠÐĵÐµÑĢ Ð¼Ð°Ð½
Ð ®
ĠÑĨÓı Ð°Ð·Ðµ
ĠÐ°Ð± Ð¸Ð»Ð°
ÑıÐ» Ð´Ð°ÑģÐ°Ð³Ð¸
Ġ2 9
ĠÐ½Ð°Ñģ Ð»Ñĥ
ĠÐº Ð°ÑĤ
Ð¸Ð½ Ð°Ð±Ð¸
Ð°Ð· Ð°ÐºÑĬ
ĠÐ² Ð°ÑĤÓıÐ°Ð»ÑĬ
ÑĥÐ´ Ð°Ð»ÑĬÑĥÐ½
Ð¸Ð³ÑĮ ÐµÑĩÓıÐ¾
ĠÐ¶Ð¸Ð´Ðµ Ð´Ð°Ð³Ð¾
ĠÑĢÐ°ÑĤ Ð°Ð½Ð¸
ÑĥÐ½Ð³Ð¾ ÑıÐ±
ĠÐºÐ¸Ð»Ð¾Ð¼ ÐµÑĤÑĢ
Ñģ Ð°Ð»Ð´Ð°
Ð¶ Ð¸Ð±
ÐµÐ² Ð°
Ð¸Ð½Ð°Ð± ÑĥÐ½Ð°
ĠÑĨÐ°Ð´Ð°ÑħÑĬ Ð°Ð±
ĠÐ³ÓıÐ¾Ð»Ð¾ÑħÑĬ Ð°Ð½Ð°Ð±
ÑĥÑĢÑĤ ÑĥÐ½
ĠÐ¼ÑĥÑħ Ð±Ð¸ÑĢ
Ðµ ÑĪ
ÑĥÐ» Ð°ÐµÐ²
ĠÑĩ ÐµÐ´
Ð°ÑıÐ» Ð´Ð°ÑģÐ°Ð½
Ð°ÑıÐ» Ð´Ð°Ð»ÑĬÑĥÐ½
ĠÑĩÓı Ð²Ð°Ð»
ĠÐļÑĬ Ð°Ñģ
ĠÐĹ ÑĥÐ±
ĠÐºÐ¾Ð¼ Ð¸ÑĤÐµÑĤÐ°Ð»ÑĬÑĥÐ»
ÐµÑģÑĤ Ð¸Ð²
ĠÐľÑĥÑħÓıÐ°Ð¼Ð°Ð´Ð¾Ð² Ð¸Ñĩ
ĠÐºÐ¾Ð¼Ð°Ð½Ð´ Ð°ÑıÐ»ÑĬ
Ð¦Ð¾ Ð³Ð¸
ĠÑĢÐ¸ÑĤÓıÑĥÑħÑĬ Ð»ÑĬÐ¸
ĠÑģ Ñģ
ÑĥÑģ Ð»Ð°Ð½
ĠÐĵÑĬ ÑĥÐ½
ĠÐ±Ð°Ð¹Ð±Ð¸ÑħÑĮ Ð¸Ð·Ðµ
Ð°Ð·Ð´Ðµ Ð³Ð¸
ĠÐ³ÑĮÐ°Ð² Ð°
ĠÐ¼Ð°ÐºÑĬ Ð°Ð»Ð°Ð±Ð¸
ÑģÑĤÐ¸ÑĤ ÑĥÑĨ
ĠÐºÐ¾Ð½ÐºÑĥÑĢÑģ Ð°Ð»Ð´Ð°
ĠÐ¢ÓıÐ¾Ð» Ð³Ð¾
ÐµÐ²ÐµÑĢ Ð¸ÑıÐ±
Ð ª
ĠÑģÐ¾Ð½ Ð¸Ð»
Ġ( "
ĠÑĢÐ°ÑħÑĬ Ð¸Ð½Ðµ
ĠÐ·Ð°Ð¼Ð°Ð½ Ð³Ð¸
ĠÑģÑĤ Ð°Ð½
ĠÐ°Ð²ÑĤÐ¾Ð¼ Ð¾Ð±Ð¸Ð»
. ).
ĠÐº ÑĥÑĢ
ÑĥÑģ Ð°
ĠÑĢÑĥÐºÓı ÑĥÐ½ÐµÐ»
ĠÑĪÐ°Ð³ÑĮ Ð°ÑĢÐ°Ð»Ð´Ðµ
Ġ3 5
ĠÐ±Ð¸ÑĩÓıÑĩÓı ÑĥÐ½
ĠÐ³ÓıÐ°Ð³Ð°ÑĢ Ð»ÑĬÐ¸
ĠÑĨÐ¾ÑĨ Ð°Ð·Ð´Ð°
ĠÐ³ Ð°Ð»Ð¸
ĠÐ±ÑĥÐºÓı ÑĥÐ½Ð°Ð°Ð½
ĠÑī Ð°Ð»
ĠÐ¸Ð½ Ð²Ð°Ð»
ÐĵÑĮ ÐµÐ·
ĠÐĺ ÑĢÐ°Ð½
ĠÐ³ÓıÑĥÐ¼ÑĢÑĥ Ð³Ð¸
ĠÑĢÐ°Ð³Óı ÑĥÐ»
ĠÐĶÑĥÐ½ ÑıÐ»
ĠÐ³ÓıÐ°Ð»Ð¸Ð¼ Ð·Ð°Ð±Ð¸
ĠÐ¼Ð¸Ð½Ð¸ÑģÑĤÐµÑĢ ÑģÑĤÐ²Ð¾
ÑĢÐ¾Ñģ ÑģÐ¸ÑıÐ»ÑĬÑĥÐ»
ĠÑĦÐ¾ÑĢ ÑĥÐ¼
ÑĢ Ð¾Ð»
Ð² Ð°Ð½Ð°
Ñı Ð´
ĠÐĵÓı ÑĥÐ¼ÑĢÑĥ
ĠÐĵÓıÐ°Ð± Ð°ÑĪ
ĠÐ¶Ð¾ ÑıÐ»ÑĬÑĥÐ»
ĠÐ³ÓıÐ¾Ð»Ð¾ÑħÑĬ Ð°Ð±Ð°Ð·ÑĥÐ»
ĠÐºÑĬÐ°Ð´Ð°ÑĢ Ð°Ð»Ð´Ð°
ÐĶÐ°Ð½Ð´Ðµ Ð»ÑĬÐ¸ÑıÐ»ÑĬÑĥÐ»
Ð´ Ð¾ÑħÑĬ
Ð± Ð¾ÑĤ
ĠÐ³Óı ÑĥÐ·
ĠÐ¿ Ð¾Ñĩ
ĠÑĩ Ð°Ð±
ĠÐł ÑĥÐºÓı
ÐµÐ·Ðµ Ð³Ð¸
ĠÐĲÐ»Ð»Ð°Ð³ÑĮ Ð°ÑģÐ´Ð°
Ð°Ð¸ Ð»
ĠÐ¼Ð°Ñħ ÑħÑĥÐ»
ĠÑĩÓıÐ² Ð°Ð¹
ĠÐ´ÐµÐ¿ÑĥÑĤ Ð°ÑĤÐ°Ð»
ĠÐ¼Ð°Ð¶Ð³Ð¸ÑĤ Ð°Ð»ÑĬÑĥÐ»
ĠÑĨÐ¾Ð¹Ð³Ð¸ Ð´Ð°Ð»
Ð³Ð¸ Ð¿
Ð¶ Ð°ÑĢ
ÑıÐ» Ð´Ð°Ð»ÑĬÑĥÐ½
ĠÑīÐ² ÐµÑĩÓıÐ¾
ĠÐ±Ð¾ÐºÑĮ ÑĥÐ»Ð°
ĠÐ¦Óı Ð°Ð´Ð°ÑģÐ°
Ð°Ð³ÓĢ Ð¸Ð´
ĠÑĤÓıÐ¾ Ð³ÑĮ
ĠÐ±ÑĥÐºÓıÐ¸Ð½Ð° Ð°Ð½
Ð´Ð°Ð³ÑĮ ÐºÐºÑĥÐ½
ĠÐłÐ°ÐºÓıÐ°Ð» Ð´Ðµ
ĠÑģÑĤÐ°ÑĤ ÑĥÑģ
Ð°Ð± ÑĥÐ½
Ð°Ð½ Ð°Ð»Ð´Ðµ
ÐµÐ» Ð»
Ð¸Ð» Ð°Ð·ÑĥÐ»
Ñı ÑĤ
ĠÐºÑĬ ÑĥÑĢ
ĠÐĶ ÑĥÐ¼
ĠÐ´ÑĥÐ½ Ð³Ð¾
ĠÐºÑĬÐ²Ð°ÑĢÐ¸Ð³Óı ÐµÐ»
ĠÑĩÐµÐ¼Ð¿Ð¸Ð¾Ð½ Ð»ÑĬÑĥÐ½
ĠÐ¿ÑĢÐ¾Ð³ÑĢÐ°Ð¼Ð¼ Ð°ÑıÐ»Ð´Ð°
ĠÐ¢ÓıÐ¸Ð½Ð´ Ð¸
ĠÐĶÐ°Ð² ÑĥÐ´
ÑĥÐ½ ÐºÑĤ
ĠÐ² Ð°Ð³Óı
ĠÑĩ Ð°Ð¹
Ð°ÐºÑĬ Ð°ÑĤ
ĠÐ¡ Ð°Ð½
ĠÐ³ÑĬ Ð²ÐµÑĤÓı
ĠÑĦ Ð°ÑĪ
ĠÐºÑĥÐ¼ÐµÐº Ð³Ð¸
ÑĢÐ¾ ÑĦ
ĠÐ½ÑĥÑħÐ¼Ð°Ð»ÑĬ Ð¸ÑıÐ»ÑĬÑĥÐ»
ĠÑĥÑĩÐ¸ÑĤÐµÐ»ÑĮ Ð½
ĠÐ¾Ð¿ÐµÑĢ Ð°ÑĨÐ¸Ñı
ĠÐ´Ð°Ð½Ð´ÑĩÓı Ð²Ð°Ð»ÐµÐ»
Ð¾Ð½Ð°Ð² Ð¸ÑĢÑĥÑģ
ĠÐ±Ñĥ Ñħ
ĠÐºÑĬ Ð°ÑĢ
ĠÑĨÐ¾ Ð»ÑĬÐ¸
Ð°ÑıÐ» Ð´Ð°Ð³Ð¾
ĠÑĢÐ°ÑħÑĬ Ð¸Ð·Ðµ
ĠÑħÓıÐ°ÑĢÐ°ÐºÐ°ÑĤ ÑĩÐ¸
ĠÑĤÓıÐ¾Ð» Ð°Ð»Ð³Ð¾
ĠÐŁÑĢ ÐµÐ·Ð¸Ð´ÐµÐ½ÑĤ
ĠÐ± Ð°ÑħÓı
ĠÐ½ ÐµÐ¼ÑĨ
ĠÑħÓıÐ°Ð»ÑĤÓı Ð°Ð±Ð°Ð·ÑĥÐ»
ĠÐ· Ð¾Ð±
ĠÑħÐ² Ð°ÑĢÐ°Ð»
ĠÐ´Ð°Ð³ÑĮÐ°Ð± Ð³Ð¸
ĠÑĢÐ¸ÑħÑĮÐ¸Ð·Ð°ÑĢ ÑĥÐ½Ð°
Ð¾ Ð´Ð°Ð»
ĠÑħ Ð²Ð°ÑĢ
ĠÐľ Ð¸ÑĢÐ·
ĠÐºÐºÐ¾Ð» Ð°ÑĢÐµÐ±
ĠÐ±Ð¾ ÑıÐ»Ð´Ðµ
ĠÐ³ÑĥÑĢ ÐµÐ²
ĠÐ»ÑĬÐ¸ÐºÓı Ð»ÑĬÐ¸
ĠÐ°Ð±ÑĥÐ½ Ð¸Ð»Ð°
ĠÐ±Ð¾ÐºÑĮ Ð°ÑĢÐ°Ð²
ĠÐ³ÑĮÐµÐ»ÑĬ ÑĥÑħÑĬ
ĠÐ´Ð¾Ð± Ð°
Ð¾Ð¹ Ð³Ð¸
ĠÐ¾Ð± Ð»Ð°ÑģÑĤ
ĠÑģÑĥÐ½ Ð½
ĠÐĵÓıÐµÐ¼ÐµÑĢ Ð°Ð»
ĠÐ±ÑĥÑģÑĥÑĢÐ± Ð°Ð±Ð°Ð·ÑĥÐ»
ĠÑĢÐµÐº ÐµÑĢ
ĠÑİÐ±Ð¸Ð» ÐµÐ¹
Ð¾Ð» Ñİ
ĠÑģ Ð¸Ð¿Ð°ÑĤ
ĠÐľ Ð¾
ĠÑħÑĬ Ð°ÑĢÐ°Ð²ÑĥÐ»
ĠÐ¢Óı Ð°Ð½ÑĥÑģ
ĠÐĹ Ð°Ð»
ĠÑĤÓĢ Ð°Ð´Ðµ
Ð´ÑĢ Ð¸Ñģ
ĠÐº Ð¸Ð½Ð³Ð¾
ĠÑĢ Ð¾ÑĢ
Ð¼ Ð°ÑĢ
Ð°Ð¼ Ð¸
ĠÐ³ÑĮÐµÐ½ Ð¸ÑģÐ°Ð½
Ð°ÑıÐ»ÑĬ ÑĥÑħÑĬ
ĠÐļÓı Ð¸Ð³Ð¾
ĠÐ°ÑħÐ¸ÑĢ Ð°Ð»
ĠÐ³ÑĮÐµÑĩÓıÐµÐ± Ð»ÑĬÐ¸
ÐµÐ³ ÓĢ
Ġ201 5
ĠÑĤÐ°Ð¼ Ð¸ÑħÓı
Ð Ĩ
Ð» Ð°ÑĤ
Ð¾ ÑıÐ»ÑĬÑĥÐ»
ĠÐ³ ÑĥÑĩ
ÐµÑĢ Ð²
ĠÑħÓı ÑĥÑĢ
Ð³ÑĮ ÐµÐ±
ĠÑī Ð¾Ð»
Ð°ÑıÐ»ÑĬÑĥÐ» ÑĬ
ĠÐ¨ Ð°Ð¿
ÐĵÓı Ð°Ð±Ð´ÑĥÐ»
ĠÐ±ÐµÑĢÑĨ Ð¸Ð½Ð°Ð»
ĠÐĳÐµÑĤÓıÐµÑĢ Ð³ÑĮÐ°Ð½
ĠÐ³ ÑĥÐ»
ĠÐº ÐµÐ¿
ĠÐĵ ÑĥÐ¼Ð±ÐµÑĤ
ĠÐ»ÑĬ Ð°Ð´
ĠÐ»ÑĬ Ð¸ÑĨ
ĠÑħÓı ÑĥÐ±
ĠÐºÑĬÐ¾ Ð³Ð¾
ĠÑĢÐ°Ð³Óı Ð°Ð½Ð°
ĠÐĵÑĮÐµÐ» Ð´Ðµ
ĠÐĳÐ°ÑĢÐº Ð°Ð»Ð°
ÑĥÐ» ÐµÐ·
Ð°Ñģ Ð´Ð°ÑģÐ°
ĠÐ» Ð°Ð³
ĠÐľ Ð°Ð³Óı
ĠÐºÑĬÐ¾ ÑıÐ»Ð´Ð°ÑģÐ°
ÐĵÑĮ ÐµÐ»ÑĬÑĥÐ»
ĠÐºÐ¸Ð½Ð°Ð± Ð½Ð¸Ð³Ð¸
ĠÐ¹Ð¸ÐºÓı ÑĥÐ½
ĠÐ³ÓıÐ°Ð»Ð¸Ð¼ Ð·Ð°Ð±Ð°Ð·
ĠÐĹÐ°Ð³ÑĮ Ð¸Ð´
Ð» Ð°ÑħÑĬ
Ð± Ð¾Ð¶
Ð°ÑĢ Ð°ÑģÑĥÐ»
ÐµÑĢ ÑħÑĮ
ĠÑĢÑĥÐºÓı Ð°Ð½Ð¸Ð½
Ðľ ÑĥÐ½
ĠÑħÑĮ ÐµÐ·Ð°ÑĢ
Ð¸Ð³ Ð°ÑĤ
ĠÐ³ÓıÐµÐ» Ð°Ð»ÑĬÑĥÐ»
ĠÐ³ÑĮÐ°Ð² Ð¸Ð·Ðµ
ĠÐĲÑħÓıÐ¼Ð°Ð´ Ð¾Ð²
ĠÑĨÓı Ð¾Ð³ÑĮ
ĠÐ¡ Ð°Ñħ
ĠÑĢÐ°ÐºÑĮ ÑĨÐ¾ÑıÐ²
ĠÐ¼Ð¾ÑĨÓı Ð°Ð»ÑĬÑĥÐ»
ĠÐºÐ¾Ð¼Ð¿ Ð°Ð½
ĠÐ¿ÑĢÐ¾ÐºÑĥÑĢ Ð¾ÑĢ
ĠÑĦÐ°ÐºÑĥÐ»ÑĮÑĤ ÐµÑĤ
Ġ ,
Ð°ÑĢ Ð¸Ð·Ðµ
ĠÑĢ Ð°ÑĤÓı
ĠÑĤ Ð°ÑĢÐ°Ð²
ĠÑģ Ð¾Ð±ÑĢÐ°Ð½
ĠÐĶ Ð°Ð³ÑĮ
ĠÐ¼Ð¸Ð»Ð» Ð¸ÑıÐ»
ĠÑĢÑĥÐºÓıÐ¸Ð½ ÑĩÓı
ĠÑĢÐ¸Ñī Ð¸ÑıÐ·Ð´Ð°
ĠÐĲÑģ Ð¸ÑıÑĤ
ĠÐ± Ð°Ð»Ð°
ĠÐºÑĬ Ð¾Ñģ
ĠÐºÐº Ð°ÑĢÐ°Ð²
ĠÐł Ð¤ÑıÐ»ÑĬÑĥÐ»
ĠÐ¥Óı Ð°Ð¹Ð´
ĠÑĢÐ°ÑħÑĬ Ð°Ð»Ð´ÐµÑħÑĥÐ½
ÐµÐ±Ðµ Ð´Ðµ
ĠÑħÓıÐ°Ð»ÑĤÓıÑĥÐ» ÐµÐ¹
ĠÐ½Ð°Ð»Ð¾Ð³ Ð°Ð»
ĠÑħÑĬÐ°Ð» Ð¸ÑıÐ½
ĠÐ³Ð°Ð¼ Ð°ÑĩÓı
Ð³ Ð°Ð»
Ð°Ð»ÑĬ ÑĥÐ±
ĠÐ±Ð°ÑĤ ÑĥÐ»Ð°
ĠÐ±ÑĥÑĤÓı ÑĢÑĥÐ·
ĠÐºÐ°Ð¼ ÑĥÐ½
Ð¸Ñħ Ð°
Ð°Ñĩ ÑħÑĬÐ°Ð»
ĠÐ±Ðµ ÑĨÑĨ
ÑĪ Ð°Ð»
ĠÐ±Ð¾ÐºÑĮ ÑĥÐ»ÐµÐ»
Ð½Ð¸Ðº Ð°Ð»
Ð¸Ð½Ð°ÑĢ Ð¸Ð·Ðµ
ĠÐ¼Ðµ Ð³ÓıÐµÑĢ
ĠÐ¿ÑĢÐ¾ÑĨÐµÐ½ÑĤ Ð°Ð»ÑĬ
ĠÐºÓıÐ¾ÑĩÐµÐ½ Ðµ
ĠÐ³ ÑĢÑĥÐ¿Ð¿
Ð°Ð½ Ð¸Ðµ
ĠÐº ÑĥÐ±
Ð¼ ÑĥÐ´Ð¸Ð½
ĠÐ°Ð± Ð¸
ĠÐ³ÓıÐ°Ð´ Ð°Ð´Ð°
ĠÑĤÓıÐ°Ð´ ÑĩÓıÐµÐ¹
ĠÐĴ ÐµÑĩÐµÐ´
ĠÐºÐ¸Ð½ Ð°Ð²
ĠÑĥÑĩÐ¸ÑĤÐµÐ»ÑĮ Ð·Ð°Ð±Ð¸
ĠÑĢÐ°ÐºÓıÐ°ÑĢ ÑĥÐ½
ĠÑĢÐ°ÐºÑĬÐ» Ð¸Ð»Ð°Ð±
Ð¼ Ð°ÐºÑĬ
ĠÐºÐº ÐµÐ¹
ĠÑĩÓı Ð°Ð»
Ðĳ Ð°Ð¹
ĠÑĤÐ°ÑĢÐ¸Ñħ Ð¸ÑıÐ±
Ð±Ð°ÑħÑĬ Ð¸Ð½Ð°Ð»
ĠÑĨÐ¾ÑĨ Ð°Ð´Ð°
ĠÐ±Ð°ÐºÓıÐ°ÑĢ ÑĥÐ½
ĠÐ°Ð· Ð±
ĠÐĵÓıÐ°Ð±Ð´ÑĥÐ»Ð¼ Ð°Ð¶Ð¸Ð´
ĠÐ³ÓıÐ°Ð»Ð°Ð¼ Ð°ÑĤ
Ð¸ÑĩÐµÑģÐº Ð¸ÑıÐ±
Ð¾ÑĢ Ð¾Ð»
ĠÐ³ÑĮÐ°Ð± ÑĥÐ»Ð°ÑĢÐ¾
Ñĩ ÑĥÐ½
ĠÐ³ÑĮÐµÑģ ÑĥÑħÑĬÐµ
ĠÑĨÓıÑĥÐ½ ÑĥÐ»ÐµÐ±
ĠÐļÑĬ Ð°Ð´Ð¸ÑĢ
ĠÑĢÐ°ÐºÑĮ Ð°Ð»Ð´Ðµ
Ðĺ ÑģÐ»Ð°Ð¼
ĠÐ°ÑģÐºÓı Ð¾Ð²
ÐĿÐ¸Ð»ÑĬ ÐµÐ´Ð°
ĠÐ±ÑĥÑħÓı Ð°ÑĢÐ°Ð±
Ð² Ð°ÑħÑĬ
ĠÐ¼ Ð¸ÑĤÐ¸Ð½Ð³
ĠÐł ÑĥÑģÐ»Ð°Ð½
ĠÐ±Ð°ÑĤ Ð¸Ð»Ð°ÑĢÐ¾
ĠÐ±Ð°ÑĢÐº Ð¸Ð·Ðµ
ĠÑĢÐ¸ÑĩÑĩ Ð°Ð½
ĠÐ²ÑĥÑģÑģ ÑĥÐ½
ĠÑģÐ² Ð°Ðº
ĠÐĵÓıÐ¸Ñģ Ð°ÐµÐ²
ĠÐ³ÑĮÐµÑĩÓĢ Ð¾
ĠÐ² ÐµÐº
Ð¸Ð· Ð°Ð½
ÐµÐ½ Ð°Ð»
ĠÐļ Ð¸Ð´Ð°Ð³Ð¾
ÑħÓı Ð°Ð±Ð¸Ð±
ĠÐ¾ ÑĨ
ĠÑħÑĬÑĥÐ»ÑĥÑħÑĬ Ð°Ð»Ð´Ð°ÑģÐ°
ĠÐ¿Ð°ÑĩÐ°Ð»Ð¸ÑħÑĬ Ð¸ÑıÐ»
ĠÐ¿ÑĢÐµÐ·Ð¸Ð´ÐµÐ½ÑĤ Ð°ÑģÑĥÐ»
ĠÑħÐ²ÐµÐ·Ð°Ð± ÑĥÐ½
ĠÐ·Ð°ÑħÓıÐ¼Ð°Ð»ÑĬ Ð°Ð±Ð¸
ĠÐ»ÑĬÐ°ÑĢ Ð°Ð³Óı
Ð°Ð½ Ðº
ĠÐ°Ð± ÑĥÑĢÐ°Ð²
ĠÐĵÓı Ð°ÑħÑĮÐ°Ð»
ĠÑĢÐµÑģ Ð³Ð¸
ĠÐĺ Ð´ÑĢÐ¸Ñģ
ĠÐ³ÑĮÐ°Ð½ Ð¸Ð²
ĠÑĨÓĢ Ð¸ÐºÓĢÐºÓĢ
ĠÐĵÑĮÐ¸Ð³ÑĮ Ð°Ð»ÑĬ
Ñģ Ð¸ÑıÐ»
ĠÑģ ÑĨÐµÐ½
ĠÐ±ÑĥÐºÓı Ð°ÑħÑĬÐµ
ĠÐ¡ ÑĥÐ½
ĠÑĢÐ°ÑħÑĬ Ð°Ð»Ð´Ð°ÑģÐ°
ĠÑĢÐ°ÐºÓı ÑĩÓı
ĠÑĤÓıÑĥÐ± Ð°ÑıÐ»ÑĬÑĥÐ»
ĠÐ³ÑĮÐ°Ð² ÑĥÑĢÐ°Ð±
ĠÑħÑĬÐ¸Ð·Ð°Ð½ Ð°Ð»Ð´Ð°
ĠÐ±Ð°ÑħÓıÐ°ÑĢ ÑĩÐ¸
ĠÐ±ÐµÑĢÐ³ÑĮÐµÐ½ Ð»ÑĬ
ĠÐ³ÑĥÐ³ Ð°ÑĢÑĥÑħÑĬ
ĠÑĩÓıÐµÐ·Ð°ÑĢ ÑĥÐ½
ĠÐ¥ÑĮ Ð°ÑĢÐ³
ĠÐĵÓıÐ°Ð»Ð¸Ð± ÐµÐ³
ĠÐ±Ð¾Ð» Ð¶
ĠÐº Ð°Ð²
ĠÑĨÓı Ð°Ð½
ĠÑĨÐ¾ Ð³
ĠÑĢÑĥÐºÓı ÑĥÐ½Ð°Ð°Ð½
ĠÐ½ÑĥÑħ Ð°Ð·ÑĥÐ»
ÐºÐ¾Ð» Ð¾Ð³
ĠÐ±ÑĥÐºÓıÐ¸Ð½ Ð°Ð»ÑĬÐµ
ĠÐĺ Ð·
ĠÐ±ÐµÑĤÓıÐµÑĢ Ð»ÑĬÑĥÐ½
ĠÑħÐ°Ð»ÐºÑĬ Ð¸ÑıÐ²
ĠÑĨÓıÐ¸ÐºÓıÐºÓı ÑĥÐ½ÐµÐ±
ĠÐ±Ð°Ð¹Ð±Ð¸ÑħÑĮ ÑĥÐ»Ð°
ĠÑĤÓıÑĥÐ± Ð°Ð¹
Ġ3 00
ĠÐ±Ð¸ÑĩÓıÑĩÓı Ð¸Ð·Ðµ
ĠÐ¼Ð°Ñģ ÑĤÐµÑĢ
ĠÐĵÓıÐ°Ð±Ð´ ÑĥÑģ
ĠÐ¼Ð°Ð´ ÑĢÐ°Ñģ
ĠÑĢÐ¾ÑģÐ°Ð±Ð°Ð»ÑĬ Ð°
Ð¸Ð½Ñģ ÑĥÑĨÐ°
ĠÐ¼Ð°ÑģÑĬÐ°Ð» Ð°Ð±Ð°Ð·ÑĥÐ»
ĠÐĳÐ¸ÑīÑĥÐ½ Ð³Ð¾
ĠÑĦÐ¾Ð½Ð´ Ð°Ð»ÑĬÑĥÐ»
ĠÐļÐ°ÑģÐ¿Ð¸Ð¹ ÑģÐº
ĠÐ¿Ð°ÑĤÑĢ Ð¸Ð¾ÑĤ
Ð± ÑĥÑģÑģ
ĠÑĢ Ð¸ÑħÑħ
Ð¼ Ð°Ð±Ð¸
Ð°ÑĤ Ð³Ð¾
ĠÐ¼ Ð¸Ð½Ð°Ð±
ĠÑĨÐ¾ ÑıÑģ
Ð°ÑĨ Ð¸Ð¾Ð½
ÑħÓı ÑĥÑĢ
ÐĶ Ð°Ð³ÑĮÐ°Ð»
ĠÐ»ÑĬÐ°Ð» ÐºÓı
ĠÐºÑĬÐ² Ð°ÑĤÓĢ
ÑĢÐ°Ð½ ÑĥÑħ
ĠÑĢÐ¾ÐºÑĬ Ð¾Ð²
ĠÐ»ÑĬÐ°Ð³ÓıÐ°Ð» Ð¸Ð»
ĠÐĽÑĬÐ¸ÐºÓı Ð°Ð±
ĠÑĢÐ¸ÑĪ Ð²Ð°ÑĤ
Ð°Ð± ÑĥÑĢ
ĠÐ³Óı Ð¸Ñı
ĠÐºÓı ÐºÓı
ĠÑĤÓıÐ¾ÑĨ ÐµÑĢÐµÑģÐµÐ»
ĠÐ¼Ð°ÑĨÓı Ð°Ð»ÑĬ
ĠÐ¼ÑĥÑĢÐ°Ð´ Ð°Ð»
19 0
ĠÐ¼Ð°Ð¶Ð³Ð¸ÑĤ Ð°Ð»Ð´Ð°
ĠÐ°Ðº ÑĤ
ÑĨÐ¾ÑıÐ· Ð´Ð°
ĠÐ³ÑĮÑĥ Ð¸Ð½
ÑĥÐ» ÐµÐ»ÑĬÑĥÐ»
ĠÐ± Ð¸Ð»ÑĬÐ»ÑĬ
ÐºÓı Ð¸Ð³Ð¾
Ð¾ÑĢ Ð¼Ð°ÑĤ
Ð¸Ð¼ Ð¾Ð²
ĠÐ¸Ð¼ Ð¿ÐµÑĢ
ĠÐ´Ð°Ð½Ð´ÑĩÓıÐ² Ð°Ð·Ðµ
ĠÐ´ÑĥÑĢ Ð³Ð¾
ĠÐ³ÓıÐµÐ·ÐµÐ³ÓıÐ°Ð½ Ð³Ð¾
ĠÐ´Ð¾Ðº ÑĤÐ¾ÑĢ
Ð±Ð¾ÑĨÓı Ð¸
ĠÑĦÐ¸Ð· Ðº
ÑĥÐ» ÐµÐ·ÑĥÐ»
Ð°Ð»ÑĬ Ð¸Ð³Ð¸
Ñı ÑģÑĥÐ»
ĠÑĩÓı ÐµÑĩÓıÐ¾Ð³Ð¾
ĠÐ¿ÑĢ Ð¾Ð´
ĠÐ§ Ð°Ð½Ð³Ð¾
ĠÑģÑĥÐ°Ð» Ð°Ð·Ðµ
Ġ5 00
ĠÐºÓıÐ² ÐµÑĩÓıÐ¾
ĠÐºÐ²ÐµÑĪ Ð°Ð»
ĠÑīÐ¸Ð² Ð°ÑģÑĥÐ»
ĠÐ³ÓıÐ¾ÑĢÑħÑĬ Ð¸
ĠÐ³ÑĮÐ°Ñİ Ð½Ð°
ĠÐ¼Ð°Ð³ÓĢ Ð°ÑĢÑĥÐ»
ĠÑĤÐ¾Ð½ Ð½Ð°
Ġ Ð°Ñį
ÑĢ Ð¾Ð½
ĠÐ± Ð¸Ð´
Ð°Ð· Ð´Ð°Ð³Ð¾
ĠÐ» ÐµÐ±
ĠÑĪÐºÐ¾Ð» Ð°Ð»ÑĬÐµ
ĠÑĢÐµÐºÑĬ ÐµÐ»
ĠÐĸ Ð°Ð¼Ð°Ð»
ĠÐ°Ð² Ð°Ð´Ð°Ð½
ĠÑģÑĥÐ°Ð» Ð°Ð·ÑĥÐ»
Ð¸Ð·Ð°ÑĢ ÑĥÐ½Ð°
ÑĥÐ³ ÓĢ
ĠÑħÓıÐ¸Ð½ÐºÑĬ ÑĥÐ½
ÑħÓıÐ°Ð¶ Ð¸ÑıÑģÑĥÐ»
ĠÐĵÓıÐ°Ð±Ð´ÑĥÑĢ Ð°Ð·Ð°ÐºÑĬ
ĠÐ°Ð²Ð°ÑĢÐ°Ð³ Ð°ÑģÑĥÐ»
Ð´ ÑĥÐ½
ĠÐ² Ð»Ð°ÑģÑĤ
ĠÐ»ÑĬ Ð°Ð½Ð°
Ð¾ÑĢ Ð°Ð±
Ð³ÑĮ ÑĥÑĢ
ÐµÐ·Ð°Ð± ÑĥÐ½
ĠÑģÑĥÐ°Ð» Ð°Ð»ÑĬÐµ
ĠÐ±Ð°ÑĤÓı Ð°Ð³Ð¾
ĠÐ·Ð°ÑħÓıÐ¼Ð°ÑĤ Ð³Ð¾
ĠÐ·Ð°Ð¼ÐµÑģÑĤ Ð¸ÑĤÐµÐ»
Ð¢Óı Ð¾ÑĨÐµÐ±ÐµÑģÐµÐ±
ĠÑħÓıÑĥÑĢÐ¼Ð°ÑĤ Ð¸ÑıÐ»
ÐĵÑĮÐ°Ð± ÑģÐ°Ð³ÓıÐ°ÑĤ
ĠÑĤÐµÑħ Ð½
ĠÐºÑĬÐ°Ñģ Ð´
ĠÐ³ÑĢÐ°Ð¼Ð¾ÑĤ Ð°Ð±Ð¸
ĠÐĿÐ°Ð¶ Ð¼ÑĥÐ´Ð¸Ð½
ĠÑħÓıÐ°ÑĢÐ°Ðº Ð°ÑĤÐ°Ð»Ð´Ð°Ð»ÑĬÑĥÐ½
ĠÑĢ Ð¸Ð»ÑĬÐ»ÑĬ
Ñģ ÐµÐ½
Ð°Ð»ÑĬÑĥÐ» Ð³Ð¾
Ð°Ð² Ð³Ð¸
ĠÐ¿ ÐµÑĩ
ĠÐĳ ÑĥÐ»
ĠÐ»ÑĬÑĥÐ³ÑĮ ÑĥÐ½ÐµÐ±
ĠÐĴ Ð°Ñģ
ÐĵÓı Ð°Ð´
ĠÐŃ Ð»ÑĮ
ĠÑĢÐµÑħÑģ Ð¾Ð½
ĠÐ°Ð» Ð°ÑĤÐ°Ð»
ĠÐ»ÓĢ ÑĥÐ³ÑĮ
ĠÑħÑĬ Ð¸Ð»
ĠÐ¢ Ð¸Ð¼
ĠÐ³ÓĢ Ð°ÑĤÓĢ
ĠÐ°Ð² Ð»Ð°ÑħÑĬ
ĠÐ¶Ð°Ð²Ð°Ð± Ð°Ð»
ĠÑħÓıÐ°Ð´ÑĥÑĢ Ð»ÑĬÐ¸
ĠÐ¶Ð°Ð¼Ð°Ð³ÓıÐ°ÑĤ Ð°Ð»Ð´Ð°
ĠÐ³ÓıÐ°ÑĤÓı Ð¸Ð´Ð°Ð±
Ð°Ð»Ð¸Ð½ Ð¸Ð½Ð°ÑĥÐ»
ĠÑħÐ°Ð´ÑĥÐ±ÐºÐºÑĥÐ½ Ð³Ð¸
ÑħÐ°Ñģ Ð¸ÑıÑĤ
ĠÐ³ Ð¾Ñģ
ĠÐ± Ð¸Ñħ
ĠÑĢ ÐµÐ²
ĠÑģ Ð¸ÑıÑģ
ĠÑħÓı Ð°ÑĤÓı
ĠÐ¨ Ð°ÑĢ
Ðł Ð°ÐºÓı
ĠÐĸ Ð°ÐºÑĬ
ĠÐºÐ²ÐµÑĢ Ð°Ð»
Ð¾Ð»ÑĮ ÑĪ
ĠÐ¼Ð¸Ð½ Ð°ÑıÐ»Ð´Ð°
ĠÐ±Ð¸Ð³ÑĮ Ð°Ð³Ð¾
ÑĩÓıÐ²Ð°ÑĢ Ð¸ÑıÐ»Ð´Ð°
ĠÐ¿Ð¾Ð´ Ð¿Ð¸Ñģ
ĠÐ¸ÐºÑĬ Ð±Ð°Ð»
ĠÐ¥Ð°ÑĢÐ°ÑħÑĮ Ð¸
ÑĢ Ð°Ð·
Ð± Ð°ÑĨÓı
ĠÐ³ÑĮ Ð°
Ð°ÑĤ Ð°Ð»Ð´Ðµ
Ð¾Ð² Ð¸ÑıÐ±
ĠÐł Ð¸Ð·
ÑĥÑĤ ÓıÐ°Ð»
ĠÐ¶Ð°Ð¼Ð°Ð³ÓıÐ°ÑĤ Ð°Ð»ÑĬÐµ
ĠÐ³ÑĮÐ¸ÑĤÓı Ð¸Ñĩ
ĠÐ²Ð°ÑĩÓıÑĥÐ½ ÐµÐ²
ĠÐ®ÑģÑĥÐ¿ Ð¾Ð²
ĠÐ¼Ð°ÑĢ ÑħÑĮ
ĠÑĢÑĥÐºÓĢ Ð°Ð½Ð°
Ð±ÑĥÐ» Ð°ÑĤ
ĠÐºÐ°Ð¿ Ð¸ÑĤ
ĠÐ³ÑĮÐ°ÑĢÐºÑĮ Ð°Ð»
ĠÐ¿Ð¾Ñģ ÐµÐ»
ĠÐ°Ð³ÑĮ Ð»Ñĥ
ÑĢ ÑĥÐ¼
Ð°Ð½ Ð°Ð²
Ð°ÑĢ Ð¸ÑıÐ±
ĠÐ¼ Ð°Ð¹
ĠÐ´ Ð¸Ð±Ð¸ÑĢ
Ð°Ð³ÑĮ Ð¼Ñĥ
ĠÐ¡ Ð°Ð¹
ĠÑĨÓıÐ°Ð» ÑĥÐ»ÐµÐ²
ĠÐ²Ð°ÑĩÓı Ð¸Ð½Ðµ
ĠÐ³ÓıÐ¾Ð»Ð¾ÑħÑĬ Ð°Ð½Ð°Ð»
ĠÑħÐµÑħ Ð°Ð±
ÐĵÑĬ ÑĥÐ½Ð¸Ð±
ĠÐļÐ°Ð· Ð±ÐµÐº
ĠÐ»ÑĬÐµ ÑıÐ²
ÑĢ ÐµÑģ
ĠÐº Ð¸Ð´Ð°
Ð°Ñģ Ð¸ÑĢ
ĠÐ³ÓıÐ°Ð´ Ð¸Ð½Ð°Ð»
ĠÐ²ÑĥÐºÓı Ð°Ð½Ð¸Ð½
ĠÐ¼Ð°Ð³Óı Ñĥ
Ð¾Ð²Ð°Ñģ Ð³Ð¸
ĠÐ¼Ñĥ ÐºÓı
ĠÑĩÐ°Ð³Óı Ð°Ð·Ðµ
ĠÐ³ÑĮÐ¸ÑĤÓı Ð¸Ð½
ĠÐºÓıÐ² Ð°ÑħÓı
Ð£ Ð½
ĠÐ¿ÑĢÐµÐ´ÑģÐµÐ´Ð°ÑĤÐµÐ»ÑĮ Ð»ÑĬÑĥÐ½
ĠÐ¸Ð´Ð°ÑĢ Ð°ÑıÐ»ÑĬ
ĠÐ²ÐµÑĤÐµÑĢ Ð°Ð½Ð°Ð·ÑĥÐ»
ĠÑĥÐ½ÐºÑĬ Ð³Ð¾
ĠÐ¼Ð°Ð´ÑĥÐ³ÑĮÐ°Ð» Ð¸ÑħÑĬ
ĠÐ± Ð¾ÑĢÑĩÓı
Ð°Ð½ Ð¸Ð»
Ñģ Ð°Ð±
Ð°Ð»ÑĬ Ð¸ÑıÐ»ÑĬÑĥÐ»
ĠÑĨ ÑĨÐ¸Ð½
Ð¾ÑĢ Ð°Ð»
ĠÐĶ Ð¾Ð»
ĠÐ¡ Ð°Ð¹Ð¿
ĠÐ°Ð¼ Ð¾
ĠÑħÑĬÑĥÐ»ÑĥÑħÑĬ Ð°Ð»ÑĬÑĥÐ»
ĠÐ´Ñĥ Ð³ÓıÐ°
ĠÐºÓıÐ°Ð»ÑĬ Ð°Ð½Ð°
ĠÐļÓı Ð¸Ð°Ð±Ð¸Ð»ÐµÐ±
ĠÑĤÐ°Ð´Ð±Ð¸ÑĢ Ð°Ð·ÑĥÐ»
ĠÑĩÓıÐ² Ð°ÑĢÐ°Ð»
ÑħÑĬÐ² Ð°Ð³ÓĢ
ĠÐ´Ð¾Ðº Ð»Ð°Ð´
ĠÐºÑĥÑĤÐ°Ðº Ð°Ð±
ĠÐĲÐ½Ð²Ð°ÑĢ ÑħÓıÐ°Ð¶Ð¸
ĠÐĺÐ»ÑĮ ÑıÑģ
ĠÐłÐ°Ð¸ Ñģ
ĠÐĵÑĮ Ð°Ð¹
ĠÐ¥ ÑĥÑĢ
ĠÐļ Ð¾Ð»
ĠÐ»ÑĬÑĥÐ³ÑĮ Ð¸Ð½
ĠÐ±Ð°ÑĢÐº ÑĥÐ½
ĠÐ³ÑĮÐ¾ÑĢÐºÑĮÐ¾ÑĢ Ðµ
ĠÑĥÑĩÑĢÐµÐ¶Ð´ÐµÐ½ Ð¸ÑıÐ±
ĠÑĥÐ½Ð¸Ð²ÐµÑĢÑģ Ð¸ÑĤÐµÑĤ
ĠÐ¼Ð°ÑħÑģ Ð°ÑĢÐ¾
Ð»ÑĬ ÑĥÐ´Ðµ
ĠÐ³Óı ÐµÐ´Ðµ
Ñĩ Ð¸Ð»ÑĬÑĥÐ½
ÑĩÓıÐ² Ð°Ð´
ĠÑĢÐ°Ð· Ð¸ÑıÐ±
ĠÐ¼Ð°ÑħÑī Ð°Ð»Ð¸Ð»
Ġ201 4
Ð¢Óı Ð°Ð´Ðµ
Ð¸Ð½ÑĩÓı ÐµÐ»
ĠÐ±ÐµÑĢÑĨÐ¸Ð½ Ð»ÑĬÐ¸
ĠÐ¸ÑģÐ»Ð°Ð¼ Ð°Ð»ÑĬÑĥÐ»
ĠÐ¾ÑĦÐ¸ÑĨ Ð¸Ð°Ð»Ð¸ÑıÐ±
Î Ļ
Ð¾Ñģ Ð°Ð½
ĠÑĪ Ð¸Ð³Óı
ĠÐĳ Ð°Ð»Ð°Ð³ÑĮ
ĠÐĲÐ¼ Ð¸ÑĢ
ĠÐ³ÓıÐ¾Ð´ Ð¾ÑĢÐµ
ĠÐ¼ÑĥÑģÑĤÐ°ÑħÓıÐ¸ÐºÑĬ Ð°Ð»
ĠÑĨÐ¾ÑĨ Ð°Ð»ÑĬ
ĠÐ¼Ð°Ð»ÑĬ Ð°
ĠÑĤÓıÐ°Ð»ÑĬ Ð¸ÑıÐ»ÑĬ
ĠÑĨ ÐµÐµ
ĠÐ´ Ð¸ÑĨÐ°Ð³Ð¸
ĠÑĪ Ð¸Ð¼Ð°Ð»Ð¸ÑıÐ±
ĠÐ³ÓıÐµÐ¼ÐµÑĢ Ð¸ÑģÐµÐ±
Ðł Ð°Ð³ÑĬ
ĠÑīÐ¸Ð± ÑħÐ°
ĠÐ¼Ñĥ ÐºÑĬ
ĠÑĪÐ°Ð³ÑĮ ÑĢÐ°Ð½ÑĥÑħ
ĠÐ´Ð°Ð½Ð´ Ð±
ĠÑĢÐ¸Ñī Ð¸ÑıÐ·ÑĥÐ»
ĠÐĳÐ°Ð¹ Ð±Ð¸ÑħÑĮ
ĠÐ°ÑĢÑĤ Ð¸ÑģÑĤ
ĠÐ°Ð´Ð²Ð¾Ðº Ð°ÑĤ
2 2
ĠÐĵ ÐŃ
ĠÐĶ Ðĵ
ĠÑĦ Ð¾ÑĢÐ¼
ĠÐĵÑĮÐµÑģ Ð¸Ðµ
ĠÐ¦Óı ÑĥÐ½
ĠÑĤÐ°Ð¼ Ð¸ÑħÓıÐ°Ð»
ĠÑĦÐ¸Ð½ Ð°Ð½Ñģ
Ð°Ð¼ Ð±
ĠÐ¼ Ð°Ð³ÑĬ
Ð¸Ð´ Ð³Ð¾
Ðł Ð°Ð¹Ð¾Ð½
ĠÑĢÐ°Ð³Óı ÑĥÐ½
ĠÑħÑĬÐ¸Ð·Ð°Ð½ Ð°Ð»ÑĬÑĥÐ»
ĠÐ¼Ð°ÑĤ ÐµÐ¼Ð°ÑĤ
Ð½ Ð¾ÑģÑĤ
Ð´ Ð¸Ð±Ð¸ÑĢ
Ðº Ð³
ĠÑĢ Ð°ÑĤÓıÐ°Ð»ÑĬ
ĠÐ±Ñĥ ÑİÑĢ
ĠÐ¼ ÑĥÑĤÓı
ĠÐĶ Ð°Ð³ÑĮÐ°Ð±
ĠÑı Ð»
ĠÐ¥Óı Ð°ÐºÑĬÐ¸ÐºÑĬ
ĠÑĨÓıÐ°Ð»Ð´Ð¾ÑħÑĬ Ð°Ð±Ð°Ð·Ð´Ð°
ĠÐºÓıÐ² Ð°Ð½Ð°
ĠÐĵÓıÐ°ÑĢ Ð°Ð½Ð¸
ĠÐ¸Ð½ÑĤÐµÑĢÐ½ ÐµÑĤ
ĠÑĤÐ°ÑħÑĪÐ°Ð³ÑĮ Ð°ÑĢ
Ð»ÑĬ Ð°Ð¹
Ð¼ Ð°Ñģ
ĠÑħ ÑĥÑĤÓĢ
Ð°Ñģ Ð¸ÐºÑĮ
Ð¸Ð» Ð³ÑĥÐ½
ĠÐ¸ Ð»
ĠÐ¡ Ð¾ÑİÐ·Ð°Ð»ÑĬÑĥÐ»
ĠÐºÑĬÐ¾ Ð³Ð¸
Ð¾Ð´ ÑĥÐ»
ĠÐĴ Ð°Ð»
ĠÐĹ Ð°ÑħÓıÐ¼Ð°ÑĤ
ĠÑıÑģ Ð³Ð¸
ĠÑĢÐ¾ÑģÑĥ Ð³Ð¸
ĠÐ±ÑĥÑĤÓı Ð°ÑıÐ»Ð´Ð°
ĠÑĢÐ°Ð· Ð¸Ð»ÑĬÐ¸
ĠÐĳÐµÑĢ ÑĤÐ¸Ð½
ĠÑĤÐµÑħÐ½Ð¸Ðº Ð°
Ð¸Ð³ÑĮÐµÑĩÓıÐ¾ Ð»ÑĬÐ¸
ÑĥÑĢ Ð°
ĠÐºÑĮ ÑĥÑĢÐ°Ð²
ĠÐ³ÑĬ ÑĥÐ»
ĠÐ³ÑĮÐµÑģ Ð´Ðµ
ĠÐ¥Óı Ð°ÑĢ
ĠÐ±Ð°Ð»ÑĬÐ³Ð¾ Ð»ÑĬÐ¸
ĠÐ³ÑĥÑĢÑħÓı ÐµÐ»
ĠÑĤÓıÐ¸ÑĢ Ð¸ÑĤÓı
ĠÐ¿ÑĢÐ¾Ð´ ÑĥÐº
, -
ĠÐ² Ð¾
ĠÐºÑĬ Ð°Ð²
Ð³Óı Ð°Ð±
ĠÐĿ ÑĥÑĨÐ°Ð»
ĠÐ±ÑĥÐºÓıÐ¸Ð½ Ð³Ð¸
ĠÐ´ÑĥÐ½ÑıÐ» Ð°Ð»Ð´Ð°Ð³Ð¾
ĠÐ°ÑģÐºÓı Ð¾Ð²Ðµ
ĠÐ³ÓıÐ°ÑħÑĮÐ°Ð»ÑĩÐ°Ð³Óı Ð¸
Ð°Ð¹Ðº ÑĥÐ¼
Ñĥ Ð´Ð°ÑģÐ°Ð½
ĠÐ± Ð¸Ð»
ĠÑħ Ð¸Ð½Ð°Ð±
ĠÐ³Óı Ð°Ñģ
Ð°Ð¼ Ð°Ð±
ĠÐ´ Ð¸
ĠÐ½ÑĥÑħ Ð°Ð·Ð´Ð°
ĠÐ³ÑĮÐµÐ· Ð´Ðµ
ĠÐ´ÑĥÐ½ Ð¸ÑıÐ»
ĠÐ±Ð°ÑħÑĬ Ð¸Ð½Ð°Ð±Ð¸Ð·Ðµ
ÐµÑģÑĤ Ð²
ĠÐ³ÑĬÑĥÑĢÑī Ð¸Ð´Ðµ
ĠÐ¼Ð°Ð½Ð·Ð¸Ð» Ð°Ð»Ð´Ð°
ĠÑĤÐµÐ»ÐµÐ² Ð¸Ð´ÐµÐ½
ĠÐº Ð°Ð·
ÐµÑĢ Ð°Ð·ÑĥÐ»
Ð¾Ð² Ð°Ð»ÑĬÑĥÐ»
ĠÑĥÐ½ÑĤ Ð°Ð±Ð¸
ĠÑĢÐ¾ÑģÑĥ ÑĨÐ¾ÑıÐ»
ĠÐ¼Ð°Ñģ Ð°Ð»Ð°
ĠÑĢÐ°Ð»Ð°Ð³ÑĮ ÑĥÐ½
ĠÐ£ÐºÑĢÐ°Ð¸Ð½ Ð°Ð»Ð´Ð°
ĠÐĳÐ°Ð³ÑĮ Ð°Ð²
Ð°Ð» Ð¸Ðº
ĠÐº Ð°ÑĦ
Ð°Ð· Ð°
ĠÑģ Ð¸ÑħÓı
Ð¸ÑĢ Ð¼
Ð°Ð³Óı Ð¸
ĠÐ¿ÑĢ Ð¾Ð±
ĠÑĪÐºÐ¾Ð» Ð°Ð³Ð¸
ĠÐ³ÑĮÐµÐ´ Ð¸Ð³ÓıÐ°Ð½
ĠÐ¸Ð½Ñģ Ð¿
ĠÐ²Ð¸ÑĤÓı Ð°Ð½Ð°
ĠÑĤÐ°Ð¹Ð¿ Ð°ÑıÐ»ÑĬÑĥÐ»
ĠÐ±Ð¾ÑĤÓı ÑĢÐ¾
Ð°Ð» Ð°Ð³Ð¾
Ñģ Ñĥ
Ð¾Ð½ Ð°Ð»ÑĬÑĥÐ»
ĠÐ»ÑĬ Ð¸ÑĨÐ°
ĠÑĤÓı ÐµÐ³ÑĮ
ÑĩÓı Ð¾Ð»
ĠÐľ Ð°Ð³ÑĮ
ĠÐ¥Óı Ð°Ð¼Ð·
Ð¸ÑħÑĬ Ð°
ĠÐ±ÐµÑĢ ÑĤ
Ð¾Ðº ÑĢÐ°ÑĤ
ĠÐ¢Óı Ð¸ÑģÑģ
ĠÐ½Ð¸Ð»ÑĬÐµ Ð´Ð°ÑģÐ°
ĠÐ»ÑĬÑĥÐ³Óı Ð¸Ð·Ðµ
ĠÐ³ÑĮÐ°Ð² ÑĥÑĢÐ°Ð²
ĠÐŃ Ñĩ
ĠÑĨÓĢ Ð°Ð»
ĠÐ¥ÓıÐ°Ð¼Ð·Ð°ÑĤ Ð¾Ð²Ð°Ñģ
ĠÐ³ÓıÐ°ÑħÑĮÐ°Ð»ÑĩÐ°Ð³Óı Ð°Ð·Ðµ
ĠÑĤÑĥÑĪ Ð±
ĠÑĤÓıÑĥÑĢÐ°Ð» ÐµÐ²
Ð³ ÑĢ
Ð°ÑĢ ÐµÐ»ÑĬÑĥÐ»
ĠÐ±ÑĥÐºÓı Ð¸Ð½Ð°Ð±
ĠÑī Ð²Ð°ÑĢ
ĠÐºÓı Ð¸ÑıÐ²Ð³Ð¾
ĠÐ¼Ñĥ Ð³ÓĢ
ĠÐĵÑĬ Ð°Ð»
Ð¾Ð½Ð¸ Ð³
ĠÑĢÐµÐ»ÑĬ Ð»ÑĬ
ĠÑħÓıÐ°Ð»ÑĤÓıÐ¸Ð·Ð°ÑĢ ÑĥÐ»ÐµÐ»
Ð½ Ð°Ñı
ĠÐ³ÑĮ Ð¸Ð½
Ð°Ð· Ð°Ð²
Ð´Ðµ Ð³Ð¾
ĠÐĳ ÐµÐ»
ĠÐĳ ÑĥÑĢÑĤÑĥÐ½
ĠÑīÐ² ÐµÐ·Ð°Ð²
ÑĥÐ»ÑĬ Ðµ
Ðļ Ð¸Ð½Ð°Ð±
ĠÐ¸ÑĪ Ð°Ð»ÑĬÑĥÐ»ÑĬ
Ð¥ ÑĥÐ½Ð·Ð°ÑħÑĬ
ĠÐ°Ð² Ð°Ð»Ð°Ð»Ð´Ð°
ĠÐĲÐ± Ñĥ
ĠÑĥÑĢÐ³ÑĬ ÑĥÐ½
2 1
Ð°Ð ¾
Ð± Ð°ÑĤÓĢ
Ð°Ð¹ Ñģ
Ñĩ ÐµÑĤ
ĠÐĳ Ð°Ð´
ĠÐŁ Ð¾Ð»
ĠÐ¸ÑĪ Ð°Ð»Ð´Ð°
ĠÐ³ÓĢ Ð¾ÑĢ
Ð³Ð¸Ð» Ð¸Ñģ
ĠÐ¦Ð¾ ÑħÓıÐ¾
ĠÐĲÐ± Ð´ÑĥÐ»
ĠÐ¼Ð°ÑĨÓĢ Ð°Ð»Ð´Ð°
ĠÐľÐ°Ð´ Ð¸Ð½Ð°
Ð°Ð» Ð°Ð²
ĠÐ³ÑĮ ÑĥÐ½
ĠÑĢ ÑĥÑħ
Ñģ ÐµÐ»
Ð¼ ÐµÑĤ
Ñı ÑĢ
Ðĳ ÐµÑĢ
ĠÐ±Ð°ÑĤÓı Ð°Ð»ÑĬÐ¸
ĠÑĤÓıÐ¾ÑĢÐ¸ÑĤÓı ÑĥÐ»Ð°
ĠÐĿÐ¸Ð»ÑĬ ÐµÑĨÐ°
ĠÐłÐ°ÑģÑĥÐ» Ð¸ÑĨÐ°
ĠÐ±ÑĥÐºÓĢ ÑĥÐ½
ĠÑĤÓıÐµÑħÑĮ Ð°Ð»Ð´Ð°
ĠÐ¡ÑĥÐ³ÑĬÑĢÐ°Ð»ÑĬ Ð°
ĠÐ±Ð¾ÑĢ ÑĨ
ĠÐ»ÑĬÐ°Ð³ÓıÐ°Ð» Ð¸Ð´Ð°
ĠÐ³ÓĢÐ°Ð´ Ð°Ð¼
Ð°Ð½ Ð¸ÑıÐ±
Ð°ÑĤ ÐµÐ»ÑĮ
ĠÐ½ Ð°ÐºÑĬ
ÑĩÓı Ð¸
ĠÐľ Ð°Ð¶
ĠÑĤÓıÐ°Ð´ Ð³Ð¸
ĠÑĥÐ½ÑĤ Ð°ÑĢÐ°Ð±
ĠÐķ ÐĵÐŃ
Ð·Ð°Ð± Ð°ÑħÑĬ
ĠÐ±Ð°ÑĢÐºÐ°Ð» Ð°Ð³Ð¸
ĠÐ¿ÑĢÐ¾ÑĦÐµÑģÑģ Ð¸Ð¾Ð½
ĠÑĢÐ°ÐºÓıÐ±Ð°ÑĨÓıÑĨÓıÐ°Ð´ Ð³Ð¾
Ð¸Ñģ Ð°ÑĤ
ĠÐºÓı Ð¸ÐºÑĬ
ĠÐ¡ ÐµÐ²ÐµÑĢÐ¸ÑıÐ±
ĠÐ±ÐµÑĢ Ð°Ð»
ĠÐĴ Ð°ÑĢ
ĠÐĸ Ð¸Ð´ÐµÑĢ
ĠÐ¤ Ð°Ð·Ñĥ
ĠÐ¥Ð°Ð´ ÑĥÑģ
ĠÐºÓĢ Ð¸Ð³Ð¾
Ð¨ Ð°Ð¼Ð¸Ð»
ÑĢÐ°ÑħÑĬ Ð¸Ð½
ĠÐºÑĮÐµÑĢ Ð´Ð°
ĠÐ¶ÑĥÐ± Ð°Ð½Ð°
ĠÐ°Ñį ÑĢÐ¾Ð¿
Ġ .
ĠÐ³ ÑĢÐ°Ð½
ĠÐ¿ Ð°ÑĢÐº
ĠÐ±ÑĥÐ³ ÐµÐ¹
ÑĥÐ± Ð°ÑĢÐ°Ð±
ÐµÐº ÓĢ
ÐĶ Ð°Ð³ÑĮÐ°Ð±
ÐĲ ÑħÓı
ĠÐ±Ð°ÑĤ Ð¸Ð»
ĠÐ£ Ð½ÑĤ
ĠÐºÑĬÐ°ÑĩÓı Ð°Ð½Ð°
ÐĽÑĬ Ð¸ÐºÓı
ĠÑħÓıÐ°ÐºÑĬÐ¸ÐºÑĬ Ð¸ÑıÐ±
ĠÐ³ÓıÐµÐ»Ð¼Ñĥ ÑıÐ»ÑĬÑĥÐ»
ĠÐ¡Ð°Ð» Ð¼Ð°Ð½
ĠÐ³ÑĬÐ°Ð» Ð°ÑĤÓı
ĠÐ¿ÑĢÐ¾ÑĦÐµÑģÑģ Ð¾ÑĢ
ĠÐ¶Ð°Ð½ÑĥÐ± Ð¸ÑıÐ±
Ð» Ð°Ð²
Ðº ÐµÐ½ÑĤ
Ð¸ÑĢ Ð°Ð»
Ð¾Ð² Ð½
Ðĵ ÓĢ
ĠÐĳ Ð°Ð±
ĠÐ³ÓıÑĥÑĨÓı Ð°ÑĢÐ°Ð»
Ð¾ÑĤ ÑĢ
Ñĭ Ð»
ĠÐ³ÓıÑĥÐ½ ÑĤÓıÑĥÐ½
ĠÑħÐ°ÑĢÐ¶ Ð°Ð»
ĠÑĢÑĥÑģÑģ ÑĥÐ½
Ġ Ñĥ
ĠÐ³Óı Ð°ÐºÓı
ĠÐ¿ Ð°Ð³ÑĮÐ¼Ñĥ
ĠÐľ Ð°ÑħÓĢ
ĠÑĢÐµ Ð³
ĠÑĨÐ¾ ÑħÓı
Ð¸Ð»ÑĬ Ðµ
ĠÑħÑĬ Ð°ÑĢ
ĠÑĪ Ð°Ð¹Ð¸Ñħ
ĠÐ¦ ÐµÐ±
ĠÐ±Ð°ÐºÓı Ð°Ð·Ð´Ðµ
ĠÐ¹ Ð¸ÑħÑĮ
ĠÐ³ÓĢ Ð°Ð»Ð¸Ð¼
ĠÐļÑĬ Ð¾ÐºÑĬ
ĠÐ²Ð°Ñģ Ð°Ñģ
Ð¾Ð· Ð¸ÑĨ
Ð½ÑĤ ÐµÑĢÐ½
ÐĵÑĮÐµÐ´ Ð¸Ð½Ð°Ð±
ĠÑħÐ°Ð´ÑĥÑģ Ð°Ð½
ĠÐ³ÑĮÐµÐºÑĬ ÐµÐ·Ðµ
ĠÐ¼ÐµÐ´Ð°Ð» ÑĮ
ĠÐ¸ÑİÐ» Ð°Ð»Ð´Ð°
ĠÑħ Ð°Ð·
Ð³ÑĮ ÐµÐ»
ÑĥÑħÑĬ Ð³Ð¸
ĠÐł Ð°ÑĩÓı
ĠÐ½ÑĥÑħ Ð´Ð°ÑģÐ°Ð½
ĠÑīÐ² ÐµÑĩÓıÐ¾Ð³Ð¾
Ñī Ð°Ð´
ĠÐ¨ Ð°Ð³ÓıÐ±
ĠÑĦ ÐµÑģÑĤÐ¸Ð²
ĠÑĨÓıÐ°Ð»Ð´ Ð¾Ð»
ĠÑħÓĢ Ð¸ÑģÐ°Ð±
ĠÐľÐ°ÑħÓıÐ°Ñĩ ÑħÑĬÐ°Ð»Ð°
ĠÑĨÐµÐ±ÐµÑĤÓı ÐµÑıÐ»ÑĬÑĥÐ»
ĠÐºÐ¾ ÑĩÓıÐ¾Ð»
ĠÐ¿Ð¾Ñį Ð·
ĠÐ²Ð¸Ñī Ð°Ð½Ð°
ĠÐ¡ÑĥÐ» ÑĤÐ°Ð½
ÐºÐ¾Ð² Ð½Ð¸Ðº
ÐĿÐ¸Ð¶ ÐµÑĢ
ĠÐłÐ°Ð¹Ð¾Ð½ Ð°Ð»Ð´Ð°
ĠÐ¢Ð¸Ð¼ ÑĥÑĢ
ĠÐº Ð°Ð»
Ñģ Ð²ÐµÑĢ
ĠÑģ ÐµÑģÑģ
ĠÑī Ð¾Ð»Ð°ÑĢÐ¾
Ð¸Ð»ÑĬ Ð»ÑĬÑĥÐ½
ĠÑĩÓı Ð¾Ð»Ð°
ĠÑĤÓıÑĥÐ± Ð°Ð½Ð°
ĠÑĢÐµÑģÐ¿ÑĥÐ±Ð»Ð¸Ðº Ð°
ĠÐºÐºÐ¾Ð»ÐµÐ± Ð»ÑĬÐ¸
ÐµÑĩÓı Ð¾Ð½Ð¸
ĠÐĲÐ± Ð´ÑĥÑĢ
ĠÐ±Ð°Ð½ Ðº
ĠÐºÓıÐ°Ð» Ð´
ĠÐķ Ð³Ð¸Ð¿
ĠÐ²Ð¸ÑĤÓı ÑĥÐ½
ĠÐ¡ÑĥÐ» ÑĤÓıÐ°Ð½
ĠÐ¥ÓıÑĥÑĢÐ¼Ð°ÑĤ Ð°Ð»ÑĬÑĥÐ»
Ð°ÑħÑĮ Ð´Ð°Ð»
ĠÐ´Ð°Ð³ÑĮ Ð°Ð±Ð³Ð¾
ĠÑĢÐ°ÑĤ Ð¸Ð·Ðµ
ĠÐľÐ¾ÑģÐºÐ² Ð°ÑıÐ»ÑĬÑĥÐ»
Ð³ÑĮÐ°Ð± ÑĥÐ½
ĠÑīÐ¾Ð»Ð° Ð°Ð½
ĠÑģÐ¸Ñı ÑħÓıÐ°Ð»
ĠÐ¿ÑĢÐµÐ´ÑģÐµÐ´Ð°ÑĤÐµÐ» Ð°ÑģÑĥÐ»
ĠÐ¥ÑĥÑĪÑĤ Ð°Ð´Ð°
4 0
Ġ Ð°Ð½Ð¸Ð³Ð¸
ĠÐºÑĬ ÑĥÐºÑĬ
ÑĥÐ¼ Ð³ÑĮÑĥÑĢ
ĠÐ¥ Ð°Ð±Ð°ÑĢ
ĠÑħÓıÐ°Ð»ÑĤÓı Ð°ÑĢÐ°Ð²
ĠÐ±Ð¸ÑĨ Ð¸Ð½
Ð°ÑħÑĮ Ð²Ð°ÑħÑĬ
ĠÐ±ÑĥÐºÓıÐ¸Ð½ ÐµÑģÐµÐ±
ĠÑĥÐ» Ð±ÑĥÐ·
ĠÑīÐ²ÐµÐ·Ðµ Ð³ÓĢÐ°Ð½
ĠÑĦÐµÐ² ÑĢÐ°Ð»
ĠÐ³Ð¾ Ð´Ðµ
ĠÐ³ Ð°ÑĢÐ³
Ð¾Ð½ Ð°Ð»
ĠÐĵÑĮ Ð°Ð´
ĠÐºÑĮ ÐµÐ»Ð°
ĠÐ³ÑĮÐµÐ» Ð´Ð°Ð»ÑĬÑĥÐ½
ÑĥÐ»ÐµÐ» Ð³Ð¸
ĠÐ»ÑĬÐ¸ÐºÓı Ð³Ð¾
ĠÐ¾ Ð»Ð¸Ð¼Ð¿Ð¸Ð°Ð´
ĠÐĵÓıÐ°Ð± Ð°ÑģÐ¸Ð»
Ðľ ÑĥÑģ
ĠÐ±Ð°ÑĩÓı Ð¸Ð½Ðµ
ĠÑģÐ¿Ð¾ÑĢÑĤ Ð¸Ð²Ð¸ÑıÐ»
ĠÑĢÐ¾Ñħ Ñħ
ĠÐ¼Ð°Ð³ÓıÐ¸ÑĪÐ°ÑĤ Ð°Ð»Ð´Ð°
ĠÐľÑĥÑħÓı Ñĥ
ĠÐ´ÐµÐ¿ÑĥÑĤÐ°ÑĤ Ð°Ð·
Ð°Ð±Ð¸Ð» ÐµÐ²
ĠÐ¼Ð¸Ð½Ð¸ÑģÑĤÐµÑĢ ÑģÑĤÐ²Ð¾ÑıÐ»ÑĬÑĥÐ»
ĠÐ²ÑĥÐ³Ð¸Ð» Ð°
ĠÐ¼ÑĥÑĤÓı Ð¸Ð³Óı
Ð°Ð» Ð¸Ð³Ð¾
ĠÑĩ ÑĥÑĩ
ĠÐł Ð°ÑĪÐ¸Ð´
ÐµÐ·Ð°Ð± Ð¸Ð·Ðµ
ĠÐºÐ²ÐµÑĢ ÑīÐµÐ»
ĠÐ¼Ð¸Ð»Ð» Ð°ÑĤÐ°Ð·ÑĥÐ»
ÑģÑģ Ð°Ð»Ð°Ð¼
ĠÐ¿Ð¾Ð»Ð¸ÑĤ Ð¸ÐºÐ°ÑıÐ»ÑĬÑĥÐ»
ĠÑĤÐ°Ð¹Ð¿ Ð°
ĠÐĵÑĮÐ¸ÑĤÓı Ð¸Ð½
ĠÑģÑĥÐ± Ð±Ð¾ÑĤ
ĠÐ¡ÑĥÑĢ Ñħ
ĠÐ»ÑĬÐ¸ÑĨ Ð°Ð½Ð¸Ð³Ð¸
2 8
Ð³Ð¸ Ðº
Ð°ÑĤ ÑĮ
ĠÐ»ÑĬ Ð°ÑıÐ»ÑĬÑĥÐ»
ĠÐ½ ÐµÑĩ
ĠÑĩ Ð°ÑħÑĬ
ĠÐĲ Ðº
Ð´Ð°Ð» Ð°
ÑĥÑģ Ð³Ð¾
ĠÐ³ÑĮÐµÐ» Ð´Ð°Ð³Ð¾
Ð¸ÑıÐ»ÑĬ ÐµÐ³Ð¸
ĠÐĸ Ð¸Ð´Ðµ
Ðĳ Ð¾ÐºÑĮ
ĠÑħÑĬÑĥÐ»ÑĥÑħÑĬ Ð°Ð·Ð´Ð°
ĠÐºÓıÐ°Ð»ÑĬ Ð°ÑıÐ»Ð´Ð°
ĠÐ¼Ð°ÑĪÐ³ÑĮ ÑĥÑĢÐ°Ð±
Ð´ÐµÑĢ Ð¸ÑĨÐ°
ĠÐ·Ð¸Ð³ Ð°ÑĢÐ°
9 9
Ð½ Ð¸ÑıÐ»
Ð± ÐµÐ³Ð¾Ð²
ĠÐ³ÑĮ Ð°Ñģ
Ð°Ð»ÑĬ Ð¸ÑıÐ»Ð´Ð°
Ð°Ðº ÑĤÐ¾ÑĢ
Ð´Ðµ Ð·Ðµ
ĠÐ»ÑĬ Ð¸Ðµ
ĠÑģ Ðº
ĠÑħÑĬ Ð°ÑĤ
ĠÐ±Ð°ÑĤ Ð¸Ð»Ð¸Ð½
ĠÐĵÑĮÐµÐ½ Ð¸ÑĢÐµ
ĠÑħÐ°ÑĢ Ð¸Ð»
ĠÐ³ÓıÐ°Ð´Ð°Ð½ Ð»ÑĬÐ¸
ĠÑħÐ°ÑģÐ°Ð» Ð¾
ĠÐºÑĬÐµÑĢ ÐºÑĮÐµÑıÐ»ÑĬÑĥÐ»
ĠÐ·Ð°ÐºÐ¾Ð½ Ð°Ð»Ð´Ð°
ÐµÐ´ÐµÑĢ Ð°ÑĨÐ¸ÑıÐ»ÑĬÑĥÐ»
ĠÑĢÐµÐºÓıÐµÐ»ÑĬ Ðµ
ĠÑħÓıÐ¸Ðº Ð¼Ð°ÑĤ
Ð± ÑĥÑĢÐ³
ĠÐľ ÐµÐ´
ĠÑĨÓı ÑĥÐ»
Ð°Ñĩ Ð¸
ĠÐ±Ð¸ÑĨ ÑĥÐ½ÐµÐ»
ĠÐ±ÐµÐ³ÑĮ Ð¸Ð»Ð°
ĠÑħÓıÐ°Ð´ ÑĥÑĢÐ°Ð»
ĠÑģÐ°Ñħ Ð»ÑĬÐ¸Ð³Ð¸
ĠÑħÑĮÐ¸ÑħÑĮ ÑĥÐ½
ĠÐ²Ð¾Ð»ÐµÐ¹Ð±Ð¾Ð» Ð°Ð»ÑĬÑĥÐ»
ĠÐłÐ¸Ð· Ð²Ð°Ð½
Ð°ÑĢ ÑĥÐ½
ĠÐ³Óı ÐµÐ±ÐµÐ´Ðµ
ĠÐĵÑĮ Ð¸Ð¼Ð°ÑĤ
Ð°ÑħÑĬ ÐµÐ³Ð¾
ÐµÐ´ Ð°Ð³Ð¾
ĠÐĵÓı ÑĥÑĢÑĥÑģ
ĠÐ±Ð¸ÑĨ ÑĥÐ½Ð°Ð°Ð½
ĠÐ³ÑĮÐµÑĩÓı ÐµÐ»ÑĬÑĥÐ»
Ð°Ð½Ð´ ÑĢ
Ñĭ ÑĢ
ĠÐ½ÑĥÑħÐ¼Ð°Ð»ÑĬÑĥÐ»ÐµÐ² Ð»ÑĬÑĥÐ½
ĠÐºÑĥÐ»ÑĮÑĤÑĥÑĢ Ð°
ĠÐ±Ð°ÑħÓıÐ°ÑĢ ÑĩÐ¸Ð»ÑĬÐ¸
ĠÐ±Ð¸ÑĨÑĥÐ½ Ð°Ð³Ð¾
ĠÐ±Ð°Ð³ÑĬ Ð°
ĠÐ¼Ð°ÑħÓı ÑĢÑĥÐ¼
ĠÐŁÑĥÑĤÐ¸Ð½ Ð¸ÑĨÐ°
ĠÐºÐ²Ð°ÑĤÓı Ð¸ÑĩÓıÐ¾Ð³Ð¾
ĠÐ³ÓıÐ°Ð» Ð°Ð¹ÐºÑĥÐ¼
ĠÐ¿ÑĢÐ¾Ð± Ð»ÐµÐ¼
Ġ 000
Ñģ Ð¾Ð¼
ĠÑħ Ð²Ð°ÑĢÐ°Ð²
ÑĨ Ð°Ð³Ð¸
ĠÐľ ÑĥÐ³Óı
Ð³ÑĮ Ð°Ð±Ð¸
ĠÑħÓıÐ°Ð» Ð°Ðµ
ĠÑĨÐ¾ Ð»ÑĬÐ¸ÑıÐ»ÑĬÑĥÐ»
ĠÐĵÓı Ð¾ÑĢ
ĠÐĵÓı Ð°ÑĪ
ÑĨÓı ÑĥÐ»
ÑĥÐ»ÑĬ Ð³Ð¾
ĠÐĿ Ð°ÐºÓıÐºÓı
ĠÑĪÐºÐ¾Ð» Ð°Ð»
ĠÑĢÐ°Ð³Óı Ð¸Ð³Ð¸
ĠÐºÐ¾Ð½ ÑĤÑĢ
ĠÐľÐ°ÑĢ ÑĮÑı
ĠÐ¿Ð¾Ð´Ð¿Ð¸Ñģ ÐºÐ°
ĠÐľ Ð¸Ð»Ð»
ÑĥÐ¼ Ð°Ð»ÑĬÑĥÐ»
ĠÐºÐ¾Ð¼ Ð¸ÑĤÐµÑĤ
ĠÐĽÑĬ Ð°Ð¹
ĠÑĢÐ°Ñĩ ÓĢ
ĠÑĥÑĩÐ°ÑģÑĤ Ð¾Ðº
ĠÐ¼ÑĥÐºÓı ÑĥÑĢ
Ð´ Ð°Ð³ÑĥÐ½
ÑĥÐ» Ð¸Ð»Ð°
ĠÐ³ Ð°ÑĢ
ĠÑĤÓı Ð°ÑĢ
ĠÐ»ÑĬÑĥ ÑĤ
ĠÐ¸Ð½ Ð²
Ð¸Ð»Ð°Ð½ Ð³Ð¸
ĠÐ±Ð¾Ñģ ÑĥÐ»Ð°
ĠÐ±ÐµÐ³ÑĮ ÑĥÐ»ÐµÐ»
Ð¥ ÓĢ
ĠÑĤÓıÐ°Ð´Ðµ ÑĨ
ĠÐ³ÑĮÐ°Ð½ Ð¸ÑĢÐµ
ĠÑħÓıÐ°ÐºÑĬ Ð°Ð±
Ñĭ Ð¹
ĠÐŁÐ°ÑĤÓıÐ¸Ð¼Ð°ÑĤ Ð¸ÑĨÐ°
ĠÐ±Ð¸Ð³ÑĮ Ð°Ð»ÑĬ
ĠÐ³ÓıÐ¸Ñģ Ð¸Ð½
ĠÐĸÐ¸Ð² Ð³Ð¾
7 0
Ð¼ Ð¾Ñģ
Ð· Ð°
Ð¸Ð½ Ð¸ÑĨÐ°
Ð¸Ð½ Ð¸Ð¼Ð°ÑĤ
ĠÐ¼ Ð°Ð³ÑĬÐ°Ð»
ĠÑģ ÐµÐ¼
ĠÐĵÑĮ Ð°Ð¼
ĠÐ¿ Ð»
Ð¿ Ð¾Ð½
ĠÑħÑĬ Ð°ÑħÓı
ĠÐ¡ Ð°Ð¸Ð´
ĠÑīÐ² ÐµÑıÐ»ÑĬÐµ
Ð¾Ð¼ Ð¾
ÐĶ Ð¾Ð±
ĠÐ³ÓıÑĥÑĨÓı Ð¸ÑıÐ»Ð´Ð°
ÑģÐº Ð°Ñı
ĠÑĨÐ¾ÑĨ Ð°Ð·Ðµ
ĠÐ¼Ð°ÑĨÓıÐ°Ð» Ð´Ðµ
ĠÐ¼Ð¸ÑģÐ°Ð» Ð°Ð»ÑĬÐµ
Ð¾Ð²Ð¸Ñĩ Ð°Ñģ
ĠÐ¼Ð°Ð»ÑĬ Ð¸Ð·Ðµ
ĠÑĤÓıÐ°Ð»ÑĬ Ð¸ÑıÐ»ÑĬÑĥÐ»
ĠÐ³ÑĮÐ°Ð½Ð¶ ÐµÐ³Ð¸
Ð¸Ð½Ð³ ÑĢÐ°Ð´
ĠÐºÓıÐ°Ð½ÑĨÓı ÑĥÐ½
ĠÑħÐ°Ð»Ð°ÑĤ Ð±Ð°ÑħÑĬ
ĠÐľÐ°Ð» Ð¸Ðº
Ð»Ð¾ ÑīÐ°Ð´
ĠÑģÐ¾Ð»Ð´ Ð°ÑĤ
ĠÐ¿Ð°ÑĩÐ°Ñı ÑģÑĥÐ»
2 4
ĠÐ² Ð¾ÑĢÑĩÓı
ÑĥÑĢ Ð°Ð¹
ĠÑĨÓı Ð²
ĠÐ°Ð± Ð°Ð´
ĠÐ³ÑĮÐµÑĩÓıÐ¾ Ð»ÑĬÐ¸ÑıÐ»ÑĬÑĥÐ»
Ð¸Ð·Ð°Ð± Ð¸ÑıÐ»ÑĬÐµ
ĠÐ³ÓıÑĥÐ¼ÑĢÑĥ ÑıÐ»ÑĬÐµ
ĠÐ³ÑĮÐµÐ² Ð³Ð¸
ĠÐ±Ð°ÐºÓıÐ°Ð» Ð´Ð°ÑģÐ°
ĠÑĨÐµÐ±ÐµÑĤÓı ÐµÐ¹
ĠÐ³ÓıÐ°ÐºÑĬ Ð¸Ð»
ĠÐ¼Ð¸ÑģÐ°Ð» Ð»ÑĬÑĥÐ½
Ð© Ð°Ð¹
ĠÐĵÓıÐ°Ð±Ð´ÑĥÐ»Ð¼ Ð°Ð»Ð¸Ðº
ĠÐ±ÑĥÑģÑĥÑĢÐ± Ð°Ð±Ð¸
ĠÐºÐ°Ð¿ ÑĥÑĢ
ĠÑģÐ°Ð´ Ð°ÐºÑĬÐ°
ĠÑĤÐµÑĢÑĢÐ¸ÑĤÐ¾ÑĢ Ð¸Ð°Ð»Ð¸ÑıÐ±
ĠÑĢ Ð°ÐºÓĢ
Ð¾Ð» Ð³Ð¾
Ð¸Ñģ ÑĥÐ»
Ð°Ð² ÑĤ
ĠÐ¸ ÑģÑĤ
ĠÑĨÐ¾ ÑıÐ·
ĠÑĪ Ð¾ÑĦ
Ð¸Ñī Ð°Ð»Ð¸
Ð°Ð±Ð°Ð· Ð´Ð°ÑģÐ°Ð½
ĠÐŁ Ð¸ÑĢ
Ñį Ð½
ÐĴ Ð°ÑĤÓıÐ°Ð½
ĠÐ³ÓıÐ°Ð³Ð°ÑĢ Ð»ÑĬÐ¸ÑıÐ»ÑĬ
ĠÐ¯ ÑĢ
ĠÑĪÐ°Ð³ÓıÐ¸ÑĢ Ð°ÑģÑĥÐ»
ÐĵÑĮÐ°Ð» Ðµ
ĠÐ¼Ð°ÑĪÐ¸Ð½ Ð°Ð±Ð¸
ĠÐ²Ñĭ ÑģÑĤ
ĠÐ²Ñĭ Ð¿ÑĥÑģÐº
ĠÑĤÓıÐ°Ñģ Ð¸ÑıÐ±
ĠÐĳÐµÑĢÐ³ÑĮÐµÐ½ Ð»ÑĬÐ¸ÑıÐ»ÑĬÑĥÐ»
ĠÐºÐ¾Ð½ÑĨ ÐµÑĢÑĤ
ĠÐ¥ÑĮÐ°ÑĢÐ³ Ð°Ð±Ð¸
ĠÐ³Ð¾Ð´Ðµ ÐºÓı
! "
ĠÐ³Óı ÑĥÑħÑĮ
ĠÐ¼ ÑĥÑĢ
ĠÐºÓı Ð¾Ð»Ð°ÑĢÐµÐ±
ĠÐĳ Ð°Ð³ÓıÐ°ÑĢÐ°Ð±
ÐĵÑĮ ÐµÐ»ÑĬ
Ð°Ð±Ð°Ð· Ð³Ð¸
ÑĥÑĩ ÓĢ
ĠÑĪÐ°Ð³ÑĮÐ°ÑĢ Ð°Ð·Ð´Ð°
ĠÑĤÑĥÐ½ ÐºÐ°
ĠÑĤÐ°ÑĢÐ¸Ñħ Ð¸ÑıÐ»
ĠÐ²Ð°ÑħÑĬ Ð¸Ð½Ðµ
ĠÐĽÑĬÐ°ÑĢ Ð°ÑĤÓĢ
ĠÐĵÑĬÐ¸Ð· Ð»ÑıÑĢ
Ð©Ð¸Ð± Ð°Ð±
ÑĢ Ð°Ð±Ð°Ð·ÑĥÐ»
ÑĢ Ð¸Ð¹
Ð¾ Ð´Ð°ÑģÐ°
ĠÐºÑĬ Ð¸Ð¼
Ð¸Ð´ Ð°Ð»ÑĬÑĥÐ»
Ð°ÑıÐ» Ð³Ð¸
ĠÑĢÑĥÐºÓı Ð°Ð»Ð¸Ð´Ðµ
ĠÐ¿ÑĢ Ð°Ð²
Ðł Ð°Ð»ÑĬÑĥÐ»
Ð¸ÐµÐ² Ð°ÑģÑĥÐ»
Ð°ÑıÐ»Ð´Ðµ Ð³Ð¸
ÑĥÐ´Ð¸Ð½ Ð¾Ð²
Ġ201 6
ÐļÓı ÑĥÐ´Ð¸ÑıÐ±
ĠÐ¨Ð°Ð³ÑĮ ÑĢÑĥÐ´Ð¸Ð½
ĠÐ±Ð°ÑĤÓĢ Ð¸
ĠÐľÑĥÑħ ÑĤÐ°ÑĢ
ĠÑĤÐ°Ð¼Ð¸ÑħÓıÐ°Ð» Ð´Ðµ
ÑĢ Ð°Ð¿
ĠÐ± Ð°ÑĨÓıÑĨÓı
Ð°Ð½ Ð°Ð³ÓıÐ°Ð½
ĠÐº Ð¸Ñģ
ĠÐ´ Ð¸Ð´Ðµ
ÐµÑħ Ñģ
ĠÐ¸Ð½ Ð°Ð»Ð´Ðµ
ĠÐºÑĮÐ¾Ð» Ð°Ð³Ð¾
ĠÐ»ÑĬÐ¸ÐºÓıÐ°Ð± Ð»ÑĬÑĥÐ½
ÐµÑĨ ÑĨ
ĠÑĥÑĢÐ³ÑĬ Ð¸Ð·Ðµ
ĠÐ¶Ð°Ð¼Ð³Óı Ð¸ÑıÐ²
ĠÐ´Ð°Ð³ÑĬÐ¸ÑģÑĤÐ°Ð½ Ð¸ÑıÐ·ÑĥÐ»
ĠÐ±Ð¸Ñī Ð°ÑĢÐ°Ð±
Ð¥Ð°Ð» ÐºÑĬ
ĠÐ³ Ð°Ð»
Ð°Ð´ Ð¸Ð»
ĠÐ³Óı Ð°ÑģÑĢ
ÐµÐ» Ð°Ð»ÑĬÑĥÐ»
ÑĪ ÐºÐ¾Ð»
ÐµÑĤ ÓĢ
Ð°Ð±Ð°Ð· Ð´Ð°Ð³Ð¸
Ð¸Ð»Ð» Ð°
ĠÑħÓıÐ°Ð»ÑĤÓıÑĥÑħÑĬ Ð°Ð±Ð°Ð·Ð´Ð°
ÐµÑĩ ÓĢ
ĠÐ²Ð°ÑĤ Ð°Ð½Ð°
ĠÐ±ÐµÐ³ÑĮÑĥÐ» Ð¸Ð½
ÐĵÑĮÐµÐ» Ð´Ð°
ĠÐ³ÓıÐµÐ½ÐµÐº ÐºÑĥÐ½
ĠÐ»ÑĬÐ°Ð³ÓıÐ°Ð» Ð¸Ðµ
ĠÐ¸Ð½ÑģÑĤÐ¸ÑĤÑĥÑĤ Ð°Ð»ÑĬÑĥÐ»
ĠÐ£Ð· ÑĥÑħÑĬÐ´Ð°
ĠÑįÐºÑģÑĤÑĢÐµÐ¼ Ð¸Ð·Ð¼
ĠÐ± Ð°ÑĢÐ°Ðº
Ð°ÑĢ Ð°ÑħÑĬ
ÑĥÐ½ Ð³ÑĥÑĤÓı
Ð¼ Ð¸ÑĢÐ·
Ð°Ð»ÑĬ ÑĥÑħÑĬÐµ
ĠÐ¿ Ð¸ÑĤ
ĠÐ· Ð°ÑĢ
ĠÐļ Ð¸Ð½Ð°Ð»
ÑħÑĬ ÑĥÐ½
ÑıÐ» Ð´Ð°ÑģÐ°Ð½
Ð¸ÑĩÓı Ð¸Ð½
Ð°Ð»ÑĬÐµ Ð³Ð¾
ĠÑį Ð»
ĠÑĢÑĥÐ³ ÐµÐ·Ðµ
ĠÐ±Ð°ÑħÑĬ Ð¸Ð½Ð°Ð±
Ðľ Ð¸Ð»Ð»
ĠÐ°Ñħ Ð°Ð»
ĠÑĢÐ°ÐºÑĮ Ð°Ð»ÑĬÑĥÐ»
ĠÑĩÐ°Ð³Óı Ð°Ð·Ð´Ð°
ĠÐ¼ÑĥÐ³ÓıÐ°Ð»Ð¸Ð¼ Ð·Ð°Ð±Ð°Ð·ÑĥÐ»
ĠÐ³ÓıÐ°Ð³Ð°ÑĢ ÑĥÐ½
ĠÑģÐ¾ÑĨÐ¸Ð°Ð»Ð¸ÑıÐ± Ð³ÑĥÐ½
ĠÐľÐ°ÑĢÑĮÑı Ð¼
Ñĥ ÑıÐ»Ð´Ð°
Ð°Ð» ÑħÓı
ĠÐľ Ð°ÑĪ
ĠÑĨÓı ÑĥÐ»Ð°Ð»
ÑĥÐ¼ Ð°Ð´
ĠÐºÑĮ ÐµÑıÐ»Ð´Ð°
Ð°ÑĨ ÓĢ
ĠÑĢÐ¾Ñģ Ð°Ð½Ð°
ĠÐ³ÓĢ ÑĥÑĢÑĥÑģ
ĠÑģÑĥÐ°Ð» Ð°Ð·Ð´Ð°
Ð¸Ð½Ð°ÑĢ ÑĥÐ½
ĠÐ´Ð°Ð³ÑĬÐ¸ÑģÑĤÐ°Ð½ Ð¸ÑıÐ»
Ð´Ð°Ð³ÑĮ Ð¾ÑĢÐºÑĮ
ĠÐ¸Ð½ÑĩÓıÐ¾ Ð³Ð¾
Ð± Ð°
ĠÑĢ Ð¾ÑĨ
Ð¸ÑĢ Ð°ÑħÑĬ
ĠÐºÐº ÐµÐ´Ð°Ð»
ĠÑħÓıÐ°Ð»ÑĤÓı Ð°ÑĢÐ°Ð»
Ñī Ð¸Ðº
Ð³ÓıÐ°Ð½ Ð°ÑģÐµÐ±
ÐĵÑĮ ÐµÐ·ÑĥÐ»
ÑĥÐ»ÑĬ ÑĥÐ½
ĠÐ´Ð°Ð½Ð´Ðµ Ð»ÑĬÐ°Ð±Ð¸
ĠÐ³ÓĢ Ð°ÑĢÐ°Ð±
Ðĸ Ð¸Ð½Ð´Ð¸ÑĢ
ĠÑģÐ°Ð¼ Ð¾Ð»
6 0
ĠÐ± Ð»
ĠÐĵ Ð°Ð´Ð¶
ÑĨ Ð¸ÑıÐ»
Ð¶ Ð¾
Ð³Óı ÑĥÑģ
ĠÐĶ Ð°Ð½Ð¸ÑıÐ»
Ð´Ð°Ð» Ð´Ðµ
ÐµÑģ Ð°
ÐĵÑĮ ÐµÑģÑĥÐ»
ĠÐ°Ñģ Ðº
ĠÐ¶Ð¾ ÑıÐ»Ð´Ð°
Ð°ÐµÐ² Ð°Ð»ÑĬ
ĠÑĤÐ°ÑĢ Ð¶
ĠÐĽÑĬ Ð¸Ð¼
ÑĩÓıÐ² Ð°Ð¹
ĠÑĨÓĢ ÑĥÐ½
ĠÐ´Ð¾Ð± Ð³Ð¾
ĠÐ°Ð½ÐºÑĮ Ð°Ð»ÑĬ
ĠÑĢÐµÐ´Ð°Ðº ÑĨÐ¸ÑıÐ»Ð´Ðµ
ĠÑĤÐ°Ð»Ð¸ÑħÓı Ð°Ð±
ĠÐ±Ð¸Ð¶ Ð°ÑĢÐ°Ð±
ĠÐ°Ð²Ð°ÑĢÐ°Ð³ Ð°Ñģ
ĠÑģÐ°ÑĢÐ´ Ð¸Ð»ÑĬ
Â ²
Ġ ÑĥÐ·
Ð°Ð± Ð°Ð»
Ð°Ð± Ð³Ð¸
Ð°Ñģ ÑħÓıÐ°Ð±
ĠÐĵ Ð°Ð·ÐµÑĤ
ĠÐ»ÑĬ Ð°Ð·Ð°Ð±Ð¸
ÐµÐ´ Ð¸
ĠÐ¡ Ð°Ð³
ĠÑı ÐºÑĬ
ĠÐ³ÑĬ Ð¾Ð»
ÑĥÐ»ÑĬ Ð°
ĠÐ¨ Ð¸Ñħ
ĠÐĵÓıÐ°Ð±Ð´ÑĥÐ» ÑħÓı
ĠÐ³ÑĮÑĥÐ´ÑĥÐ» Ð·Ð°Ð±Ð¸
ĠÐĺÐ±ÑĢÐ°Ð³ÑĮÐ¸Ð¼ Ð¾Ð²
ĠÐłÐ°ÐºÓıÐ°Ð» Ð´Ð°
ÐĲÐ»Ð»Ð°Ð³ÑĮ Ð°Ñģ
ĠÐ¼ÐµÑĤ Ð¾Ð´
ĠÐºÑĥÐ± Ð¾Ðº
ĠÐ³ÑĮ Ð¾ÑĨÓı
Ð· Ð°Ð·ÑĥÐ»
Ð°Ñħ Ð°Ð½Ð¾Ð²
ĠÐ±ÑĥÐ³Ð¾ Ð»ÑĬÐ¸
ĠÐ¥ Ð¸ÑĢ
Ð°ÑıÐ» Ð¸Ð³Ð¾
ÐĲ Ð³ÑĬ
ĠÑĢÐ°ÐºÓı Ð°Ð·ÑĥÐ»ÑĬ
Ðĳ Ð¸ÑīÑĥÐ½
ÐµÑģÑĤ Ð²ÐµÐ½
ĠÐ³ÑĮÐ¾ÑĢÐºÑĮÐ¾Ð± Ð»ÑĬÐ¸
ÐĵÓı Ð°Ð±
ĠÐ½Ð°Ñģ Ð¸ÑħÓıÐ°ÑĤ
ÐĶÐ°Ð½Ð´Ðµ Ð»ÑĬÐ¸ÑıÐ»Ð´Ð°
ĠÑĦÐ¸Ð» ÑĮ
ĠÐ±Ð°ÑħÓıÐ°ÑĢÑĩ Ð¸ÑıÐ»
ĠÐ¸Ð½Ð²Ð°Ð» Ð¸Ð´
ĠÐ³ÑĬÑĥÐ» Ð±Ð°Ñģ
ÑĥÐ½ ÑĤ
ĠÐ³Óı ÑĥÐ½Ð°
ĠÐ³ÑĮÐ°Ð± Ð¸Ð´Ð°Ð»
ĠÐļ Ð°Ð»Ð¸Ð½Ð¸Ð½Ð°ÑĥÐ»
ĠÐ±Ðµ Ðº
Ðļ ÑĮ
ĠÐ¼Ñĥ Ð³ÑĮ
ĠÐ§ Ð°Ð½
ĠÐĵÓıÐ°Ð» Ð¸ÑħÓı
ĠÐ¼Ð¸Ð»Ð» Ð¸
ĠÑħÓıÐ°Ð»ÑĤÓıÑĥÐ» Ð°Ð³Ð¾
ĠÑħÑĥÑĢÑħ ÐµÐ½
ÐłÐ¾Ñģ Ñģ
ĠÐļÑĬÑĥÑĢ Ð°Ð¼ÑĥÑħÓıÐ°Ð¼Ð°Ð´
ĠÐ±Ð°ÐºÓıÐ°ÑĢ Ð¸Ð·Ðµ
ĠÐ³ÓıÐ°Ðº ÑģÐ°Ð»Ð´Ð°
ĠÐºÐ°Ð±Ð¸Ð½ ÐµÑĤ
ĠÐ¸Ð´Ðµ Ð¾Ð»Ð¾Ð³
ÑĢ Ð¾ÑĢ
Ðº Ð¾Ð½
Ð°Ð½ Ð´Ð°Ð»
ĠÑĢ Ð°
Ñħ Ð²
Ð¾Ð» Ð±
ÑĤÓı Ð°Ð¼
ĠÑĢÐ°Ð¹ ÐºÐ¾Ð¼Ð°Ð»ÑĬÑĥÐ»
ĠÑĢÐ°ÑħÑĬ ÑĥÐ»ÐµÐ»
Ð¾Ð´ Ð¾Ð±
ĠÑħÑĬÐ² Ð°Ð»Ð°
ĠÐ¸ÑĪ Ð°Ð»ÑĬÐµ
ÐŁ ÑĢ
ĠÐ³ÑĮÐµÐ´Ð¸Ð½Ð°Ð± Ð³Ð¾
Ð°Ñİ ÑĢÑĤ
ĠÐ¼ÑĥÑħÓıÐº Ð°Ð½Ð°Ð±
Ð°Ð½ÑĤ Ðµ
ĠÐĵÓıÐ°Ð±Ð´ÑĥÐ»Ð°ÑĤÓıÐ¸Ð¿ Ð¾Ð²
ĠÑĢÐ°Ð»ÑĬ Ð´
ĠÑĩÑĩ ÑĥÐ³Óı
ĠÐ²ÐµÐº ÐµÑĢ
Ð² Ð°Ñģ
ÑĨ Ð¸ÑıÐ»ÑĬ
ĠÐºÑĬ ÐµÐ´
Ð¶ Ð°Ð½Ð°Ð»ÑĬÑĥÐ»
Ð¸Ð»ÑĬ Ð°
ĠÑĢÑĥÐºÓı Ð°ÑĢÐ°Ð±
ĠÐĿ Ð°Ð±Ð¸
ĠÑĨÐµÐ±Ðµ Ð³ÓıÐ°Ð½
ĠÑĥÑĩ ÑĥÐ·
Ñį Ð±ÐµÐ»
ĠÐ°ÑģÐºÓı Ð¾ÑĢÐµ
ĠÐ±ÑĥÐºÓĢ ÑĥÐ½Ð°
ĠÐºÓıÐ°Ð» Ð³Óı
ĠÐ¼ÐµÐ´Ð°Ð» Ð°Ð»
ĠÐ³ÑĮÐ¾Ð±Ð¾Ð» Ð»ÑĬÑĥÑħÑĬ
ĠÑģÐ¸ÑģÑĤÐµÐ¼ Ð°
Ðµ ÑħÑĬÐµ
Ð°Ð» Ð°ÑıÐ»ÑĬÑĥÐ»
ÑĥÐ» Ð´ÐµÑĢÐ¸Ð»
ĠÐ³ Ðµ
ÐºÓı ÑĥÐ½
ĠÐ»ÑĬ Ð¸Ð´Ð°Ð½Ð¸Ð³Ð¸
Ð°Ð² Ð»ÑĬÑĥÐ½
ĠÑĢÐµ ÑħÑĬ
ÐµÐ¼ Ð¾ÑĢ
ĠÑĤÓıÐ°Ð´ Ð°Ð»
ĠÑĢÐ°Ð¹Ð¾Ð½ Ð°Ð»Ð´Ð°Ð³Ð¸
ĠÐ³ÓıÑĥÑĨÓı Ð°ÑĢÑĥÑħÑĬÐ°Ð½
ĠÐ°Ð·Ð°ÑĢ ÑħÐ°Ð½
ÑĥÐºÑĮ Ð°
ĠÐĲÐ±Ð°ÐºÐ°ÑĢ Ð¾Ð²
ĠÐĲÐ²Ð°ÑĢÐ°Ð³ Ð°Ñģ
ĠÐĲÑĦ Ð³ÑĬÐ°Ð½
ĠÐĵÐŃ Ð¡
8 0
Ð°Ð» Ð¸Ð³Ð¸
Ð² Ð°Ð¹
ĠÐ³Óı ÐµÐ¹
ÑĤÓı ÐµÑħ
ĠÐ¸ Ñģ
ÑĢÑĥ ÑĤ
ĠÐ¸ÑĪ Ð°Ð·ÑĥÐ»ÑĬ
ĠÐ°ÑħÓı ÑĥÐ»Ð°
ĠÐ±Ð°Ð¹Ð±Ð¸ÑħÑĮ Ð¸
ĠÐĽÑĬ Ð°Ð±Ð³Ð¾
ĠÐ³ÓıÐ¾Ð»Ð¾ÑħÑĬ Ð°Ð±Ð°Ð·Ðµ
ĠÑĢÐ°Ñĩ Ð°Ð½Ð°
ĠÐ¤ Ð°ÑĤ
ĠÐ±Ð¾ÑĢÑħ Ð°ÑĤÐ°Ð±
ĠÐ±Ð°Ñī Ð°Ð´Ð°Ð±
ĠÑĨÐµÐ½ÑĤÑĢ Ð°Ð»Ð¸ÑıÐ±
ĠÐºÐ¾ÑĢ ÑĢÑĥÐ¿
ĠÐ³ÓıÐ°ÑĤÓıÐ¸Ð´ Ð³Ð¾
ĠÐ¿ÑĢÐµÐ´Ð¿ÑĢ Ð¸Ð½Ð¸Ð¼Ð°ÑĤ
Ð°Ð½ ÐºÑĬ
Ð°Ñģ ÐµÐ»
ĠÐ¼ Ð°Ð·
ĠÐ½ Ð°
ĠÐºÐºÐ¾Ð» Ð°ÑĢÐµÐ»
ĠÐ¡ Ð°Ð¿
ĠÐ¥Óı Ð¸ÑģÐ°Ð±
Ð¾Ð¼ ÑĭÑĪ
Ðł ÐµÑģ
Ð°ÑıÐ»ÑĬ Ð³Ð¸
ĠÑĢÐµÑħ Ñħ
ĠÐ±Ð¸ÑĩÓıÑĩÓı Ð¸
ĠÐ¡Ð°Ð³Óı Ð¸ÑĤ
Ð» ÐµÑĤ
Ð°Ð» Ð´Ð°ÑģÐ°Ð³Ð¸
ĠÐ³ ÐµÑĢ
Ð°ÑĢ Ð¸ÑıÐ»
Ñħ Ð¸Ñģ
ĠÐ³Óı Ð°Ð·Ñĥ
Ð¾Ð½ Ð´Ð¾
ĠÑĩ ÐµÑħÑĮ
ĠÐ½ÑĥÑħ Ð³Ð¸
ĠÐ³ÑĮÐ°ÑĢ ÑĥÐ»Ð°Ð°Ð½
ĠÐ¥Óı Ð°ÑģÐ¸Ð»
Ð¾Ð³ Ðµ
ĠÑħÑĥÑĤÓı Ð¸ÑĩÓıÐ¾
ÐºÑĬÐ¾ ÑıÐ»Ð´Ð°
ĠÑĢÐ¾ÐºÑĮ Ð¸Ð³Ð¸
ĠÑįÑĢÐºÐµÐ½ Ð»ÑĬÐ¸
ĠÐ¸ÑĩÓı Ð³Ð¾
Ð» Ð°ÑĢ
Ð°Ð» Ð¸Ðµ
ĠÑĨ ÐµÐ½ÑĤ
ĠÐ»ÑĬ Ð¾Ð»ÐµÐ»
Ð¸Ñģ Ð¾
Ð¸ÑĤ Ð»
Ð´Ð°Ð» Ð°Ð±
ĠÐ¡ Ð°ÑĢ
ĠÐľÑĥÑħÓıÐ°Ð¼Ð°Ð´ ÑħÓıÐ°Ð±Ð¸Ð±
ĠÐ¢ Ð°Ð´Ð±Ð¸ÑĢ
ÐĲ ÑģÑģÐ°Ð»Ð°Ð¼
ĠÑĨÓıÑĥÐ½ Ð¸ÑıÐ»Ð´Ð°
ÑĥÑĨ Ð°Ð³Ð¸
ĠÑħÐ°Ð± Ð°Ð»
ĠÑĢÐ¸ÑĤÓı Ð¸Ð·Ðµ
Ġ201 0
ĠÐ±ÑĥÑģÑģ Ð¸Ð½Ð°Ð±Ð¸Ð·Ðµ
ĠÐ®ÑģÑĥÐ¿ Ð¾Ð²Ð°Ñģ
ĠÐ¼Ð°ÑĢ ÑĪ
ĠÐ²Ð°Ð»Ð°Ð³ÑĮ ÑĥÐ½
ĠÐºÑĬÐ¸Ð¼ Ð°ÑĤÐ°Ð»
ĠÐ¼ ÑĥÑģ
ĠÐ´ ÐµÐ¼
ĠÐ³ÑĮÐµÐ· Ð´Ð°ÑģÐ°Ð½
ĠÐŃ Ð½
ĠÐ½Ð¸Ð¶ÐµÑĢ Ð³Ð¾
ĠÐľÑĥÑģ Ð°ÐµÐ²Ð°Ñģ
ĠÐºÑĬÐ¸Ð¼Ð°ÑĤ Ð³Ð¸
ĠÐ±Ð°Ñħ ÑĥÐ½Ð°
ĠÐ³ÓıÐ°ÐºÑĬ ÑĥÐ±Ð°
ĠÑĢÐ¸ÑħÑĮÐ¸Ð·Ð°ÑĢ ÑĥÐ½
ĠÐ³ÑĮÐµÐºÑĬ Ð¾Ð»ÐµÐ±
ÑĩÐ¸Ð»ÑĬ Ð¸ÑıÐ»Ð´Ð°
ĠÐºÐ¾ÑĢ Ð¾Ð½Ð°Ð²Ð¸ÑĢÑĥÑģ
ĠÐ¼ÑĥÐ· ÑĭÐº
ĠÐ¿ÑĥÐ» Ð°Ð½Ð°Ð±
ĠÐ³ÓıÐ¸Ð± Ð°Ð´Ð°ÑĤ
ÑĢ Ð°ÑħÓı
Ð± Ð½
Ð± Ð°ÐºÓĢ
ÑĥÑĢ Ð¼Ð°Ð½
Ð°ÑģÑĥÐ» Ð³Ð¸
ĠÐ³ÓıÐµÐ¼ÐµÑĢ Ð°Ð²
ĠÐ±ÐµÑĤÓıÐµÑĢ Ð°Ð»Ð´Ðµ
ĠÐ±Ð¾ÐºÑĮ ÑĥÐ»ÐµÐ²
ĠÐĵÑĬ Ð°Ð¹Ð¸ÑĢ
ĠÐĹ Ð°ÐºÐ°ÑĢ
ĠÑħÑĥÑĤÓı ÑĥÐ»Ð°
ĠÐ£ ÑĢ
ĠÐ½ÑĥÑħÐ¼Ð°Ð»ÑĬÑĥÐ» ÐµÐ·ÑĥÐ»
ĠÐ¿Ð°ÑĩÐ°Ð»Ð¸ÑħÑĬ Ð°Ð»Ð´Ð°
ĠÐ±ÐµÑĢÐ³ÑĮ Ð°Ð½Ð°
ĠÑĢÐ¸ÑħÑĮ Ð¸Ð·Ðµ
ĠÐĴÐ°ÑĤÓıÐ°Ð½ Ð°Ð»Ð´Ðµ
ĠÑģÐ°Ð¹ Ð¸Ð³ÑĬ
ĠÐ¥Ð°Ð» Ð¸Ð´
ĠÑĩÓıÑĥÑħÓı Ð¸
ĠÑĩÐ¾ÑĢÑħ Ð¾Ð»
ĠÐ¿Ð°Ñģ Ð¿Ð¾ÑĢÑĤ
ĠÐ³ÓıÐ°Ð¶Ð°Ð¸Ð± Ð°Ð±
ĠÐĶÐµÑĢÐ±ÐµÐ½ÑĤ Ð°Ð»ÑĬÑĥÐ»
ĠÐ±ÑĥÑİÑĢ ÑĥÑħÑĬ
Ð¾Ð¼ÑĭÑĪ Ð»ÐµÐ½
Ðµ ÐºÑĮ
Ð¾ ÐµÐ²
ĠÐ±Ñĥ ÐºÑĬ
ĠÐ´ Ð¾Ð·
ĠÐºÐº ÑĥÑĢÐ°Ð²
ĠÐĵÓı Ð¾Ð»Ð¾ÑħÑĬ
ĠÐ±Ð¾ÐºÑĮ Ð°Ð½Ð¸
ĠÐ¶Ð°Ð½ Ð¸Ð²Ðµ
Ð°ÐµÐ² Ð¸Ñĩ
ĠÐ³ÓıÐ°ÑħÑĮÐ°Ð» Ð»ÑĬÑĥÐ»
ĠÐ¼Ð°ÑĨÓı Ð°Ð·ÑĥÐ»
ĠÑĢÐ¸ÑĩÑĩ Ð°Ð»ÐµÐ»
ÑĩÐ¸Ð»ÑĬ Ð¸ÑıÐ»ÑĬÑĥÐ»
ĠÐ¾Ð¿ÐµÑĢ Ð°ÑĨÐ¸ÑıÐ»Ð´Ð°
ĠÐ¦ÓıÐ°ÐºÑĬ Ð³Ð¾
ĠÐ´Ð°ÑĢÐ°Ð± Ð¸
V II
ÑĤ Ðµ
ĠÑĨ Ð¾Ð½Ð¸Ð³
Ð°Ð»ÑĬÑĥÐ» ÐµÐ»
ĠÐ¾ Ð¿
ĠÑĢÐ¾ ÑĨÓıÑĨÓı
Ð¼Ñĥ ÑıÐ»ÑĬÑĥÐ»
ĠÑĢÐ¾ÐºÑĬ Ð¾Ð±Ðµ
ÐµÐ³Ð¾ ÑĢ
ĠÐ³ÓıÐ¾Ð»Ð¸Ð» Ð°Ð·Ðµ
ĠÑĤÓıÐ°Ð³Óı ÑĥÐ½
ÑĥÐ» Ð°ÑĢÐµÐ²
ĠÑĢ Ð°ÑıÐ»ÑĬÑĥÐ»
Ð¸Ð± ÐµÐ³Ð¾
ĠÑĢÐµ Ð³Óı
ĠÐĶ Ð°Ð´
Ð³ÑĥÐ½ Ð³Ð¸
ĠÐ¦ Ð¸Ð½
Ð°Ð±Ð°Ð·ÑĥÐ» Ð³Ð¸
ÐĶ Ð¸Ð»Ð¸Ð¼
ÐĲ ÐĽ
ĠÐ³ÓıÐ°ÑħÑĮÐ°Ð» Ð»ÑĬÑĥÐ»ÐµÐ»
ĠÐĵÑĮÐµÐ» Ð´Ð°Ð³Ð¾
ĠÐľÐ°ÑħÓı Ð°Ð¼Ð°Ð´
ĠÐºÑĥÐ»ÑĮÑĤÑĥÑĢ Ð¸ÑıÐ±
ĠÐľÐ¾ÑģÐºÐ² Ð°ÑıÐ»Ð´Ðµ
ĠÐ³ÓıÐ°ÑħÑĮÐ°Ð»ÑĩÐ°Ð³Óı Ð°Ð·ÑĥÐ»
ĠÐºÐ¸ÑĢ Ð¸
ĠÑħÐ¾Ð± Ð°Ð»
ĠÐŁÐ°ÑĤ Ð°ÑħÓı
ĠÐ´ Ð¾ÑĢÐ°
ĠÑĨÓı Ð¸ÑıÐ²
ÐµÐ² Ðµ
ĠÑĢÐ¾Ñģ ÑĥÐ»ÐµÐ»
ÑĥÐ´ Ð°Ð³Ð¸
ĠÑħÐ°Ð» ÐºÐºÐ²
ĠÑħÐ°Ñģ Ð»
ĠÐ´Ð°Ð½Ð´ ÐµÑĢ
19 4
Ð£ Ð·
ĠÐºÐ¾Ð¼Ð°Ð½Ð´ Ð°Ð±Ð¸
ĠÐ²ÑĥÐºÓıÐ¸Ð½ ÑĩÓı
ĠÑįÐ¼ÐµÐ½ Ð³Ð¸
ĠÐ³ÑĮÐ¸ÐºÑĬ ÑĥÐ½
Ð´Ð°Ð¹ Ð¸Ð½
ĠÑĥÐ½Ð¸Ð²ÐµÑĢÑģ Ð¸ÑĤÐµÑĤÐ°Ð»ÑĬÑĥÐ»
ÐĺÑģÐ»Ð°Ð¼ Ð¸ÑıÐ±
ĠÑĤÓıÐ°Ð´ÐµÑĨ ÑĥÐ¹
ÐµÑĢ Ð°Ð»Ð´Ð°
ÑĨ ÓıÐ°Ð»
ĠÑĢÐµ Ð¹
ĠÐ¡ Ð°Ð¼
ĠÐ¡ Ð°ÑģÐ¸ÐºÑĮ
ĠÐ³ÑĬ Ð¾ÑĤÓı
ĠÐ¸Ð½ ÑĤ
ĠÐ¸Ð½ Ð³Ð¸Ð»Ð¸Ñģ
ĠÐĶÐ°Ð³ÑĬÐ¸ÑģÑĤÐ°Ð½ Ð°Ð»ÑĬÐµ
Ð°Ð³ÓıÐ°Ð» Ð¸Ð»
ĠÐ³ÓıÑĥÑĢ ÑĩÑĩ
ĠÑĢÐµÑĤÓı ÑĥÐ½
ĠÐ´Ð¸Ð²Ð°Ð½ Ð°Ð»ÑĬ
ĠÑıÑĩÓı Ð°Ð½Ð°
Ð¥Ð°Ð´ ÑĥÐ±
ĠÐ³ÑĬÐ¸ÑĢ Ð°ÑıÐ»Ð´Ð°
ĠÐ½Ð°ÑĢÐºÐ¾ÑĤ Ð¸ÐºÐ°Ð»
ÑĢ Ð°Ñħ
ÑĬ Ð¼Ð¸Ð½
Ð°Ð½ Ð°ÑĤ
Ð°Ñģ ÐµÐ²
Ð°Ñħ Ñī
Ð°Ð¹ ÑĤ
ĠÑģ Ð¾ÑİÐ·Ð°Ð»ÑĬÑĥÐ»
ÐµÐ· Ð´
ĠÐ±Ð¾ ÐºÑģ
ĠÑģÑĥ Ð°Ð»Ð³Ð¸
ĠÐ³ÓĢ Ð°Ð´Ð¸Ð½
ĠÑĢÐ¸ÑħÑĮ ÑĥÐ»ÐµÐ»
Ð¥Óı ÑĥÑĢÐ¼Ð°ÑĤ
Ð£ ÑıÐ»ÑĬÑĥÐ»
ĠÐ½Ð¸Ð³ÓıÐ¼Ð°ÑĤ Ð°Ð·ÑĥÐ»
ĠÑħÐ¸Ð½ Ð»ÑĬÐ¸
ĠÐ¾ÑĤÐ´ÐµÐ»ÐµÐ½ Ð¸ÑıÐ»ÑĬÑĥÐ»
ĠÑĩÓıÐµÐ³ÓıÐµÑĢ Ð°Ð±
ĠÐ·Ð¸ÑıÑĢ Ð°ÑĤ
ĠÐ± Ð°Ð»ÐµÐ»
Ð¶ Ð¸Ð²
ĠÐºÑĮ Ðµ
ĠÐļ Ð¾ÑĢ
ÑĢÑĥ Ð¶
ĠÑħÑĬÐ² Ð°Ð»ÐµÐ»
ĠÐ³ÑĮÐµÑĩÓı Ð¸Ñī
ĠÑĢÐ°Ð³Óı Ð°ÑĢÐ°Ð²
ĠÐ¸ÑĪ Ð³Ð¸
ĠÐ¹ Ð¾ÐºÑĮ
Ð¸ÐµÐ² Ð¸Ñĩ
Ġ3 1
ĠÐ¦Ð¾ Ð¹Ð³Ð¸
ĠÐ±ÐµÑĢÐ³ÑĮ ÑĥÐ½
ĠÑħÓıÑĥÐºÐ¼Ñĥ ÑıÐ»Ð´Ð°
ĠÐ±ÑĥÑħÓı ÑĥÐ½
ĠÐ³Óı ÑĥÑĢÐ°Ð»
ĠÑĤ Ð¾Ð»
ĠÐ¥ Ð²
ĠÑį ÐºÐ¾Ð»Ð¾Ð³
ĠÐ³ÑĮÐ°Ð±ÑĥÐ½ Ð¸Ð½
ĠÐĵÓıÐ°Ð» Ð¸Ð¼
ĠÐ´Ð°ÑĢ Ð°Ð½
ĠÑĢÐ°ÑĤ ÑĥÐ»Ð°
ĠÐĵÓıÐ°Ð»Ð¸ÐµÐ² Ð°Ñģ
ĠÐĽÐµÐ½ Ð¸Ð½Ð°ÑĥÐ»
ĠÐ±ÑĥÑģÑģÐ¸Ð½Ð°Ð± ÑĥÐ½Ð°
Ġ 0
Ð»ÑĬ Ðµ
Ð°Ð³ Ð°
ĠÑĩ Ð¸Ð»ÑĬÑĥÐ½
ĠÐĶ Ð¸Ð½
ĠÐł Ð¾ÐºÑĬ
ĠÐ±Ð¸ÑħÑĮ Ð¸Ð½Ð°Ð»
ĠÑĢÑĥÐ³ ÐµÐ·
ĠÑħÐ°Ñģ Ð»ÑĬÐ¸
ĠÐ³ÑĮÐ¾ÑĢÐºÑĮÐ¾Ð± Ðµ
ĠÐ»ÑĬÑĥÐ³Óı Ð¸Ð·ÐµÐ³ÓıÐ°Ð½
ĠÐºÐ²ÐµÑĢ Ð´Ðµ
ĠÐ³ÓıÐ¾Ð´ Ð¾ÑĢÑĩÓı
Ðĺ Ð¼
ĠÑħÓĢ Ð°ÐºÑĬ
ĠÐ³ÑĮÐ¸ÑĤÓı Ð¸Ð½Ð³Ð¾
ĠÐ²Ð°ÑĤ Ð¸Ð»Ð°ÑĢÐ¾
ĠÑĤÑĥÑĢÐ½Ð¸ÑĢ Ð°Ð»Ð´Ð°
ĠÑĩÑĥ ÑıÐ»
ĠÐĲÐ²Ð°ÑĢÐ°Ð³ Ð°ÑģÑĥÐ»
ĠÐ¿Ð¸ÑĪ Ð°
ĠÑģÐ°Ð´ Ð°ÐºÑĬ
ĠÑīÐ²ÐµÐ» Ð°Ð»Ð´Ðµ
ĠÐ³ÑĮÐ°Ð¹Ð± Ð°ÑĤÐ°Ð±
ĠÐ¿Ð°Ð»Ð°ÑĤ Ð°ÑıÐ»ÑĬÑĥÐ»
ĠÑĥÑĩÐ¸ÑĤÐµÐ»ÑĮÐ½ Ð¸ÑĨÐ°
Ð½ Ð°Ð±Ð¸
Ðº Ð¸
ĠÐ±Ñĥ ÑĢÑĤ
ĠÐ³Óı Ð°Ð·Ð°Ð±
ĠÐ¼ Ð¸Ñģ
ĠÐ³ÑĮÐ°Ð± Ð¸Ð»Ð¸Ð½
ĠÐ±ÑĥÐ³Ð¾ ÑħÐ°
ĠÑħÓıÐ°Ð» Ð¸ÑħÑĮ
Ð°ÑĨ ÓıÐ°Ð»
ĠÐļ ÓıÐ°Ð»
Ð¸ÑģÑĤ Ð°Ð·
Ð²Ð°ÑĢ Ð¸ÑģÐ°
ĠÐ³ÑĮÐ°ÑĢ Ð¸ÑıÐ»Ð´Ð°
ĠÐ²ÑĥÐºÓı Ð°Ð½Ð¸Ð³Ð¸
ÐµÐ³Ð¸ Ð»
ĠÑħÐ°Ð´ ÑĥÐ¹
ĠÐ»ÑĬÑĥÐ³ÑĮ Ð°ÑĢÐ°Ð»
ĠÑĢÐ°Ð³Óı Ð°ÑĢÐ°Ð»
ĠÑĢÐ°ÐºÑĮ Ð°Ð·ÑĥÐ»
Ð¢ Ðļ
ĠÑĨÓĢ Ð°ÐºÑĬ
ĠÐ¸Ð¼Ð°Ð¼ Ð°Ñģ
ĠÐ²ÑĥÐºÓıÐ¸Ð½ Ð°Ð»ÑĬ
ĠÑģÐ¾Ð²ÐµÑĤ Ð¸ÑıÐ±
ĠÐĲÑħÐ¸ÑĢ Ð°Ð±
ĠÐ¿Ð°Ð¹Ð´ Ð°ÑıÐ»
ĠÑĦÐ¸Ð» Ð¸Ð°Ð»
ĠÐ½ÐµÐºÓı ÑģÐ¸ÑıÐ±
Ð¥ÓıÐ°Ð» ÑĤÓı
7 7
ĠÑĢ Ð°Ð´
Ð°Ð· Ð°Ð¼
ĠÐ¿ Ð»Ð¾ÑīÐ°Ð´
ĠÐºÑĮ ÐµÑĩÓıÐ¾
ĠÐĶ Ð°ÑĢ
ĠÐĶ ÐĲ
ĠÐļ Ð°Ð»
ĠÐĳ Ð°ÑĪ
ĠÐ±Ð°ÐºÓı Ð°Ð·ÑĥÐ»
ĠÐ±Ð¸ÑħÑĮÐ¸Ð·Ð°Ð± ÑĥÐ»Ð°
Ð°Ð½Ð°Ð» Ð´Ð°ÑģÐ°Ð½
Ð°Ð»Ð¸Ð¼ ÑħÐ°Ð½
Ð»ÑĬÐ¸ÑıÐ»ÑĬ ÑĥÑħÑĬ
ĠÑĥÑĩÐ¸ÑĤÐµÐ»ÑĮ Ð·Ð°Ð±Ð°Ð·ÑĥÐ»
ĠÐ´Ð¸ÑĢÐµÐºÑĤÐ¾ÑĢ Ð°ÑģÑĥÐ»
ĠÐ°Ðº ÑĨÐ¸Ñı
ĠÑĩÐµÐ¼Ð¿Ð¸Ð¾Ð½ Ð°ÑĤÐ°Ð»Ð´Ð°
ĠÑįÐºÐ¾Ð½Ð¾Ð¼ Ð¸ÐºÐ°ÑıÐ»ÑĬÑĥÐ»
ĠI I
ĠÑħÓıÐµÑħÑĮ ÐµÐ·Ðµ
ĠÐ¼ÑĥÐ³ÓıÑĢÑĥÐ· Ð´Ð°
Ð°ÑĢ Ð°ÑģÐµ
ĠÑĢ Ð°Ð½Ð°
Ð»ÑĬ Ð°ÑĢÐ°Ð²
Ð¾Ð½ Ð´
Ð°Ð¸ Ðº
ĠÐŀ Ðľ
ĠÐľÐ°ÑħÓıÐ°ÑĩÑħÑĬÐ°Ð» Ð°ÑıÐ»Ð´Ðµ
ĠÐºÐ¾Ð»ÑħÐ¾Ð· Ð°Ð»Ð´Ð°
ĠÐ³ÓıÑĥÑĢÑĥÑģ Ð°Ð·ÑĥÐ»
ÐĽÑĬ Ð¸Ð¼Ð°Ð»
Ð¢Óı Ð°Ð´
ĠÑģÐ°Ð³ÓıÐ°ÑĤ Ð°Ð»ÑĬ
ĠÐºÑĥÑĩÓı Ð´ÑĥÐ·
ĠÐ³Ð¾Ñĩ ÑĥÐ½
ĠÐ²ÐµÑĤÐµÑĢ Ð¸Ð½Ð°ÑĢ
ĠÐ¼ÑĥÐ½Ð¸ÑĨÐ¸Ð¿ Ð°Ð»
ĠÐĿÑĥÐ¶ ÐµÑĢ
ĠÑħÑĥÐ´Ð¾Ð¶ Ð½Ð¸Ðº
ĠÐ³ÓĢÐ°ÑģÑĢÑĥ ÑıÐ»ÑĬÑĥÐ»
ĠÑħÓĢÐ¸ÑģÐ°Ð± Ð°Ð»Ð´Ð°
Ð°Ð½ Ð¸ÑıÐ»ÑĬÑĥÐ»
Ñģ ÐµÑģÑĤ
ĠÐºÑĬ Ð°ÑĢÐ°Ð±
ÐºÑĬ Ð¾Ð½Ð¾
ĠÑħÑĬ Ð°Ð¼
Ð°Ñĩ ÓĢ
ĠÑı Ð»Ð°Ð³ÑĮ
ĠÐĵÓıÐ°Ð± Ð°Ñģ
ĠÐ±Ð°ÑĤ ÑĥÐ»ÐµÐ±
ĠÑĥÐ½ÑĤ Ð°ÑĢÐ°Ð²
ÐµÐ»ÑĬ Ðµ
ĠÐ¦Óı Ð¾ÑĢ
ĠÐ³ÑĮÐ°Ð´ Ð¸Ð½Ð³Ð¾
ĠÐºÐ¾Ð½ ÑĦÐµÑĢÐµÐ½
ĠÐ¼ÑĥÐ³ÓıÐ°Ð»Ð¸Ð¼ Ð·Ð°Ð±Ð°Ð·
Ġ201 3
ĠÑĢÐ¸Ñī Ð½Ð¸
Ð°Ð»Ð°ÑĤ ÓıÐ°Ð»
ĠÐĲÐ³ÑĬ Ð²Ð°Ð»
ĠÐ°Ð¿ Ð¿Ð°ÑĢ
ĠÐ¼Ð¸Ð½Ð¸ÑģÑĤÑĢ Ð°ÑģÑĥÐ»
ĠÑĩÐ¾ÑĢÑħ Ð¾Ðµ
ĠÐ¥Ð¸Ð· ÑĢ
ĠÐ±Ð°Ð´ Ð¸Ð±
Ð¸ Ð¸
ÐµÐ± ÐµÐ´
ĠÐ´ Ð¸Ð´Ð°Ð³Ð¾
ÐºÑĬ Ð¸Ð¼Ð°ÑĤ
Ð¸ÑıÐ» Ð³Ð¾
ÐµÐº Ðº
ĠÐĿ Ð°Ð¿
ĠÑĢÐ¾ Ð³Óı
Ð°Ð±Ð°Ð· ÑĥÑħÑĬ
ĠÐ±Ð°ÑħÑĬ Ð¸
ĠÐºÑĮÐ¾Ð» ÐµÐ²
ĠÐļÑĬ Ð²Ð°ÑĤÓı
ĠÐĲÐ± Ð¸Ð·Ðµ
ĠÑħÓĢ Ð°ÑĢ
ĠÑħÓıÐ°Ð´ÑĥÑĢ Ð»ÑĬÐ¸ÑıÐ»ÑĬÑĥÐ»
ĠÑħÓıÑĥÐ¶ Ð¶
ĠÐ·Ð°ÑħÓıÐ¼ Ð°Ð»ÑĬÐ¸
ÑĥÐ½Ð³Ð¾ ÑıÐ²
ÑıÐ±ÑĢ Ð°Ð»ÑĬÑĥÐ»
Ð¸Ð»ÐµÐ» Ð´Ðµ
ĠÑĨÓıÑĥÐ½ÑĥÐ» ÐµÐ·ÑĥÐ»
ĠÐ¿ÐµÐ´Ð°Ð³Ð¾ Ð³Ð¸Ðº
ĠÑĤÓıÑĥÐ³ÑĮ Ð´ÑĥÐ»
ĠÐ°ÑįÑĢÐ¾Ð¿ Ð¾ÑĢÑĤ
Ð¸Ð· Ð¾ÑĢ
ĠÐ½ Ð°Ð³Ð°Ð³ÑĮ
Ñı ÑĪÐ°Ð²
ĠÑĤÓı Ð¸Ð½
ĠÐļ Ð²Ð°Ð½
ĠÑı ÑĩÓıÑĥÐ½
ĠÑĢÐ°Ð¹ Ð±
ÐĶ Ð¸Ðµ
ĠÐ±Ð°ÑĤ Ð¸ÑĩÓıÐ¾
ĠÑħÓıÐ°Ð´ ÑĥÑĢÐ°Ð²
Ð¢ Ð°Ð´Ð±Ð¸ÑĢ
ĠÑģÐ°Ñħ Ð°Ð²Ð°ÑĤ
ĠÐ±Ð¸ÑĩÑĩ Ð°Ð½Ð°
ĠÐ³ÓıÐ¾Ð»Ð¸Ð» Ð°Ð·
ÐŃ Ð±ÐµÐ»
ĠÐºÑĥÑĨ Ð°Ð»ÑĬ
ĠÑħÐ°Ð±Ð°ÑĢ Ð³Ð¸
ĠÑģÑĥÐ½ Ð´ÑĥÐ»
ĠÐºÐ¾Ð¼Ð¸ÑģÑģ Ð¸ÑıÐ»ÑĬ
Ð°ÑĢÐ°Ð»ÑĬ ÑĥÐ±
ĠÑĤÐµÑĢÑĢÐ¾ÑĢÐ¸Ð·Ð¼ Ð°Ð»Ð´Ðµ
ĠÐ¢ÓıÐ¸ÑģÑģ Ð¸
Ð°Ð¹ ÑĢ
Ð¾ÑĢ Ð¾Ð½
ĠÐºÑĬ Ð°Ð³ÓĢÐ¸Ð´
ĠÑĩ Ð¸Ñı
ÑĥÑģ ÐµÐ¹Ð½
ĠÑĩÓı Ð°ÑĢÐ°Ð²
ĠÐºÓıÑĥÐ´ Ð¸ÑıÐ¹
ĠÑĢÐ°Ð³ÑĮ Ð°ÑĢÐ°Ð»
ĠÐļÓı Ð¸
ĠÐĵÓıÑĥÐ¼Ð°ÑĢ Ð¸ÑĨÐ°
ĠÐ¥ÑĬ Ð°Ð·Ð°Ð½
ĠÐ¼Ð¸Ð½ Ð°ÑıÐ»ÑĬ
ĠÑĩÓıÑĥÐ½ ÑĤ
ĠÐ±ÐµÑĩ ÐµÐ»ÑĬ
ĠÑĢÐµÐ»ÑĬ Ð»ÑĬÐ°ÑĢÐ°Ð±
ĠÐ²Ð¸Ð´Ðµ Ð¾
ÑĮÑİ ÑĤÐµÑĢ
ĠÐ¾Ð±Ñī ÐµÑģÑĤÐ²Ð¾
Ġ Ð°Ð½Ð¸
Ð´ Ð¸Ð»
ĠÐ¼ ÑĥÑĤ
Ð¾Ð½ Ð°Ð»Ð´Ð°
Ð¸Ñħ Ð°Ð½
Ð°Ð³ÑĬ ÑĥÑĢ
ĠÐľÑĥÑħÓıÐ°Ð¼Ð°Ð´ Ð¾Ð²Ð°ÑģÑĥÐ»
ĠÑĢÐ¾ ÑĨÓı
ĠÑĢÑĥÐ³ÐµÐ» Ð°Ð»Ð¸
ĠÑħÐ°Ð»ÐºÑĬ Ð¸ÑıÐ»
ÐµÑĩÓı ÐµÐ²
ĠÐºÐ»Ð°ÑģÑģ Ð°Ð»Ð´Ð°
ĠÐ²Ð°ÑĤ Ð°Ð½Ð¸
ĠÐ¸Ð´Ð°ÑĢÐ°Ð± Ð°Ð·Ð´Ð°
ĠÐ°Ð· Ð°
ĠÑĢÐ°ÑĨÓıÑĨÓı Ð°Ð»ÑĬÐ¸
ĠÑģÐ°Ð» Ð°ÑĦ
ĠÐº Ð¸Ð²
ĠÑĤ ÐµÐ¹
ĠÑģ Ð°Ð»Ð°ÑĤ
ĠÐ¿ ÑĥÐ½ÐºÑĤ
ĠÑħÓı Ð°ÑıÐ»ÑĬÑĥÐ»
Ð³ÑĮ ÑĥÐ½Ð°ÑĢ
ÐµÐ² Ð¸Ðº
ĠÑĩ Ð°Ð½ÑĨÓı
ĠÐĶ Ð°ÑĢÐ±
ĠÐĵÓı Ð¸ÑģÐ°Ð»
ĠÐ²ÑĥÐºÓı Ð°Ð³Ð¾
ĠÑħÑĬÐ² Ð°Ð´Ð°ÑĢ
ĠÐ°Ñħ Ð¸ÐºÑĮ
ĠÑĤÓıÑĥÐ± Ð°Ð»ÐµÐ±
ĠÐ¼Ð°Ð³ÓıÐ°ÑĢÑĥÐ» Ð°Ð·
ĠÑģÐ°Ñħ Ð»ÑĬ
ĠÐľÑĥÑħÓıÐ°Ð¼Ð°Ð´Ð¾Ð² Ð°Ð»ÑĬ
ĠÐĲÑħ ÓĢ
ÐĵÑĮÐµÐ» Ð´Ð°ÑģÐ°
ĠÐĲÑģ ÑħÓıÐ°Ð±
ĠÑĤÐ°Ð¼ Ð°Ñħ
ĠÑĢÐµÐ»ÑĬ Ð»ÑĬÐ°ÑĢÐ°Ð»
ĠÑīÐ²ÐµÐ·Ð°Ð± Ð¸Ð·Ðµ
ĠÐ³ÑĢÐ°Ð¼Ð¾ÑĤ Ð°Ð±Ð°Ð·Ð´Ð°Ð»ÑĬÑĥÐ½
ĠÐ¿Ð°Ñģ Ð¸ÑħÓı
ÐľÐ°ÑħÓı Ð°ÑĩÑħÑĬÐ°Ð»
ĠÑĪÑĤ Ð°Ð±
Ð±Ð°ÑĤÓĢ Ð¸ÑıÐ»
ĠÑĪÐ¾ÑĦ ÐµÑĢ
Ð³ Ðµ
Ð± Ñĥ
ÑħÑĬ Ð°
ĠÐ»ÑĬÐ¸Ð¼ Ð³Ð¸
ĠÐ´Ð¸ÑĢ Ð³Ð¸
Ð¸Ð·Ð°ÑĢ ÑĥÐ»Ð°
ĠÐļÓı Ð²Ð°Ð½
ĠÑĤÐ°Ð´Ð±Ð¸ÑĢ Ð°Ð·Ð´Ð°
ĠÑħÓĢ ÑĥÐºÑĥÐ¼
ĠÐ±ÑĥÑĤÓı Ð°ÑıÐ»ÑĬÑĥÐ»
ĠÐ§Óı Ð¾ÑħÑĬ
ĠÑĤÑĥÑĢ Ð¸Ð·Ð¼Ð°Ð»ÑĬÑĥÐ»
ĠÑĢÐ°Ð´Ð¸Ð¾ ÑıÐ»ÑĬ
Ð°ÑĢÐ¸Ñī ÑħÐ°
ĠÑħÐ°ÑģÐ¸ÑıÑĤ Ð°Ð±
ĠÐ±Ð°ÑħÓıÐ°ÑĢÑĩ Ð¸ÑıÐ±
ĠÐ´ÐµÐºÐ°Ð± ÑĢ
ĠÑģÐ°Ð½Ð°Ð³Óı Ð°Ð»ÑĬÐ¸
ĠÐĲÐ»ÐµÐºÑģ Ð°Ð½Ð´ÑĢ
ĠÐĵÓıÐ°Ð±Ð´ÑĥÑģ Ð°Ð»Ð°Ð¼
ÑĢ Ð´
Ð¼ ÑĥÐ»
Ð°Ñģ Ñģ
ĠÐºÑĮ ÐµÑıÐ½
ĠÐºÑĮ Ð¸Ð±Ð¸Ð»
ĠÐ¡ Ð°Ð»Ð¸ÑħÓı
ĠÐ³ÓıÐ¾Ð» ÐµÐ»
ĠÐŁ Ð°Ð¹
ĠÑĢÐ°Ð³ÑĬ Ð¸Ð·Ðµ
ÑĦ Ð¾ÑĢÐ¼Ð°ÑĤ
ĠÐĵÑĮÐµÐ» Ð´Ð°Ð»ÑĬÑĥÐ½
ĠÐļÑĬ Ð²Ð°ÑĢ
ĠÐºÐ¸Ð½ Ð°Ð»ÑĬÑĥÐ»Ð³Ð¾
ĠÑĤÓıÑĥÐ± Ð°ÑıÐ»Ð´Ð°
ĠÑĢÑĥÐºÓıÐ¸Ð½ Ð°Ð»ÑĬÑĥÐ»
ĠÐ¯ Ñģ
ĠÑĤÑĢ Ð°ÐºÑĤÐ¾ÑĢ
ĠÑĢÐ°Ð»Ð°Ð³ÑĮ Ð¸Ð·Ðµ
ĠÑĤÐ°Ð² Ð°ÐºÐº
ĠÐ°ÑĢÑħ Ð¸ÑĤ
ĠÐ¥ÑĬÐ² Ð°Ð´Ð°ÑĢÑĥÑħÑĬ
ÐĳÐ°ÑĢÐº ÑĥÐ»Ð°
Ñģ Ð¸Ñħ
Ð¼ Ð°Ð·
Ð¼ Ð°Ð³Óı
ĠÑħÓıÐ°Ð»ÑĤÓı Ð¸Ð·Ð°Ð±ÑĥÐ½
ĠÑĩÓı ÐµÐ¹
ĠÐĿ Ð°Ñģ
ĠÐºÑĥÐ¼ÐµÐº Ð°Ð»ÑĬÑĥÐ»
Ð°Ð½Ð´ Ð¸Ð»
Ð»ÑĬÐ¸ÑıÐ»ÑĬÑĥÐ» Ð°Ð±
ĠÑĩÐ¸ÑıÑģ Ð´Ðµ
ĠÐ¼Ð°Ð³ÓıÐ°ÑĢÑĥÐ» Ð°Ð²
ĠÑĢÑĥÐºÓıÐ¸Ð½ Ð°Ð»Ð´Ð°
ĠÑĢÐ°Ñĩ ÑĥÐ½ÐµÐ»
ĠÐ¸Ð½ÑģÐ°Ð½ Ð°ÑģÐµ
ĠÐºÐ²Ð°Ð½ Ð°Ð½
ĠÑĤÓıÐ°Ð³Óı ÐµÐ»
ĠÐ¼Ð°Ð¶Ð³Ð¸ÑĤ Ð°Ð»Ð´Ðµ
ĠÐĺÐ½ ÑģÐ°Ð½
ĠÐ±Ð¾ÑĨÓı ÑĥÐ»
ĠÑĩÓıÐµÐ·Ð°ÑĢ Ð¸Ð·Ðµ
ĠÐ³ÓıÐ°Ð½ ÐºÓı
ĠÐ±Ð°ÑģÑĢ Ð¸ÑıÐ±
ĠÐ¢Ð°ÑĢ Ð¸Ñħ
Ð» Ð°Ð±
ĠÐ´ Ð°Ð»
ĠÐºÑĬ ÑĥÑĢÐ±Ð°Ð½
ĠÑĨÓı Ð°Ð¼
ÑħÑĬ ÑĥÐ»ÑĥÑħÑĬ
ĠÑħÑĬ ÑĥÐ±
ĠÐ·Ð°Ð¼ Ð°
ĠÐĿ Ð°Ð³Ð°Ð³ÑĮ
ĠÐ³ÓıÐ°Ð³ Ð°ÑĢÐ°Ð²
ĠÐ¿Ð¸ÐºÑĢÑĥ Ð³Ð¸
Ġ4 00
ĠÐºÑĬÐ°Ð´Ð°ÑĢ Ð³Ð¸
ĠÐ±ÑĥÐºÓĢ Ð¸Ð½
ĠÐ´Ð°Ð³ÑĮÐ°Ð± Ð½Ð¸Ð³Ð¸
ĠÐ±Ð°ÐºÓĢ Ð°Ð»Ð´Ð°
ĠÐ³ÓıÐ°Ðº Ð°
ĠÑģÑĥÑĢÑģ Ð°ÑĤ
ÐĲÑģÑģÐ°Ð»Ð°Ð¼ Ñĥ
Ð» Ð¸Ð»
Ð¸Ñı Ð¼
ĠÑħ ÐµÑĢÐ°Ð»
ĠÐ¼ Ð¸Ðº
ĠÑĤÓı Ð°Ð»ÑĬÐ¸
ĠÑĩÓı Ð²Ð°ÑĢ
Ð°ÑģÑĥÐ» Ð³ÑĥÐ½
ĠÐºÑĬÐ¾ ÑĤÓĢ
ĠÐ³ÑĬ Ð°Ð»Ð°ÑĤÓıÐ°Ð»
Ð¾Ð¼ Ð°Ð½
ĠÐ½Ð¸Ð¶ Ð³Ð¸
ĠÐ¹ Ð¾Ñħ
ĠÐĲÐ» Ð¼Ð°ÑħÑĬ
ĠÐĹ Ð°ÑĢ
ÑĩÐ°Ð³Óı Ð°Ð·Ðµ
ÐĵÑĮÐµÐ´ Ð¸Ð½Ð°Ð»
ĠÑĢÑĥÑĩÑĩ Ð°Ð±Ð°Ð·
ĠÐ´Ð¸ÑĢÐµÐºÑĤÐ¾ÑĢ Ð»ÑĬÑĥÐ½
ĠÑĤÐ°Ð¼ Ð°ÑĪ
ĠÐ¥ÓıÐ°Ð¶Ð¸Ð¼ÑĥÑĢÐ°Ð´ Ð¸Ð»
ĠÑĤÓıÐ°Ð»ÑĬ Ð¸ÑıÐ»Ð´Ð°
ĠÐ£Ð½ Ð³Ð¾
ĠÑħÓıÐ°ÐºÐ¸Ð¼ Ð·Ð°Ð±Ð°Ð·
ĠÑĢÑĥÐºÓĢ Ð°ÑĢÐ°Ð»
ĠÐºÑĢ Ð¸Ð·
ĠÐ±Ð¸Ð±Ð»Ð¸Ð¾ÑĤÐµÐº Ð°ÑıÐ»ÑĬÑĥÐ»
ĠÐ¸Ð½Ð¶ Ð¸ÑĤ
ĠÐĲÐ·ÐµÑĢÐ± Ð°Ð¹
ĠÑĦÐ¸Ð·Ðº ÑĥÐ»ÑĮÑĤÑĥÑĢÐ°ÑıÐ»ÑĬÑĥÐ»
Ð» ÐµÐ³
Ð°Ðº Ð¸
ĠÐºÑĬ Ð¾Ð»Ð¾
Ð¾Ð² Ð³ÑĥÐ½
ĠÐĲ ÑĪ
ĠÑħÓıÐ°Ð»ÑĤÓı ÑĥÐ»Ð°
Ð¸Ðº ÑĢÑĥ
ĠÐĶ Ð°Ð³
ĠÐ´Ð°Ð½Ð´Ðµ Ð»ÑĬÑĥÐ½
ĠÐ³ÓıÑĥÑĨÓı Ð¸ÑıÐ»ÑĬ
ĠÑĢÐ°Ð· Ð¸Ð³Ð¾
ĠÐ±Ð°Ð¶Ð°ÑĢ Ð¸Ð³Ð¸
ÐĵÑĮÐµÐ± Ð³Ð¾
ĠÑģÐ°Ð½ Ð¸ÑĤ
Ð¾Ð»Ð¾Ð³ Ð¸ÑıÐ»
ĠÑĤÓıÐ°Ð±Ð¸Ð³Óı Ð°ÑĤÐ°Ð»ÑĬÑĥÐ»
ĠÐ³Ð°Ð· Ð°Ð»ÑĬÑĥÐ»
ĠÑĥÐ½ÐºÑĬ Ð°Ð±Ð¸Ð»ÐµÐ±
ĠÐ¥ÑĥÑĪ ÐµÑĤ
ĠÐ¼Ð¸Ð» Ð¸ÑĨ
ĠÑĨÐµÑĢÐµÑĢÐ°ÑħÑĬ Ð¸Ð½
ĠÐ¡ÐĴ Ðŀ
ĠÐºÐ°ÑĤ ÐµÐ³Ð¾ÑĢ
ĠÐ Ļ
ÑĢ Ð°ÐºÑĬ
ÑĢ Ð°ÑıÐ»ÑĬÑĥÐ»
ĠÐºÐº ÐµÐ·Ð°ÑĢ
Ð¸ÑģÑĤ ÑĢ
ĠÐĵÓı Ð°ÑĢÐ°Ð±
ÑĨÓı Ð°
ĠÑīÐ² ÐµÑıÐ»Ð´Ð°
Ð°Ð¿ ÑĥÑĢ
ĠÐ§ ÑĥÐ¿
ĠÐ±Ð°ÐºÓıÐ°Ð» Ð³Ð¸
ĠÐ´Ð°Ð³ÑĮ Ð°Ð»ÑĬ
ĠÐºÐ²ÐµÑĢ Ð³Ð¸
ĠÐ³ÓıÐ°Ð»Ð¸Ð¼ Ð·Ð°Ð±Ð°Ð·ÑĥÐ»
ĠÐ¼ÐµÐ´ ÑģÐµÑģÑĤ
ĠÐ±Ð¾Ð»ÑĮÐ½Ð¸ÑĨ Ð°ÑıÐ»Ð´Ðµ
ĠÑħÓıÐ°Ð´Ð¸Ñģ Ð°Ð»Ð´Ð°
ĠÑĢÑĥÐ³ÑĬ ÑĥÐ½
9 8
ĠÐ² Ð¸Ð¶
ĠÐĵ Ð¾ÑĢ
ĠÐ¼ Ð°Ð²Ð»
ĠÐ³ÑĮÐ°Ð± ÑĥÐ»ÐµÐ¹
ĠÐļ Ð°Ð¼
ĠÐĳ Ð°Ð»
ÑĥÐ´ Ð°Ð³Ð¾
ĠÐ³ÑĬ Ð°Ð½ÐºÑĬ
ĠÐ·Ð°Ð¼Ð°Ð½ Ð°ÑıÐ»ÑĬÑĥÐ»
ĠÐ°Ñģ ÐºÓĢ
ĠÐĺ ÑĢ
ĠÑĦ Ð¸Ð½Ð°Ð»
ĠÐ±Ð°Ð¹Ð±Ð¸ÑħÑĮ Ð°ÑĢÐ°Ð»Ð´Ð°ÑģÐ°
Ð¦ ÓıÐ°Ð»
ĠÐ¦Óı Ð°Ð´Ð°
ĠÐ¼ÑĥÑĢÐ°Ð´ Ð»ÑĬÑĥÐ½
ĠÐ³ÑĮÐ¸ÑĤÓı Ð¸Ð½Ð°Ð»
ĠÐ±Ð¾Ð¶ Ð¸
ĠÐ·Ð°Ð¼ÐµÑģÑĤÐ¸ÑĤÐµÐ»ÑĮ Ð»ÑĬÑĥÐ½
Ð°ÑĤÑĥÑĢ Ð°
ĠÐ¾Ð¿ÐµÑĢ Ð°ÑĨ
ĠÑħÓıÐ°Ð»ÑĤÓıÐ¸Ð·Ð°ÑĢ Ð¸Ð·Ðµ
ĠÐ³Ð¾ ÑħÓı
ĠÐ¼Ð°Ð¹Ð´ Ð°Ð½Ð°Ð»Ð´Ð°
ĠÐ¿ÑĢÐµÐ¼ ÑĮÐµÑĢ
Ð³Ð°Ð» ÑĤÐµÑĢ
Ðº Ð¸Ð±ÐµÐ³Ð¾
ĠÐ± Ð°Ð·Ð°Ð±
ĠÐº Ð°Ð´
Ð¸Ð· Ð¸Ð»ÑİÑĢÑĤ
ĠÐ»ÑĬ ÑĥÑĢÐ°Ð²
Ð°Ð² Ð³Ð¾
ĠÑĢÑĥ Ðº
Ð°ÑħÑĬ Ð°Ð½
ĠÐľ Ð°Ð´Ð¸Ð½
ĠÑĢÐµ ÑĨÓı
ÑĥÐ¼ Ð°ÑĢÐ¾Ð²
ĠÐļ ÐŁ
ÑĥÑĤÓı Ð°
ÐĲ ÑĢ
ÑĥÑĩ Ñĩ
ĠÑħÐ°Ð»ÐºÑĬ Ð°Ð»
ĠÑĪÐ°Ð³ÑĮ Ð°ÑĢÐ°Ð»
ĠÐ±Ð¸ÑĩÓıÑĩÓı ÑĥÐ»Ð°
ĠÑĢÐ¾ÐºÑĬ Ð¾ÑģÐ°
ĠÐ°ÑģÐ» Ñĥ
ĠÑĩÓıÐ² Ð°ÑĢÐ°Ð±
ĠÐ´Ð°Ð½Ð´ÑĩÓıÐ² Ð°Ð»Ð°
ĠÑĢÐ¾ÐºÑĮ ÑĥÐºÑĬ
ĠÐºÑĬÐ²Ð°ÑĢÐ¸Ð³Óı ÑĥÐ½Ð°
ĠÑħÑĮÐ²Ð°Ð´ ÑĥÐ»ÐµÐ±
ĠÑĢÐ¾ÑħÑĮ Ð¸Ð»
Ð¸ÑĦ Ð¸Ðº
ĠÐºÑĬÐµÑĢÐºÑĮ ÐµÐ¹
ĠÑħÑĬÐ²Ð°Ð´Ð°ÑĢÑĥÑħÑĬ Ð°Ð±Ð°Ð·ÑĥÐ»
ĠÐ³ÓıÐµÐ´Ðµ Ð³Óı
ĠÑĦÐ¸Ð»ÑĮ Ð¼
ÐłÐµÑģ Ð¿ÑĥÐ±Ð»Ð¸Ðº
Ðµ Ð»ÑĬÐ¸Ðµ
Ð¸Ð· Ð°ÑĨÐ¸ÑıÐ»ÑĬÑĥÐ»
ĠÐ½ Ð°Ð¿
ĠÐºÑĬ Ð°Ð½Ð°
ĠÑģÐ¾Ð½ Ð°Ð»Ð´Ð°ÑģÐ°Ð½
ĠÐĳ ÑĢ
Ðł Ð°ÐºÓıÐ°Ð»
ĠÑĢÐ°Ð³ÑĬ ÑĥÑħÑĬÐ°Ð½
ĠÐĹ Ð°Ð¼Ð°Ð½
ÑħÑĮ ÑĥÐ»
ĠÐ¿Ð¾Ð» Ðº
Ġ4 5
ĠÑĥÑĢ Ð³ÑĮ
ĠÑħÓıÐ¸Ð½ÐºÑĬ Ð¸Ð³ÑĮÐµÑĩÓıÐ¾Ð»ÑĬÐ¸
ÑħÑĬÐ² Ð°ÑıÐ»
Ð³ÑĮÐ°Ð± Ð¸ÑıÐ»ÑĬÑĥÐ»
ĠÐºÐºÐµÐ» Ð¸Ð½
ÐĶÐ°Ð½Ð´Ðµ Ð»ÑĬÐ¸
ĠÐ¡Ð¸ÑĢ Ð°Ð¶ÑĥÐ´Ð¸Ð½
ĠÐŁÑĥÑĤÐ¸Ð½ Ð¸Ð»
ĠÐºÐ¾ÑĩÓıÐ¾ ÑħÑĬ
ĠÐ¶Ð¸Ð¹ Ð³Ð¾
ĠÐĳÐ°ÑħÓıÐ°ÑĢ ÑĩÐ¸
ĠÐ¢ÓıÐ¾Ð»Ð³Ð¾ ÑĢÐ¾ÑģÑģÐ¸ÑıÐ»ÑĬÑĥÐ»
ĠÐ±Ð¸Ñħ ÑħÑĥÐ½
ĠÑĢÐµÐ² Ð¾Ð»Ñİ
ĠÐºÑĬ Ð²Ð°Ð»
Ð¸ÑıÐ» Ð´Ð°Ð³Ð¾
ĠÑħÑĬ Ð°Ð»Ð°
ĠÑħÑĬ Ð°ÑħÓıÐ°Ð±
ĠÐ¨ Ð°Ñħ
ĠÐĺ Ð½ÑĤÐµÑĢÐ½
ĠÑĨÓıÐ¸ÐºÓıÐºÓı Ð°Ð½Ð°
ĠÐ³ÑĮÐµÐ»ÑĬÑĥÐ» ÑĬ
ĠÐ±Ð°ÐºÑĬ Ð°Ð½
ĠÐºÑĬÑĥÐ² Ð°ÑĤÐ°Ð»
ĠÑĢÑĥÑĩÑĩ Ð°Ð±Ð°Ð·Ðµ
ĠÑĤÓıÐ¾ÐºÓı Ð°Ð²
ĠÑĤÓıÐ°Ð±Ð¸Ð³Óı Ð¸ÑıÐ±
ĠÑĢÐ°Ð³ÓĢ Ð°Ð»Ð´Ð°
ĠÑħÓıÐ°Ð»ÑĥÑĨ Ð°ÑĢÐ°Ð±
ĠÐ¸Ð½Ð² ÐµÑģÑĤ
Ð» ÐµÐ´
Ð°Ð± Ð°ÑģÐ°ÑĢ
Ñĩ ÐºÓı
ĠÐ¥ Ð°ÑĩÐ°Ð»
ĠÐł Ð°Ð¼
ĠÐĳ Ð°Ðº
ĠÐĳ Ð¸ÑĤÓıÐ°ÑĢÐ°Ð±
ĠÐ³ÑĬ Ð¾Ñģ
ĠÐ³ÑĮÐµÐ» Ð³Ð¾
ÑĨÐ¾ Ð³Ð¸
ĠÑĢÐ°ÑĩÓı Ð¸Ð½
ĠÑĢÐ°ÐºÓı Ð³Ð¸
ĠÐ°Ñħ ÓĢ
ĠÑĢÐµÑħ Ð¸Ð·Ðµ
ĠÑĢÑĥÐºÑĬ Ð³Ð¸
ĠÑģÐ¿Ð¾ÑĢÑĤ Ð·Ð°Ð»
ĠÐ¼Ð°ÑħÑī Ð°Ð»Ð¸Ð´Ð°
ĠÐºÑĬÐ°ÑĩÓı Ð°ÑĢÐ°Ð±
ĠÐ¿Ð¾Ð»Ð¸ÑĤ Ð¸ÐºÐ°
ĠÐºÐºÐµÐ» Ð°ÑĢÐ¾
ĠÑħÓıÐ°Ð¹ ÑĢÐ°Ð½
ĠÐ³ÑĮÑĥÐºÑĬ Ð°ÑĢÐ°Ð±
ĠÑģÐ¿ÐµÑĨÐ¸Ð°Ð»Ð¸ÑģÑĤ Ð°Ð»
ĠÑĢÐ°ÑħÑĬÐ¸Ð½Ð°ÑĢ Ð¸Ð·Ðµ
ĠÑĪÐ°ÑĢÑĤÓı Ð°Ð·Ð´Ð°
ĠÐ¾Ð±ÑĬÐµÐºÑĤ Ð°Ð»
ĠÑĩÐ°ÑĩÐ°Ð½ Ð°Ð·ÑĥÐ»
ĠÐ¢ÓıÐ°Ð½ÑĥÑģ Ð¸
ĠÐĴÐµÑĩÐµÐ´ Ð¾Ð²Ð°Ñģ
ÑĥÐ¼Ð³ÑĮÑĥÑĢ Ð¸ÑıÑĤÐ°Ð»ÑĬÑĥÐ»
Ð°Ðº Ð°Ð½
ĠÑĤÓı ÑĥÑĢÐ°Ð±
Ð¸ÑĨ Ð¸
Ð°ÑħÓı Ð¼Ð°Ð´
ÐµÐ´ ÐµÑĢÐ°Ð»
ĠÐ¡ Ð²ÐµÑĢ
ĠÐľÑĥÑħÓıÐ°Ð¼Ð°Ð´ Ð³Ð¸
ĠÑĢÐµÑģ Ð°Ð»Ð´Ð°
ĠÐ°Ñģ Ð°ÑĢÐ°Ð·ÑĥÐ»
ĠÐ°Ð±ÑĥÐ½ Ð¸Ð³Ð¸
Ð¸ÑıÐ»Ð´Ðµ Ð³Ð¸
ĠÑĥÑĩ Ð¸Ð»Ð¸Ñī
ĠÐ³ÑĮÐ°Ð² ÑĥÑĢÐ°Ð»Ð´Ð°ÑģÐ°
ĠÐ³ÑĮÐ°Ð» Ðµ
ĠÐºÑĬÐ¾ÑĤÓı Ð¸ÑĩÓıÐ¾Ð³Ð¾
ĠÑĥÐ» Ð±ÑĥÐ»
ÐºÑĬÐ¾ ÑĤÓıÑĥÐ½
ĠÐĵÓıÐµÐ¼ÐµÑĢ Ð°Ð±
ĠÐ³ÓıÐ°ÑħÑĮÐ°Ð»ÑĩÐ°Ð³Óı Ð°Ð·
ĠÐĳÐ°ÑĢÐº ÑĥÐ»Ð°
ĠÐ±ÐµÑĤÓıÐµÑĢÐ³ÑĮÐ°Ð½ Ð°Ð±
ĠÑģÑĥÐ½Ð´ ÑĥÐ»ÑĬÐ³Ð¾
Ð°Ð±ÑĢ Ð°Ð³ÓıÐ¸Ð»
ĠÐ³ÐµÐºÑĤ Ð°ÑĢ
ÑģÐ¾Ð¼ Ð¾Ð»
ĠÐºÑĢÐ¸Ð· Ð¸Ñģ
Ð°ÑĢ Ð°Ð½
Ð»ÑĬ Ð°Ð±Ð°Ð·ÑĥÐ»
Ñģ Ð¸Ð´
Ð°Ð· Ð´Ð°ÑģÐ°Ð³Ð¸
ĠÐ» ÐµÐ·
ĠÐ¿ Ð¾ÑģÑĤ
ĠÐ³ÓıÐ°Ð´ Ð°Ð²
ÑıÐ» Ð´Ð°Ð³Ð¸
ĠÐ±Ð¾Ñģ Ð¸ÑĩÓıÐ¾Ð³Ð¾
ĠÑħÓıÐ°Ð»ÑĤÓıÑĥÑħÑĬ Ð°Ð±Ð¸Ð³Ð¸
ĠÐºÐ²ÐµÑĢ Ð°Ð»ÑĬ
ĠÑĤÐ°Ð´Ð±Ð¸ÑĢ Ð°Ð»ÑĬÑĥÐ»
Ð°Ð¼Ð°Ð» Ð¸Ð³Ð¾
ĠÑĢÐµÑħÑģ Ð°Ð½Ð°
ĠÐ±Ð°ÑħÓıÐ°ÑĢ Ð·Ð°Ð»
ÑĨÐ¾ÑıÐ· Ðµ
ĠÐ¨Ð°Ð¼ Ñģ
Ð²Ðµ ÑĪ
ĠÐºÑĬÐ°Ð½ÑĥÐ½ Ð°Ð»Ð´Ð°
ĠÐ¹Ð¸Ð³ Ð¸Ð½
ĠÐ´Ð°Ð½Ð´ÐµÑĩÓı ÐµÐ¹
ĠÐĳÐ¾ÐºÑĮ ÑĥÐ½
ĠÐļÐ°ÑĢ Ð¸Ð¼
ĠÑĩÐ°Ð± ÑħÑĬ
Ð¼ Ð¸ÑıÐ±
ĠÐĵÑĮ ÐµÑĩÓıÐ¾
Ð³Óı Ð°Ð´Ð¸Ð½
ĠÑĩ Ð°ÑģÑĤ
Ð´Ð°Ð» Ð³Ð¸
ĠÑĨÓıÐ°Ð» Ð°ÑĢÐ°Ð»
ĠÑĢÐ°Ð³Óı Ð°
Ñİ ÑģÑģ
ĠÐºÐ¸Ð½ ÑħÐ°
ĠÐ½Ð¸Ð»ÑĬÐµ ÑħÑĬÐµ
ĠÑıÑģ Ð°Ð·ÑĥÐ»
ĠÑįÐ±ÐµÐ» Ð³Ð¸
ĠÐļÓı ÑĥÐ´
ĠÑĢÐ¾ÐºÑĮ ÑĥÐ»
ÐµÑĤÐµÑĢ Ð±ÑĥÑĢÐ³
Ð¨ ÐºÐ¾Ð»
ĠÐ±Ð°Ð³ÑĮ Ð°Ð´ÑĥÑĢ
ÐļÓı Ð¸Ð°Ð±Ð¸Ð»ÐµÐ±
ĠÐĲÑħÐ¸ÑĢ Ð°Ð»Ð´Ð°
ĠÑĨÐµÐ±ÐµÑĤÓıÐµÐ·Ð°Ð± Ð¸ÑıÐ»ÑĬÐµ
ĠÐļÐ¾Ð½ ÑģÑĤÐ¸ÑĤÑĥÑĨ
ĠÐĹÐ°Ð¹Ð½ Ð°Ð±
ĠÑĨÐµÑĢÐµÑħÑĬ Ð°Ð±Ð¸
ĠÐľÐµÐ»Ð¸Ðº Ð¾Ð²Ð°Ñģ
ĠÐºÑĬÐ¾ÑĤÓıÐ½ Ð¾Ð±
ĠÐĳÐ°ÐºÑĮÐ°Ð³ÑĮÐµÑĩÓı Ð¸
Ðº Ð°Ð½Ð°Ð»
ĠÐ¼ Ð°Ð»ÑĬÑĥÐ»Ð°
Ð¾Ñģ ÐµÐ½
Ð¾Ð² ÑħÐ¾Ð·
ĠÐľ Ð°ÐºÑĬ
Ð¸Ð¼ ÑĥÑĢÐ°Ð´
ĠÑĢÐµ Ð¶
ĠÐ°Ð± Ð¸Ð»ÐµÐ»
ĠÐ¡ Ð¸Ð»
ĠÑĢÑĥÐ³ ÐµÐ»ÑĬÑĥÐ»
ĠÐĹ Ð°ÑĥÑĢ
ĠÐļÓı ÑĥÐ´Ð¸ÑıÐ²
ĠÐŃ Ð¼
ĠÑĤÓıÐ°Ð¼ ÑĥÐ»ÐµÐ±
ĠÑĤÓıÐ°Ð¼ ÑĥÐ»Ð°
ĠÑĢÐ°ÑĤ ÑĥÐ»ÐµÐ»
ĠÐ´Ð°Ð½Ð´ÑĩÓıÐ² Ð°ÑıÐ»Ð´Ð°
ĠÑĨÐµÐ± ÐµÐ³Ð¸
ĠÐ½Ð¾Ð¼ Ð¸Ð½
Ð°Ð½Ñģ ÑĥÑĢ
ĠÐ¿ÑĢÐ¾ÐµÐºÑĤ Ð°Ð»Ð´Ð°
ĠÑħÓıÐ°ÐºÐ¸Ð¼ Ð·Ð°Ð±Ð¸
ĠÐ³ÓıÐ°Ð½ Ð°ÑģÐµÐ±
9 0
Ð° Ð°Ð½
ĠÐ± Ð¸Ð»ÑĬ
ĠÐ± ÐµÑģÑģ
ĠÑĤ Ð°Ð½Ð¸
Ð¸Ð» Ð°ÑĢÐ¸Ð½
ĠÐ³ÑĮÐ°Ð± Ð¸Ð³Ð¸
ĠÑĩ Ð¸ÑĢÐ°ÑħÑĬ
Ð¸ÑıÐ»ÑĬÑĥÐ» Ð³ÑĥÐ½
Ð°ÐºÑĬ Ð¸
ĠÐ²ÑĥÐºÓı Ð°ÑĢÐ°Ð±
ÐĶ Ð°Ð³
ĠÐ³ÓıÑĥÑĨÓı Ð°Ð±Ð°Ð·Ð´Ð°
ĠÐĲÐ» Ð¶Ð°Ð½
ĠÐĹ Ð¸ÑıÐ²
ĠÐ°Ð½ Ñģ
Ðĳ Ð°Ð³ÓıÐ°ÑĢÐ°Ð±
ĠÑĢÐ°ÐºÑĮ Ð³Ð¸
ÑĥÐ³ ÐµÐ³Ð¸
ĠÑĢÐ°Ð· Ð¸Ð»ÑĬÑĥÐ½
ĠÐľÐ°ÑħÓıÐ°ÑĩÑħÑĬÐ°Ð» Ð°ÑıÐ»Ð´Ð°ÑģÐ°
ĠÐ³ÓıÐ°Ð³Ð°ÑĢ Ð»ÑĬÐ¸ÑıÐ»Ð´Ð°
ĠÐľÑĥÑħÓı Ð°Ð¼
ĠÐ±ÐµÑĩ ÐµÐ´Ð°Ð»
ĠÐ±ÑĥÑģÑģ Ð¸Ð½Ð°Ð±ÑĥÐ½
ĠÑĩÐµÐ¼Ð¿Ð¸Ð¾Ð½ Ð°ÑĤ
ĠÑħÓıÐ°ÐºÑĬÐ¸ÐºÑĬ Ð°ÑĤÐ°Ð»Ð´Ð°Ð³Ð¸
ĠÑīÑĥ Ð°Ð±Ð¸Ð»ÐµÐ±
Ġ X
Ð± Ð¸ÐºÑĬ
Ð² ÐµÐ´
ĠÐ´ Ð¸Ð´Ð°Ð³Ð¸
ÑĥÐ¼ ÑĥÐ·ÑĥÐ»
ĠÐ¥ ÑĥÑĤÓı
ĠÐĵÓı Ð¸ÑĨÓıÐ³Ð¾
ĠÐ³ÓıÐµÐ¼ÐµÑĢ Ð¸Ñģ
ĠÑĪÐºÐ¾Ð» Ð»ÑĬÐ¸Ð¼Ð°Ð»
ĠÐ³ÓıÐ°ÑħÑĮÐ°Ð» Ð»ÑĬÐ°ÑĢÐ°Ð±
Ð°ÑĢÑĥÐ» ÐµÐ²
Ġ19 20
ĠÐºÑĬÐ¾ÑıÐ»ÑĬ Ð³Ð¸
ĠÐ²Ð°Ðº Ðº
ĠÐ±Ð¸Ð³ÑĮ Ð°
ĠÐ³ÑĥÐ³ Ð°ÑĢÑĥÑħÑĬÐ°Ð½
ÐļÓı Ð°Ð»ÑĬÐ°Ð·Ðµ
ĠÐ´Ð°Ð³ÑĬÐ¸ÑģÑĤÐ°Ð½ Ð¸ÑıÐ·
ĠÐ³ÓıÐµÐ»Ð¼ Ð¸ÑıÐ»
ĠÑĨÓıÐ°ÑĢÐ°Ð» Ð³Ð¸
ĠÐ±Ð°Ð¶Ð°ÑĢÑĥÐ» Ð°ÑĢÐ¾
Ġ202 3
ĠÐ±Ð°ÑĢ Ð°ÑħÑī
ĠÐ²Ð°ÑĤÓıÐ°Ð»ÑĬ Ð°Ð½Ð°
Ð´ Ð°Ð½
Ð² Ð¾Ð´
ÑĤ Ð¸Ð±
ĠÑħ Ð¸Ð¼
Ð°Ð¼ Ð°ÑĤ
ĠÑģ Ð°ÐºÑĬÐ°ÑĤ
ĠÐºÑĬ Ð°Ð»
Ð¾Ñģ Ð¾ÑĦ
Ð³Óı ÑĥÑĨÓı
ĠÐĶ ÐµÐ½
ĠÐ»ÑĬÐ¸ÐºÓı Ð°Ð¹
ĠÐ´Ð°Ð½Ð´Ðµ Ð»ÑĬÐ¸ÑıÐ»ÑĬÑĥÐ»
ĠÐ³ÑĮÐ°Ð±ÑĥÐ½ Ð¸Ð³Ð¸
ĠÐ³ÓıÐ°ÑĢ Ð·Ð°Ð»
ÑĥÐº Ð¼Ñĥ
ĠÐ´Ð°Ð³ÑĮ Ð»ÑĬ
ÐºÑĬÐ¾ ÑıÐ»ÑĬ
ĠÐ¤ ÑĢÐ°Ð½
ĠÐ±Ð¾ÑĢÑħ Ð°Ð½Ð°
ĠÐºÑĬÑĥÐ² Ð°ÑĤÐ³Ð¸
ĠÐ½ÑĥÐ¶ÐµÑĢ Ð³Ð¾
ĠÐ±Ð¾ÑĢ ÑħÑĥÐ½
ĠÐºÐ°Ð½ ÑĤÓı
ĠÐ¢ÓıÐ°Ð´ Ð³ÑĮÐ°ÐºÐ²Ð°ÑĢÐ¸
ĠÐ¡Ð°Ð³Óı Ð°Ð´
ĠÑħÓıÐ°Ð»ÑħÑĮ Ð¸
ĠÐ±ÑĥÑħ Ð³Ð°Ð»ÑĤÐµÑĢ
ĠÐ¼ÑĥÑĢ Ð¸Ð´
ĠÐ±Ð°ÑĢÐ°Ðº Ð°ÑĤÐ°Ð±
ĠÑħ Ð¾Ð»
Ð°Ñĩ Ð°Ð³ÑĬ
ĠÑĢÐ°Ð¹Ð¾Ð½ ÑĨÐ¾ÑıÐ»
ĠÐºÐ² Ð°Ñĩ
ĠÑĢÐ°Ð³ÑĬ Ð´Ð°ÑģÐ°
Ð¸ÑıÑģ Ð´Ð°
ĠÑĢÐ°Ð³Óı Ð°ÑĢÐ°Ð±
Ðĳ ÑıÐ»ÑĬÑĥÐ»
ĠÐºÐºÐ¾Ð»ÐµÐ± Ð°Ð»Ð¸
Ð¦ Ð¸Ð½Ð³Ð¸
ĠÐ¼ÑĥÑģÑĤÐ°ÑħÓıÐ¸ÐºÑĬ Ð°Ð¹
Ð¸Ð½ÑĩÓı ÐµÐ±
ĠÐ¥ÓıÐ°Ð¶Ð¸ÐµÐ² Ð°Ñģ
ĠÐ¼Ð¾ÑĨ ÓĢ
ĠÐ¥Ð¸Ð· ÑĢÐ¸
ĠÑģÐµÐºÑĢÐµÑĤÐ°ÑĢÑĮ Ð»ÑĬÑĥÐ½
ĠÐ±ÑĢÐ¸Ð³ Ð°Ð´
ĠÐ³Ð¾Ð´ÐµÐºÓı Ð°Ð½
ĠÑħÓı Ð°Ð½ÑĩÓı
ĠÐĲ Ð³
ĠÐł Ð°Ð´Ð°Ð»
ĠÑı Ð·
Ð¸Ð·Ð°Ð± Ð¸ÑıÐ»ÑĬÑĥÐ»
ĠÐ¸ÑĪ Ð°Ð»ÑĬÑĥÐ»
ĠÑĢÐ¾ÑģÑĥÐ»ÑĬ Ð³Ð¸
ĠÐĲÐ¼ Ð¸ÑĢÐ¾Ð²
ĠÐłÐ¾ÑģÑģ Ð¸ÑıÐ»ÑĬ
ĠÐ±ÑĥÐºÓıÐ°ÑĢÐ°Ð± Ð°Ð»Ð¸
ĠÑĥÐ½ÑĤ Ð°ÑĢÐ°Ð·ÑĥÐ»
Ð°ÑĢÐµÐ± Ð»ÑĬÐ¸
ĠÐ¤ ÐµÐ´ÐµÑĢÐ°ÑĨÐ¸ÑıÐ»ÑĬÑĥÐ»
Ð£ ÐĽ
ĠÐ°Ð» Ð¶Ð°Ð½
ĠÑĩÓıÐµÐ·Ð°Ð± Ð¸ÑıÐ»ÑĬÑĥÐ»
ĠÑīÐ²Ð°ÑĢÐ°Ð± Ð³Ð¾
ĠÐºÐ¾Ð¼Ð¿ ÑĮÑİÑĤÐµÑĢ
ĠÐºÑĮÐ²Ð°ÑĢ Ð°ÑĢÐ°Ð±
ĠÐ±Ð°Ð³Óı Ð°ÑĢ
ĠÐĺÐ½Ñħ Ð¾ÐºÑĬ
ĠÐĳÑĥÑĢÑĤÑĥÐ½ Ð°Ð¹
ĠÐ¼Ð°ÑĢÑĪ ÑĢÑĥÑĤ
Ðµ Ð´ÐµÐ½
Ðº Ð°Ð»
ĠÐ½ ÑĥÑĢ
ĠÐ½ Ð°Ðº
ĠÐ³ÑĮÐ°Ð± Ð¸ÑĩÓıÐµÐ±
ĠÐ· Ð¾Ð´
ĠÑĢÐ¾Ñģ Ð°ÑģÐµ
ĠÐ¡ Ð¸Ð´
ĠÐ¢ ÐµÑĢ
Ð³ÓıÐ°Ð½ Ð°Ð±
ĠÐ°ÑħÓı Ð°ÑĢÐ°Ð»
Ð¥ Ð¸ÑĢ
ĠÐ´Ð°Ð³ÑĮ Ð°Ð²
ĠÐĵÑĮÐµÐ½ Ð¸ÑģÐ°Ð½
ĠÐ±Ð¸ÑĤÓı ÐºÐº
Ġ15 0
Ð°Ð·ÑĥÑħÑĬ Ð°
ĠÑħÐ²ÐµÐ·Ð°Ð± ÑĥÐ»ÐµÐ±
ĠÐ³ÓıÐ¾Ð»Ð¾ÑħÑĬÐ°Ð½ Ð°Ð²
ĠÐºÑĮÐµÐ¹ Ð³Ð¸
ĠÑĥÑĩÐ°ÑģÑĤ ÐºÐ¾Ð²
ĠÐ³ÑĮÑĥÐºÑĬ ÑĥÐ½
ĠÑĨÓıÐ¾ÑĢ Ð¾ÑĢÐ°Ð±
ĠÑĢÐ°Ð¹ÑĨ ÐµÐ½ÑĤÑĢÐ°Ð»Ð´Ð°
ÐµÐ³ÓĢ ÐµÑĢ
Ð½ Ð°Ð´
ĠÑĤ Ð°Ð»
ĠÐľ Ð°Ð½ÑģÑĥÑĢ
ĠÑĨÓı ÑĨÓı
ĠÐļ Ð¸ÑĢ
ĠÐĵÓı Ð°Ð³Ð°ÑĢÐ°Ð±
ĠÐ±Ðµ ÑĤ
ĠÐ¢ Ð°Ð¶ÑĥÐ´Ð¸Ð½
ĠÐ³ÓıÐ°ÑħÑĮÐ°Ð» Ð»ÑĬÑĥÐ½
ĠÐ¼Ñĥ Ð·Ðµ
Ð¸ÑĪ Ð°ÑĤ
Ð¸ÑĩÑĩ Ð°Ð½ÑĤÐµ
ĠÑĤÓıÑĥÐ± Ð°Ð»Ð°
ĠÐĵÑĮÐµÐ½ Ð¸ÑģÐ°
ÑħÓıÐ°Ð¶ Ð¸ÑıÐ²
ĠÑĤÓıÐ¾ÐºÓı Ð»ÑĬÐ¸
ĠÐ¾Ð¿ÐµÑĢ Ð°ÑĨÐ¸ÑıÐ»ÑĬÑĥÐ»
ĠÐ£Ð½ ÐºÑĬ
ĠÐ°ÑĢÐ¼ Ð¸ÑıÐ»Ð´Ð°
ĠÐ¡Ð¸ÑĢ Ð¸ÑıÐ»Ð´Ðµ
ĠÐĲÐ´ Ð¼Ð¸Ð½Ð¸ÑģÑĤÑĢÐ°ÑĤÐ¸Ð²Ð¸ÑıÐ±
ĠÐ¿ÑĢÐ¸Ð· ÐµÑĢ
ĠÐ±ÑĥÑĤÓĢ Ð°
ĠÐĴÐ°ÑĢ Ð¸Ñģ
Ð£Ð· ÑĥÑħÑĬÐ´Ð°
ĠÐ¥ÑĬÐ²Ð°Ð´Ð°ÑĢÑĥÑħÑĬ Ð°Ð±Ð°Ð·ÑĥÐ»
Ð¾ Ð³ÑĬ
ĠÐ± Ð°ÑıÐ»ÑĬÑĥÐ»
ĠÐ³Óı Ð°Ð¶
ĠÑĤ Ð¾Ð»ÐµÐ»
Ð¾Ð½ Ñģ
Ð¾Ð½ Ð¾ÑħÑĬ
ĠÐ½ Ð°ÑĢÑĤ
ĠÐ¶ Ð°Ð»Ð³Ð¸
ĠÐºÓı ÑĥÑĤÓı
ĠÐ·Ð°Ð¼ Ð°Ð½Ð°
ĠÐŁ ÐµÐ½Ñģ
ĠÐ½Ð°ÑħÑĬ ÑĩÓıÐ²
ĠÐ³ÓıÑĥÑĨÓı Ð¸ÑıÐ»ÑĬÐµ
ĠÐ°Ð½ Ð°Ð»
ĠÑĨÓıÐ¸ÐºÓıÐºÓı Ð°ÑĢÐ°Ð²
ĠÐ´Ð°Ð³ÑĮ Ð»ÑĬÑĥÐ½
Ð»ÑĬÐ¸ÑıÐ»ÑĬÑĥÐ» Ð³Ð¸
ĠÐ¥ÓıÐ°Ð¶ Ð¸Ð»
ĠÐ¼ÑĥÑħÑĬ Ð°Ð·ÑĥÐ»
ĠÑĢÐ¸ÐºÓıÐºÓı ÑĥÐ½ÐµÐ»
ĠÐºÓıÐ°Ð»ÑĬ Ð°Ð½
ĠÐ±ÑĥÐºÓıÐ¸Ð½Ðµ Ð³Ð¸
ĠÑĢÐµÑģÐ¿ÑĥÐ±Ð»Ð¸ÐºÐ°ÑıÐ»ÑĬÑĥÐ» Ð°Ð±
ĠÐ°Ð´Ð¼Ð¸Ð½Ð¸ÑģÑĤÑĢÐ°ÑĨ Ð¸ÑıÐ±Ð°Ð·ÑĥÐ»
ĠÐºÑĬÐ¸Ð¼Ð°ÑĤ Ð°Ð±
ĠÐ¼Ð°ÑħÑī ÐµÐ»Ð³Ð¸
ĠÑĨÓıÐµÑħ Ð¾Ð½
Ġ199 9
ÑĩÐ¸ÑıÑģ Ð´Ð°
Ð±Ð°ÐºÐº ÑĥÐ»
Ð¿Ð¾Ð» ÑĩÐµÐ½
ĠÑģÑĥÑĢÑģ Ð°ÑĤÐ°Ð»
ĠÐ±Ð°ÐºÑĬÐ±Ð°ÐºÐº ÑĥÐ´ÐµÑħÑĥÐ½
ĠÑĢÐ¾ÑĢ Ð¶
ĠÐĳÐ°Ð± Ð°ÑİÑĢÑĤ
ĠÐ¸ÑģÑĤ Ð¾ÑĢ
2 9
Ð´ Ð°ÑĤ
Ð°Ð± Ð°Ð»ÑĬ
Ð°ÑĢ ÐµÐ¹
Ð°ÑĢ ÐµÐ´ÑĥÑħÑĬ
ĠÑĢ ÑĥÑħÑĮ
Ð»ÑĬ Ð°Ð±Ð³Ð¾
ĠÐ½ Ð°ÐºÓıÐºÓı
ÑĤÓı Ðµ
ĠÐľ Ð°Ðº
ÐµÐ² Ð¸Ñĩ
ĠÐ³ÑĬ Ð°Ð·
ĠÐ³ÑĮÐµÐ» Ð³ÑĥÐ½
ĠÐ³ÑĮÐµÐ· ÑĥÑħÑĬÐµ
ĠÑĥÐ½ Ð°ÑĢÐ¾
ĠÐ±Ð¸ÑĨ ÑĥÑħÑĬÐµ
ĠÑĨÓıÐ°Ð» ÑĥÐ»Ð°Ð³Ð¾
ÑĦ Ð¾ÑĢÐ¼
ÐĲ ÐŁ
ĠÐºÑĮÐ¾Ð» Ð°ÑĢÐ¾
ĠÐĹ Ð°Ð´
ÑħÑĮ Ð¸ÑĤ
ĠÑħÑĥÑĤÓı ÑĥÐ»ÐµÐ±
ÑĩÐ¸ Ð»ÑĬÐ¸Ð³Ð¸
ĠÐŀ Ðŀ
ĠÑĥÑĩÐ¸ÑĤÐµÐ»ÑĮ Ð»ÑĬÑĥÐ½
ĠÐ±ÑĥÑģ ÑĥÑĢÐ¼Ð°Ð½
ĠÐ³ÓıÐ¾ÑĢ ÑĨÓı
ĠÐĲÑģ Ð°Ð´
ĠÐ¿ÑĢÐ¾ÑĦ Ð¸Ð»
ĠÐ¡Ð¸ÑĢ Ð¸ÑıÐ»Ð´Ð°
ĠÑĢÐ°Ð»ÑĬ Ð°Ð´
ĠÑĢÐ°Ð¹ÑĨ ÐµÐ½ÑĤÑĢ
ĠÐłÐ°Ð¸Ñģ Ð°ÑĤ
ĠÑĢÐ°Ð¹Ð± Ð¾Ð»ÑĮÐ½Ð¸ÑĨ
ÑĢ Ð°Ð»ÑĬÐµ
ĠÐ± Ð¸Ð´ÑĥÐ»
ĠÑĢ Ð°ÑĤÓıÐ°
Ð°ÑĤ Ð°Ð²
ĠÐ³Óı ÑĥÐ¼
ĠÐĵ ÑĥÐ½Ð¸
ĠÐ¼ ÐµÐ¼Ð¾ÑĢ
Ð´Ðµ ÐºÑģ
Ð°Ð¹ Ð²Ð°Ð½
ĠÐ¿ ÑģÐ¸Ñħ
ĠÑħÓı ÐµÐ»
ĠÐĵÓı Ð°Ð¼Ð¼Ð°Ð±
ĠÑĩÓı Ð²Ð°Ð»ÐµÐ»
ĠÐ¡ Ð°Ð´
ĠÐ¡ Ð¸Ð²
ĠÐĴ Ð°ÑģÐ¸Ð»
ĠÑħÐ°Ñģ ÐµÐ»
ĠÐ¢Óı Ð¾ÐºÓı
ĠÑĢÐµÑħ ÑħÑĥÐ½
Ġ3 8
ĠÑħÓıÐ°ÐºÑĬÐ°Ð»ÑĬÑĥÐ»ÑĬ Ð³Ð¸
ĠÑįÐ±ÐµÐ» Ð°Ð»Ð´Ð°
ĠÐ¹Ð¸ÐºÓı Ð¸Ð½
ĠÑĥÐ¼ Ð¼Ð°ÑĤ
ĠÐºÐ°Ð¼ Ð¿Ð°Ð½
ĠÑħÑĬÐ¸Ð·Ð°Ð¼ Ð°Ð»Ð´Ð°
ÑĢÐ°ÐºÑĮ Ð°Ð½Ð´Ðµ
ĠÐ»ÑĬÐ°Ð³ÓıÐµÐ» Ð°Ð»ÑĬ
ĠÐ°ÑĢÑħ Ð¸Ð²
ÑĥÐ»Ð³Ð¾ ÑħÓı
Ñģ ÑĥÑĢ
Ð· Ð°Ð»Ð³Ð¸
Ñı Ð¼
Ð¾Ð² Ð°Ð»ÑĬÐµ
Ð¸Ð± Ð°ÑĤÓı
Ð¸Ð¼ Ð°
ĠÐĶ ÑĥÐ´Ð°
Ð°ÑĩÓı ÐµÐ±
ÐµÐ¹ Ð¸Ð»Ð°
Ñī Ð°Ð»
ĠÐ³ÑĮÐµÐ½ Ð¸Ð¹
Ð¥ ÑıÐ»ÑĬÑĥÐ»
ÑĢÐ¾ Ð¹
ĠÐ¶ÐµÐ³Ð¸ Ð³Ð¸
ĠÑĤÓıÐ°Ð» Ð°Ð±Ð°Ð·Ð´Ð°
ĠÑĢÐ°ÑĤ ÑĥÐ½
ĠÑĨÐ¾Ð³Ð¸Ð´ Ð°Ð·
ĠÑģÐ²ÐµÑĢÑĥÑħÑĬ Ð»ÑĬÐ¸
ĠÐĵÓıÐ°Ð±Ð´ÑĥÑĢ Ð°ÑĪÐ¸Ð´
ĠÐ¥ÓıÐ°Ð» Ð¸Ð¼Ð°ÑĤ
ĠÐ³ÓĢÑĥÑĨÓĢ Ð¸
Ð±Ð°ÑħÑĬÐ¸Ð½ Ð°Ð·ÑĥÐ»
ĠÐ¨Ð°Ð³ÓıÐ± Ð°Ð½
Ð´ Ð¸ÑĢ
ÑĤ Ð¸ÑĢ
Ñģ Ð°Ð³ÓıÐ¸Ð´
Ð°Ð»ÑĬ Ð°Ð½Ð°
ĠÐ´ Ð¸Ð´Ð°ÑģÐ°
ĠÑģ ÐµÑĢ
ĠÐ½ ÑĥÑĨÐ°Ð»
Ð³ÑĮ Ð°ÑĢ
Ð¸Ðº Ð¾Ð»
ĠÑħÑĬÐ² Ð°Ð»
ĠÐºÑĬÐ² Ð°ÑĤÓıÐ°Ð»
ĠÐ´Ð°Ð³ÑĮ Ð°
ĠÐ³ÓıÐ°Ð´Ð¸Ð½ Ð°Ð½
ĠÐ²Ð°ÑĩÓı Ð¸Ð½
ĠÐ³ÓıÐ¾Ð´ Ð¾Ð¹
ĠÐ¿Ð¾Ð» ÐºÐ¾Ð²Ð½Ð¸Ðº
ĠÑĤÐ°ÑĢÐ¸Ñħ Ð³Ð¸
ĠÐ¸Ð¼ Ð°Ð¼Ð·
Ġ201 1
Ġ201 2
ĠÐ¼Ð¸ÑģÐ°Ð» Ð°Ð»
ĠÐ¿Ð°Ð¹ Ð´Ð°Ð³Ð¸
ĠÑĤÑĥÑĢ Ð¸Ð·Ð¼
ĠÐĵÓıÐµÐ¼ÐµÑĢ Ð¸ÑģÐµÐ»
ÐĶÐ°Ð³ÑĬÐ¸ÑģÑĤÐ°Ð½ Ð°Ð»Ð´Ð°
ĠÑĤÓıÑĥÑĢÐ°Ð·Ð°ÑĢ Ð¸Ð·Ðµ
ĠÑĢÐ°Ð³ÑĬÑĥÑħÑĬ Ð°Ð±Ð¸
ĠÑĦÐ¾ÑĢ Ð¼Ð°
ĠÑīÑĥÑī Ð°ÑħÑĬ
ĠÑĢÐ°ÐºÓıÐ°Ð»Ð´ÐµÑī Ð²
ĠÑĢÐ°ÐºÓıÐ°Ð»Ð´ÐµÑī Ð²Ðµ
ĠÐĽÑĬÐ°Ð± Ð°Ð±Ð¸Ð»ÐµÐ±
ĠÑĢ Ð¾ÑĢÑĤ
ĠÐ² Ð¸Ð»
ÑĥÑĢ Ðµ
ĠÐ»ÑĬ Ð°ÑĢÐ°Ð»
ĠÐľ Ð°Ð½
ĠÑħÓı Ð°Ð½
ĠÐ±ÑĥÐºÓı Ð°Ð½Ð¸Ð»Ð°Ð½
ĠÐł ÐµÐºÓı
ĠÐĵÓı ÑĥÑĢ
ĠÐĵÓı ÐµÐ·ÐµÐ³ÓıÐ°Ð½
ĠÐ¡ Ð¾ÑĨ
ĠÐ±ÑĥÐ³ÐµÐ± Ð»ÑĬÑĥÐ½
ĠÐ´Ð°Ð½Ð´Ðµ ÐºÐºÐ¾Ð»
ĠÑĢÐ°Ð³Óı Ð°Ð¹Ð³Ð¸
ÑĥÑĩ Ð¸Ð»Ð¸Ñī
ĠÐ£ Ñĩ
Ñĭ Ð¼
ĠÐĲÐ± ÑĥÐ»
ĠÐĲÑħÓıÐ¼Ð°Ð´ Ð¾Ð²Ð°Ñģ
ĠÑīÐ°Ð¹ Ð¸Ð½
ĠÐºÐ¾Ð¼Ð°Ð½Ð´ Ð°ÑıÐ»Ð´Ð°
ĠÐĲÑĢ ÑģÐµÐ½
ĠÐ±ÐµÐ³ÑĮÑĥÐ» Ð°ÑĢÐ¸Ð½
ĠÑĢÐµÐ³Ð¸Ð¾Ð½ Ð°Ð·Ð´Ð°
ĠÐĵÑĮÐ¸ÑĤÓı Ð¸Ð½Ð°Ð±
ĠÐ±Ð°ÑĩÑĩ Ð¸Ð·Ðµ
ÐĵÑĮÐµÐ´Ð¸Ð½ Ð»ÑĬÐ¸Ð´Ð°Ð»
ĠÐºÐ²Ð°ÑĤÓı ÑĥÐ½
ĠÐ³ÓĢÐµÐ¼ÐµÑĢ Ð°Ð»
ĠÐ±Ð°ÑħÑĩ ÑĥÐ½
ĠÑĤÐµÐ°ÑĤÑĢ Ð°Ð»ÑĬÑĥÐ»
ĠÐ¡ÐĴ ÐŀÑıÐ»ÑĬÑĥÐ»
ÐĵÓıÐ°Ð´ Ð°Ð¼
ĠÑģÑĥÐ±Ð±Ð¾ÑĤ Ð½Ð¸Ðº
Ġ ÑĥÐ³Ð¾
Ñĥ Ð°Ð»
Ðµ Ñı
Ð³ ÐµÐ½
ĠÐ³ÑĮ ÑĥÑĢ
Ð°Ð»ÑĬ ÑĥÐ²
ĠÑĤ ÐµÐ½
Ð¸Ð· ÑĥÐ»
ĠÑģ Ð¾
ĠÐ¶ ÑĥÐ¶
ÑĩÓı Ð°Ð³Ð¾
ĠÑĨÓı Ð¸Ð»ÑĬ
Ð°ÑħÓı Ð°Ð¶
ĠÑĩÓı ÐµÐ»
ĠÑĢÑĥÐºÓı Ð°Ð½Ð¸Ð»Ð°
Ð¸Ð½Ðµ Ð³Ð¸
Ð¾ÑħÑĬ ÐµÐ±
ĠÐ±Ð¾ÐºÑĮ ÑĥÐ»Ð°Ð°Ð½
ĠÐĵÑĮÐµÐ» Ð³Ð¸
ĠÑģÑĥÐ°Ð» Ð°Ð»Ð³Ð¸
Ðĳ Ð°ÐºÑĬ
ĠÐĽÑĬ Ð¾Ð½Ð´Ð¾
ÐµÐ»ÑĬ ÐµÐ»
ĠÐºÑĮÐµÐ·Ðµ Ð³Ð¸
ĠÑĤÓıÐ°Ð¼ ÑĥÐ»ÐµÐ»
ĠÐ³ÓıÑĥÑĢ ÑĥÐ»
Ð¾Ð»ÑĬ Ð°
ĠÐ³ÓıÐ¸Ð»Ð» Ð°Ð³Ð¸
ĠÑģÐ°Ð½ Ð°Ð¹Ð¸Ð»
ĠÑĤÑĥÑħÑĥÐ¼ Ð°Ð»ÑĬÑĥÐ»
ĠÐ°Ð²ÑĤÐ¾Ð¼ Ð°ÑĪ
ĠÐ°Ð±ÑĥÑħÑĬÐµ Ð³Ð¾
ĠÑĤÐ²Ð¾ÑĢÑĩÐµÑģÑĤÐ²Ð¾ ÑıÐ»ÑĬÑĥÐ»
ĠÐļÐ¾Ð» ÑħÐ¾Ð·
Ð» Ð¸ÑĨ
ÑĢ Ð¾Ð¼
Ð°ÑĢ Ð°ÑĤÓıÐ°
Ð¸Ð» ÐµÐ²
ĠÐ³ÑĮÐ°Ð± ÐµÐ³Ð¸
ĠÐºÐºÐ¾Ð» ÐµÐ»ÑĬÑĥÐ»
ĠÐĵÓı Ð°ÑħÑĮÐ²Ð°ÑħÑĬ
ĠÑĢÐ°ÑħÑĬ Ð°Ð·ÑĥÐ»
ĠÐ±ÐµÑĤÓıÐµÑĢ Ð»ÑĬÐ¸
ĠÑĢÐ°Ð³Óı ÑĥÐ»ÐµÐ±
ĠÑĨÓıÑĥÐ½ Ð°ÑĢÐ°Ð±
ĠÐĴ ÐµÑĢÑħ
ĠÐ³ÓĢ ÑĥÑĢ
ĠÐļÑĬ Ð¾ÑĢ
ĠÑħÑĮ Ð¾Ð½
ĠÐ±Ð°Ñĩ ÑĥÐ½Ð°
ĠÐ³ÓıÐ¾Ð´ Ð¾Ð²Ðµ
ĠÑĢÐ°ÑĤ Ð°ÑĢÐ°Ð»
ĠÑħÐ¸Ñģ Ð¸Ð·Ð°Ð±Ð¸Ð·Ðµ
ĠÐ´Ð°Ð½Ð´ÑĩÓıÐ² Ð°ÑıÐ»
ĠÐ³ÑĮÐ¾ÑĢÐºÑĮÐ¾ÑĢ Ð»ÑĬÐ°Ð±Ð¸
ĠÐ´Ð¸Ð½ Ð°Ð»Ð´Ð°
ĠÐ³ÓıÐ°Ð´Ð°ÑĤ Ð¸ÑıÐ²
ĠÑĤÐµÐ» Ð°
ĠÑħÓıÑĥÑĢÐ¼Ð°ÑĤ Ð¸ÑıÐ±
ĠÐĵÓıÐ°Ð»Ð¸ÐµÐ² Ð°
ĠÐ»ÑĬÐ°Ð»Ð°ÑĢÐ¾ Ð³Ð¾
ĠÑģÐ°Ð¿ Ð°ÑĢÐ°Ð»ÑĬ
ĠÐ½Ð°Ð»Ð¾Ð³ Ð°Ð·ÑĥÐ»
ĠÐ¼ÑĥÐ· ÐµÐ¹
ĠÐ¥Ð°ÑģÐ°Ð²ÑİÑĢÑĤ Ð°Ð»Ð´Ð°
ĠÑĤÓıÑĥÐ±Ð°Ð·Ð°Ð± Ð¸Ð·Ðµ
ĠÐ»ÑĬÐ¸ ÐµÐ½Ð¸Ð³Ð¸
ĠÐĺÑĢÐ°Ð½ Ð°Ð»ÑĬÑĥÐ»
Ð°Ð¼Ð± Ð»
ĠÑĩÐ°Ð½ÑĨÓı ÑĥÐ»Ð³Ð¾
ĠÑĢ Ð°Ñī
ĠÑĢ Ð°ÑĨÓıÑĨÓıÐ°Ð´
ÑĤ Ð°Ð»ÑĬÑĥÐ»
Ð¸Ð½ Ð¸
ĠÑħ Ð¸ÑıÐ»
ĠÑĤÓı ÐµÑĢÑħÑĮ
ĠÐºÐº Ð°Ð½Ð°Ð½Ð¸
ĠÐ°Ð± Ðµ
Ð°Ð¶ Ð°Ð¸Ð½
ĠÐ±Ðµ ÑĩÓı
ĠÐ±Ðµ Ð³ÓıÐµÑĢ
ĠÐĳ Ð°Ð³
ĠÑīÐ² Ð°Ð»Ð´Ðµ
ĠÐ±Ð¸ÑħÑĮ Ð¸Ð´Ð°Ð»
ĠÑĢÑĥÐ³ Ð¸Ñī
ĠÐ¨ ÑĥÑĢ
ĠÐĺ Ð¼Ð°Ð½
Ð¸ÑıÑģ Ðµ
ĠÐ¶Ð¸Ð½Ð´ Ð¸ÑħÑĬ
Ðļ Ð¾Ð¼
ĠÐĸ Ð¸Ð½Ð´
ĠÐ²ÑĥÐ³Ð¾ Ð½Ð¸
ÐµÑģÑĤ Ð°Ð½
ĠÐ¼Ð°ÑĨÓı Ð°Ð·Ð´Ð°
ĠÑģÐ°Ñħ Ð°Ð±
ĠÑīÐ¸Ð² Ð°Ñģ
ĠÐ¸ÑĢÐ³ Ð°
ĠÐ±Ð¾ÑĢ Ñĩ
ĠÑĪÐ°ÑĢ Ð¸Ð³Óı
ĠÐĳÐ°Ð¹ ÑĢÐ°Ð¼
ĠÐ¼Ð°Ð¹Ð´ Ð°Ð½
ĠÐ¾ÐºÑĢÑĥÐ³ Ð°Ð»ÑĬÑĥÐ»
ĠÐ¦ÓıÑĥÐ½ ÑĤÓıÐ°
2 6
ÑĢ Ð¾Ð´
Ðº Ð°Ð³Ð¸
Ð°Ð³ Ð¸ÑĨÐ¸Ð½
Ð°ÑĤ Ð¸ÑĢ
ÐµÐ» Ð´Ðµ
ĠÐ´ Ð¸ÑħÑĬ
ĠÐ½ Ð¸ÑıÑĤ
ÓĢ Ð°
Ð°ÑħÑĬ Ð°
Ð°ÐºÑĬ Ð»Ñĥ
ÐµÐ´ Ð°Ð³Ð¸
ĠÑħÑĬ Ð°ÑĩÓı
ĠÐĳ Ð°Ð³ÑĬ
ĠÑĢÐ°ÑħÑĬ Ð³Ð¸
ĠÐ¿ÑĢ Ð¾Ð¼ÑĭÑĪÐ»ÐµÐ½
ĠÐ³ÓĢ Ð°ÑĢ
ÐµÐ»ÑĮ Ð´
ĠÐ³ÓıÐ°Ð´Ð°Ð¼Ð°Ð» Ð³ÑĥÐ½
ĠÑģÐ¿ ÐµÐºÑĤ
ĠÑħÓıÐ°ÑģÐ¸Ð» Ð°Ð·ÑĥÐ»
ĠÐºÑĬÐ¾ÑĤÓı Ð°Ð½Ð°
ĠÐºÑĬÐ¾ÐºÑĬ Ð°ÑıÐ»ÑĬÑĥÐ»
ĠÐĵÓĢ Ð°Ð±Ð´ÑĥÐ»
Ð¾Ð»ÑĮÐ½ Ð¸ÑĨÐ°
Ð¦Óı Ð¸ÑıÐ±
ĠÐ¥ÓıÐ°ÑģÐ°Ð½ Ð¾Ð²
ĠÐ³ÑĬÑĥÑĤ Ð°Ð´Ð°
ĠÐĽÐµÐ½ Ð¸Ð½Ð³ÑĢÐ°Ð´
ĠÐ³ÓĢÐ°Ð´ Ð°Ð¼Ð°Ð»
ĠÑĤÑĢÐ°Ð½Ñģ ÑĦÐ¾ÑĢÐ¼Ð°ÑĤ
ĠÐľÐ¾ ÑĩÓıÐ¾
ĠÐ¼Ð°ÑĤÐµÐ¼Ð°ÑĤ Ð¸ÐºÐ°ÑıÐ»ÑĬÑĥÐ»
Ð¸ÑıÐ¼ Ð°ÑģÐµÐ±
ĠÐļÐŁ Ð¡Ð¡
Ð» Ð°Ð»
Ðº Ð°Ð½
ÑĥÐ½ Ð³
ÑĥÐ½ Ð´
Ð¸Ð½ ÑĨ
ĠÑħÓı ÐµÑĤÓı
ĠÑĩ Ð°Ð¼Ð°Ð»Ð¸Ð³Ð¾
ĠÐ¥ Ð°Ð·Ð°Ð¼
ÑĥÑħÓı Ð°Ð¼Ð¼Ð°Ð´
ĠÐ³ÑĮÐµÐ· ÑĥÑħÑĬ
ĠÐ»ÑĬÑĥ ÑĤÑĥÐ½
ĠÐ³ÑĮÐ°Ð±ÑĥÐ½ Ð³Ð¸
Ðļ Ð¾Ð½
Ðļ Ð°Ð²ÐºÐ°Ð·
ĠÑĢÐ°ÐºÑĮ Ð°Ð·Ð´Ð°
ĠÑĪÐ°Ð³ÑĮ Ð°ÑĢÐ°Ð»Ð´Ð°ÑģÐ°
ĠÑħÑĬÑĥÐ»ÑĥÑħÑĬ Ð°Ð»
ĠÐ±Ð°ÐºÑĬ ÑĥÐ»
ĠÐ¥Ð°Ð´ ÑĥÐ²
ĠÐ±Ð¾ÑĢÑħ Ð°Ð»ÑĬÐ¸
ĠÑĤÓıÐ°Ð³Óı Ð°Ð¼
ĠÐ¯ ÐºÑĬ
Ġ201 8
ĠÐĲÐ½ ÑĨÓı
ĠÑĢÐµÐ´Ð°Ðº ÑĨÐ¸ÑıÐ»ÑĬÑĥÐ»
ĠÐºÑĮÑĥÑĩÓı Ð°Ð»Ð´Ð°
ĠÐ»ÑĬÐµÐ» Ð³Ð¾
ĠÐºÐ°ÑĢ Ð°Ð½Ð´Ð°
ĠÐĲÐ¹ ÑĤ
ĠÐĵÓıÐ¾Ð± Ð¾Ð´Ð°
ĠÐ³ÑĮÑĥÐ¸Ð½ Ð»ÑĬÐ¸
ÑĢ ÑıÐ´
ĠÐ³Óı Ð°Ð¼Ð¼
ÐºÑĬ Ð°Ð´Ð¸ÑĢ
Ð¿ Ð¸ÐºÑĬ
ĠÐļ ÑĥÑĢ
Ð°ÑıÐ» Ð¸
Ð°ÑıÐ»ÑĬÑĥÐ» Ð°Ð±
ĠÐļÑĬ ÐµÐ±ÐµÐ´
Ðľ ÐĲ
ĠÐ¦Óı ÐµÑħ
ĠÐºÓıÐ² ÐµÐ»
ĠÐ³ÓıÐ°Ð³Ð°ÑĢ Ð»ÑĬÐ¸ÑıÐ»ÑĬÑĥÐ»
ĠÐ±Ð¾ÑĢÑħ Ð¸Ð·Ðµ
ĠÐºÑĬÑĥÐ½ ÐºÑĬ
ĠÑĪÐ¸Ð¼Ð°Ð»Ð¸ÑıÐ± Ð³Ð¸Ð½
ĠÐ³ÓıÐ°ÐºÓı Ð°
2 7
Ð´ Ð°Ð³ÑĮÐ°Ð±
Ð¼ ÑĥÑģÐ»Ð¸Ð¼
Ð°Ð´ Ð°Ð³Ð¸
Ð°Ñħ Ð°Ð»ÑĬÑĥÐ»
Ð°Ð² Ð°
ĠÐľ ÐĴÐĶÑıÐ»ÑĬÑĥÐ»
ĠÑħÓıÐ°Ð» ÐºÓı
Ð°ÑĨ Ð°Ð³Ð¸
ĠÑģÐ¾Ð½ Ð³Ð¸
ĠÐ¡ Ðľ
ĠÐ¸Ð½ Ð´Ð°Ð»
ĠÐ¾ Ð¿Ð¾Ð»ÑĩÐµÐ½
ĠÑĦ Ð°Ð¼Ð¸Ð»
ĠÐĽ Ð°Ð±Ð°Ð·
ĠÐ¹ Ð¸Ð³Ð¸
ĠÐĵÑĬ Ð¸ÑĢ
ĠÐ¢Óı Ð¾ÑĨ
ĠÐ±Ð°Ð¹Ð±Ð¸ÑħÑĮ ÑĥÐ»ÐµÐ±
ÐĿ Ð°Ð»ÑĬÑĥÐ»
ĠÐ³ÑĮÐµÐ´Ð¸Ð½ Ð°Ð²
ĠÑħÑĮÐ² Ð°Ð³Óı
ĠÐ°Ð» ÑĮ
ĠÐ¼Ð°ÑĨÓĢ Ð°Ð»ÑĬÑĥÐ»
ĠÑĩÓıÐ°Ð³Ð¾ ÑıÐ±
ĠÐ³ÑĬÑĥÑĤ Ð°Ð½Ð°Ð»Ð´Ð°
ĠÐ³ÓıÐ°ÑģÑĢÑĥ ÑıÐ»Ð´Ð°
ĠÐºÑĮÐ°Ð± ÑĥÐ½
ĠÐ¨ÐºÐ¾Ð» Ð°Ð»Ð´Ð°
ĠÐ³ÓıÐ¸Ð½ ÑĤÓıÐ°Ð¼
ĠÐ·Ð°Ð²ÐµÐ´ÑĥÑİÑī Ð¸Ð¹
ĠÐĵÑĬÐ°Ð» Ð±Ð°ÑĨÓı
ĠÐ¼Ð¸Ð»Ð»Ð¸ Ð°ÑĢÐ´
ĠÐ´Ð°Ð½Ð´ÐµÑĢ ÑĥÑģÑģ
ÑĥÐ» Ð°ÑĢÐ¸Ð½
Ñģ Ð¾Ð²ÐµÑĤ
ĠÐºÑĮ ÐµÑıÐ»ÑĬÐµ
ÐĵÑĮ ÐµÐ»ÑĬÐ¸Ðµ
ĠÑĤÓıÐ¾Ð±Ð¸ÑĤÓı Ð¸ÑıÐ»ÑĬÐµ
ĠÐºÑĬÐ²Ð°ÑĤÓı Ð¸ÑģÐ°
ĠÑĥÐ½ÑĤ Ð°ÑĢÐ°Ð·Ðµ
ĠÐ¼Ð°Ð³ÓıÐ¸ÑĪÐ°ÑĤ Ð°Ð·Ð´Ð°
Ð´Ð¸Ð½ Ð¾Ð²
ĠÐĲÐ½ ÐºÑĮ
ĠÐ´Ð°ÑĢÐ°Ð¶ Ð°ÑıÐ»Ð´Ðµ
Ð¾Ð³ÑĢÐ°Ð¼ Ð¼
ĠÐĳÐµ Ð³ÑĮ
ĠÐĳÐ°ÑĤ Ð¸ÑĢ
ĠÑĤÐµÐ»ÐµÐ² Ð¸Ð·Ð¾ÑĢ
ĠÑħÐ²Ð°Ð» ÑĩÐµÐ½
ĠÑĥÑĩÐ¸ÑĤÐµÐ» Ð°ÑģÑĥÐ»
ĠÑĨÑĨ Ð¸Ð¼
ĠÐĶÑĥÐ¼ Ð°ÑıÐ»ÑĬÑĥÐ»
3 5
ĠÐ³ ÑĥÐº
Ð± Ð¸Ð³Ð¸
ĠÐº Ð¸ÑĢÐµ
ĠÐ´ Ð¸Ð°Ð»
ĠÐ´ Ð¸ÑĨÐ°Ð³Ð¾
ÐµÐ½ Ð¸ÑıÐ»ÑĬÑĥÐ»
ĠÐ°Ð± Ð¸Ð´Ð°Ð»
ĠÐł Ð°Ð¹
ĠÐĳ Ð°ÑĢ
Ð³ÓıÐ°Ð½ Ð°Ð²
ĠÐ¿ÑĢ Ð¾ÑĤ
ĠÐ³ÓıÐµÐ¼ÐµÑĢ Ð¸ÑģÐµÐ·
ĠÐĲÐ» ÑĮ
ĠÐ§ Ð°Ð½Ð³Ð¸
ĠÐĽÑĬ Ð°Ð»Ð°ÑĢÐ¾
ĠÑĢÐ¸ÐºÓıÐºÓı ÐµÐ½
ĠÐ³Ð°Ð·ÐµÑĤ Ð°Ð»
ĠÐºÐ²Ðµ ÐºÓı
ĠÐ±Ð°ÐºÑĬ Ð²
ĠÐ¼ÑĥÐ³ÓıÐ°Ð»Ð¸Ð¼ Ð»ÑĬÑĥÐ½
ĠÐ¥ÑĬ Ð°ÑħÓıÐ°Ð±
ĠÐºÐ°Ðº Ð°Ð»
ĠÐ³ÑĮÐ¾ÑĢÐºÑĮÐ¾ÑħÑĬ ÐµÐ»
ĠÑĢÐ°Ñħ Ñĩ
ĠÐĺÑģ ÑĢÐ°Ð¿
ĠÐ²Ð°Ñĩ ÓĢ
ĠÐ·Ð°ÑħÓıÐ¼Ð°Ð»ÑĬ Ð°Ð±Ð°Ð·ÑĥÐ»
ĠÐºÑĬÐµÑĢÐºÑĮ ÐµÐ·Ðµ
ĠÐ³ÑĮÐ¾ÑĢÐºÑĮÐ¾Ñģ ÐµÐ»
Ð¥ÓıÐ°ÐºÑĬÐ¸ÐºÑĬ Ð°ÑĤÐ°Ð»ÑĬÑĥÐ»
ĠÐ³ÓıÑĥÐ½Ð³ÑĥÑĤÓı Ð¸
ĠÑĩÐ²Ð°Ñħ ÑĥÐ»ÐµÐ±
ĠÐ¿ÐµÑĢ ÐµÐ´
ĠÐłÐ°Ð³ÑĬ ÑĥÐ»
ĠÐ¸Ð½Ð¶ ÐµÐ½ÐµÑĢ
ĠÐ³ÓĢÐ°ÑĤÓĢ Ð¸Ð»ÑĬÐ¸
ĠÐ¿Ð¾ÑģÐµÐ» Ð¾Ðº
Ð´ Ñĥ
Ð² ÐµÑĤ
Ð¼ ÐµÑĢ
Ð¸Ðº Ð»Ð¸Ð½
ĠÐĳ Ð°ÐºÓı
ÐĵÑĮ Ð°ÑĢ
ĠÑĨÓıÐ¸ÐºÓıÐºÓı Ð¸Ð½Ð°Ð±
Ð¸Ð³ ÐµÐ½
ÑıÐ· Ðµ
Ġ3 3
ĠÐ±Ð°Ñĩ Ð°ÑĢÐ°Ð±
ĠÐºÑĬÐ°Ð´Ð°ÑĢ Ð°Ð»ÑĬÑĥÐ»
ĠÐºÑĬÐ¾ÐºÑĬ Ð°Ð±Ð³Ð¾
ĠÐ¥Ð°Ð´ ÑĥÑĢ
ĠÐ³ÓıÐ°Ð´Ð°ÑĤ Ð»ÑĬÑĥÐ½
ĠÐºÓĢ Ð°Ð»ÑĬ
ĠÐĴÐ°ÑĤÓıÐ°Ð½ Ð°Ð»ÑĬÐµ
ĠÐ¥Ð°Ñģ Ð°Ð±
Ġ200 0
ĠÐ²Ð°Ñĩ Ð°Ð½Ð°
ÑħÐ°Ð» Ð¸ÐºÑĬ
ĠÐºÑĢ Ð¸ÑĤ
ĠÐ¼ÑĥÐ· ÐµÑıÐ»ÑĬÑĥÐ»
ĠÐ¾ÑĦÐ¸ÑĨ ÐµÑĢ
ÐºÑĬÐ°Ð´ Ð³Ð¸
ĠÐ±ÑĢÐ¸Ð³ Ð°Ð´Ð¸ÑĢ
ĠÐ½Ð°ÑĢÐºÐ¾ÑĤ Ð¸Ðº
ĠÐ³Ð²Ð°Ð½Ð³ÑĬ Ð°ÑĢÐ°Ð±
ĠÐ¿ÑĢÐ¾ÑĦÐµÑģÑģÐ¸Ð¾Ð½ Ð°Ð»Ð¸ÑıÐ±
Ð» Ð¸Ñĩ
ÑĥÐ» Ð¸
Ðº Ð¾Ð½Ð¾Ð¼
Ð°Ð½ Ð³
Ñħ ÑĥÑĢ
Ð¸Ð½ Ð°ÑĤ
ĠÐĵ Ð°Ð·
ĠÐ¼ Ð°Ð»ÑĬÑĥÐ»ÐµÐ±
ĠÑģ Ð°ÑĢ
ĠÐ½ Ð°Ð·
Ð³ÑĮ Ð¾ÑĢÐºÑĮ
ÑĥÐ± Ð°ÑĢ
Ð¸ÑģÑĤ Ð¸ÑıÐ±
Ð¾Ð± ÑĥÑģ
ĠÐł ÑĥÐ³ÑĬ
ĠÐ³ÑĬ Ð°ÑĢ
Ðł Ð°ÑħÑĮÐ´Ð°Ð»
ĠÐ¸ÑĪ Ð»ÑĬÑĥÐ½
ĠÐ³ÓıÐ°ÑħÑĮÐ°Ð» Ð»ÑĬÑĥÐ»Ð°
ĠÐļÑĬ ÑĥÑĢÐ±
ĠÑħÓıÐ°Ð¶ Ð°Ð»ÑĬÑĥÐ»Ð°
ĠÑģÐ°Ñħ Ð°Ð²
ĠÐŃ ÑĢ
ĠÐŃ Ð¼ÐµÐ½
ÑĥÑī Ð¸
ÑĤÐµÑĢ Ð½
ĠÐĴÐ°ÑĤÓıÐ°Ð½ Ð°Ð»ÑĬÑĥÐ»
ĠÐºÐ¾Ð¼Ð°Ð½Ð´ Ð°ÑıÐ»ÑĬÐµ
Ġ200 8
ĠÑĤÐ¾ÑħÑĤÑĥÑĢ Ð·Ð°Ð±Ð¸
Ð±Ð°Ñģ Ð¸ÑĢ
ĠÐ±Ð¸Ñĩ ÑĥÐ»ÐµÐ±
ĠÑħÐµÑĢ Ð°Ð²
ĠÐ±Ð°ÐºÓıÐ°ÑĢ ÑĥÐ»ÐµÐ±
ĠÑĤÐ°ÐºÑĬÑģÐ¸ÑĢ Ð³ÑĮÐ°Ð±Ð¸ÑıÐ»ÑĬÑĥÐ»
ĠÐĵÓıÐ°Ð±Ð´ÑĥÐ»Ð°ÑĤÓıÐ¸Ð¿ Ð¾Ð²Ð°ÑģÑĥÐ»
ĠÑīÐ²ÐµÐ·Ð°Ð± ÑĥÐ½Ð°
ÑĩÐ¸ÑıÑģ Ðµ
ĠÐ³ÓıÐµÐ½ÐµÐºÐº Ð¸Ð·Ðµ
ĠÐĶÐ°Ð½Ð´Ðµ Ð»ÑĬÐ¸ÑıÐ»Ð´Ð°
ĠÐºÐ°ÑĢÑĤ Ð¾ÑĪ
ĠÐºÑĬÑĥÑĢ ÐºÑĮ
ĠÐĶÐ°ÑĢÐ± Ð¸ÑĪ
ĠÐº Ð¾Ñģ
ÑĤ ÓıÐ°Ð»
Ð°Ð² Ð°ÑĢ
ÐµÐ½ Ð³Ð¸
ĠÑħÓı Ð°Ð·Ðµ
ÐºÑĮ ÐµÐ¹
ĠÐºÓı Ð¸ÑıÐ»Ð³Ð¾
ĠÐºÐºÐ¾Ð» ÐµÐ´ÑĥÑħÑĬ
ĠÑĩÓı ÐµÐ³Óı
ĠÑĩÓı Ð²Ð°ÑĢÐ°Ð²
ĠÐ³ÑĮÐ°ÑĢ Ð¸ÑĩÓıÐ¾Ð³Ð¾
Ð´Ð°ÑģÐ°Ð½ Ð³Ð¾
ĠÑĢÐ°Ð³ÑĬ ÑĥÐ»ÐµÐ»
Ð¥ ÑĮ
ĠÐ±Ð°ÑĤÓı Ð¸Ð±Ð°ÑĤÓı
ĠÐ£ Ð¿
ĠÐ¸Ð½Ñģ ÑĥÐ´Ð°
ÐµÑĩÓı Ð¾Ð½Ð¸Ð³Ð¸
ĠÐ³ÑĬÑĥÑĢ ÑĥÑĪ
ĠÐ¥ÓıÐ°Ð¼Ð·Ð°ÑĤ Ð¸ÑĨÐ°
ĠÐºÐ²Ðµ Ð³Óı
ĠÐ¼Ð°Ñģ Ð»
Ġ6 5
ĠÑĤÓıÐ°Ð³Óı Ð¸Ð½Ð°ÑĢ
Ð¨ ÐĲ
Ġ201 7
ÐĽÑĬ Ð°Ð±
ĠÐ³ÑĮÑĥÐ½Ð°ÑĢ Ð³Ð¸
ĠÑĪÐ°ÑĢÑĤÓıÐ°Ð» Ð³Ð¸
ÐĵÑĬ Ð¾ÑĢÐºÑĮ
ĠÑĢÐ¸Ð³ÑĮ Ð¸Ð½
ĠÐ¦Ð¾Ð³Ð¸ Ð´Ð°Ð»
ĠÑĢÐ°Ñģ Ð³Ð¸
ĠÐĵÓıÐ°Ð»Ð¸Ð± ÐµÐ³Ð¾Ð²
ĠÐ½ÐµÐºÓı ÑģÐ¸ÑıÐ»
ĠÐºÑĬÐ²Ð°ÑĤÓıÐ¸ÑĢ ÐµÑħÑĥÐ½
Ð±Ð°ÐºÓı Ð°Ð·Ð´Ð°
ĠÐ¸ÑħÐ´Ð°Ð» Ð¸Ð»
ĠÐºÐ°Ð¿Ð¸ÑĤ Ð°Ð»Ð¸ÑıÐ±
ĠÐ¶Ð°Ð½ÑĥÐ±Ð¸ÑıÐ± Ð³Ð¸Ð½
ĠÐ³Ð°ÑĢÐ³ Ð°Ð´
Ð½ Ñı
ĠÐ± Ð°Ð³ÓıÐ°ÑĢÐ°Ð±
ĠÐ³ÑĮ Ð°Ðº
ĠÐ³Óı ÐµÑĩ
ĠÐľ Ð¸Ð½
ĠÑĩÓı ÑĩÓı
ĠÑĢÐ°ÑħÑĬ Ð¸
ĠÑĥÐ½ ÐµÐ¹
ÑıÐ»ÑĬ ÑĥÑħÑĬ
ĠÐ»ÑĬÑĥÐ³ÑĮ ÑĥÐ½ÐµÐ»
ĠÐ¸ÑĪ Ð°Ð»Ð´Ðµ
ĠÐ°ÑħÓı Ð´
ĠÑĢÑĥÐ³ÐµÐ» Ð³Ð¸
ĠÐ§ ÑĥÑĢ
ĠÑĢÐ°ÐºÓı Ð°Ð»ÑĬ
ĠÐ±ÑĥÐºÓıÐ°ÑĢÐ°Ð± Ð»ÑĬÐ¸
Ð¸Ð¿ Ð¿
ĠÑĢÐ°Ð³ÑĮ Ð¸ÑıÐ»ÑĬÑĥÐ»
ĠÐ¸Ð´ Ð°ÑĢÐ°
ĠÑĥÑĢÐ³ÑĬ ÑĥÐ½Ð³Ð¾
ĠÐ¼Ð°Ð³ÓıÐ¸ÑĪÐ°ÑĤ Ð°Ð·ÑĥÐ»
ĠÐĲÑħ Ð¼ÐµÐ´
Ð¾ÑĢÑĩÓı Ð°Ð¼Ð¸
ĠÑĩÓıÐ²Ð°Ð½ ÐºÑĬÐ¾ÑĤÓı
ĠÐ±Ð°ÑĩÑĩ ÑĥÐ½
ĠÐºÑĮÐ¾ Ð³Óı
ĠÐ¿ÐµÐ½Ñģ Ð¸Ñı
ĠÑģÑĤÐ¾Ð» Ð°Ð»Ð´Ð°
ĠÐ¿ÑĢÐ¾ÑĦÐ¸Ð» Ð°ÐºÑĤ
Ġ ÑĥÐ³ÑĮ
Ð´ Ð°ÑħÑĬ
Ð´ Ð°Ðµ
Ðº Ð¸Ð½
ÑĤ Ð¾Ð²
Ð¸Ð½ ÑĤÓı
ĠÑĨ ÐµÑħ
ÑĥÑĢ Ð°Ð»ÑĬÑĥÑħÑĬ
Ð¾Ñģ ÐµÐ»
ÐµÐ½ Ð·
ĠÐºÓı Ð¸ÑĨÓı
ĠÑĢÐ¾Ñģ ÑģÐ¸ÑıÐ»ÑĬÑĥÐ»
ĠÐł Ð°Ð¼Ð·
ĠÑĩÓı ÑĥÑħÑĮ
ĠÐ¡ Ð¾Ð½
ĠÑĢÑĥÐºÓı Ð°Ð³Ð¾
ĠÐ½Ð¸Ð»ÑĬ Ð³Ð¾
ĠÐºÐ² Ð°Ð½Ð°Ð»
ĠÐ±ÐµÑĤÓıÐµÑĢ Ð³Ð¸
ĠÐºÑĮÑĥÐ½ Ð¸
ĠÐ²Ð°ÑĩÓı ÑĥÐ½Ð°
ĠÐ±Ð°ÐºÑĬ Ð²Ð°ÑĢÐ°Ð±
ĠÐ±Ð°Ð¶Ð°ÑĢ ÑĥÐ½
ĠÐ¥ÑĥÐ½Ð·Ð°ÑħÑĬ Ðµ
ĠÑĨÐµÐ±ÐµÑĤÓı ÑĥÑĢÐ°Ð±
ĠÐ³ÓıÐ°ÐºÑĬ Ð»
ĠÐºÑĮÐµÑıÐ»ÑĬÑĥÐ» ÑĬ
ĠÐ±Ð¸Ñĩ Ð¸Ð·Ðµ
ĠÐ¿Ð¸ÑħÑĬ Ð¸Ð»
ĠÐ¼Ð¸Ð» Ð¸ÑĨÐ¸ÑıÐ»ÑĬÑĥÐ»
ĠÐ³ÑĥÑĢÐ¶ Ð¸ÑıÐ·ÑĥÐ»
ĠÐ²Ð¾ ÐµÐ½
ĠÐĳÐ°Ð´ ÑĢÑĥÐ´Ð¸Ð½
ĠÑģÐ¿ÐµÐºÑĤ Ð°Ðº
ĠÐ³ Ð°
ĠÐº Ð°Ð²ÐºÐ°Ð·
ÑĤÓı Ð°ÑģÐ°
ĠÐ¶ ÑĥÐ½
ĠÑĤÓı Ð°Ð³ÑĬÑĥÑĢ
Ð¸Ñħ Ð°Ð½Ð¾Ð²
ĠÐł ÑĥÑģÑĤ
Ð¸Ð´ Ð¸
ÐµÐ¼ ÐµÐ½
ĠÐ¡ Ð°Ð²
ÐµÑħ Ð½Ð¸Ðº
ÑĪ ÐµÑĢ
ĠÐ½ÑĥÑħ Ð°Ð»ÑĬÑĥÐ»
ĠÐ³ÓıÐ°Ð´Ð°Ð¼ Ð°Ð·Ð´Ðµ
Ð¸ÑģÑĤÐ°Ð½ Ð°Ð»Ð´Ð°
ĠÐ¦ ÐµÑĢÐµ
ĠÑĢÑĥÐ³ ÐµÐ·ÑĥÐ»
Ðł Ð°ÑģÑĥÐ»
ĠÑĨÓıÑĥÐ½ Ð¸ÑıÐ»Ð´Ðµ
ĠÐ»ÑĬÐ¸Ð¼Ð°Ð» Ð³ÑĥÐ½
ĠÐ³ÑĮÐ°Ð½ Ð¸Ð²Ðµ
ĠÑĢÐ°ÐºÑĮ ÑĨÐ¾ÑıÐ»
ÑıÐ± ÑĢÐ°Ð»ÑĬ
ĠÐ³Ð°Ð·ÐµÑĤ Ð°Ð»ÑĬÐµ
Ð¿ÑĢ ÐµÑģÑģ
ĠÑįÐºÐ¾Ð½Ð¾Ð¼ Ð¸ÐºÐ°
ĠÑĤÓıÐ¸Ð±Ð¸ÑĤÓı ÑĥÐ½
ĠÐļÑĬÑĥÑĢÑĬ Ð°Ð½Ð°Ð»Ð´Ð°
ĠÐ»ÑĬÑĥÐºÑĬ ÑĥÐ½
ĠÐ°Ð³ ÑĢ
ĠÐĽÑĬÐ¸Ð¼Ð°Ð» Ð°Ð·ÑĥÐ»
ĠÐ¿ÑĢÐµÐ´Ð¿ÑĢ Ð¸ÑıÑĤ
ĠÐ¸ÑģÐ°Ð½ Ð°Ð³Ð¸
ĠÐ±Ð¾Ð»Ð¶ Ð°Ð»
ĠÐĶÐĲ Ð¡Ð¡Ðł
ĠÐ¥ÑĬÐ°Ð·Ð°Ð½ Ð±
Ġ Ð°ÑıÑĤ
Ð°Ð± Ð°
ÐºÓı Ð¸
ÐºÓı Ð°ÑĩÓı
Ð¾Ð½ Ð°Ð½Ð¸
ĠÐ¿ Ð¾ÑĢÑĤ
Ð¸ÑĤ Ð¾Ð²
Ð°ÐºÑĬ Ð¸ÑĢ
Ð»ÑĬÐ¸ ÐºÓı
ĠÐĵÓı ÐµÐ»
ĠÑīÐ² ÐµÑıÐ»ÑĬÑĥÐ»
Ð¾Ð´ Ð¸Ð½
ÐĵÑĮ Ð¸ÑĤÓı
ĠÑħÐ°Ð» Ð°Ð»ÑĬÐ¸
ĠÐĺ Ð²Ð°Ð½
Ðĳ ÑĥÐºÓı
ĠÑħÐ² Ð°Ð¶Ð°Ð¸Ð½
ĠÑĢÐµÑħÑģ Ð¾Ð»ÐµÐ±
ĠÐ±Ð¸ÑĩÑĩ Ð°ÑĩÓıÐ¾Ð³Ð¾
ĠÐ´Ð¸Ðµ Ð³Ð¸
ÑħÐ°Ð½ Ð¾Ð²Ð°Ñģ
ĠÑĩÓıÐ² Ð°Ð»Ð°
Ð¢Óı Ð¾ÑĨÐµÐ±Ðµ
ĠÐ±Ð°Ð³ÑĮ Ð°Ð½
ĠÐºÐºÐ² ÐµÐ¹
ĠÐºÐ¾Ð¼Ð¸ÑģÑģ Ð¸Ñı
ĠÑĩÓıÐ°Ð³Ð¾ Ð»ÑĬÐ¸
ĠÐ³ÓĢÑĥÑĨÓĢ Ð¸ÑıÐ»ÑĬÑĥÐ»
ĠÐ±ÑİÐ´Ð¶ÐµÑĤ Ð°Ð»ÑĬÑĥÐ»
ĠÐ¥ÓıÑĥÑģÐµÐ½ Ð¾Ð²
ĠÑĤÓıÐ°ÑĤ ÓıÐ°Ð»
ĠÐľÑĥÑħÓĢ Ð°Ð¼Ð¼Ð°Ð´
Ð»Ð¸Ð¼Ð¿ Ð¸ÑıÐ»ÑĬÑĥÐ»
ĠÑĤÓıÐ°ÑħÑĮ Ð°Ð·ÑĥÐ»
ĠÐ·Ð°Ð¼ÐµÑģÑĤÐ¸ÑĤÐµÐ» Ð°Ð»
ĠÐ¸Ð½ÑģÐ¿ ÐµÐºÑĤÐ¾ÑĢ
Ð´Ð°Ð³ÑĮÐ¾ÑĢÐºÑĮ Ð¾ÑģÐµÐ±
ÑĥÐ» Ð¸Ñī
ĠÐº Ð¸Ð±Ð³Ð¾
ĠÑĢ ÐµÐ·
Ð°Ð· Ð¸Ð·
Ð¸ÑĢ Ð°ÐºÑĮ
ĠÑĤÓı ÐµÐ·Ðµ
Ð°Ð³ÑĮ Ð¸Ð»
ĠÐ»ÑĬÑĥ Ð³ÓĢ
ĠÐĸ Ð°Ð±ÑĢÐ°Ð³ÓıÐ¸Ð»
ĠÑĨÓıÐ¸ÐºÓıÐºÓı Ð¸Ð½Ðµ
Ġ3 6
ĠÑħÑĥÑĢ Ð·Ð°Ð»
ĠÑĢÐ°Ð³ÑĬÑĥÐ» Ð°Ð²
Ġ20 19
ĠÐ¼Ð°ÑĪ Ð¸Ð½Ð°Ð±
ĠÐĵÓıÑĥÐ¼ Ð°ÑħÐ°Ð½Ð¾Ð²
ĠÐ¤ ÐµÐ´ÐµÑĢÐ°Ð»Ð¸ÑıÐ±
ĠÐºÐ¾Ð½ Ñģ
ÑħÓıÐ°Ð¶ Ð¸ÐµÐ²
ĠÐŁÐ°ÑĤÓıÐ¸Ð¼Ð°ÑĤ Ð¸Ð»
ĠÐ§Óı Ð¸ÐºÓı
ĠÐ±Ð°ÐºÓıÐ°ÑĢ Ð°ÑĢÐ°Ð±
ĠÐ¼Ð¸Ð½Ð¸ÑģÑĤÐµÑĢ Ð»ÑĬÐ¸ÑıÐ»ÑĬÑĥÐ»
Ð© Ð¸Ð²
ĠÐĵÓıÐ°Ð±Ð´ÑĥÐ»Ð°Ð³ÑĮ Ð¸ÑĨÐ°
ĠÐ³ÑĮÐ°Ð½Ð¶ ÐµÑģÐµÐ»
ĠÐ¥ÑĮ ÑĥÐ»
ĠÑĦÐ¸Ð» Ð¾ÑģÐ¾ÑĦ
ĠÐ´Ð¸Ð²Ð°Ð½ Ð°Ð»Ð´Ðµ
ÐĲÑħÐ¸ÑĢ Ð°Ð±
ĠÐ»Ð¸ÑĤÐµÑĢÐ°ÑĤÑĥÑĢ Ð°ÑıÐ»ÑĬÑĥÐ»
ĠÐ¥ÓıÐ°Ð¹Ð± ÑĥÐ»
ÐĲÐ³ÑĬ Ð²Ð°Ð»Ð¸
) ;
Ð½ ÑĥÑħ
ĠÐ± Ð¸ÑĩÓı
ĠÑħ ÑĥÐ½Ð·
Ð°Ð¼ Ð°Ð»Ð³Ð¸
ĠÐ´ Ð°
ĠÐ±ÑĥÐ³Ð¾ Ð»ÑĬÐ¸ÑıÐ»ÑĬÑĥÐ»
ĠÑĩ Ð²Ð°Ð½
ĠÐºÑĮ Ð°Ð±Ð¸
Ð¾Ð± Ð°
ĠÐĳ ÑĥÑĨÓı
ĠÐ¥Óı Ð¸Ð½ÐºÑĬ
ĠÐ¥Óı Ð°Ð´Ð¸Ñģ
ĠÐ±Ð°ÐºÓı Ð°Ð»ÑĬÑĥÐ»Ð°Ð±
ĠÐ»ÑĬÑĥÐ³ÑĮ Ð°Ð±Ð°ÑħÑĬ
ÐĲ Ñģ
ĠÐ±Ð°ÑĤ Ð¸ÑĩÓıÐ¾Ð½Ð¸
ĠÐ°Ð½ ÑĨÓĢ
ĠÑĤÓıÐ¾ÑĨ ÐµÑĢÐµ
Ð°Ð»Ð¸ ÐºÑĮ
Ð¦ ÑıÐ»ÑĬÑĥÐ»
Ðĺ ÐĽ
ÑĥÐ³ ÐµÑıÐ½
ĠÑħÐ¸Ñģ Ð¸
ĠÐ²Ð°ÑĨ Ð³ÓıÐ°Ð»
ĠÐĵÓĢ Ð°ÑĢÐ°Ð±
ĠÐ¯ ÑħÓı
ĠÐ³ÓıÐ°ÑĢÑĨ ÑĥÑħÑĬ
ĠÐ©Ð¸Ð± ÑħÐ°
ĠÑĤÓıÐ°Ð±Ð¸Ð³Óı Ð¸ÑıÐ»
ĠÐ±ÑĥÑģÑĥÑĢÐ± Ð°Ð½
ĠÐĵÓıÐ°ÑĢ Ð°ÑĨ
ĠÑħÓıÐ°ÑĢ Ð¿
ĠÐ²Ð°ÑħÓıÑĪ Ð¸ÑıÐ±
ĠÑĩÓıÐ¾ÑĢ Ð¾Ð³Ð¾
ĠÐ¼Ð°Ð³ÑĬÐ°Ð» Ð¾
Ð¸Ñ İ
Ð°Ð± Ð¸ÑĢ
Ð°ÑĢ Ñħ
ĠÐ±Ñĥ ÑħÑĬ
ĠÐĳ ÐµÐ¶
ĠÐ³ÑĮÐµÐ» Ð´Ð°ÑģÐ°Ð½
ĠÐ¸Ð½ Ð°Ð»ÑĬÐµ
ÑĦ ÐµÑĢ
ĠÑĨÓıÑĥÐ½ Ð°Ð½Ð°
Ð°ÐµÐ² Ð°ÑģÐµ
ĠÐºÑĥÐ¼ÐµÐº ÑĩÐ¸
ĠÐ³ÑĮÐµÐ·ÑĥÐ» Ð³Ð¸
ĠÐ³Ð°Ð·ÐµÑĤ Ð°Ð»ÑĬ
Ð¸ÑıÐ· Ð´Ð°ÑģÐ°
ĠÐŃ ÑĢÐºÐµÐ½Ð»ÑĬÐ¸
ĠÑĢÐ°Ñĩ ÑĥÐ½Ð°
ĠÐºÐ»Ð°ÑģÑģ Ð°Ð·Ð´Ð°
ĠÑİ ÑģÑģ
ĠÑĨÐ¾Ð¹Ð³Ð¸ Ð´
ĠÐ³ÓıÐ°ÑĢÑĨÑĥÐ» Ð°Ð±
ÐļÓı Ð¸Ð³Ð¾
ĠÐ³ÑĮÐ°Ð½Ð¶ ÐµÐ»ÑĬ
Ð¸Ð½Ñģ ÑĥÐ´Ð°
ĠÑĨÐµÑĢÐµÑĤÓı ÐµÐ·Ð°ÑĢ
ĠÑĤÓıÐ°Ð´Ð²ÑĥÑģÑģ ÑĥÐ½
ĠÐ¼Ð°Ð¶Ð»Ð¸Ñģ Ð°Ð»ÑĬÑĥÐ»
ĠÑİÑĢ Ð¸Ð´
ĠÐ¡ÑĥÑĢÑħ Ð°Ð¹
ĠÐŀÐľ ÐĴÐĶÑıÐ»ÑĬÑĥÐ»
ĠÐĴÐµÑĢÑħ Ð¾Ð²
9 6
Ñĥ ÑıÐ»ÑĬÑĥÐ»
Ð³ Ð¸ÑıÐ½
Ð¸Ð· Ð°
ĠÐ´ Ð°Ð»Ð¸Ð»
Ð¾Ð² Ð¸Ðº
ĠÐ¥ Ð°ÑĤ
ĠÐºÑĮ ÑĥÑĩÓĢ
ĠÐĶ Ð°Ð¼Ð°Ð´
ĠÐ¡ Ð°Ð¶Ð¸Ð´
ĠÑħÐ°Ð» Ð³ÑĮÐ°Ð±Ð¸
ÑĤÓıÐµÑĢ ÑħÑĮÑĥÐ»
ĠÐ¸ÑĪ Ð°Ð»Ð³Ð¸
ĠÑħÐ°Ð»ÐºÑĬ Ð°Ð·
ĠÐĽÑĬ Ð°Ð³ÓıÐ¸Ð»
ĠÑģÐ¿ Ð¾Ð½Ñģ
ĠÐ±Ð¸ÑĩÓıÑĩÓı Ð¸Ð·Ð°Ð±Ð¸Ð·Ðµ
ĠÐ¼ÐµÑħÐ°Ð»ÑĬ Ð³Ð¸
ÐĽ ÐµÐ½
ĠÐ±Ð°Ñħ ÑĥÐ½ÐµÐ±
ĠÐ¼Ð¸Ð½ Ð°ÑıÐ»ÑĬÑĥÐ»
ĠÐĺÐ½ Ñģ
ĠÐ³ÑĮÐ¸ÐºÑĬ Ð¸Ð´Ð°Ð»
Ġ194 1
ĠÐ¼Ð¾ÑĨ ÓıÐ°Ð»
ĠÐĽÐµÐ½ Ð¸Ð½Ð¸Ð»
Ġ202 2
ĠÑīÐ²ÐµÐ·Ð°ÑĢ ÑĥÐ½Ð°
ĠÐ±Ð°ÑĢ Ñī
ĠÑĢÐ¸Ð¸Ð´Ð°Ð» Ð¸Ð»
ĠÐ¡ÑĥÐ³ÑĬ ÑĢÐ°Ð»ÑĬÐµ
ĠÐ´ÐµÐ» ÐµÐ³
ĠÑĨÐ¾ÑħÓı Ð¾Ð³Ð¾
ĠÐ²ÑĭÐ¿ÑĥÑģÐº Ð½Ð¸Ðº
ÑĩÐºÓı Ð°
Ð´ ÑĥÐ»Ð°
Ð°ÑĢ Ð°Ð¼
Ð¸Ð½ ÑģÑĤÐ¸ÑĤÑĥÑĤ
ĠÐ² Ð°Ð»
Ð¸Ð· Ð¸Ð½
Ð¸Ñħ ÓĢ
Ð¸ÑĨ Ðµ
ĠÐºÓı ÑĥÐ½
Ð°ÑĢÐ°Ð» Ð»ÑĬÑĥÐ½
ĠÑħÑĬ Ð¸Ð·Ð°Ð±
ĠÑĪ ÑĥÑĢ
ĠÐĳ Ð°ÑĩÓı
ĠÐ³ÑĮÐµÑģ Ð´Ð°ÑģÐ°
ĠÐ±Ð¾ Ð»ÑĬ
Ð°Ð½Ð¸ Ð¹
ĠÐ±ÐµÑĤÓıÐµÑĢ Ð±Ð°ÑħÑĬ
ÐĲ Ð²
ĠÐĹ ÑĥÐ»
Ġ3 4
Ð¦ ÐµÐ±Ðµ
Ġ5 5
ĠÑĤÓĢ Ð¾ÑĨÐµÐ±ÐµÑģÐµÐ±
ĠÑĤÐ°ÑĢÐ¸Ñħ ÑĩÐ¸
ĠÐ±Ð°Ñħ Ð°Ð½Ð°
ĠÐ»ÑĬÐ°Ð± Ð°Ð±Ð³Ð¾
ĠÐºÐ¾Ð¼Ð°Ð½Ð´ Ð°ÑıÐ»ÑĬÑĥÐ»
ĠÑĩÑĥÑĢ Ð¸Ð·Ðµ
ĠÐ¿Ð¾Ð»Ð¸ÑĤ Ð¸ÐºÐ¸ÑıÐ»
ÐłÐ¾Ñģ ÑĥÐ»ÑĬ
ĠÐºÐ¾Ð´ Ð¾ÑĢ
Ð¦Óı ÑĥÐ¼Ð°Ð´Ð°
Ġ194 4
ĠÑĤÓıÐ°Ð´ÐºÑĬ Ð°Ð¹
ĠÑıÑĨ Ð°Ð»
ĠÑĥÑĩÐ°ÑģÑĤ ÐºÐ°ÑıÐ»ÑĬÑĥÐ»
ĠÐĳÐ¾ÐºÑĮ Ð¸Ð»Ð°Ð°Ð½
ĠÑĤÓıÐ¾ÑĨÐµÐ² Ðµ
ĠÑĤÐµÐ¼ Ð°ÑıÐ»Ð´Ð°
ĠÐºÐ¾ÑĩÓıÐ¾ Ð»ÑĬ
ĠÐĵÐµÐ½ ÑĥÐ±
ĠÑĨÐµÐ±ÐµÐºÐºÑĥÐ½ Ð³Ð¾
ĠÐ±Ð°ÐºÑĬÑĤÓĢÐµÑĢÑħÑĮ ÑĥÐ´ÐµÑħÑĥÐ½
ĠÐĽÑĬÐ°ÑĢÐ°ÑĤÓĢ Ð°
ĠÐļÐŁÐ¡Ð¡ Ð°Ð»ÑĬÑĥÐ»
) :
i n
ĠÐ± Ð¾Ð»ÑĮÐ½Ð¸ÑĨÐ°
ĠÐ´ Ð¾ÑĢ
ĠÑģ Ð°Ð³Óı
Ð¿ Ð¸ÑĤ
Ð°Ð·Ðµ Ð³ÑĥÐ½
ĠÐĵÓı Ð¾Ð»
Ð»ÑĬÑĥÐ½ Ð³Ð¾
ĠÐĳ Ð¸ÑĩÓıÑĩÓı
ĠÑĢÐ°Ð¹ Ñģ
ĠÐ¢ Ð°Ð²
ĠÐ³ÑĮÐµÑĩÓıÐ¾ Ð»ÑĬÐ¸ÑıÐ»Ð´Ð°
ĠÐ»ÑĬÐ¸Ð¼ Ð°Ð´ÑĥÐ»
Ñİ Ð±
ĠÐ°Ð½ Ð¸Ð½
Ðĳ Ð¸ÑħÑĮ
ĠÑħÓıÐ°Ð¶ Ð°Ð»ÑĬÑĥÐ»ÐµÐ±
ĠÑĪÐ°Ð³ÑĮÐ°ÑĢ Ð°Ð·ÑĥÐ»
ĠÐ°ÑħÐ¸ÑĢ Ð¸ÑģÐµÐ»
ĠÐŃ Ð»
ĠÑĢÐ°ÑĤ Ð°Ð½Ð¸Ð³Ð¸
Ġ7 5
ĠÐºÑĬÑĥÐ² Ð°ÑĤÐ°Ð±
ĠÐ½Ð°ÑĩÐ°Ð»ÑĮÐ½Ð¸Ðº Ð°ÑģÑĥÐ»
ĠÐĿÑĥÐ¶ ÐµÑĨÐ°
ĠÐ¡Ð°Ð¹Ð³Ð¸Ð´ Ð¿Ð°ÑĪÐ°
ĠÐ¸ÑģÐºÑĥÑģ ÑģÑĤÐ²Ð¾ÑıÐ»ÑĬÑĥÐ»
ĠÑĩÓıÐ²Ð°Ð» ÐµÐ±
ĠÐ¼ÑĥÐºÑĬ Ñģ
ĠÐ¿ÑĢÐ¾Ð´ÑĥÐº ÑĨÐ¸Ñı
ĠÐºÐ°Ð» ÐµÐ½Ð´
ĠÑħÓĢÐ°ÑĢ Ð¿
ĠÐ°ÑĢÑħÐ¸ÑĤ ÐµÐºÑĤ
Ð» ÐµÐ»
Ð°Ð· ÑĥÑħ
Ð¸Ð» Ñı
ĠÐ¼ Ð°Ð»ÑĬÑĥÐ½
ĠÐ» Ð°Ð±
ĠÐ»ÑĬ Ð°Ð»ÑĬ
ĠÐºÐº Ð°Ð½Ð¸Ð½
ĠÑħÓı Ð°ÑıÐ»
Ð¸Ð»ÑĬ Ð¸ÑıÐ»ÑĬÑĥÐ»
ĠÐĵÓı ÑĥÑĨÓı
ĠÐĳ Ð¸ÑĤÓıÑĥÐ½
Ð¸ÑıÐ»ÑĬ Ð°Ð¶
ĠÐľÑĥÑħÓıÐ°Ð¼Ð°Ð´ Ð¸Ð´Ð°
ĠÐ±ÐµÑĤÓıÐµÑĢ Ð»ÑĬÐ¸ÑıÐ»Ð´Ð°
Ðļ Ð¸Ð½Ð°Ð»Ð³Ð¾
ĠÐ°ÑħÓı Ð¸ÑıÐ»ÑĬÑĥÐ»
ÑĥÐº ÑĢÑĥ
ĠÐļÑĬ ÐµÐ´Ð¸
ĠÐ³ÑĮÐµÐ·ÑĥÐ» Ð³ÑĥÐ½
ĠÐ¥ÓıÐ°Ð¶ Ð°ÑĤ
ĠÐ¦Óı Ð°ÑĢ
ĠÐŀ Ð±
ĠÐ¥ÑĬ Ð²Ð°ÑĢ
ĠÐºÓĢ Ð²Ð°ÑĢ
ĠÐ¥Ð°Ñģ Ð°Ð»
ĠÐ¼Ð¸Ð½Ð¸ÑģÑĤÐµÑĢ Ð»ÑĬÐ¸ÑıÐ»ÑĬ
ĠÐ¿Ð°ÑĪÐ¼Ð°Ð½ Ð°Ð±
ĠÐ¥Ð°ÑģÐ°Ð²ÑİÑĢÑĤ Ð°Ð»ÑĬÑĥÐ»
ĠÐĵÓıÑĥÑģÐ¼Ð°Ð½ Ð¾Ð²
ĠÑħÓıÐ°Ð»ÑĤÓıÐ¸Ð·Ð°Ð± ÑĥÐ»Ð°
ĠÑĤÓıÐ°Ð´Ð²ÑĥÑģÑģ Ð°Ð½Ð°
ÐĺÐ½ ÑģÐ°Ð½
ĠÑĤÑĥÐ¼ Ð°Ð½ÐºÓı
Ð¾Ð»ÑĮÑĪ ÐµÐ²Ð¸Ðº
Ð°Ð»ÑħÓı Ð°ÑģÐ¸Ð»
ĠÐ´ÐµÐ¼ Ð¾ÐºÑĢÐ°ÑĤ
ĠÑĥÐ³Ð¾ Ð»Ð¾Ð²
Ð³ Ð°Ð½
Ðº ÐµÑĢ
Ð± ÐµÑĢÐ±
ĠÐº ÑĥÐ¼
Ñģ Ð¸
ĠÐ³Óı Ð°Ñĩ
ĠÐ°Ð± Ð¸ÑĩÓıÐ¾Ð³Ð¾
ĠÐł ÑĥÑħÓı
ÐµÐ¼ Ð°
ĠÐ³ÑĬ ÐµÐ¶
ĠÐ³ÑĮÐ°ÑĢ Ð¸ÑıÐ»ÑĬÐµ
ĠÐ¥Óı Ð°Ñģ
ĠÐ±ÑĥÐºÓıÐ¸Ð½ Ð¸Ð½
ĠÑħÐ°Ñģ Ð°Ð»Ð¸Ð»
ĠÑĤÓıÐ¾Ð±Ð¸ÑĤÓı ÑĥÐ½
ĠÐºÑĬÐ°Ð´ Ð°Ð»
Ð¸Ð·Ð°ÑĢ ÑĥÑĢÐ°Ð»
ĠÐ¼Ð°Ð³ÓıÐ°ÑĢÑĥÐ» Ð°Ð·Ð´Ð°
ĠÐ¿Ð°ÑĩÐ°Ð»Ð¸ÑħÑĬ Ð°Ð·ÑĥÐ»
ĠÑħÓıÑĥÐº Ð¼Ð°Ð±Ð¸
ĠÐĿÐ¸Ð»ÑĬ ÐµÐµ
ĠÑĢÑĥÐºÓıÑĥÐ½ Ð°ÑĢÐ¾
ĠÐ® Ð½ÑĥÑģ
ĠÐ·Ð°Ðº Ð°Ð³ÓıÐ°ÑĤ
ĠÑĢÐµÐ»ÑĬ Ð»ÑĬÑĥÐ½
Ġ194 3
ĠÐ±Ð¸Ñī Ð¸Ð·Ðµ
ĠÐľÐ°Ð» Ð°Ñĩ
ĠÐ´Ð°Ð½Ð´ÐµÑĩÓı Ð°ÑĢÐ°Ð±
ĠÐĶÐ¸Ð±Ð¸ÑĢ Ð¾Ð²
ĠÐºÐ²Ð°ÑĢ Ð°Ð½Ð°Ð±
ĠÐ¦ÐµÐ½ÑĤÑĢ Ð°Ð»ÑĬÑĥÐ»
Ð°ÑĤÑĮ ÑıÐ½
ĠÑħ Ð¾Ð»Ð°
Ð°ÑĤ ÑĢÐ°Ð»Ð´Ð°
ÑĥÑĢ Ð°Ð·ÑĥÐ»
ĠÐ»ÑĬ Ð»ÑĬ
ĠÐ»ÑĬ Ð°Ð²
ĠÐ»ÑĬ Ð¸Ð´Ð°Ð³Ð¾
Ð¶ Ð¸Ð´
ĠÑĩ Ð²ÐµÑĢ
ĠÑĩ Ð°Ð³ÓĢ
Ð¸ÑıÐ»ÑĬÑĥÐ» Ð°Ð»
ĠÐĳ ÑĥÐ³
ĠÑį Ð¿
ĠÐ½Ð°ÑħÑĬ Ð°ÑģÐ°Ð½
ĠÑĢÐ¸ÐºÓıÐºÓı Ð°Ð´Ðµ
ÑģÐº Ð¸ÑıÑģÑĥÐ»
ĠÐºÐ²ÐµÑĢ Ñī
ĠÐ¿Ð¸ÐºÑĢÑĥ ÑıÐ»ÑĬÑĥÐ»
ĠÑģÐ¿Ð¾ÑĢÑĤ ÑĪÐºÐ¾Ð»
ĠÐĿÐ¸Ð¶ ÐµÐ´Ð°
ĠÑĩÓıÐµÐ·Ð°Ð± ÑĥÐ»ÐµÐ±
ĠÐ»ÑĬÐ¸Ð¼ÐµÑĢ Ð°Ð»ÑĬÐµ
ĠÐºÐ°Ð¼ ÑĥÐ»Ð°ÑĢÐ¾
ĠÑģÐ¿Ð¾ÑĢÑĤÑģÐ¼ÐµÐ½ Ð°Ð»
ĠÐ¿ÑĢÐ¾ÐºÑĥÑĢÐ°ÑĤÑĥÑĢ Ð°ÑıÐ»ÑĬ
Ð¸ÑĩÓĢ Ð¾Ð³Ð¾
ĠÐ²Ð°Ð³Óı Ð·Ð°
ĠÐ¥ÓıÐ°ÐºÑĬÐ¸ÐºÑĬ Ð°ÑĤÐ°Ð»Ð´Ð°Ð³Ð¸
ĠÐ¿ÐµÐ´Ð°Ð³Ð¾Ð³Ð¸Ðº Ð¸ÑıÐ±
" )
ĠÐº Ð½
ĠÑĤ Ð°ÑĤ
Ð°ÑĢÐ°Ð± Ð³Ð¸
Ñĩ Ð¸Ð³Ð¸
ÑĥÐ´ Ð¸ÑıÐ·ÑĥÐ»
ÑħÓı ÐµÑħÑĮ
ĠÐ¢ ÐµÐ»
ĠÐĿ Ð°ÑģÑĢÑĥ
ÐĶ ÑĥÑĢ
Ð¼Ð°Ð½ Ð°Ð¿
ĠÐļÑĬ Ð°Ð½
ĠÐļÑĬ Ð°Ð´Ð¸
ĠÐ²Ð°Ñģ Ð°ÑģÐµ
ĠÐĽÑĬ Ð°Ð»ÐµÐ±
ĠÑĪÐ°Ð³ÑĮ Ð¸Ð´
ĠÐ»ÑĬÐ°Ð¹ Ð³ÑĥÐ½
ĠÐ±Ð°Ð»Ð°Ð³ÑĮ Ð°Ð»
ĠÐ±Ð¸ÑĩÓıÑĩÓı ÑĥÐ»Ð°ÑĢÐ¾
ÐĵÓı ÑĥÐ¼ÑĢÑĥ
ĠÑħÓıÐ°Ð´ÑĥÑĢ Ð¸Ð·Ðµ
ĠÐ´Ð¸Ðµ Ð³Ð¾
ĠÐ²Ð°Ðº ÑĨÐ¸Ð½
ĠÑĢÐ¾Ñħ ÐµÐ»Ð³Ð¸
ĠÑĩÓıÐµÐ·Ð°Ð± ÑĥÐ½Ð°
ĠÐ§Óı Ð°ÑĢ
ĠÑīÐ¸Ð² Ð°ÑģÐµ
Ð¾Ð»Ð¾Ð³ Ð¸ÑıÐ±
Ġ200 6
Ð¤ Ð¡
ĠÐ±ÑĥÑħÑĮÐµÐ½ Ð°Ð»
ĠÐ³ÓıÐ¸Ñģ Ð¸
ĠÐľÑĥÐ½ Ð°Ð³ÑĮÐ°Ð»
Ð½ÑĥÑģ Ð³Ð¾
ĠÐ°Ð³ ÐµÐ½ÑĤ
ĠÐ¼Ð°Ð³ÓıÐ°ÑĢ Ð´Ðµ
ĠÐľÐ°Ñħ ÑĥÐ»
ĠÐłÑĥÐºÓı Ð°Ð½Ð°
ĠÐ°Ð·Ð± Ð°ÑĢÐ°Ð»Ð´Ð°
ĠÑģÐ¸ÑıÑģ Ð°ÑĤ
ÐĲÑħÓı Ð¼Ð°Ð´
ÐĸÐ¸Ð½Ð´Ð¸ÑĢ Ð³Ð¾
Ð³ Ð°
ÑĥÐ» ÐµÐ·Ð´Ð°
ĠÐ³Óı Ð°Ð±
Ð¸Ð» Ð¾Ð²Ð°Ñģ
Ð¸Ð· Ð°Ñİ
ÑĨ Ð¸Ð¾Ð½
Ð¾ÑĢ Ð¾Ð´
ĠÐľ Ð¸Ñħ
Ð¿ Ð¾Ð·Ð¸ÑĨ
ÑıÐ» Ð¸
ĠÐ¢ Ð°Ð¼
ĠÐ¢ Ð°ÑĤÑĮÑıÐ½
ĠÐ±Ð¾ ÑıÐ»ÑĬÑĥÐ»
Ð¸Ð·Ð°Ð± Ð¸ÑıÐ»Ð´Ð°
ĠÐ°Ñģ Ñģ
ĠÐ¨ Ð¸ÑĢ
ĠÐĹ Ð°Ð³ÑĬÐ°Ð»
ĠÑĢÐµÑħ Ð°Ð½Ð°
ĠÐ³ÑĮÐ°Ð² ÑĥÐ»Ð°
Ð°Ð³ÓĢ Ð°ÑĤ
ĠÑĤÓĢ Ð°Ð¼
ĠÑĥÐ»Ðº Ð°Ð±Ð°Ð·ÑĥÐ»
ĠÐ³ÓıÐ¸Ð»Ð» Ð°Ð±Ð¸
ĠÐ±Ð¸Ð³ÑĮ Ð°Ð»ÑĬÐ¸
ĠÐ±ÑĥÐºÓıÐ¸Ð½ÑĩÓı Ð¸Ð½
ĠÐĵÓıÐ¸Ñģ Ð°ÐµÐ²Ð°Ñģ
ĠÐ¿ÐµÐ½Ñģ Ð¸Ð¾Ð½ÐµÑĢ
ĠÑħÓıÑĥÑħÑĮÐ±Ð°ÑħÑĬ Ð¸
ĠÑıÑĢÐ³ÑĬÐ¸Ð´ Ð³ÓıÑĥÑĨÓı
ĠÐ¾Ð±Ð»Ð°ÑģÑĤ Ð°Ð»ÑĬÑĥÐ»
ĠÑĢÑĥÐºÓıÐ¸Ð½ÑĩÓı ÐµÐ»
ĠÐĵÓıÐ°ÑħÑĮÐ°Ð» ÑĩÓıÐ¸
ĠÐŃÑĩ ÐµÐ´Ð°
ĠÐ¡ÐĴÐŀ ÑıÐ»Ð´Ð°
ÑĢ Ð°Ð¹
Ð°Ð³ Ð¸ÑıÐ½
Ð°Ñģ Ð¸ÑıÐ±
Ð°Ñģ Ð´Ð°Ð³Ð¸
ÐºÓı Ð°Ð½ÑĨÓı
ĠÑĤ Ð°Ð½Ðº
ĠÐ´ Ð¾ÑĢÐµ
Ð¸ÑĢ Ð³Ð¸
ĠÐ¿ Ð¾
Ð³ÑĮ ÐµÐºÑĬ
ĠÑĨÓı Ð²Ð°
ÐºÑĮ Ð°Ð»
ÑĥÑħÑĬ ÐµÐ³Ð¸
Ð¹ Ð¸Ð´Ðµ
ĠÐĳ Ð¸Ñĩ
ĠÐ·Ð°Ð¼Ð°Ð½ Ð°Ð»Ð´Ð°ÑģÐ°
ĠÐ°Ñģ ÑħÓıÐ°Ð±
ĠÐ´Ð°Ð½Ð´Ðµ Ð»ÑĬÐ¸ÑıÐ»Ð´Ðµ
ĠÐ½Ð°ÑħÑĬ ÑĢÑĥÑģÑģ
ĠÑĢÐ°Ð³Óı Ð¸Ð·Ðµ
ĠÑīÐ¸Ð± Ð´Ð°Ð¹
ĠÐ¼ÐµÑħ Ð°Ð½
ĠÐ¼ÐµÑħ Ð°Ð»Ð´Ð°Ð³Ð¸
ĠÑĢÐ°ÐºÓı ÑĩÓıÑĥÐ½
ĠÐºÑĬÐ²Ð°ÑĤÓı Ð¸Ð²
ĠÑĢÐ°ÑħÑĬÐ°Ð»ÑĬ Ð³Ð¸
ĠÐ°ÑħÐ¸ÑĢ Ð³Ð¸
ĠÑĢÑĥÐºÑĬ Ð·Ð°Ð±Ð°ÑħÑĬ
Ġ4 4
ĠÑĨÐ¾Ð³Ð¸Ð´ Ð°Ð·Ðµ
ĠÐ³ÑĮÐµÐºÑĬ Ð¾Ð½
ĠÐĳÐ°ÑĢÐº Ð°Ð»Ð°ÑıÐ»ÑĬÑĥÐ»
ĠÐºÐ°Ð¼Ð¸Ð» Ð°Ð±
ĠÑĤÐ°Ð² Ð¿Ð¸ÐºÑĬ
ĠÐºÐ°Ð³ÑĬÑĤ Ð¸Ð´Ð°
ÐĲÐ»Ð»Ð°Ð³ÑĮ Ð°ÑģÑĥÐ»
ĠÑģÑĥÐ± ÑģÐ¸Ð´
ĠÐ³ÐµÐºÑĤ Ð°ÑĢÐ°Ð»Ð´Ð°
ĠÐ±Ð°ÐºÑĬÐ±Ð°ÐºÐº ÑĥÐ»
ĠÑįÐ½ ÐµÑĢÐ³
ĠÐĲÐ·ÐµÑĢÐ± Ð°Ð¹Ð´
ĠÐ±Ð¸Ð»ÑĬÐ»ÑĬ Ð°Ð½ÑħÑĬ
Ð¾ÑĤÑĢ ÐµÐ±
ĠÐ£Ð¿ ÑĢÐ°Ð²Ð»ÐµÐ½
ÑĢ Ð¸Ð±
ÑĢ Ð¸Ðº
Ð½ Ð°Ð»Ð´Ð°
ĠÐ³ ÑĥÐ¼
Ðº Ð°ÑıÐ»ÑĬ
Ð± Ð¾ÐºÑĮ
Ð² Ð°Ðº
ĠÐĵ Ð¸Ð½
ĠÐ¼ Ð°
ĠÐºÓı Ð²Ð°Ð½
Ð°ÑĨ Ð¾
ĠÐ· Ð°Ð³ÑĮ
ĠÐļ Ðº
ĠÐļ ÐµÑĢ
ĠÐļ Ð²Ð°ÑĤÓı
ĠÐł Ð°Ð´Ð¸Ð¾
ÑĨÓı ÑĥÐ½
ĠÑĩÓı Ð¾Ð»ÐµÐ±
ĠÑĨÓıÑĥÐ½ Ð°Ð³Ð¸
ĠÐ°ÑħÓı Ð°ÑĢÐ°Ð±
ĠÐ§ Ð°ÐºÐ°ÑĢ
ĠÐºÐ¾Ð¼ ÑģÐ¾Ð¼Ð¾Ð»
ĠÐĵÓıÐ°Ð±Ð´ÑĥÐ» Ð»Ð°Ð³ÑĮ
ĠÐĵÓıÐ°Ð±Ð´ÑĥÐ» ÑħÐ°Ð»Ð¸ÐºÑĬ
Ñĭ Ð½
ĠÑĥÐ½ÑĤ Ð°ÑĢ
ĠÑħÓıÐ°ÑģÐ¸Ð» Ð°Ð·Ð´Ð°
ĠÐ±Ð¸ÑĤÓı Ð¸Ð·Ðµ
Ðĸ Ð°Ð¼
... "
ĠÑĨÓıÐµÑħ Ð°Ð½Ð°
ĠÑĢÑĥÑĩÑĩ Ð°Ð±Ð°Ð·Ð´Ð°
ĠÑĢÐ°Ñħ Ð¸Ð½ÑĩÓıÐµÐ»
ĠÐ¼Ð¸Ð½Ð¸ÑģÑĤÐµÑĢ ÑģÑĤÐ²
ĠÐ³Ð¾Ñĩ Ð¸Ð½Ð°ÑĢ
ĠÐ±Ð°Ð» ÑĥÐ³ÑĬ
ĠÑĦÐµÑĢÐ¼ ÐµÑĢ
ÐĲÐ²Ð°ÑĢ Ð°Ð³
ĠÐ¼Ð¸Ð½Ð¸ÑģÑĤÐµÑĢÑģÑĤÐ²Ð¾ ÑıÐ»ÑĬ
ĠÐĹÐ°Ð» Ð¼Ñĥ
ĠÐ¨Ð°Ð¿ Ð¸Ð³Óı
ÐĵÑĮÐ°Ð±ÑģÐ°Ð³ÓıÐ°ÑĤ Ð°Ð»Ð´Ð°
ĠÐºÓıÐ¸ÐºÑĬ Ð¾ÑıÐ»Ð´Ð°
ĠÐ²ÑĭÑģÑĤ Ð°Ð²Ðº
ĠÐĴÐ°ÑģÐ¸Ð» ÑĮ
Ð°Ð± Ð°ÑĨÐ°
ĠÐ³ÑĮ Ð¸ÑĤÓĢ
ÑĤ Ð¸Ð»
Ñģ ÐµÑĤ
ĠÐ³Óı Ð¸Ð´Ð°Ð»ÑĬÑĥÐ»
ĠÑģ ÑĩÐµÑĤ
ĠÐĵÑĮ Ð°Ð´Ð¸ÑĢ
ĠÐļ ÑĢÐ°Ñģ
ÑĨÓı Ð¸ÑıÐ»
ĠÑĩÓı Ð°Ð¼
ĠÑĤÓıÐ°Ð´ Ð±ÑĥÑģÑģ
Ñī Ð¸
ÐĵÑĮ ÐµÐ·Ð´Ð°
ĠÐ¦ Ð¾ÑĨ
ÑĦ Ð¸ÑĢ
ĠÑĦ ÐµÐ»ÑĮÐ´
ĠÐĵÓıÐ°Ð±Ð´ÑĥÐ» Ð³Óı
ĠÐ¿Ð¾Ð» Ð¸ÐºÐ»Ð¸Ð½
ĠÑĤÓĢ Ð°Ð³ÓĢ
ĠÐ¿ÑĢÐµÐ´ Ð¼ÐµÑĤ
ĠÐºÑĬÐ¾ÐºÑĬ Ð°ÑıÐ»ÑĬ
Ġ200 7
ÑĢÐ°ÑħÑĬ Ð¸Ð½Ð°Ð»ÑĬÑĥÐ»
ĠÑĢÐµÑĩÓı ÑĩÓıÑĥÐ½
ĠÐ¸Ð½ÑĤÐµÑĢÐ½ ÐµÑĤÐ°Ð»Ð´Ð°
ĠÐ¡Ð°Ð³Óı Ð°Ð´ÑĥÐ»
ÐĵÓıÐµÐ¼ÐµÑĢ Ð°Ð»
ĠÐ³ÑĢÐ°Ð¶Ð´ Ð°Ð½
ĠÐ¦Ð°Ð´Ð°ÑħÑĬ Ð°Ð±
ĠÐ¼Ð°ÐºÑĮ Ñĥ
ĠÐľÐ°Ð³ÑĮ Ð´
ĠÐĸÐ¸Ð´ÐµÑĢ Ð³Ð¾
ĠÐłÐ°Ð¼Ð· Ð°Ð½
Ġ ÑĥÐº
Ð³ Ð¸ÑıÐ·ÑĥÐ»
ĠÐ± Ð°ÑĢÐ°Ð¹
Ð°ÑĢ Ð¾Ð´
ĠÐº ÐµÑĢÐµÐ½
Ð°Ñģ ÐµÐ³Ð¸
ÐµÐ» Ð°Ð·ÑĥÐ»
Ð¾Ð» Ð°Ð³Ð¾
Ð¾Ð» Ð°ÑĢÐµÐ»
ĠÐ´ Ð°Ð²
ÑĤÓı Ð¸
ĠÑĨÓı ÐµÑĢ
ĠÑĢÐµ ÑĪ
ĠÐ¥ ÑĥÐ½
ĠÐļ Ð²ÐµÑĪ
ĠÐ³ÑĮÐ°ÑĢ ÑĥÐ»Ð°Ð³Ð¾
ĠÑħÑĬÐ² ÐµÐ·Ðµ
ĠÐĺ Ñħ
ĠÐ³ÓĢ Ð°ÑħÑĮÐ°Ð»
ĠÐĵÓıÐ°Ð±Ð´ÑĥÐ» ÐºÑĬÐ°Ð´Ð¸ÑĢ
ĠÐ½Ð°ÑħÑĬÐµ Ð³Ð¾
Ġ3 7
ÐĵÓı Ð°ÑĢ
ĠÑĨÓĢ Ð°ÑĢÐ°Ð»
ĠÑĢÐ¸ÑĤÓı Ð°Ð½Ð°
ĠÐ¸Ð½Ðµ Ð³ÓıÐ°Ð½
ĠÐºÐ²ÐµÑĪ Ð»ÑĬÐ¸
ĠÐºÐ°Ð¼ ÑĥÑĢÐ°Ð±
ĠÑĩÓıÐ°ÑħÓı Ð¸ÑıÐ±
ĠÑĢÐ¸ÑħÑĮÐ¸Ð·Ð°ÑĢ Ð¸Ð·Ðµ
ĠÑĢÐ¸ÑĩÑĩ Ð°ÑĢÐ°Ð»
ĠÐ»ÑĬÐ°Ð»Ð°ÑĢÐ¾ Ð°Ð½
ĠÐ²Ð¸ÑĤÓı ÑĥÐ»Ð°
ĠÐ³ÓıÐ¾ÑĢÑħÑĬ Ð¾Ð´Ð°
ĠÐĵÑĬÐ¾ÑĢÐºÑĮ Ð³ÑĮÐ°ÐºÐ²Ð°ÑĢÐ¸
ĠÐ³ÓıÐ°Ð»Ð°Ð¼ Ð°ÑĤÐ°Ð»
ĠÐ¥ÓıÐ°Ð»ÑĤÓı Ð¸
ĠÑĨÓıÐ¸ÐºÓı ÑĥÐ½
ĠÐľÑĥÑĢÑĤÐ°Ð·Ð°Ð³ÓıÐ°Ð» Ð¸ÐµÐ²
ĠÐ¼Ð°Ð» Ð°Ð¸Ðº
ĠÐ¡ÑĤÐ°Ð» Ð¸Ð½
ĠÐ¥ÓıÐ°Ð¹Ð´ Ð°ÑĢÐ±
ĠÑĩÓıÐ°Ð» Ð³Óı
ĠÐĴÐµÑĢÑħÐ¾Ð² Ð½ÑĭÐ¹
ĠÑĢ Ð¸ÐºÑĬ
Ð°Ñı Ð¹
ĠÐĲ ÑģÑĤÑĢ
ĠÑĢÐ¾Ñģ Ð°Ð±Ð°Ð·Ð´Ð°
ĠÐĵÓı Ð¸ÑģÐ°
Ð¸Ð´ Ð¸Ð½
ĠÐĳ Ð¾Ð¶
ĠÐ³ÑĮÐ¾ÑĢÐºÑĮ Ð¾
Ð¾ÑĨ Ð¸
ĠÐ±Ð°ÑħÑĬ Ð¸Ð½Ðµ
ÐµÐ»ÑĮ ÑħÐ¾Ð·
ÑģÐº Ð¾Ðµ
ÐµÑĨ Ð°Ð³Ð¸
ĠÐ¹Ð¸ÐºÓı ÑĥÐ½Ð°
ĠÐ²Ð°ÑĨ Ð°ÑģÑĥÐ»
ĠÐ·Ð°Ðº Ð°Ð·
ĠÑĢÐ¸ÑħÑĮÐ¸Ð·Ð°ÑĢ ÑĥÐ»ÐµÐ»
Ð¦Óı Ð°ÐºÑĬ
ĠÑħÓıÐ¸ÑģÐ°Ð±Ð°Ð»Ð´Ðµ Ð³Ð¸
ĠÐ±Ð¸ÐºÑĮ ÑĥÐ½
ĠÐ³ÓıÐ°ÐºÑĬÐ»Ñĥ Ð³Ð¸
Ð°Ð»ÑĮ ÑĤ
ÐĿÐ¸Ð¶ ÐµÑĨÐ°
ĠÑĤÐ²Ð¾ÑĢÑĩ ÐµÑģÐº
ĠÑıÑħÑĬ Ð°Ð½Ð°
ĠÐ¼Ð°Ð³ÓıÐ°ÑĢ Ð´Ð°
ĠÐ¿Ð°ÑĢÐ»Ð°Ð¼ÐµÐ½ÑĤ Ð°Ð»ÑĬÑĥÐ»
ĠÐ³ÑĮÐ°Ð»Ð±Ð°Ð´ÐµÑĢ Ð¸Ðµ
ĠÑģÐ°Ð¹Ð¸Ð³ÑĬ Ð°ÑĤ
ĠÐļÑĬÑĥÑĢÐ± Ð°Ð½Ð¾Ð²
3 9
Ð» Ð¾ÑĤ
Ð´ Ð°ÑıÐ½
Ð°Ð½ Ð°ÑħÐ°
ĠÐ² Ð¾ÑĢÑĤ
ĠÐ¿ Ð°Ð»
ĠÐ±ÑĥÐºÓı Ð°Ð³Ð¾
ĠÑĨÓı ÑĥÑĢÐ°Ð»
Ð¸Ðº Ð¾Ð»Ð¾
ĠÐ¡ Ð¸Ð±Ð¸ÑĢ
ĠÐ¡ Ð¨ÐĲ
ĠÐĳ ÑĥÑħ
ĠÐĳ Ð°ÑģÐ¸ÑĢ
Ð¾Ð¼ Ð±
ÑĥÐ»ÑĬ Ð³Ð¸
Ð¸Ð·Ð°Ð± ÑĥÐ»ÐµÐ»
ĠÑĨÓıÐ°Ð» Ð°ÑĢÐ°Ð²
ĠÐĶÐ°Ð³ÑĬÐ¸ÑģÑĤÐ°Ð½ Ð°Ð»Ð´Ð°Ð³Ð¸
ĠÐ³ÑĮÐ°Ð±ÑĥÐ½ Ð¸Ð»Ð°
ĠÐ±Ð¾Ñģ Ð°ÑĢÐ°Ð»
ÐĶ ÑĥÑĨÐ°
ĠÐĸ ÑĥÑĢÐ½Ð°Ð»
ĠÐ°Ð² Ð¸
ĠÐ³ÑĮÐ°Ð½ Ð°Ð»
ÑģÑĤ ÑĢÑĥÐº
Ðĳ Ð¸ÑĨ
ĠÐ¥ÓıÐ°Ð¶ Ð¸ÑıÐ²
ĠÑħÑĬÑĥÐ»ÑĥÑħÑĬ Ð°Ð·ÑĥÐ»
ĠÑĢÐ¾ÑģÑĥ ÑĨÐ¾ÑıÐ·ÑĥÐ»
ÑģÐº Ð¸ÑıÑģ
ĠÐ¼Ð°Ð³ÓıÐ¸ÑĪ Ð°ÑĤÐ°Ð»
ÐŁ ÐµÑĤÐµÑĢÐ±ÑĥÑĢÐ³
ÑĥÐ³ÑĬ Ð°Ð¹
ÑĥÐºÑĬ Ð°Ð»
ĠÐ´Ð¸Ð½ Ð³Ð¸
ĠÐºÑĬÐ¾ÐºÑĬ Ð°Ð±Ð¸
ĠÐ³ÓıÐ°Ð´Ð°Ð¼Ð°Ð· Ð³Ð¸
ĠÑĥÑĩÐ¸ÑĤÐµÐ»ÑĮ Ð·Ð°Ð±Ð°Ð·
ÐļÑĬ Ð¾ÐºÑĬ
ĠÐ³Ð¾Ñĩ Ð°Ð½Ð°
ĠÑĢÐ°Ð¹Ð°Ð´Ð¼Ð¸Ð½Ð¸ÑģÑĤÑĢÐ°ÑĨ Ð¸ÑıÐ»Ð´Ð°
ÐµÑĢÑĤ Ð¼Ð°
ĠÑĤÓıÐ°Ð´ÐºÑĬ Ð°ÑıÐ»
ĠÐ³ÑĮÑĥ Ð¸Ð½Ð°Ð±
ĠÐ±Ð°ÑĢÐºÐ°Ð» Ð°ÑıÐ»ÑĬÑĥÐ»
ĠÑħÓıÐ¸Ðº Ð¼
ĠÐ´Ð¾ Ñı
ĠÐ»ÑĬÐµÐ± ÐµÑĢÐ³Ð¾
ĠÑĦÐ°ÐºÑĥÐ»ÑĮÑĤÐµÑĤ Ð°Ð»Ð´Ðµ
ĠÐ³ÑĮÐ¸ÑĤÓıÐ¸Ð½ Ð°Ð¹
Ð¢ÓıÐ°Ð´Ðµ Ð³ÓıÐ°Ð½Ð°Ð²
ÐµÐ´ÐµÑĢÐ°Ð» Ð¸ÑıÐ»
u s
ĠÐ± Ð¸ÑĤÓĢ
ĠÐ³ÑĮ ÐµÑĢÑģ
Ð»ÑĬ Ð¸ÑıÐ»Ð´Ð°Ð»ÑĬÑĥÐ½
Ð¸Ð½ Ð¸Ð½
Ð°Ñħ Ð¸ÐºÑĮ
ÐµÐ» Ð°Ð»ÑĬ
ĠÐ»ÑĬ Ð°ÑĢÐ°Ð±
ĠÐ¥ ÑĥÑĩ
ĠÐ¡ Ð°Ð±
ĠÐ¡ Ð¾Ð±ÑĢÐ°Ð½
ĠÐ½Ð¸Ð»ÑĬ Ð³Ð¸
ĠÐ±Ð¾ ÐºÓı
ĠÐ³ÓıÐµÐ¼ÐµÑĢ Ð»ÑĬÑĥÐ½
ĠÐ¶Ð¾ ÑıÐ»ÑĬÐµ
ĠÑĢÐ°Ð³Óı Ð°Ð±Ð°Ð·Ð´Ð°Ð»ÑĬÑĥÐ½
ĠÐ±Ð¾ÐºÑĮ Ð°Ð½Ð°
ĠÑĨÓıÐ¸ÐºÓıÐºÓı Ð¸Ð½Ð°Ð±Ð¸Ð·Ðµ
ĠÐ»ÑĬÑĥÐ³Óı Ð¸Ð·Ð°Ð±Ð¸Ð·Ðµ
ĠÐ»ÑĬÐ¸ÐºÓıÐ°Ð± ÑīÐ¸Ð½Ð°Ð±
ĠÐ»ÑĬÐ°Ð·Ð°Ð± ÑĥÑĢÐ°Ð±
ĠÑħÓıÐ°ÑģÐ¸Ð» Ð°Ð»Ð³Ð¸
ĠÐŀ ÑĢ
ĠÐ°ÑģÐ»Ð¸ÑıÐ± Ð»ÑĬÑĥÐ½
ĠÐ¾ÑĤÐ´ÐµÐ» Ð°Ð·ÑĥÐ»
ĠÐ§Óı Ð°ÑĢÐ°Ð´Ð°
ĠÐ¸Ð¼Ð°Ð¼ Ð»ÑĬÑĥÐ½
ĠÐ±ÑĥÑħÓı ÑĥÐ»ÐµÐ±
ĠÑĤÐ°ÐºÑĬÑģÐ¸ÑĢ Ð°Ð»
ĠÐĵÓıÐ°Ð´ Ð°ÑĤ
ĠÐĵÑĮÐµÐ´Ð¸Ð½Ð°Ð± Ð³Ð¾
Ġ199 0
ĠÐ³ÓıÐ°Ð¶Ð°Ð¸Ð± Ð³Ð¾
ĠÑģÑĥÐ½Ð½ Ð°ÑĤÐ°Ð±
ĠÐ¥ÓıÐ°Ð¹Ð´ Ð°ÑĢ
ĠÐķÐ³Ð¸Ð¿ ÐµÑĤÐ°Ð»ÑĬÑĥÐ»
ĠÐ²Ð¸Ð» Ð°ÑıÑĤ
! !
ĠÐ³ Ð¸ÑĢ
ĠÑĢ Ð°Ð¼Ð°Ð·Ð°Ð½
Ð¸Ð½ ÑĩÓĢ
ĠÐ¼ Ð¾Ð±Ð¸Ð»
ĠÐ³ÑĮÐ°Ð± ÑĥÐ³Ðµ
Ð¸ÑĢ ÐºÑĬ
ĠÐ¿ ÑĥÑĢ
ĠÐľ Ð¸Ðº
ĠÐľ ÐµÑĤÑĢ
ĠÐ¸ ÑĤ
Ð´Ð°Ñģ ÐµÐ±
ÐµÐ¹ Ñħ
ÑħÓı Ð°ÐºÑĬ
ĠÐĿ Ð¾Ð²
Ð°Ð±Ð°Ð·ÑĥÐ» ÑĬ
ĠÐ¿ÑĢ Ð¸Ð²
ĠÐ·Ð°Ð¼Ð°Ð½ Ð°Ð»Ð´Ð°Ð³Ð¸
ĠÐ±Ð¾Ñģ Ð¸
ĠÐ±Ð°ÑħÑĬ ÑĥÐ½ÐµÐ±
ĠÑĦ Ð°ÑĢ
ĠÑĢÐ°ÑĩÓı ÑĥÐ½Ð°Ð°Ð½
ĠÐ±Ð°Ñĩ Ð¸Ð½Ð°Ð»ÑĬÑĥÐ»
ĠÐ¼ÑĥÑħÑĬ Ð°Ð·Ð´Ð°
ĠÑĢÐ¸ÐºÓıÐºÓı Ð°Ð´Ð°
ĠÐºÐ¸Ð´ Ð°Ð³
ÑĥÑĪ ÐµÑĤ
ĠÑģÑĤ Ð°ÐºÐ°Ð½
ĠÑĢÐ¾ÐºÑĮ ÑĥÐ»ÐµÐ»
Ġ8 5
ÑħÓıÐ°Ð¶ Ð¸ÑıÑģ
ĠÐ¶Ð°Ð¼Ð³Óı Ð¸ÑıÑĤÐ°Ð»ÑĬÑĥÐ»
ĠÐĲÐ½ Ð´ÑĢ
ĠÑĢÐ°Ð´Ð¸Ð¾ ÑıÐ»ÑĬÑĥÐ»
ĠÑĤÑĥÑĢÐ½Ð¸ÑĢ Ð°Ð»ÑĬÑĥÐ»
ĠÐ¿Ð°ÑĪÐ¼Ð°Ð½ Ð»ÑĬÐ¸
ĠÐ¶ÑĥÐ± Ð°Ð½
ĠÑĤÓıÐ°Ð´ÐºÑĬ Ð°Ð½Ð°
ĠÐ¼Ð» ÑĢÐ´
ĠÑħÐ¸Ð½ ÐºÓı
ĠÐ³ÑĮÑĥÐ¼ÐµÑĢ Ð°Ð»Ð´Ð°
ĠÐ¼Ð°Ð³ÓıÐ½ Ð°ÑıÐ»ÑĬÑĥÐ»
ĠÐ¨ÐºÐ¾Ð» Ð°Ð»ÑĬÑĥÐ»
ĠÐºÑĬÐ²Ð°ÑĤÓıÐ¸Ð± ÐµÑħÑĥÐ½
ĠÐºÑĬÐ°Ð² Ð¼
ĠÐ¥Ð°Ð´ÑĥÑģ ÐµÐ±
ĠÑħÐ°Ð· Ð¸Ð½Ð°
ĠÐ¯ÑĢ Ð°Ð³ÑĬ
Ð¥ÓıÑĥÑĢÐ¼Ð°ÑĤ Ð¸ÑıÐ»
ÐĺÐ¼ Ð°Ð¼
ĠÐĽÑĬÐ¾Ð½Ð´Ð¾ Ð´Ð°
Ð³ Ð°ÑĢ
ÑĥÐ» Ð³Ð¸
ĠÐ± Ð°ÑĢÐ°Ð»
ÐµÐ» Ð¸
Ñĩ Ð°Ð»
ĠÑħÓı Ð°Ð¼Ð°Ð´
ĠÑĨÐ¾ Ð»ÑĬÑĥÐ½
Ð°ÑħÓı Ð¼
Ð¾Ð± Ð°Ð»
ĠÐł ÐµÑħÑģ
ĠÐºÑĬÐ¾ ÑħÓıÐµÑħÑĮ
ĠÑĢÐ°Ð¹Ð¾Ð½ Ð°Ð·Ð´Ð°ÑģÐ°
ĠÐ¸Ð½ Ð°
ĠÐŁ ÐµÑĤÑĢ
ÑĦ ÑĦ
Ðļ Ð¾Ð»
ĠÐ¶Ð°Ð½ Ð¸ÑģÐ°Ð½
Ðľ Ð°ÑĪ
ĠÐĵÓıÐ°Ð» Ð¸ÑĨÐ°
ĠÐĲÑħÓı ÑĥÐ»Ð³Ð¾ÑħÓı
ĠÑĨÐµÑĢÐµ Ð³Ð¾
ÑĩÐ°Ð³Óı Ð¸Ð³Ð¸
Ġ4 6
ĠÑĢÐ°Ñĩ Ñĩ
ĠÐ¸Ð¼ Ð³ÓıÐ°Ð»
ĠÐºÑĬÐ¾ÐºÑĬ Ð³Ð¾
ĠÑħÓıÐ°ÑĢÐ°ÐºÐ°ÑĤ ÑĩÐ°Ð³ÓıÐ¸
ĠÐ¿Ð°ÑĢ Ñģ
ĠÐĵÓıÐ°Ð»Ð¸ÐµÐ² Ð°ÑģÑĥÐ»
ĠÐºÐµÑĩÓı Ð³Ð¸
ĠÑĨÓıÐ°Ð¹ Ð¸
ĠÐ¶ÑĥÐ± Ð°ÑĢÐ°Ð±
ĠÑĨÐµÐ±ÐµÑĤÓıÐµÐ·Ð°Ð± Ð¸Ð·Ðµ
ĠÑĩÓıÑĥÐ¶ÑĥÐ³ÓıÐ°Ð´Ð°Ð½ Ð°Ð»ÑĬÑĥÐ»
ĠÐ¿ÑĥÐ» Ð°Ð½Ð°Ð²
ĠÐ¼Ð°Ð³ÓıÐ°ÑĢ ÑĥÑħÑĬÐµ
Ð´ÑĥÐ· Ð´Ð°
ĠÐ¼Ð°Ð½Ð·Ð¸Ð» Ð°Ð»ÑĬ
Ð°Ð·Ð´ Ð°Ð³ÑĥÐ½
ĠÑįÑħÐµÑĤ ÑĥÐ½
ĠÐĲÐ¼ÐµÑĢ Ð¸ÐºÐ°ÑıÐ»ÑĬÑĥÐ»
ĠÐļÑĬÐ°Ñģ ÑĥÐ¼
ÐłÐ°Ð¹Ð¾Ð½ Ð°Ð»Ð´Ð°
ĠÐ¿ÐµÑĢÐµÐ´ Ð°Ñĩ
4 5
ÑĢ Ð°Ð³ÑĮ
Ð½ Ð°Ñģ
ĠÐ³ÑĮ Ð°ÑģÑĥÐ»
ĠÑĢ Ð°Ð¾
Ð°Ð³ Ðµ
Ð°Ð· Ð³Ð¾
ĠÐ² Ð°Ð³ÑĮÐ°Ð±
ĠÐ»ÑĬ ÐµÐ¹
ĠÑģ Ð°Ñģ
ĠÐļ ÑĥÐ¼
Ð¸Ð»ÑĬ Ð»ÑĬÐ°Ð½Ð°
ÑıÐ» Ð³Ð¸
ÑĥÐ´ Ð¸ÑıÐ»
ĠÐ±Ð¸ÑĨ Ð¸Ð½Ð°
ĠÐ¿ÑĢ Ð¾Ð²
ĠÐ°Ð´ ÑĢÐµÑģ
Ð°Ð¸ Ð´Ð°
ĠÐ±ÑĥÐºÓıÑĥÐ½ Ð¸Ð½
ĠÑĢÐ¾ÑģÑĥ ÑĨÐ¾ÑıÐ²
ĠÑĤÓĢ ÑĥÐ±
ĠÐ¤ Ð¡
ĠÐ³ÓıÐ°Ð´Ð°Ð¼Ð°Ð·ÑĥÐ» Ð³ÑĥÐ½
Ġ6 00
ĠÐ¾ÑĤÐ´ÐµÐ» Ð°Ð»ÑĬ
ĠÑĢÐ¾Ñħ Ð°Ð»Ð¸Ð»
ĠÐ±Ð°Ð¹ÑĢÐ°Ð¼ Ð°Ð»ÑĬÑĥÐ»
ĠÐ³ÑĮÐ°Ð±ÑĥÐ» Ð°ÑĢÐµÐ±
ĠÐ²ÑĥÑģÑģ Ð°Ð½Ð°
ĠÐ¦ÓıÐ°Ð» Ð´Ð¾ÑħÑĬ
ĠÐ»Ð¸ÑĤÐµÑĢÐ°ÑĤÑĥÑĢ Ð¸ÑıÐ±
ÑĥÐ¼Ð°Ð´ Ð¸ÑģÐµÐ·ÑĥÐ»
Ð¸ Ð°Ð½
Ð¾ Ð¿ÐµÑĢ
ÑĤ ÐµÐº
Ð¸Ð½ Ð´Ð°
ĠÐ±Ñĥ Ð³ÑĮ
Ð°ÑĤ Ð°Ð·
ĠÐºÑĬ Ð°Ð»Ð¸
Ð¸ÑıÐ» Ð´Ð°ÑģÐ°Ð³Ð¸
Ð¸ÑıÐ± Ð°Ð·Ðµ
ĠÑĢÐµ ÐºÓĢ
ĠÐĲ Ð¢Ðļ
ĠÐł Ð¾Ñħ
ĠÐĵÓı Ð°Ð½Ð´Ð°Ð»
Ð¸Ð½Ð°Ð± ÑĥÐ»Ð°
ĠÑīÐ² ÐµÐ»Ð°
ĠÐ¢ ÑĥÑĢÐ½Ð¸ÑĢ
ĠÐ²ÑĥÐºÓı Ð°Ð½Ð¸Ð»Ð°
ĠÐ²ÑĥÐºÓı ÑĥÐ½Ð°Ð°Ð½
ĠÐ±ÐµÑĤÓıÐµÑĢ Ð°Ð»Ð´Ð°
ĠÐ±ÐµÐ³ÑĮ Ð¸Ð»Ð°ÑĢÐ¾
ĠÐĹ Ð°Ð¼
ĠÐ½ÑĥÑħÐ¼Ð°Ð»ÑĬÑĥÐ» ÐµÐ·Ð´Ð°
ĠÐ¼ÑĥÐ½ Ð³Ð¸
ĠÐľÐ°ÑħÓı Ð°Ð¼Ð°
ĠÑĢÐ°Ð³ÑĮ ÑĥÐ»ÐµÐ±
ĠÑıÐ½ Ð²
ĠÐ±Ð¸ÑĤÓı Ð°Ð½Ð°
ĠÑĢÐ¸ÑħÑĮ ÑĥÐ»Ð°
ĠÐ¼Ð°Ð³ÓıÐ¸ÑĪÐ°ÑĤ Ð³Ð¸
ĠÐ³ÓıÐ°Ð´Ð°Ð¼Ð°Ð· ÑĥÑħÑĬÐµ
ĠÑĨÐµÐ² ÐµÑħÑĥÐ½
ĠÐĶÑĥÐ½ Ð³Ð¸
ĠÐ¶ÑĥÑĢÐ½Ð°Ð» Ð°Ð»ÑĬÑĥÐ»
ĠÐ³ÑĮÐ°Ð±Ð¸ÑıÐ»ÑĬÑĥÐ» ÑĬ
ĠÐ±Ð°Ð» Ð»
ĠÐºÐ¾Ð½ÐºÑĥÑĢÑģ Ð°Ð»ÑĬÑĥÐ»
ĠÑĢÐ°ÑħÓı Ð¼Ð°ÑĤ
ÐĵÑĮÐ°Ð½ Ð¸Ð±
ĠÑħÐ°ÑģÐ¸ÑıÑĤ Ð°Ð»
ĠÑĤÐ°Ð² Ð±Ñĥ
ÐµÑıÐ» Ð´Ð°Ð»ÑĬÑĥÐ½
ĠÑħÑĥÐ´Ð¾Ð¶ ÐµÑģÑĤÐ²ÐµÐ½
ĠÐ¢ÐµÐ¼Ð¸ÑĢ ÑħÐ°Ð½
ÑĢÑĥÐº ÑĤÑĥÑĢ
Ð»Ð°ÑĤ Ð¾Ð½
ĠÐĵÑĮÐ°Ð¼ ÑĥÑīÐ¸
ĠÐºÓıÐ°Ð»Ð³Óı Ð°ÑıÐ»Ð´Ð°
ĠÐ±Ð°ÑĤÓıÐ¸Ð±Ð°ÑĤÓı Ð¸ÑıÐ»
Ð² ÑĢÐ¾Ð¿
Ð· Ð°Ð²
Ñħ Ð°ÑĢ
Ð°Ñģ Ð¸
Ð¾Ñģ Ð°ÑĢÐ¾
Ð¿ Ð¸ÑĢ
Ð´Ð°Ð» ÑĢÐ¾Ñģ
ĠÐ¡ Ð°ÑĤ
ĠÐ¿ÑĢ ÐµÐ¿
ĠÐ¶Ð¸Ð½ Ð´Ðµ
ĠÑĢÐ¾ Ð»ÑĬ
Ð¡ Ð¨
ĠÐĸ Ðļ
ĠÑĨÐµÑĢ ÐµÐºÐºÑĥÐ½
ĠÐ¤ ÐĲÐŁ
ĠÑħÐ¸ÑĢ ÑĥÑĢÐ³
ĠÑĥÑĩÐ¸ÑĤÐµÐ»ÑĮ Ð·Ð°Ð±Ð°Ð·Ðµ
ĠÑģÑĥÑĢ Ð°ÑĤÐ°Ð»Ð´Ð°
ĠÑĩÑĥÑĢ ÑĥÐ½
ĠÑĤÐ¾ÑħÑĤÑĥÑĢ Ð°ÑģÑĥÐ»
ĠÐĺÑģ Ð°Ð½
ĠÐ¿ÑĢÐµÐ·Ð¸Ð´ÐµÐ½ÑĤ Ð°Ñģ
ĠÐºÑĮÐ²Ð°Ð³ÑĮ Ð¸
ĠÐ²ÐµÑĤÐµÑĢ Ð°Ð½Ð°Ð»
ĠÐ¸Ð½ÑĦÐ¾ÑĢÐ¼ Ð°Ð»Ð°ÑĤ
ĠÐ¼ÑĥÐ½Ð¸ÑĨÐ¸Ð¿ Ð°Ð»Ð¸ÑıÐ»
ĠÐ³ÓıÐ¾ÑĢÑħÑĬ Ð°Ð±Ð¸
ÐĶÑĥÐ½ ÑıÐ»
ĠÑģÐ¸Ñı ÑħÓĢ
ĠÐ³Ð¸Ð¼Ð½Ð°Ð· Ð¸ÑıÐ»Ð´Ð°
ĠÐ³ÓıÐ°Ð» ÑħÑĥÐ»
ĠÐ¸ÑĢÑģ Ð°Ð»ÑĬÐµ
Ġ202 1
ĠÑĤÐµÐ¼ Ð°
ĠÑĢÐ°Ðº ÐºÑĥÐ½
ĠÑģÐ°Ð¹ÑĤ Ð°Ð»Ð´Ð°
ĠÐ±Ð°ÑħÓı Ñģ
ĠÑħÓĢÐ°ÐºÑĬ Ð°Ð»ÑĬÑĥÐ»ÑĬ
Ð½Ð°Ð´ Ð·
Ð» Ð¾Ð¶
ĠÐ³ÑĮ Ð°Ð·
ĠÑħ ÑĥÐ»
Ð°Ñħ Ð°Ð»Ð´Ð°
ĠÐ³Óı Ð¸ÑıÐ»ÑĬÐ°Ð¶
ÑĥÑĢ Ð°Ð·Ðµ
Ð°Ð¼ Ð¸Ð·
Ð¸Ð» Ð¸
Ð¶ Ð°Ð½Ð°Ð»Ð´Ð°
Ð°Ð³ÑĮ Ð¸Ð´
Ð³ÑĮ Ð¸
Ð¸Ð± Ð¸ÑĤÓĢ
Ð¸ÑģÑĤ Ð°Ð·Ðµ
ĠÑģÐ¾Ð½ Ð¸Ð»Ð°Ð±
ĠÐĵÓı ÑĥÐ±
ĠÐĳ Ð¾Ñģ
ĠÐĳ ÑĥÑĤ
ĠÐ¥Óı Ð¾ÑģÐµÐ½
ĠÑĢÐ°ÑħÑĬ ÑĥÐ½ÐµÐ»
Ð°Ð³ÓĢ Ð¸ÑĢ
ĠÐ²Ð°ÑĩÓı Ð°ÑĢÐ°Ð±
ĠÑĢÐµÐºÓı ÐµÑħÑĬÐµ
ĠÑĢÑĥÐºÓıÐ¸Ð½ Ð³Ð¸
ĠÑħÓıÐ°Ð´ÑĥÑĢ Ð°ÑĢÐ°Ð±
ĠÑĢÐ¸ÑħÑĮ ÑĥÐ½
ĠÐ½ÑĥÑħÐ°Ð»ÑĬ Ð³Ð¸
ĠÐ±Ð°Ð¹ÑĢÐ°Ð¼ Ð°Ð»Ð´Ð°
ĠÑĩÓĢ ÐµÐ»
ĠÐ±Ð°Ñī Ð°Ð´
ĠÐ³ÓıÐ°ÑĤÓı Ð¸Ð»ÑĬÐ¸
ĠÐ³ÓıÐ°ÑĤÓı Ð¸ÑĢÐ°ÐºÑĮ
ĠÐ©Ð°Ð¹ Ð¸Ð½
ĠÐĲÐ´ Ð°Ð¼
ĠÐĳÐ°ÐºÑĬ Ð»ÑĬÑĥÐ»
ĠÑĢÐ¸Ñĩ ÑĥÐ½
ĠÐ¼Ð°ÑĤÐµÑĢ Ð¸Ð°Ð»Ð¸ÑıÐ±
ĠÑĢÐ°Ð·Ð¸Ð»ÑĬ Ð°Ð½Ð°
ĠÑĨÓıÐ¾Ð´Ð¾ÑĢ Ð»ÑĬÐ¸
ĠÐĵÑĮÐ¸Ð³ÑĮ Ð°Ð»ÑĬÐ°
ĠÐ¸ÐºÑĬ Ð»Ð¸Ð¼
ĠÑįÐºÑģÐ¿ÐµÑĢÑĤ Ð°Ð·
ĠÐłÑĥÐºÑĬ Ð¸ÑıÑĤ
ĠÐ½Ð°ÑģÐ»Ñĥ ÑıÐ»ÑĬÑĥÐ»
ÐĳÐ°Ð¹ Ð±Ð¸ÑħÑĮ
ĠÑĢÐ°ÐºÓıÑĩÓı Ð°ÑĢÐ°Ð±
ÑĥÑĤÓıÐ°Ð» Ð¸Ð±
ĠÐ¿Ð» Ð°Ð½Ð°Ð»
ÑĢ Ð°Ð³Óı
Ð³ Ð°ÑĤ
Ð»ÑĬ Ð°Ð³Ð¸
Ð· Ñİ
Ð¸Ð½ ÑĤÐµÑĢÐ½
ĠÑģ Ð¾Ð±ÑĢÐ°Ð½Ð¸ÑıÐ»ÑĬÑĥÐ»
ĠÐ³ÑĮÐ°Ð± Ð¸ÑıÐ»ÑĬ
ĠÑĨÓı Ð°ÑĤ
ĠÑī Ð¸Ð½Ð°Ð±
ĠÐĶ Ð°Ð³ÑĮÐ°Ð»
Ð¸Ð´ Ð°Ð»ÑĬÑĥÐ½
ĠÐ±Ðµ Ð¶
ĠÐ¡ Ð°Ð³ÓĢ
ĠÑį ÑĢ
ĠÐ±Ð¸ÑħÑĮ ÑĥÐ»Ð°ÑĢÐ¾
ĠÐ³ÓıÐ°ÑĢ Ð°Ð´
Ð¸ÑĩÑĩ Ð°Ð½
ĠÑıÑģ Ð°Ð»ÑĬ
ĠÐ»ÑĬÑĥÐ³Óı Ð°ÑĢÐ°Ð²
Ġ3 2
ĠÐ¼ÑĥÑħÑĬ Ð°Ð»Ð´Ð°ÑģÐ°
ĠÑĢÐ°Ð³ÑĮ ÑĥÐ»Ð°Ð³Ð¾
ĠÐºÓıÐ°Ð»ÑĬ Ð°Ð»
ĠÐ±Ð¸ÑĩÓıÑĩÓı Ð¸Ð·Ð°Ð±ÑĥÐ½Ð°
ĠÐºÑĬÐ¾ÑĤÓı Ð°ÑĢÐ°Ð±
ĠÐ³ÑĬÐ¾ÑĢÐºÑĮ ÐµÑħÑĥÐ½
ÐĴ Ð°
ĠÐ¼ÑĥÑĢÐ°Ð´ Ð³Ð¸
ĠÐ¼ÑĥÐ³ÓıÐ°Ð»Ð¸Ð¼ Ð·Ð°Ð±Ð°Ð·Ðµ
ĠÑĨÐ¾ÑĨ Ð°Ð·ÑĥÐ»
ĠÐ±ÑĥÑģÑģ ÑĥÐ½
ĠÑĢÑĥÑģÑģ Ð¸Ð½Ðµ
ĠÐ·Ð°ÐºÐ¾Ð½ Ð°Ð»ÑĬÑĥÐ»
ĠÐ±Ð¾ÑĢ Ð¶
ĠÐ³ÑĢÐ°Ð¼ Ð¼
Ð¸Ð½Ñģ ÑĥÐµ
ĠÐºÑĬÐ¾Ð¹ Ð¸Ð´Ð°ÑģÐ°
ĠÐ°ÐºÑĤ Ð¸Ð²
ĠÐľÐ°Ð¶ Ð³Ð¸ÑĤ
ĠÐľÑĥÐ³Óı ÑĢÑĥÐ·ÑĥÐ»
ĠÐ³Ðµ Ð¾Ð³ÑĢÐ°ÑĦ
9 5
Ñĥ Ñı
Ð± Ð°Ð³Óı
Ð± Ð°ÐºÓıÐ°Ð»
Ð»ÑĬ ÑĥÐºÑĮ
ĠÐ² ÐµÑĤ
ĠÐ² Ð¸ÑĨÐµ
ĠÑĨ ÐµÐ½ÑĤÑĢÐ°Ð»Ð´Ð°
ĠÐ¼ Ð°Ð»ÑĬÑĥÐ»
ĠÐ½ Ð¾ÑħÑĬ
ĠÐ½ ÐµÐºÓĢ
ĠÐ¶ Ð¾Ð³Ð¾
Ð¸ÑĢ Ðº
ĠÐºÑĬ Ð°Ð¿
ĠÑħÓı Ð¸Ð»Ð»Ð°
ĠÐ¸ Ð¶Ð°ÑĢ
Ð³Óı Ð°ÑĢ
Ðĵ Ð°Ð·ÐµÑĤ
Ðĵ ÑĥÐ¼Ð±ÐµÑĤ
ĠÐ¥Óı ÑĥÑģÐµÐ¹Ð½
ĠÑĪÐºÐ¾Ð» Ð°Ð»Ð´Ð°ÑģÐ°
ĠÐ½Ð°ÑħÑĬ Ð¾Ð¹Ð³Ð¸
ĠÐ±Ð°ÑĤ Ð°
ĠÐĸ Ð°Ð»Ð°Ð»
ĠÐĸ Ð¸Ð±Ð³Ð¾
ĠÐºÑĬÐ²Ð°ÑĤÓı Ð°ÑħÑĬ
ÐĿ ÑĥÑħ
ĠÑĢÐ°Ð³ÑĮ Ð¸
ĠÐºÓıÐ²Ð°ÑĢ Ð³Ð¸
ĠÑĤÑĥÐ½ Ðº
Ð³ÑĥÑĤÓı Ð¸ÑıÐ»ÑĬÐµ
ĠÐºÑĬÐ²Ð°ÑĢÐ¸Ð³Óı ÑĥÐ½ÐµÐ±
ĠÐĿÐ¸Ð¶ ÐµÐµ
Ð»ÑĬÐ¸ÑıÐ»ÑĬ Ð³Ð¸
ĠÑģÐ°Ð± Ð°Ð±
ĠÑħÐ°Ð½ Ð¶Ð°ÑĢ
ĠÐ±Ð¸ÐºÑĮ Ð¸Ð·Ðµ
ĠÑĤÓıÐ¸Ð±Ð¸ÑĤÓı Ð°ÑĢÐ°Ð±
ĠÐ°ÑĢÐ¼ Ð¸ÑıÐ»ÑĬÑĥÐ»
ĠÐ¼ÑĥÐ· ÐµÑıÐ»Ð´Ð°
ÑħÓĢ Ð°Ð¶
ĠÐĿÑĥÑĢÐ¼ÑĥÑħÓıÐ°Ð¼Ð°Ð´ Ð¾Ð²
ĠÐ³ÑĮÐµÑĩÓĢ ÐµÐ±
ĠÐĶÐµÑĢÐ±ÐµÐ½ÑĤ Ð°Ð»Ð´Ð°
Ð³ÑĮÐ°Ðº Ð²Ð°ÑĢÐ¸ÑģÐ°
ĠÐºÑĬÑĥÐ» ÑĥÐ½
ÐºÑĬÐ¾ÑĤÓı Ð¸
ĠÑįÑĤ Ð°Ð¿
ĠÐłÐ°ÑĩÓı Ð°
ĠÐ°Ð½Ð°Ð» Ð¸Ð·
ĠÐľÐ¾ÑĩÓıÐ¾ ÑħÑĬ
6 5
ĠÐº Ð¸Ð±Ðµ
Ð°Ð»ÑĬ Ð¸Ð·Ðµ
ĠÑĨ ÑĥÐ½
ÑĨ Ð°Ð»
Ñı ÑħÓı
ĠÐºÑĬ ÑĥÑĢÐ±
ĠÐľ ÐµÑģÐµÐ´
ĠÐļ Ð²
ÐµÐ¼ Ð»
ĠÐ¡ Ð°Ð»Ð¸Ð¼
ÐµÐº ÑĨÐ¸Ñı
ĠÑĤÓıÐ°Ð´ Ð°Ð³ÑĮÐ°Ð±
ĠÐ±ÑĥÐ³ÐµÐ± ÑīÐ¸Ð½Ð°Ð±
ĠÑīÐ² Ð°Ð½Ð¸Ð³Ð¸
ÐĵÑĮ Ð°Ð¹
ĠÐ³ÑĮÐµÑĩÓıÐ¾ Ð°Ð½
ĠÐ¶Ð¸Ð½Ð´ Ð¸ÑĨÐ°
ĠÐ¸ÑĪ Ð°Ð·Ð´Ð°
ĠÐ³ÓıÑĥÑĨÓı ÑĥÐ»ÐµÐ±
Ð¡ ÑĥÐ³ÑĬ
ĠÐĹ ÑĥÐ»ÑĮ
ĠÑĤÐ°ÑĢ ÑĤÐ¸Ð±
ÑĩÐ°Ð³Óı Ð°Ð·Ð´Ð°
ĠÑĢÐ¸ÑħÑĮ Ð°Ð½Ð°
ĠÐºÐ¾Ð½ ÑĦ
Ġ6 3
ĠÑħÓıÐ°ÑĢÐ°ÐºÐ°ÑĤ ÑĩÐ¸Ð»ÑĬÐ¸
ĠÐ±ÐµÑĢÐ³ÑĮÐµÐ½ Ð»ÑĬÐ¸Ð³Ð¸
ĠÐ³ÓıÐ°ÑĢÑĨ ÑĥÐ´Ð°Ð»ÑĬÑĥÐ½
Ð¾ÑģÑĤ Ð°Ð½
ĠÐ¶ÑĥÑĢÐ½Ð°Ð»Ð¸ÑģÑĤ Ð°Ð·ÑĥÐ»
ĠÑħÓıÐ°ÑĢ Ð°Ð¼
ĠÐ³ÓıÐ°ÑħÑĮÐ°Ð»Ð»ÑĬ Ð°ÑĢÐ°Ð·Ðµ
ĠÑĤÑĥÐº ÐµÐ½
ĠÐ¨Ð°Ð¼ÑħÐ°Ð» Ð¾Ð²Ð°ÑģÑĥÐ»
ĠÑĩÑĩ ÑĥÐºÓı
ĠÐ³ÑĮÑĥÑĢÐ¼ Ð°Ð·Ð´Ð°
Ð® Ð¡Ð¨
ĠÐ½ÐµÐ¼ÑĨ Ð°Ð·ÑĥÐ»
ĠÐ°ÑĢÑħÐ¸ÑĤÐµÐºÑĤ ÑĥÑĢ
Ñĥ ÑĦ
Ð³ ÐµÑĢ
ĠÐ³ÑĮ Ð¾ÐºÑĮ
Ð¼ Ð¸ÑĤ
Ð¼ Ð°Ð±Ð°Ð·ÑĥÐ»
Ð¸Ð½ ÐºÓı
ĠÐ³Óı Ð°ÑħÑĮ
ĠÐ»ÑĬ Ð¸Ð´Ð°
ĠÑģ Ð¸ÑĢ
ĠÑģ Ð¾Ð²ÑħÐ¾Ð·
Ð¾ÑĢ Ð³Ð¸
Ð¸ÑıÐ» Ð³ÑĥÐ½
ĠÐł Ð¸ÐºÓıÐºÓı
Ð°Ñĩ Ð°Ð½Ð°Ð»
ĠÐ¡ Ð°Ð»Ð°ÑĤ
ĠÐ±Ð¸ÑĨ Ðµ
ĠÐ±Ð¸ÑħÑĮ Ð¸ÑĩÓıÐ¾
ĠÑħÐ°Ð» Ð¸Ñĩ
ĠÐ±ÑĥÐºÓıÐ¸Ð½ ÐµÑģ
ĠÑĤÓıÐ°Ð´Ðµ ÐºÓıÐ°Ð½ÑĨÓı
ĠÑĢÐ°ÑĩÓı Ð°ÑĢÐ°Ð·Ðµ
ĠÐĵÑĬ Ð¾Ð·
ĠÑħÑĮ Ð¾Ð»Ð±
ĠÐĹ Ð°Ð»Ð¸Ð¼ÑħÐ°Ð½
ĠÑħÑĥÑĤÓı Ð°ÑĢÐ°Ð²
ÐĿ Ð¾Ð²
ĠÐ¶Ð¸Ð´Ðµ Ð´Ðµ
ĠÐ¶Ð¸Ð´Ðµ ÑħÑĬÐµ
ĠÑĤÓıÐ°Ð¼ ÑĥÑĢÐ°Ð±
ĠÑĤÓĢ Ð¸Ð±Ð¸ÑĤÓĢ
Ð¾Ð»Ð° Ð°Ð½
ĠÐ¹Ð¸ÐºÓı Ð¸Ð½Ðµ
ĠÐ¸Ð½ÑģÐ°Ð½ Ð°Ñģ
ĠÑĨÓıÐµÑħ ÐµÐ·Ðµ
ĠÐ³ÑĮÐµÐ´Ð¸Ð½Ð°Ð» Ð³Ð¾
ĠÐ²Ð¸ÑħÑĮ Ð¸Ð·Ðµ
ĠÐ¥ÓıÐ°Ð¶Ð¸ÐµÐ² Ð°
ĠÐ¥Ð°Ð»ÐºÑĬ Ð°Ð·Ð´Ð°
ĠÐĵÓıÐ°Ð´ Ð°Ð¼Ð°Ð»
ĠÑĥÑĩÐ°ÑģÑĤ Ðº
ĠÐĽÐµÐ½ Ð¸Ð½
Ð·Ð°Ð± Ð°ÑħÑĬÐµ
ĠÑĤÐ¾Ð½ Ð½
ĠÐ¡Ð°Ð½ ÐºÑĤ
ÑĢ Ð¸ÐºÑĬ
Ð´ ÑĥÑħ
Ð´ Ð°Ð´Ð°
ĠÐ± Ð°
Ð°Ð¼ Ð±ÑĥÐ»
Ð¸Ð» Ð°ÑģÑĥÐ»
ĠÐ¼ Ð°Ð½Ð´
ĠÐ½ Ð°Ð»ÑĬÑĥÐ»
ĠÐ³ÑĮÐ°Ð± Ð¸Ð»
ĠÐľ Ð°Ð¼
ĠÐľ Ð¤
ĠÑħÓıÐ°Ð» Ð³Ð¸
ĠÐ¥ Ð°Ñĩ
ÑĥÑģ ÑĥÑĢÐ±
ĠÐĵÓı Ð¾Ð´
ÐµÐº Ð¾Ð²
ĠÐľÑĥÑħÓıÐ°Ð¼Ð°Ð´ Ñģ
ĠÐĿ Ð°ÑħÑĬÐµ
ĠÐ¶Ð¸Ð½Ð´ Ð¸ÑħÑĬÐµ
ĠÑĨÓıÑĥÐ½ Ð°ÑĢÐ°Ð»
ĠÐ³ÑĮÐ°Ð½ Ð¸ÑģÐ°
ĠÑħÐ°Ð»ÐºÑĬ Ð³Ð¸
ĠÐ»ÑĬÑĥÐ³Óı Ð°ÑĢÐ°Ð»
ĠÑģÐ²ÐµÑĢ Ð°Ð½Ð°
ÐµÑĩÓı Ð¸Ð½
ĠÐ¿Ð°ÑĩÐ°Ð»Ð¸ÑħÑĬ Ð°Ð·Ð´Ð°
Ð°Ð±Ð°Ð·Ðµ Ð³Ð¸
ĠÑĢÐ¸ÑĤÓı Ð°ÑĢÐ°Ð»
ĠÐĲÐ»Ð»Ð°Ð³ÑĮÐ°Ñģ Ð´Ðµ
ÑĥÐ´Ð¸Ð½ Ð¸Ð»
ĠÑĢÑĥÑĩÑĩ Ð°Ð±Ð¸Ð³Ð¸
ÐĽÑĬ Ð°ÑĢÐ°ÑĤÓıÐ°
ĠÐ±ÑĥÑħÑĮ Ð°Ð½Ð°
ĠÑĢÑĥÑħÓı ÑĩÓıÐ°Ð³Ð¾
Ġ200 9
ĠÑĤÐ¾ÑħÑĤÑĥÑĢ Ð·Ð°Ð±Ð°Ð·
ĠÑĩÓĢ Ð²
ĠÐ°Ð²ÑĤ Ð¾Ð½Ð¾Ð¼
ĠÐ¸Ð´Ð°ÑĢ Ð°ÑıÐ»Ð´Ð°
Ġ194 2
ĠÑģÐ°Ð¹Ð³ÑĬÐ°ÑĤ Ð°Ð·Ð´Ð°Ð»ÑĬÑĥÐ½
Ð±Ð¾ÑĨÓı ÑĥÐ»
ĠÐ³ÑĮÐ°Ð»Ð¼Ð°Ð³ÑĬ Ð·Ð°Ð±Ð¸
ĠÐ±Ð¸Ð±Ð»Ð¸Ð¾ÑĤÐµÐº Ð°ÑıÐ»Ð´Ð°
Ð±ÑĥÐ· Ð´Ð°
ĠÐ¥Ð¸Ð· ÑĢÐ¾
ĠÐ²Ð¾Ñħ Ð°ÑĢÐ°Ð²
ĠÑĤÓıÐ°ÑĢ Ð¸ÐºÑĬ
ĠÐ¸Ð½ÑĤ ÐµÐ»Ð»
ĠÐ±Ð¸ÑĤÓıÐºÐº ÐµÐ¹
ĠÐºÐ²ÐµÐ³Óı ÐµÐ½
Ñĥ ÐµÐ³Ð¸
Ðº Ð²ÐµÑĢ
ĠÑĢ Ð¸ÑīÑĥÐ½
ĠÑģ Ð¼
ĠÐºÐº ÐµÑıÐ»Ð´Ð°
Ð¸Ð± Ð»
ÑĥÑħÑĬ Ð¼Ð°ÑħÑĬ
ĠÐļ Ð¸Ð·Ð¸Ð»ÑİÑĢÑĤ
ÐµÐ¼ ÑĮÐµÑĢ
ĠÐ³ÑĮÐµÐ· Ð´Ð°Ð³Ð¾
ĠÐ¸Ð½ ÑĩÓı
ĠÐľÑĥÑħÓıÐ°Ð¼Ð°Ð´ ÑħÓıÐ°Ð¶Ð¸
ĠÐ¢ Ð°Ñħ
ĠÐ·Ð°Ð¼Ð°Ð½ Ð°Ð»Ð´Ðµ
ĠÐ±ÑĥÐºÓıÐ¸Ð½ Ð°ÑĢÐ¾
ĠÐ½Ð°ÑħÑĬ ÑĢÐ°ÑĤ
ÐĲ Ð·
ĠÐ»ÑĬÐ°Ð» ÑħÑĬ
ĠÐĵÓıÐ°Ð±Ð´ÑĥÐ» Ð±Ð°ÑģÐ¸ÑĢ
ĠÐłÐ¾ÑģÑģ Ð¸ÑıÐ»Ð´Ðµ
Ñĭ Ð²
ĠÐºÑĬÐ²Ð°ÑĤÓı Ð°Ð·Ð´Ð°
ĠÐ±Ð¸ÑħÑĮÐ¸Ð·Ð°Ð± ÑĥÐ»ÐµÐ»
ĠÐ³ÑĮÐµÐ½Ð¸Ð± Ð³Ð¾
ĠÐ¿Ð°ÑĩÐ°Ð»Ð¸ÑħÑĬ Ð°Ð»ÑĬÐµ
Ðĺ ÑıÐ»ÑĬÑĥÐ»
Ġ5 7
ĠÑħÐ¸Ñģ ÑĥÐ»ÐµÐ²
Ðĸ Ð°ÐºÑĬ
Ð¸Ð½Ð´ Ð°ÑħÑĬ
Ð¾Ð»Ð¾Ð³ Ð¸Ñı
ĠÐ±Ð¸Ñĩ Ð°
ĠÐ½Ð°Ñģ Ð¸Ð±
ĠÑħÐ°Ð½ Ð»ÑĬÐ¸
ĠÑħÑĥÐ½ Ð´ÐµÑĢÐ¸Ð»
ĠÐ±ÑİÐ´Ð¶ÐµÑĤ Ð°Ð»Ð´Ðµ
ĠÐ²ÑĥÐºÓĢ Ð°ÑĢÐ°Ð²
ÑĢÐ°Ð½Ñģ Ð¿Ð¾ÑĢÑĤ
ĠÑīÐ°Ðº Ð°Ð±
ĠÑıÑĢÐ°Ð³ÑĬ Ð³Ð¸
ĠÐ¿ÑĢÐ¸Ð· Ð°Ð»ÑĬÑĥÐ»Ð°Ð»
ĠÑĢÐ¸Ñĩ ÑĥÐ»ÐµÐ»
ĠÐ³ÓıÐ°Ð¶Ð°Ð¸Ð± Ð»ÑĬÐ¸
ĠÑħÓıÐ°ÑĢ Ð°Ð¼Ð°Ð±
ĠÑĢÐ°ÑĨÓıÑĨÓı Ð°
ĠÐºÑĮÐµÐ» ÐµÐ±
ĠÑĨÓıÑĥÐ¼ Ð°Ð´
ĠÐ´Ð¾ Ð·ÑĥÐ»
ĠÐ·Ð°Ð²ÐµÐ´ÑĥÑİÑī Ð°Ñı
ĠÐĿÐ°Ð¿ Ð¸ÑģÐ°ÑĤ
ĠÐºÑĬÐ°Ð³ÓĢÐ¸Ð´ Ð°ÑıÐ»ÑĬ
ĠÐĹÐ°Ð´ Ð¸ÐµÐ²Ð°Ñģ
ĠÐºÓıÐ¸ÑĨÓı ÑĥÐ»
ĠÐº ÐµÑģ
ĠÑĢ Ð¸Ð·
Ð°Ñħ Ð¼Ð°ÑĤ
ĠÑħÓıÐ°Ð» Ð°Ð»Ð´Ðµ
ĠÐ¥ Ð²Ð°ÑĢ
ĠÐĲ Ð¿
ĠÐļ Ð¸ÑĤ
ĠÐĵÓı Ð°Ð½Ð´
ĠÐĵÓı Ð°Ð¶Ð°Ð¸Ð±
ÑĢÑĥ ÑĨ
Ð°ÑıÐ»ÑĬÑĥÐ» Ð³ÑĥÐ½
Ñī ÑĥÐ½
ĠÐ¨ Ð¾ÑĤ
ĠÐ±Ð°ÐºÓı Ð°Ð±
ĠÐ±Ð¾ÐºÑĮ Ð°Ð½Ð¸Ð³Ð¸
ĠÐ±ÐµÐ³ÑĮ ÑĥÐ»Ð°Ð°Ð½
ĠÑģÑĥÐ°Ð» Ð°Ð»ÑĬÑĥÐ»
ĠÐ°Ñħ Ð°Ð»ÑĬÑĥÐ»
Ð¸ÑĢÐµ Ð³Ð¾
ĠÐ±Ð¸ÑĤÓı Ð°ÑħÑĬÐµ
ĠÐºÓĢ Ð¸Ð°Ð±Ð¸Ð»ÐµÐ±
ÑģÑĤÐ²Ð¾ ÑıÐ»Ð´Ð°
ÑĥÐ½Ð³Ð¾ ÑıÐ»
ĠÐ¼Ð°ÑĨÓĢ Ð°Ð»
ĠÐĲÑģ Ð°Ð´ÑĥÐ»
ĠÐºÑĥÑĩÓıÐ´ÑĥÐ» Ð³Ð¸
ĠÑĢÑĥÐ³ÑĮÑĥÐ½ Ð»ÑĬÑĥÐ½
ĠÐłÐµÑģÐ¿ÑĥÐ±Ð»Ð¸Ðº Ð°ÑıÐ»Ð´Ð°
ĠÑĢÐ°Ð³ÓĢ Ð¸
ĠÐ±Ð°Ð¶Ð°ÑĢÑĥÐ» ÐµÐ²
ĠÑĨÐ¾ÑıÐ² Ð»ÑĬÑĥÐ½
ĠÑĨÐµÑĢÐµÑĤÓı ÑĥÑĢÐ°Ð»
ĠÐ¼ÐµÑĤÑĢ Ð°Ð»ÑĬÑĥÐ»
ĠÐ¿Ð°ÑĢÐ°Ñħ Ð°Ð»ÑĬÐ¸
ĠÐºÑĮÐ¸Ð¶ ÑĥÐ½
ĠÑħÓıÐµÑĢÐµÐ½ Ð°Ð±
ĠÐ³ÑĮÐ°ÑĢÐ· Ð°ÑıÐ±
ĠÐ¾ÑĢÐ³Ð°Ð½Ð¸Ð·Ð°ÑĨ Ð¸ÑıÐ±Ð°Ð·ÑĥÐ»
ĠÐ»Ð°Ð³ ÐµÑĢ
ĠÑĢÐ¾ÑĨ ÐµÐ½
ĠÑĤÐ°ÑĢÐ¶ Ð°Ð¼Ð°
ĠÐ¼ÑĥÑĤ Ð°Ð³ÓıÐ¸Ð»
ĠÐ¡Ð¸Ð² ÑĥÑħÑĬ
9 4
Ðµ ÐµÐ²
ÑĢ Ð¸ÑıÐ±
Ð»ÑĬ Ð°
Ð°Ð¼ Ð¾
ĠÐ´ ÑĢÐ°Ð¼
Ð¸Ñģ ÐµÐ²
Ð°Ð² ÑĢ
Ð¿ Ð°ÑĢÐ°ÑĤ
ĠÑĩ Ð¸Ð½Ð¾Ð²
ĠÐĶ Ð°Ð½Ð´
ĠÐļ ÑĥÐ»ÑĮÑĤÑĥÑĢÐ°ÑıÐ»ÑĬÑĥÐ»
ÐµÑģ Ð´Ð°
ĠÐł Ð¾ÑĢÑĩÓıÐ°Ð¼Ð¸
ĠÐĳ Ð¸ÑĩÑĩÐ°Ð½ÑĤÐµ
ĠÐ¥Óı Ð°ÑĤÑĤÐ°
ĠÐ±Ð¾ Ð³Ð¾
ĠÐºÐ² Ð°Ñģ
ĠÑĨÓıÐ°Ð» ÑĥÐ»Ð°
ĠÐ²Ð°Ñģ Ð°ÑģÐ´Ð°
ĠÑĨÓıÐ¸ÐºÓıÐºÓı ÑĥÐ½ÐµÐ»
ĠÐ³ÑĮÐµÑģÑĥÐ» Ð³ÑĥÐ½
Ð¾Ð²Ð°ÑģÑĥÐ» Ð³ÑĥÐ½
ĠÑħÐ¸ÑĢ Ð¸ÑıÐ¹
ĠÐ³ÓıÐ°Ð´Ð°Ð¼Ð°Ð·Ðµ Ð³Ð¸
Ġ200 2
ÐĿÐ¸Ð»ÑĬ ÐµÑĨÐ°
ÐĹ Ð°ÑħÓıÐ¼Ð°ÑĤ
ĠÑĢÐ¸ÑĩÑĩ Ð°Ð·Ðµ
ÑĤÐ¸Ð½ Ð³
ĠÐ³ÑĥÐ³ Ð°ÑĢÐ¸
ĠÐ¼Ð°ÑĨÓĢ Ð°Ð·ÑĥÐ»
ĠÐ¶Ð°ÐºÑĬ Ð°ÑģÐµÐ»
Ð¸ÑĨÐ¸Ð¿ Ð°Ð»Ð¸ÑıÐ±
ĠÐ±ÑİÐ´Ð¶ÐµÑĤ Ð°Ð»Ð´Ð°ÑģÐ°
ĠÐºÑĬÐ¸ÑģÐ¼Ð°ÑĤ Ð°Ð»ÑĬÑĥÐ»
ĠÐ³Ð¾ÑĢ Ð´
ĠÐ´Ð°Ð½Ð´ÐµÐ»ÑĬ Ð°Ð±Ð°Ð·ÑĥÐ»
ĠÑģÐ¸ÑģÑĤÐµÐ¼ Ð°ÑıÐ»Ð´Ð°
ĠÐ¡ÑĥÐ»ÐµÐ¹Ð¼Ð°Ð½ Ð¾Ð²
ĠÑĢÐ¸ÐºÓĢÐºÓĢ ÑĥÐ½Ð°
ĠÑıÑħÑĬ ÑĥÐ½
ĠÑħÓıÑĥÑħÑĮÐ±Ð°ÑħÑĬ Ð¸ÑıÐ»ÑĬÐµ
ĠÑĨÓıÐ¸Ð³ÑĮ Ð°Ð±
ĠÐ±ÐµÑĤÓıÐµÑĢÐ³ÑĮ Ð°Ð±Ð¸
ĠÐ¶Ð°Ð¼Ð³ÓıÐ¸ÑıÑĤ Ð°Ð»Ð´Ð°
ĠÐĵÓıÐ°Ð±Ð°ÑĪ Ð¸Ð»Ð¾Ð²
ĠÐĳÐµÑĤÓıÐµÑĢÐ³ÑĮÐ°Ð½ Ð°Ñģ
ĠÑģÐ°Ð¼Ð¾Ð» ÐµÑĤ
ĠÐ¼ÐµÐ¼Ð¾ÑĢ Ð¸Ð°Ð»Ð¸ÑıÐ±
ĠÐ´Ð¸Ð°Ð» ÐµÐºÑĤ
r a
Ð» Ð¾Ðº
Ð´ ÑĥÐ»ÑĬ
ÑĥÐ½ ÐµÐ²
Ð¸Ð½ ÑĤ
ĠÑĨ Ð°Ð±Ð¸
Ð¸Ð» Ð±
ĠÐĵ ÑĢÑĥÐ·
ĠÐ» Ð°Ð·
ÓĢ ÑĩÓĢ
ĠÐ±Ðµ ÑĨ
ĠÑĢÐ°ÑħÑĬ Ð¸Ð½
ĠÐºÐ² Ð°Ð½Ð°
ĠÐ±ÐµÑĤÓıÐµÑĢ Ð°Ð¹
ĠÐ³ÑĮÐµÐ² Ð³ÑĥÐ½
Ðľ Ð°ÑĢ
ĠÑĨÓıÐ°ÑĢ Ð°ÐºÐ¸
ĠÐļÓı Ð¸Ñĩ
ĠÑĢÐµÐºÓı ÐµÐ´Ð°
ĠÐºÑĬÐ°Ð´Ð°ÑĢ Ð°Ð»ÑĬ
ĠÑĢÐ¸ÑĤÓı ÑĥÐ»ÐµÐ»
19 8
ĠÐºÐ°Ð³ÑĬ Ð°ÑĤÐ³Ð¸
ĠÐ±ÑĥÑħÑĮ Ð°ÑĢÐ°Ð±
ĠÑĩÓĢ Ð°ÑħÓĢ
ĠÑĤÓıÐ¾ÐºÓı Ð°Ð»
Ð§ ÐµÑĢÐ½
ĠÐľÐ¾ÑģÐºÐ² Ð°ÑıÐ»Ð´Ð°ÑģÐ°
ĠÐ´Ð¸Ð² Ð¸Ð·
ĠÐ¿ÑĢÐ¾ÐµÐºÑĤ Ð°Ð»
ĠÐĵÑĥÑĢ Ð¾Ð½Ð¸
ĠÐ¿Ð¸ÑĪ Ð°ÑĨÐ¾
ĠÐĳÐ¸ÑĨ ÐµÐ½
ĠÐ¼Ñį ÑĢÐ°ÑģÑĥÐ»
ĠÐĳÑĥÐºÓı Ð°Ð½Ð°
ĠÐ±Ð°ÑģÐ¼ Ð°ÑıÐ»Ð´Ð°
ĠÐ°ÑĤ ÑĤ
ĠÐ©Ð¸Ð² Ð°Ð²
ĠÐ¸ÑģÐ°Ð½ Ð°ÑģÐµÐ±
ĠÐ»ÑĬÐ¸ÐºÓĢ Ð°Ð±
ĠÐĹÑĥÐ± Ð°Ð¸ÑĢ
ĠÐĳÑĥÐ» Ð°ÑĤ
VII I
ĠÑĢÐ°Ð¹Ñģ Ð¾Ð±ÑĢÐ°Ð½Ð¸ÑıÐ»ÑĬÑĥÐ»
Ð·Ñİ Ð´Ð¾
Ð» Ð¸Ð¼Ð°ÑĤ
Ð¾ ÑĤÓıÐ°
Ð°Ð» Ð¾Ð²
ÑĥÐ» Ð¸Ð»Ð°Ð½
Ð± Ð°Ð·Ð°ÑĢ
ĠÐ± Ð¾ÑĢÐºÑĮ
Ñģ Ð±
Ð¸Ñı Ð³ÑĥÐ½
Ð°Ð´ Ð°ÑģÐ°Ð½
ĠÐ² Ð¸Ð»ÑĬÐ»ÑĬ
ĠÑģ Ð¸Ð»
ĠÐºÐº Ð°ÑĢÐ°Ð·Ðµ
Ð¶ Ð¸
Ñĩ Ð°Ð³ÓĢ
Ð¿ Ð°ÑĪ
ĠÐ¥ ÐµÑĢ
Ð°Ð±Ð¸ Ð´
ÑĥÑģ Ð°Ð½
ĠÐ³ÑĮÐ¾ÑĢÐºÑĮ Ð¾Ð¹
ĠÐ¨ Ð°Ð¹
ÑıÐ»ÑĬ Ð³Ð¸
ĠÐŁ Ð°Ñħ
ĠÐ¶Ð¸Ð½Ð´ Ð¸Ð»ÑĬ
Ð°ÑıÐ»ÑĬ ÐµÐ³Ð¸
ĠÐ¶Ð°Ð½ Ð¸ÑģÐµÐ±
ĠÐ³ÓıÑĥÑĨÓı Ð°Ð±Ð°Ð·
Ð¸Ð³ ÑĢ
ĠÐ±Ð°Ñĩ Ð¸Ð½
ĠÐ³ÓıÐµÐ» Ð°Ð»ÑĬ
Ġ20 20
ĠÐ¼Ð°Ñħ Ñħ
ĠÐĲÑħÓıÐ¼Ð°Ð´ Ð¸Ð»Ð¾Ð²
ĠÑĤÓĢ ÐµÑħÑĮ
ĠÐ±ÐµÑĢÐ³ÑĮ Ð°ÑĢÐ°Ð±
ĠÐ±ÑĥÑĤÓı Ð°ÑıÐ»Ð´Ðµ
ĠÐľÑĥÑģ Ð°ÐµÐ²Ð°ÑģÑĥÐ»
ĠÐ³ÑĮÐ°Ð½Ð¶Ðµ Ð³Ð¾
ĠÑĤÐµÑĢ Ð°Ð¿
ĠÐ»ÑĬÐ¸Ð¼ÐµÑĢ Ð»ÑĬÐ¸
ĠÐĵÑĮÐµÐ»ÑĬ Ð³Ð¸
ĠÑĩÓıÑĥÑħÓı Ð°ÑĢÐ°Ð»
ĠÐ´Ð¾ÐºÑĥÐ¼ÐµÐ½ÑĤ Ð°Ð»Ð³Ð¸
ĠÑħÓıÐ°Ð»ÑĤÓıÐ¸Ð·Ð°ÑĢ ÑĥÐ½
ĠÐºÐ¾ÑĢ Ð¿ÑĥÑģ
ĠÐ²Ð¸Ñī Ð¸Ð·Ðµ
ĠÑĢÐ¸ÐºÑĮ ÑĥÐ½
ĠÐ¸Ð½ÑģÑĤÐ¸ÑĤÑĥÑĤ Ð°Ð»Ð´Ð°
ĠÐľÐ°ÑħÓıÐ¼ÑĥÐ´ Ð¸Ð»
ĠÑĢÐµÐº ÑĤÐ¾ÑĢ
ĠÐ°Ð²ÑĤÐ¾ÑĢ Ð°Ñģ
ĠÑģÐ°Ð»Ð°Ð¼ Ð³Ð¸
ĠÐĵÓıÐ°Ð¼Ð¸ÑĢ ÑħÐ°Ð½
ĠÐ³ÑĮÐ°ÑĢÐ· Ð°Ð³Ð¾
ĠÐĳÐ°ÑĤÓı Ð¸
ĠÐĹÐ°ÑħÓıÐ¼Ð°ÑĤ Ð°Ð»ÑĬÑĥÐ»
ÐľÐ¸Ð»Ð» Ð°ÑĤ
ĠÐ¡Ð¸Ð´ ÑĢÐ°ÑĤ
ĠÑħÓıÐµÑĤÓı Ðµ
Ġ Ð°ÑĢÐ°Ð¹
Ð» Ñİ
Ð½ Ð¾Ð¹
Ð± Ð°ÑĨÓıÑĨÓıÐ°Ð´
Ð°ÑĢ Ð³Ð¸
Ð² Ð°ÑĨ
ÑĤ Ð°Ð½Ð¾Ð²
Ñģ Ð°Ð»ÑĬÑĥÐ»
Ñģ Ð¾ÑİÐ·Ð°Ð»ÑĬÑĥÐ»
Ð¼ Ð°Ñħ
ĠÐ³Óı ÐµÑĤÓı
ÐµÐ» ÐµÐ½
ĠÐ» Ðµ
ĠÐºÐº ÐµÑıÐ»Ð´Ð°ÑģÐ°
ĠÐľ ÐµÐ»ÑĬÐµÐ»
ĠÑī ÑĥÐ±
ĠÐºÐºÐ¾Ð» Ð°ÑĢÐ¸Ð½
ĠÐĳ ÑĥÐ´
Ð°ÑıÐ»ÑĬÑĥÐ» Ð³Ð¸
Ġ1 20
ĠÐ³ÑĮÐµÑģ Ð³Ð¸
ĠÑīÐ² ÐµÑĩÓıÐµÐ±
ĠÐ¿ÑĢ ÐµÐ·
ĠÐ¨ ÑĥÐ³Óı
ĠÐ½Ð°ÑħÑĬ Ð²ÑĥÑģÑģ
Ðļ Ð¸Ð³ÓıÐ°Ð½
Ðļ Ð¸Ð´Ð°Ð³Ð¾
ĠÐ¹ Ð¸ÑĤÓı
ĠÐ²Ð°Ñģ Ð°Ð·ÑĥÐ»
ĠÑħÑĥÑĤÓı ÑĥÐ»Ð°ÑĢÐ¾
ĠÑĢÐµÑģÐ¿ÑĥÐ±Ð»Ð¸Ðº Ð°ÑıÐ»ÑĬÐµ
ĠÐ»ÑĬÑĥÐ³Óı Ð°ÑĢÐ°Ð±
ĠÐ±Ð°ÑĢÐº ÑĥÐ»Ð°Ð³Ð¾
ĠÑħÓıÐ°Ð»ÑĤÓıÑĥÐ» Ð°Ð±
ĠÐ°Ð´Ð¼Ð¸Ð½Ð¸ÑģÑĤÑĢÐ°ÑĨ Ð¸ÑıÐ»Ð´Ðµ
ĠÑĨÐ¾Ð³Ð¸Ð´ Ð°Ð·ÑĥÐ»
ĠÐºÓıÐ² ÐµÐ·Ðµ
ĠÐ¼ÑĥÐ³ÓıÐ°Ð»Ð¸Ð¼ Ð°ÑģÑĥÐ»
ĠÐ±Ð°Ð¹ÑĢÐ°Ð¼ Ð³Ð¸
ĠÐ±Ð°Ð¹ÑĢÐ°Ð¼ Ð°Ð»Ð´Ðµ
ĠÐ»ÑĬÐ¸Ð¼ÐµÑĢ Ð³Ð¸
ĠÐ±Ð¾Ð¶ Ð¸Ð·Ðµ
ĠÑĤÐ¾ÑħÑĤÑĥÑĢ Ð»ÑĬÑĥÐ½
ĠÐ·Ð°ÑħÓıÐ¼ Ð°Ð»ÑĬÑĥÐ»Ð°
ĠÐºÑĥÑĩÓı Ð´ÑĥÐ·ÑĥÐ»
Ð¸Ð»Ð°ÑĢÐ¾ Ð°Ð½
Ð¸Ð½ÑĩÓı Ð¾Ð½Ð¸Ð³Ð¸
ĠÑħÓıÐ°Ð»ÑĤÓıÑĥÑħÑĬÐ°Ð±Ð¸ Ð³ÑĥÐ½
ĠÐ¥ÓıÐ°Ð¶Ð¸Ð¼ÑĥÑĢÐ°Ð´ Ð¸ÑĨÐ°
ĠÐ±ÐµÐ³Ð°Ð²ÑĥÐ» Ð°Ñģ
ÐµÑĢÐµ ÐµÐ²
ĠÐ³ÑĮÐ¾ÑĢÐºÑĮÐ¾Ñģ Ð°Ð½
ĠÐ¼Ð°Ð´Ð°Ð½ Ð¸ÑıÐ±
ĠÐ³ÑĬÐ²Ð°ÑĢ Ð¸Ð´Ð³Ð¾
Ð·Ð°Ð¼ Ð°Ð½Ð°Ð»Ð´Ð°ÑģÐ°Ð½
ÑįÐ¼ÐµÐ½ Ð³Ð¸
ĠÐĵÓıÐ°Ð´Ð°Ð¼ Ð°Ð·ÑĥÐ»
ĠÐĺÐ½Ñħ Ð¾ÑģÐ°
ĠÐ³ÑĥÑĢÐµÐ² Ð³Ð¸
ĠÐ³ÑĥÑĩ Ð°Ð±
ĠÐľÐ°Ð³Óı Ð°ÑĢÑĥÑħÑĬ
ĠÑħÐ°Ð»Ð°ÑĤÐ±Ð°ÑħÑĬ Ð°ÑĢÐ°Ð±
ĠÐĵÓıÐ°Ð»Ð¸ÑħÓı Ð°Ð¶
ĠÑĨÐµÐ½ÑĤ ÑĢÐ°Ð»ÑĬ
ĠÐļÓıÐ¸ Ð°Ð±Ð¸Ð·Ðµ
ĠÐ¯ÐºÑĬ ÑĥÐ±
ĠÐĵÑĬÐ¸ÑĢ Ð¸Ñģ
9 7
Ð» ÐµÐ¹
Ð°Ð» Ð°Ð»ÑĬÑĥÐ»
ÑĥÐ» ÐµÐ·Ðµ
ĠÐ± Ð¾Ð»ÑĮÑĪÐµÐ²Ð¸Ðº
ĠÐ² Ð¾ÑĢ
Ð°Ð² ÑĢÐ¾Ð¿
Ð¿ Ð¾ÑĤÑĢÐµÐ±
ĠÐĶ Ð¸Ð²
ÐµÑģ Ðµ
Ð¸Ð´ Ð¸ÑĢ
ĠÑĢÐ°Ð¹Ð¾Ð½ Ð°Ð»
Ð¸Ðµ Ð³Ð¾
ÐĵÑĮ ÑĥÐ´ÑĥÐ»
ĠÐĿ ÑĥÑħÓı
ĠÑĢÐ°Ð³ÑĬ Ð°Ð»
ÑĦ Ð¸Ñı
Ðľ Ð°ÑģÐ°Ð»Ð°
ĠÑĢÐ°ÐºÓı Ð°Ð·Ðµ
ĠÐºÐ¸Ð½ Ð´Ð°Ð¹
ĠÐºÐ¸Ð½ Ð°Ð»ÑĬÐµÐ³Ð¾
ÐµÑıÐ»ÑĬÑĥÐ» Ð°Ð±
ĠÑĢÐ¸ÐºÓıÐºÓı ÑĥÐ½Ð°Ð°Ð½
Ð¢ ÑĥÑĢÐ½Ð¸ÑĢ
ÑĩÓıÐ² Ð°Ð´Ð¸
ĠÐ³ÓıÐ¾Ð»Ð¾ÑħÑĬ Ð°Ð±Ð¸Ð³Ð¸
ĠÐ¨Ð°Ð¼Ð¸Ð» Ð¸Ðµ
ĠÑĢÑĥÐºÓıÐ¸Ð½ Ð°Ð»ÑĬÐµ
Ġ4 8
19 5
ĠÐŀ Ð»Ð¸Ð¼Ð¿Ð¸ÑıÐ»ÑĬÑĥÐ»
ÑĥÐ´Ð¸Ð½ Ð¾Ð²Ð°Ñģ
ĠÐĵÓĢ ÑĥÐ¼Ð°ÑĢ
ĠÑĤÓıÐµÑħÑĮ Ð°Ð»ÑĬÑĥÐ»
ĠÐ¥Ð°Ð´ÑĥÐ± ÐºÐºÑĥÐ½
ĠÐ¼Ð°ÑĪÐ¸Ð½ Ð°ÑıÐ»Ð´Ð°
ĠÐ²Ð°ÐºÐ¸Ð»Ð·Ð°Ð±Ð¸ Ð³Ð¸
ĠÐľÐ°Ð³Ð¾Ð¼ÐµÐ´ Ð¾Ð²Ð¸Ñĩ
ĠÐ³ÓıÐ°ÑħÑĮÐ°Ð»Ð»ÑĬ Ð°ÑĢÐ°Ð²
ĠÑĢÐ¾ÑĢÑħ Ð°ÑĤÐ°Ð»
ĠÑĨÓıÑĥÐ¼ ÑĥÑĢ
ĠÑįÐ»ÐµÐºÑĤ ÑĢÐ¾Ð½
ĠÐļÐ°Ð¼Ð°Ð» Ð¾Ð²
ÐĳÐ°Ð¹ ÑĢÐ°Ð¼
ĠÐ°ÑģÐº Ð°ÑĢÐ°Ð»
ĠÐ¨Ð¸Ñħ ÑģÐ°Ð³ÓıÐ¸Ð´
ĠÐ¼ÑĥÐ½Ð¸ÑĨÐ¸Ð¿Ð°Ð» Ð¸ÑĤÐµÑĤ
ĠÐ°Ð¿Ð¿Ð°ÑĢ Ð°ÑĤÐ°Ð»ÑĬÑĥÐ»
ÑĢÑĥÑĨ ÐµÐ»Ð»
Ð¸ Ð»ÑĬÐ¸Ð³Ð¸
Ðµ ÑıÐ·ÑĥÐ»
ĠÑĢ Ð°ÑĨÓı
ÑĤ ÐµÐ½
ĠÑħ Ð¸Ð½Ð°Ð»
Ð°ÑĤ Ð°Ð»Ð³Ð¸
ĠÑĤ ÐµÐ¿
ĠÐ¼ Ð°ÑĤÓı
ĠÐ³ÑĮÐ°Ð± Ð¸ÑĩÓıÐ¾Ð½Ð¸
Ð°Ð² ÐºÐ°
ĠÐ¿ ÐµÑĢÑģ
ĠÐľ ÑĥÑħÑĬ
Ð³ÑĮ Ð°
ĠÐ¸ Ð±Ð½
ĠÐł Ð°Ð·
Ð°Ñĩ ÑħÑĬÐ°Ð»Ð°
ĠÑĪ Ð°Ð³ÓĢÐ¸ÑĢ
ĠÑı Ð»ÑĬÑĥÐ»
ĠÐ³ÑĬ Ð°Ð½Ñģ
ĠÐ·Ð°Ð¼Ð°Ð½ Ð°Ð»Ð´Ð°ÑģÐ°Ð½
ĠÐ³ÓıÐ¾Ð» Ð°ÑĢÐµÐ»
ÐĶ Ð°Ð³ÑĬ
ĠÑĦ ÐµÐ´ÐµÑĢÐ°Ð»Ð¸ÑıÐ»
ĠÐ¶Ð°Ð½ Ð°Ð·Ð°
ĠÐ±ÐµÐ³ÑĮ Ð¸Ð»Ð°Ð°Ð½
ĠÐ²ÑĥÐ³Ð¾ Ð°Ð½
ĠÐļÑĬ ÐµÑĨ
ĠÐºÐ¸Ð½Ð°Ð» Ð³ÓıÐ°Ð³Ð¸
ĠÐºÑĬÐ²Ð°ÑĤÓı Ð¸Ðµ
ĠÑįÐ±ÐµÐ» Ð°Ð»ÑĬÐµ
ÐµÑĨ Ð°Ð³Ð¾
Ðĸ ÐµÐ³Ð¸
ĠÑĥÐ»Ðº Ð°Ð±Ð°Ð·Ð´Ð°
ĠÐ¿ÑĢÐ¾ Ð¿
ĠÑĤÓıÐ°Ð´ÐµÐ³ÓıÐ°Ð½ Ð°Ð²
ĠÐ±ÑĥÑģÑģ Ð°ÑĢÐ°Ð±
ĠÐ³ÓıÐ°Ð¼Ð°Ð» Ð°Ð»
ĠÐ½Ð°ÑĩÐ°Ð»ÑĮÐ½Ð¸Ðº Ð»ÑĬÑĥÐ½
ĠÐ¢ÑĥÑĢ ÑĨÐ¸ÑıÐ»ÑĬÑĥÐ»
ĠÐ±ÑİÐ´Ð¶ÐµÑĤ Ð°Ð»Ð´Ð°
ĠÐºÑĢ ÐµÐ´
ĠÑħÐ¸Ð½ Ð»ÑĬ
ĠÐ¿Ð»Ð°Ð½ Ð°Ð»Ð´Ð°
ĠÐĳÐ°ÐºÑĬ Ð±Ð°ÐºÐºÑĥÐ»
ĠÐĵÑĬÐ°Ð·Ð¸Ð¼ÑĥÑħÓıÐ°Ð¼Ð°Ð´ Ð¾Ð²
ĠÐ¿Ð¾Ð»Ð¸ÑĨ Ð¸ÑıÐ»ÑĬ
ĠÐ³ÓıÑĥÐ¼ÑĢÑĥÑıÐ»ÑĬ Ð³Ð¾
Ð°ÑĥÑĢ Ðµ
ĠÑĨÓĢÐ¸ÐºÓĢÐºÓĢ ÑĥÐ½
ĠÐ¡Ð°ÑĢ Ð¸ÑĢ
ĠÐ±ÐµÑĩÓı ÑĩÓı
ĠÑģÐ¿Ð¾Ð½Ñģ Ð¾ÑĢ
ĠÑĦÐµÐ»ÑĮÐ´ ÑĪÐµÑĢ
ÑĢ Ð°ÑģÐ°
ÑĬ ÐµÐ·Ð´
Ð´ ÑĥÐºÑĮ
ĠÐ³ Ð¸
Ð°Ð½ ÑīÐ¸Ð½
ĠÑĢ Ð¾Ð»
Ð¸Ð½ Ð¸Ð±
Ð°Ð»ÑĬ ÑĥÑĢ
ĠÑĤ Ð¾ÑĢ
ĠÑģ ÑĥÐ»
ĠÑģ Ð¸Ð¿
ĠÑģ ÑĥÑħÑĬÐ¼Ð°ÑħÑĬ
ĠÐĶ ÑĥÐµ
ĠÑĩÓı Ð¾Ð»ÐµÐ»
ĠÑĩÓı Ð¾Ð»Ð°ÑĢÐ¾
Ð¸Ð½Ð°Ð± ÑĥÑĢÐ°Ð±
ĠÑĢÑĥÐºÓı Ð¸Ð½Ð°
ĠÐ¢ Ð°Ð±Ð°ÑģÐ°ÑĢ
Ð³ÓıÐ°Ð½ Ð³Ð¸
ĠÐ³ÑĥÑĢ Ð³
Ð°ÑħÑĮ ÑĥÐ»
ĠÑĢÐ°ÑĩÓı Ð°ÑĢÐ°Ð·ÑĥÐ»
ĠÐĽÑĬ Ð°Ð»
ĠÐĵÓıÐ°Ð» Ð¸ÑģÑĥÐ»
ÐµÐ»ÑĬ ÑĥÐ±
ĠÐ³ÑĮÐµÐ½Ð¸Ð± Ð³Ð¸
ĠÐ³ÓıÐ¾Ð»Ð¾ÑħÑĬ Ð°Ð±Ð°Ð·Ð´Ð°
ĠÑħÐ¸Ñģ ÑĥÐ»ÐµÐ±
ĠÐºÐ²ÐµÑĪ Ð³Ð¾
ĠÐ³ÓıÐ°Ð´Ð°ÑĤ Ð°Ð»Ð³Ð¸
ĠÐ±Ð¸Ð³ÑĮ Ð°Ð»ÑĬÐ°Ð±Ð¸
ĠÑĤÐ¾ÑħÑĤÑĥÑĢ Ð·Ð°Ð±Ð°Ð·ÑĥÐ»
ĠÑĢÐµÐ´Ð°Ðº ÑĨÐ¸ÑıÐ»Ð´Ð°
ĠÐ±Ð¸Ð¶ ÑĥÐ½
ĠÐĵÑĮÐµ ÐºÑĬ
Ð¦Óı ÑĥÐ¼Ð°Ð´Ð¸ÑģÐµÐ·ÑĥÐ»
ĠÐ³ÓıÐ°ÑĢÐ· Ð°Ð³Ð¸
ĠÑĤÐµÑĢÑĢÐ¾ÑĢ Ð¸Ð·Ð¼Ð°Ð»ÑĬÑĥÐ»
ĠÑħÓıÐ°Ð¶Ð°ÑĤÐ°Ð± ÑīÐ¸Ð½Ð°Ð±
ĠÐ´ÑĥÐ½ÑıÐ»Ð°Ð»ÑĬÑĥÐ» Ð³Ð¾
ĠÐ±Ð°ÑĨÓıÑĨÓıÐ°Ð´ Ð³Ð¾
ĠÐ¿ÐµÑĢ Ð²ÐµÐ½
ĠÑĤÓıÐ°ÑĤ Ð¸Ð½Ð°ÑĢ
ĠÐ±Ð°Ðº ÐºÑĥÐ½
ĠÐ±ÑĥÑģÑģÐ¸Ð½Ð°Ð± ÑĥÐ»ÐµÐ±
ÑĤÓĢÐµÑĢÑħÑĮ ÑĥÐ»
ĠÑĢÐ°Ð³ÑĬÑĥÑħÑĬ Ð°Ð±Ð°Ð·ÑĥÐ»
ĠÑĤÓıÐ°ÑħÑĮ Ð°Ð·Ð´Ð°
ĠÐ²Ð¸ÑĩÑĩ Ð°Ð½
ĠÐ³ÑĥÑĢÐ¶ Ð¸
ÐĽÑĬÐ¸ÐºÓı Ð°Ð±
ĠÐľÐ°ÑħÓĢ Ð¼ÑĥÐ´
ÐĲÐĽ Ðª
ÐłÐ°ÐºÓıÐ°Ð» Ð´Ðµ
ĠÐĺÐ½ÑħÐ¾ÐºÑĬ Ð²Ð°ÑĢÐ¸
ĠÐ³ÓıÐ°Ð¼Ð¼ Ð°Ð»
ĠÐĽÑĬÐ°Ð³ÓıÐ¸Ð» ÑĥÑħÑĬ
Ðº Ð°Ð¼Ð¸Ð»
Ð°Ð½ Ð¸Ð±
Ñģ Ð¸Ð»
ĠÐ» Ð°ÑĥÑĢÐµ
ĠÐ´ Ð¾Ð²Ðµ
ĠÑĤÓı ÑĥÐ½Ð°
ĠÑĤÓı Ð¾Ð»ÐµÐ±
ĠÑĤÓı ÐµÑĢÐµÐ½
Ð¸Ñģ Ð»Ð°Ð¼
ĠÐ· Ð°Ð¿
ĠÐļ Ð°Ð½
ĠÐ³ÑĮÐ°ÑĢ ÑĥÐ»ÐµÐ²
ĠÐ³ÑĮÐµÐ· ÑĥÐ»ÑĬ
ĠÐ°Ñģ ÑĦ
ĠÐ¨ Ð°Ð±Ð°Ð·
ĠÐ³ÑĮÐµÑĩÓı ÐµÐ¹
ĠÐ±Ð¾Ñģ ÑĥÐ»ÐµÐ»
ĠÐ»ÑĬÑĥÐ³ÑĮ Ð°ÑĢÐ°Ð²
ÐĲ ÐĹ
ĠÐĴ Ð°ÑħÓı
ĠÐºÐ¸Ð½ Ð½Ð¸Ð³Ð¸
ĠÐºÓıÐ°Ð»ÑĬ Ð°Ð»ÐµÐ»
ĠÑħÑĬÐ¸Ð· Ð°Ð½Ð°Ð»
ĠÐ¶Ð°Ð²Ð°Ð± Ð³Ð¸
ĠÑĥÐ» Ð±ÑĥÐ·ÑĥÐ»
Ġ4 2
ĠÑħÓıÐ°Ð´ÑĥÑĢ ÑĥÐ»ÐµÐ±
ÐµÐ³ ÑĢÐ°Ð¼
ĠÐ±Ð°Ð¶Ð°ÑĢ Ð°Ð½Ð°
ĠÐ´Ð°Ð½Ð´ÑĩÓıÐ² Ð°ÑĢÐ°Ð»
ĠÐºÓĢ ÑĥÐ´Ð¸ÑıÐ²
ĠÐĵÑĮÐµÐ½Ð¸Ð± Ð³Ð¾
ÐĽÑĬ Ð°Ð³ÓıÐ°Ð»Ð¸Ð»
ĠÐ±Ð°Ð³ÑĮ Ð°Ð±Ð¸
ĠÐĵÑĬÐ°Ð· Ð¸Ð¼
ĠÐ½Ð°Ñģ ÑĢÐ°Ð½
ĠÑħÓıÐ°Ð»ÑĤÓıÑĥÑħÑĬÐ°Ð½ Ð°ÑģÑĥÐ»
Ð°ÑħÓĢ Ð°Ð±
ĠÑĨÓıÐ°Ð»Ð´Ð¾ÑħÑĬÐ°Ð½ Ð°ÑģÐµ
ĠÐºÑĬÐ¾Ð¹ Ð¸Ð´Ðµ
Ð´ÐµÑĢ Ð¸Ðµ
ĠÐĵÑĮÐ¸ÑĤÓı Ð¸Ð½Ð¾Ð²
Ð°Ð´Ð¶ Ð°Ð±
ĠÐ¢ÓıÐ¾Ð» Ð±
ĠÑĢÐ¸ÐºÓĢÐºÓĢ Ð°Ð´
ĠÐ°Ð½Ð¸Ñī Ð°Ð»
ĠÐ´ÐµÐ» Ð¾
ĠÐ¥ÓıÐ°ÑĢ Ð¸ÐºÐ¾Ð»Ð¾
ĠÐ¿Ð¸ÑĤ Ð½Ð°
ĠÑĥÐ· ÑĥÑħÑĬÐ´Ð°
ĠÑħÐ°ÑģÐ» Ð¸ÑħÑĬÐµ
ĠÐĲÐ³ÑĬÐ²Ð°Ð» Ð¸ÑģÐ°
ÑĢÐ°ÐºÑĬ Ð°Ð»ÑĬÐ¸
Ġ Ð°Ð»ÑĬÑĥÐ»
Ġ Ð°ÑĦ
Ð°ÑĢ Ð³Ð¾
ĠÐ³ÑĮ Ð°ÑģÐ´Ð°
Ð»ÑĬ Ð°Ð±Ð°Ð·Ð´Ð°
ÑĤ Ð°Ð»Ð°
Ð°Ð· Ð¸ÑĢ
ĠÐ² ÑĥÑħ
ĠÑĤÓı ÐµÐºÑĬ
ĠÐºÑĬ Ð°Ð±
ĠÐľ Ð°ÐºÑĮ
ĠÐľ ÑĥÑģÑĤ
ÑĥÑħÑĬ Ð°Ð±Ð°Ð·ÑĥÐ»
ĠÑī Ð¾Ð»Ð°ÑĢÐµÐ±
ĠÐ· Ð°Ð½
ĠÐĶ ÑĥÐ±
ÐµÐº ÑĨÐ¸ÑıÐ»ÑĬÑĥÐ»
ĠÑĤÓıÐ°Ð´ Ð°Ð±Ð»ÑĬÑĥÐ½
ĠÑĤÓıÐ°Ð´ ÑĩÓıÑĥÐ½
ĠÑĥÐ½ ÐµÐ»ÑĬÑĥÐ»
ĠÐľÑĥÑħÓıÐ°Ð¼Ð°Ð´ Ð¾Ð²Ð°ÑģÐµ
ĠÐºÐ² Ð°ÑĢÐ°Ð»
ĠÑĨÓıÐ°Ð» ÑĥÐ»ÑĬ
ĠÐ±Ð°ÐºÓı Ð°Ð»ÑĬÑĥÐ»Ð°Ð»
Ð²Ð°Ð» ÐµÐ±
Ðľ ÑĥÐ³Óı
ĠÐ¢Óı Ð¸Ð½
ĠÑĨÐµÑĢ ÐµÑĩÓı
ĠÐ³ÑĮÐ¾ÑĢÐºÑĮÐ¾Ð± Ð³Ð¸
ĠÐ±Ð°ÑıÐ½ Ð»ÑĬÐ°Ð½Ð°
ÑĢÐ¾ ÐºÑĬ
ĠÑħÓĢ Ð°ÑģÐ¸Ð»
ĠÑģÐ¿Ð¾ÑĢÑĤ Ð°Ð»Ð´Ðµ
ĠÐ¿ÑĢÐµÐ´ Ð»Ð¾Ð¶
ĠÐ¼Ð¾ÑĨÓı Ð¸Ð´Ð°
ĠÑĩÓıÐµÐ·Ð°Ð± ÑĥÑĢÐ°Ð±
ĠÐ´ÐµÐ¿ÑĥÑĤÐ°ÑĤ Ð»ÑĬÑĥÐ½
ĠÑħÓıÑĥÐºÑĥÐ¼ Ð°ÑĤÐ°Ð»Ð´Ð°
ĠÑħÓıÑĥÑĢÐ¼Ð°ÑĤ Ð¸ÑıÐ²
ĠÐ¿Ð°ÑĢÑĤ Ð¸Ð·Ð°Ð½
ÐļÑĬ ÑĥÑĢ
ĠÐ¼Ð°Ð»ÑĬ Ð°ÑĢÐ°Ð±
ĠÑĢÐ¸Ð³ÑĮ Ð°Ð»ÑĬÑĥÐ»
Ġ100 0
ĠÑħÓıÑĥÑħÑĮ ÐµÐ»
ĠÐ¼Ð°Ð´ÑĥÐ³ÑĮÐ°Ð» Ð·Ð°Ð±Ð¸
ÑħÑĬÐ²Ð°Ð³Óı Ð°ÑıÐ»
ĠÑĨÐ¾Ð³Ð¾ ÑıÐ±
ĠÑĤÓıÐ°Ñģ Ð°Ð±
ĠÐ¡ÑĤÐ°Ð» Ð¸Ð½Ð¸Ð»
ĠÐ³ÓĢÐµÐ» Ð¼Ñĥ
ĠÐ»Ð¸ÑĨ ÐµÑıÐ»ÑĬÑĥÐ»
ĠÐļÑĬÐ°Ñģ Ð¸
ĠÐºÑĬÐ°ÑĢ ÐºÑĬ
ĠÐºÐ°Ð· Ð¸ÑıÑĤ
ĠÐĲÐ±ÑĥÐ» Ð¼ÑĥÑģÐ»Ð¸Ð¼
ĠÐºÐ²ÐµÑĢÑī Ð°Ð»Ð¸ÐºÑĮ
ĠÑħÑĮÐ¾Ð»Ð± Ð¾ÑħÑĬ
ĠÐºÐµÑģ ÐµÐº
ÑĢ Ð¸ÑģÑĤ
Ð°Ð» Ð¸ÐµÐ²
Ð½ Ð¸Ð»ÑĬ
Ðº Ð¸ÑĢÐµÐ³Ð¾
Ð± Ð°Ð·
ĠÐº Ð¸ÑģÐ°Ð½
Ð»ÑĬ ÑĥÑħÑĬÐµ
ÑĤ ÐµÐ»
Ð°Ð´ Ð¸Ð¾Ð½
Ð°Ð´ ÐµÑħÑĥÐ½
ĠÐ² ÐµÐ³
ĠÐ² ÐµÑĩ
ĠÐĵÑĮ ÑĥÐ´ÑĥÐ»
Ð¶ Ð°Ð»
ĠÐ±ÑĥÐºÓı Ð¸Ð½Ð°Ð±Ð¸Ð·Ðµ
ÑĥÐ¼ ÑĥÐ·
Ð°ÑħÓı Ð¸Ð¼
Ð¸Ðº ÑĥÐ»
ÑħÑĬ Ð°Ð±Ð¸
ĠÐ³ÑĮÐ°ÑĢ Ð´
ĠÐ¸Ð½ Ð°Ð»ÑĬÑĥÐ»
ĠÐ¦ Ð¾Ð½Ð¸Ð³Ð¸
ĠÐ´Ð°Ð½Ð´Ðµ Ð³Ð¸
ĠÐ½Ð°ÑħÑĬ Ð±ÑĥÑģÑģ
ĠÑĢÐ°Ð³Óı Ð°Ð±Ð¸Ð³Ð¸
ĠÐ³ÓıÑĥÑĨÓı Ð°ÑĢÐ°Ð»Ð´Ð°ÑģÐ°
Ð¸Ð·Ð°ÑĢ Ð¸
ĠÐ»ÑĬÑĥÐ³Óı ÑĥÐ»ÐµÐ±
ĠÑħÑĬÑĥÐ»ÑĥÑħÑĬ Ð°Ð»ÑĬÐµ
ĠÐ¼Ð°Ð³ÓıÐ°ÑĢÑĥÐ» Ð°Ð·Ðµ
Ð¾Ñĩ Ð¾Ð½
ĠÑĢÐ¾ÐºÑĬ Ð¾Ðµ
ÐĴ ÐĶ
ĠÑĢÐ°Ñĩ Ð°ÑĢÐ°Ð»
ĠÐĵÑĮÐ°Ð½ Ð¸ÑĢ
ĠÑĥÐ»Ðº Ð°ÑıÐ»Ð´Ð°Ð³Ð¾
Ð£ Ð¼
ĠÐ²Ð°ÑĤ Ð°Ð½Ð¸Ð³Ð¸
ĠÑīÐ¸Ð² Ð½Ð¸Ð³Ð¸
ĠÐĲÐ²Ð°ÑĢ ÑĤÐµ
ĠÐ³ÓıÐ°Ð´Ð°Ð½ Ð»ÑĬÐ¸ÑıÐ»ÑĬÑĥÐ»
ĠÐ³ÓıÐ°Ð¹Ð¸Ð± Ð°Ð»
ĠÐĵÑĬÐ°Ð· Ð¸ÐµÐ²
ĠÐ³ÑĮÑĥÐ½Ð°ÑĢ Ð°Ð»ÑĬÑĥÐ»
ĠÐ°Ð²ÑĤ Ð¾Ð±ÑĥÑģ
ĠÑħÓıÐ°ÐºÑĬÐ¸ÐºÑĬ Ð°ÑĤÐ°Ð»Ð´Ð°
ĠÐºÐ¸Ð» Ð¾Ð³ÑĢÐ°Ð¼Ð¼
ĠÐ¿ÑĢÐ¾ÑĨ ÐµÑģÑģ
ĠÑĨÐµÐ±ÐµÑĤÓıÐµÐ·Ð°Ð± Ð¸ÑıÐ»ÑĬÑĥÐ»
ĠÐĳÐ¾ÐºÑĮ Ð°ÑĢÐ°Ð±
ĠÐ£Ð· Ð´Ð°Ð»ÑĢÐ¾Ñģ
ĠÑĢÐ°ÐºÓıÐ±Ð°ÑĨÓıÑĨÓıÐ°Ð´ Ð°Ð±
ĠÐłÐ°Ð¶Ð°Ð± Ð¾Ð²
ĠÐ±ÐµÑĤÓıÐµÑĢÐ³ÑĮ Ð°Ð½Ð°Ð»
ĠÐ±ÐµÑĨÓı Ð¸Ð·Ðµ
ĠÐ¨Ð°Ð¼ÑħÐ°Ð» Ð¾Ð²
ĠÑĩÐ¾ÑĢÐ¾Ðº Ð»ÑĬÐ¸
ĠÑĨÐµÑĢÐµÑĢÐ°ÑħÑĬ Ð¸Ð½Ð°Ð»
ĠÐ¥ÓıÐ°Ð¹Ð± ÑĥÐ»Ð°ÐµÐ²
ĠÑģÐ°Ð½Ð°Ð³ÓıÐ°ÑĤ Ð°Ð±
ĠÐ¼Ð¸Ð½ÑĥÑĤ Ð°Ð»ÑĬ
Ð¼Ð°ÐºÑĬ Ð°Ð±
ĠÐ¼Ð¸Ð½Ð°ÑıÐ»ÑĬ ÑĥÐ±
ÐłÐµÑģÐ¿ÑĥÐ±Ð»Ð¸Ðº Ð°ÑıÐ»ÑĬÑĥÐ»
Ð¾ÑģÐ°ÑĢÐ¾ Ð»ÑĬ
Ð§ÐµÑĢÐ½ Ð¾Ð²Ð¸Ðº
ÑĥÐ» ÓĢ
Ðº Ð°Ð»Ð°Ð¼
ĠÐº ÑĥÐ¹
Ð°ÑĤ Ð°Ð·Ð´Ð°
Ð°Ñħ ÐµÑĤ
ĠÐ² ÐµÐ´
Ð°Ðº Ð°Ð»
Ð¸Ð» Ð°ÑĤ
Ð¸Ñģ Ð°Ð»Ð°
Ð¸ÑĤ Ð°Ð½
ĠÑĢÐµ ÑĨ
ĠÑħÓıÐ°Ð» Ð¸Ð¼
Ð°ÐºÑĬ Ð°Ð±
Ð°ÑħÓı Ð¸ÑıÐ»
ĠÐ¡ Ð°ÑĢÐ°ÑĤ
ĠÐ³ÑĬ Ð¾Ð·
ĠÐĶÐ°Ð³ÑĬÐ¸ÑģÑĤÐ°Ð½ Ð°Ð»Ð´Ð°Ð³Ð¾
ĠÐĺ Ð»
ĠÑĨÓıÑĥÐ½ ÑĥÐ»Ð°Ð³Ð¾
ĠÑĤÓıÐ¾Ð±Ð¸ÑĤÓı Ð¸ÑıÐ»ÑĬÑĥÐ»
ĠÑĨÓıÐ°ÑĢ Ð°Ð»ÑĬÐµ
ĠÐ¥ÓıÐ°Ð¶ Ð¸ÑĨÐ°
ĠÐļÓı Ð°Ð»ÑĬÐ°Ð·Ðµ
ĠÐ±Ð°ÑıÐ½ Ð°Ð»Ð´Ð°
ĠÐ¿Ð¸ÐºÑĢÑĥ Ð³ÑĥÐ½
ĠÑĤÓıÐ°Ð¼ Ð¸
ĠÑĢÐµÑħÑģ Ð¾Ð»ÐµÐ»
ÑĥÑĪ ÑĤ
ĠÑħÑĮÐ² Ð°Ð´ÑĥÐ»
ĠÐ³ÑĬÑĥÑĢÑĥÑī Ð³Ð¸
ĠÑĤÐµÑĢ Ð°ÐºÑĤ
ĠÐºÑĬÐµÑĨ Ð°Ð·ÑĥÐ»ÑĬ
ĠÐ±Ð¾Ð¶ ÑĥÐ½
ĠÑħÑĮÐ²Ð°Ð´ ÑĥÐ½
ĠÑĤÐ°ÑĢÐ±Ð¸Ñı Ð³Ð¸
ĠÐ±Ð¸Ð¶ Ð°Ð½Ð°
ĠÐĳÐµÑĢ ÑĨ
ĠÑĢÑĥÑģÑģ Ð¸Ð½Ð°ÑĢ
ĠÑĤÑĢ ÑĥÐ±
ĠÐºÐ²ÐµÐ½ Ð³Ð¸
Ġ194 5
Ð°ÑıÐ· Ð´Ð°ÑģÐ°
ĠÐ¡ÑĥÐ» Ð°ÑħÑĬ
ĠÑĤÓıÐ°Ð´ÐºÑĬ Ð°ÑĢÐ°Ð±
Ġ25 0
ĠÐ±ÑĥÐ³Ð¸Ñī Ð°Ð»Ð¸
ĠÐºÐ¾ÑĩÓıÐ¾ ÑħÑĬÐ°Ð½
ĠÐ±Ð¸ÐºÑĬ ÑĥÐ½
ÑĨÓıÑĨÓı ÑĥÐ½
ĠÑħÓıÐ°Ð»ÑħÑĮ Ð¸ÑıÐ»Ð´Ð°
ĠÐ¿Ð¸ÑĢ Ð¸Ð½ÑĩÓı
ĠÐ°ÐºÐ°Ð´ÐµÐ¼ Ð¸Ðº
ĠÐ³Ð°Ð½ÑĩÓı Ð¸Ð»
ĠÐĵÑĬÑĥÐ½ Ð¸ÑģÐ°
ĠÑħÓıÑĥÐ± Ð°Ð»
ĠÐĲÐ±Ð´ÑĥÑĢ Ð°ÑħÓıÐ¼Ð°Ð½
ĠÐ²ÐµÐºÐµÑĢ ÑĥÐ½
ĠÐ³ÓıÐ°ÐºÑĬÐ» ÑĥÑĩ
Ð°Ð½ ÐºÓıÐ°Ð»
ĠÐ³ÑĮ Ð°Ð»ÑĬÑĥÐ»
Ð¼ Ð°ÑĢÐº
ĠÑģ ÐµÑĤ
ĠÑĤÓı Ð¸Ð»
ĠÐľ Ð°
ĠÑħÓı Ð°Ð¼Ð°
ĠÐ¥ ÐµÑħ
ĠÐĶ Ð¼Ð¸ÑĤ
ĠÐļ Ð°Ð²
ĠÐĵÓı Ð¸Ð·
Ð°Ð¶ Ð°ÑĢ
ĠÑħÑĬ ÑĥÐ»
ĠÐ¡ Ð°Ð±Ð¸
ÑħÓı Ð°Ð¼
Ñī Ð¸Ð±
ĠÐ³ÑĮÐ¾ÑĢÐºÑĮ Ð¾Ð²Ðµ
ĠÑĨÓıÐ°Ð» Ðµ
ĠÐ±Ð¾ÐºÑĮ ÑĥÑħÑĬÐµ
ĠÐ³ÓıÑĥÑĨÓı Ð°Ð±Ð¸
ĠÐĵÑĬ Ð¾ÑĢ
ĠÑħÑĥÑĤÓı Ð¸Ð»Ð°
Ð¸Ð³ Ð¸Ð½
ĠÐ¶Ð¸Ð´Ðµ ÑħÑĬ
Ñį ÑĢ
Ġ4 3
ĠÐ±ÐµÑĢÐ³ÑĮ Ð°ÑĢÐ°Ð²
Ðĸ Ð¸Ð´ÐµÑĢ
ĠÐ³ÑĮÐ¸ÐºÑĬ ÑĥÐ»ÐµÐ±
ĠÐ±Ð¾ÑĨÓı Ð¸Ð³Ð¸
ĠÑĢÐ¸ÑĤÓıÑĥÑħÑĬ Ð°Ð±
ĠÐļÐ¸Ð½Ð°Ð± Ð½Ð¸Ð³Ð¸
ĠÑĤÑĥÑĪÐ¼Ð°Ð½ Ð°ÑģÑĥÐ»
ĠÐ±Ð°Ð»ÑĬÐ³Ð¾ ÑıÐ±
ĠÐ´Ð°Ð½Ð´ÐµÐ»ÑĬ Ð°Ð±Ð°Ð·Ð´Ð°
ĠÐĽÑĬÐ¸ÐºÓı Ð°Ð»
ĠÐĸÐ°Ð¼ Ð°Ð³ÓıÐ°ÑĤ
ĠÐ³ÑĬÑĥÑĢÑī Ð¸Ð»
ĠÐ³ÓıÑĥÐ½ÑĤÓı Ð¸Ð·Ð°Ð±ÑĥÐ»ÐµÐ±
ĠÐĸÐ¸Ð½ Ð´Ð°
ĠÑħÐ°ÑĢÐ°Ð± Ð°Ð·ÑĥÐ»
Ð¼ÐµÑħ Ð°Ð»ÑĬ
ĠÐ°Ð²ÑĤÐ¾Ð¼Ð¾Ð±Ð¸Ð» ÑĮ
ĠÐ³ÓıÑĥÐ· ÑĢÐ°Ð±Ð¸
ĠÑĦÐ¸Ð½Ð°Ð½Ñģ Ð°Ð·ÑĥÐ»
ĠÐ±Ð°ÑĤÐ¸Ð» Ð°ÑħÐ°
ĠÑĦÐµÑģÑĤÐ¸Ð² Ð°Ð»ÑĮ
ÐĳÐ¾ÐºÑĮ ÑĥÐ½
ĠÐĲÑĪ Ð°ÑħÐ°Ð½
ĠÐ°ÑģÐºÓĢ Ð¾Ð±
ĠÑĤÑĢÐ°Ð½ÑģÑĦÐ¾ÑĢÐ¼Ð°ÑĤ Ð¾ÑĢ
ĠÐ¹Ð¸Ð³Ð¸ Ð»Ð°Ð½
e r
Ð½ ÐµÐ²
ĠÐ± Ð°Ð½Ð´
ÑĥÐ½ Ð¸ÑģÐ°
ĠÐ³ÑĮ ÑĥÑĢÐ¸
Ñģ Ð¾
ĠÑħ Ð¸Ð»
Ð°Ð· Ð³ÑĥÐ½
ĠÐ³Óı ÐµÐ±
ĠÐ² Ð°ÐºÑĬ
ĠÑĤ Ð°Ðº
ĠÐ³ÑĮÐ°Ð± ÐµÑħÐ°
ĠÐºÐº ÐµÑıÐ»ÑĬÐµ
Ð¸ÑĨ ÓĢ
ĠÐľ Ð°ÑĨÓı
ÑĥÑħÑĬ Ð°Ð±Ð¸
ĠÐ¥ Ð¸ÑĨÓı
Ð¸Ðº ÑĢ
ĠÐºÑĬÐ¾ Ð»ÑĬÑĥÐ½
ĠÐ³ÑĬ Ð¾Ð²
Ñī Ð¸Ð½Ð°Ð²
ĠÐ±Ð¸ÑħÑĮ Ð¸ÑĩÓıÐ¾Ð³Ð¾
ĠÐ¨ ÐºÐ¾Ð»Ð°
ĠÐ±Ð¾Ñģ Ðµ
ĠÐ±Ð¾Ñģ Ð°ÑĢÐ°Ð²
ĠÐ¶Ð¾ ÑıÐ»Ð´Ðµ
ĠÐĵÓıÐ°Ð±Ð´ÑĥÐ» Ð¼Ð°Ð½Ð°Ð¿
ĠÐłÐ¾ÑģÑģ Ð¸ÑıÐ»Ð´Ð°ÑģÐ°
ĠÐ±Ð°Ð»Ð°Ð³ÑĮ Ð°ÑĢÐ°Ð±
ĠÐ¦Óı Ð¸ÐºÓıÐºÓı
ĠÐ¾ÑĤ Ð»Ð¸Ñĩ
ĠÐ³ÑĮÐ°ÑĢÐ¸Ð·Ðµ Ð³Ð¸
ÑĢÐºÐµÐ½ Ð°Ð±
ĠÐºÐ¾Ð½ ÑģÑĤÐ¸ÑĤÑĥÑĨ
ĠÑħÑĬÐ¸Ð·Ð°Ð½ Ð³Ð¸
ĠÐºÐ»Ð°ÑģÑģ Ð°Ð»Ð´Ðµ
Ð°Ð»ÑĬÑĥÑħÑĬ Ð³Ð¸
ÐºÐ² ÐµÑĪ
ĠÐĲÑģ ÐºÓı
ĠÐºÑĮÐµÑĢ Ð°Ð»ÑĬÑĥÐ»
ĠÑĢÐ°Ð»Ð°Ð³ÑĮ ÑĥÐ»ÐµÐ»
ĠÐ³ÓĢÑĥÑĨÓĢ Ð°Ð½Ð°
ĠÐķÐ²ÑĢÐ¾Ð¿ Ð°ÑıÐ»Ð´Ð°
ĠÐºÑĬÑĥÐ½ ÑĨÓı
ĠÐ±ÑĥÐºÓıÐ¸Ð½ÑĩÓıÐµÐ± Ð°Ð½Ð¸
ĠÐĲÐ¼ÐµÑĢ Ð¸Ðº
ÐĳÐ¸ÑīÑĥÐ½ Ð³Ð¾
ÐŁÑĢ Ð¸Ð·
ĠÐĳÐ°ÑĪ Ð¸ÑĢ
ĠÐĲÑħÓĢ Ð¼Ð°Ð´
ĠÑıÐ· Ð¸ÑħÑĬ
ĠÑĩÐ²Ð°Ð½ ÑĤÐ¸Ð½
ĠÐ¡Ð°ÑĤ Ð¼Ð°ÑĢ
ĠÐĸÐļ Ð¥ÑıÐ»ÑĬÑĥÐ»
ĠÐ¿ÑĢÐ¾Ð¿ Ð°Ð³
ĠÐ³ÑĮ Ð°Ð»ÑĬ
Ð°Ð´ Ð°Ñħ
Ð°ÑĤ ÐµÐ»
ĠÐ³Óı Ð°Ð·
ĠÐ³Óı Ð°Ð¼Ð°Ð»Ð³Ð¸
Ð»ÑĬÑĥÐ» ÐµÐ²
ĠÐ»ÑĬ Ð°ÑĩÓı
Ð¾ÑĢ Ð´
ĠÐºÑĬ Ð°Ð»Ð°Ð¼
ĠÐľ Ð§
ĠÑĨÓı Ð°Ð´Ð°Ð»
Ð³Óı Ð°Ð´
ĠÑī ÑĥÐºÑĢÑĥ
ĠÐºÓı Ð¸Ð½
ĠÑħÓıÐ°Ð»ÑĤÓı Ð°Ð±Ð¸Ð³Ð¸
ÑĩÓıÐ¾ Ð³Ð¾
ĠÐĳ Ð¸Ð»Ð°Ð»
ĠÐ¥Óı Ð°Ð¿
ĠÐ²ÑĥÐºÓı Ð°
ĠÐ¨ ÐµÑħ
ĠÐ±Ð°ÑħÑĬ ÑĥÐ»Ð°Ð°Ð½
ĠÑĢÐ°ÐºÑĮ ÑĥÐ»ÑĬ
ĠÑĢÐ°ÐºÑĮ ÑĨÐ¾
ĠÑħÑĥÑĤÓı ÑĥÐ»ÐµÐ»
.. ..
ĠÑĩÐ¸ÑıÑģ Ð´Ð°ÑģÐ°
ĠÐ¥ÓıÐ°Ð¶ Ð¸Ð³Óı
Ð°Ð³ÓıÐ°Ð» Ð¸ÐµÐ²
ĠÐºÐ¾Ð» Ð¾Ð½
ĠÐ±Ð¸ÑĩÑĩ Ð°Ð½Ð¸
ĠÐ¾ÑĤ ÑĢÑıÐ´
ĠÐ±Ð°Ð¶Ð°ÑĢ ÑĥÐ»ÐµÐ»
ĠÐ´Ð¾Ð± Ðµ
ĠÑħÑĬÐ¸Ð·Ð°Ð½ Ð°Ð»ÑĬÐµ
ĠÐ²Ð°ÑĤ ÓĢ
Ġ200 3
Ð¼Ð°Ð³ÑĬ Ð¸ÑĢ
ÑĩÐ¸Ð»ÑĬ Ð¸ÑıÐ»Ð´Ðµ
ĠÑĢÐµÐ³Ð¸Ð¾Ð½ Ð°Ð»Ð¸ÑıÐ±
ĠÐĿÑĥÐ¶ ÐµÐ´Ð°
ĠÐ¢ÓıÐ°Ð´ ÐµÑħÑĥÐ½
ĠÐ¸Ð½ÑģÑĤÐ¸ÑĤÑĥÑĤ Ð°Ð»Ð´Ðµ
ĠÐ±ÐµÐºÑĮ ÐµÑĩÓı
Ġ197 0
ĠÐ¢ÓıÐ¸Ð½Ð´ Ð¸ÑģÐ°
ĠÐ¿Ð°ÑĢÐ°Ñħ Ð°ÑĤÐ°Ð±
ĠÐĳÐ°Ñħ Ñĥ
ĠÐ¡ÑĤ Ð°Ð²ÑĢÐ¾Ð¿
ÑĢÐ¾ÑĦ Ð¸ÑĢÐ¼
ĠÐ¿Ð°ÑĤÑĢÐ¸Ð¾ÑĤ Ð¸ÐºÐ¸ÑıÐ±
ĠÐ¿ÐµÑĩ Ð°ÑĤÐ°Ð»ÑĬÑĥÐ»
ĠÐ¥ÑĥÑĢ ÑĪ
ĠÑĥÑĩÑĢÐµÐ¶Ð´ÐµÐ½Ð¸ÑıÐ± Ð°Ð·ÑĥÐ»Ð³ÑĥÐ½
ĠÐĳÐ°Ð³ÑĮÐ°Ð² Ð´Ð¸Ð½
ĠÑĩÐ°ÑħÑĬ Ñĥ
ĠÐ¼Ð°Ð²Ð» Ð¸Ð´
Ð»ÐµÐ´ Ð¶
ĠÐ°Ð½Ñģ Ð°Ð¼Ð±Ð»
ĠÐłÑĥÑģÑĤ Ð°Ð¼
ĠÐĶÐĲÐ¡Ð¡Ðł Ð°Ð»ÑĬÑĥÐ»
ĠÐĿÐ°ÑģÑĢÑĥ Ð´Ð¸Ð½
ĠÐ¢Ð°ÑĤÑĮÑıÐ½ Ð°
ĠÐĵÐ¸Ð½ Ð¸Ñĩ
ĠÐ·Ð°Ð³ÑĮ ÑĢÑĥ
ĠÐĲÐ½Ð´ÑĢ ÐµÐ¹
ÑĢÑĥÑĨÐµÐ»Ð» ÐµÐ·
Ð ¬
ĠÐ³ÑĮ Ð¸Ð¶
Ð¼ ÐµÐ½ÑĤ
Ð°Ñħ ÑĥÐ½
ĠÐ½ Ð¸Ñĩ
ĠÑĢÑĥ ÐºÑĮ
ÐºÑĬ Ð°Ð½
Ð¸ÑıÐ± Ð°Ð·Ð´Ð°
ĠÐ¸ Ð³Óı
ÑĥÐ¼ Ð°ÑħÐ°Ð½
ĠÑĨÐ¾ ÑıÐ¹
Ð°ÑħÓı Ð°Ð»ÑĬÑĥÐ»
ĠÐł Ð¸ÑħÑĮ
ĠÐł Ð¸Ñī
ĠÐ¡ Ð¿Ð¾ÑĢÑĤ
ĠÐ³ÑĮÐµÐ· Ð´ÐµÑħÑĥÐ½
ĠÐ¥Óı Ð°Ð½
ĠÐ¢ Ð¾Ð»
ĠÐ³ÑĥÑĢ Ð¾Ð½Ð¸Ð³Ð¸
ĠÐ±Ð°ÑĤ Ð¸Ð·ÐµÐ³Ð¸
Ð°Ð¿ Ð°ÑĢ
ĠÑĢÐµÐºÑĬ Ð°ÑĢÐ°Ð»
Ð¾Ðº Ð¾
Ð¡ ÑĥÐ»
Ð¡ Ð¤Ð¡
Ð°Ð·Ð°Ð± ÑĥÐ½
Ð°Ð¸ ÑĢÐ°
ĠÑħÑĬÑĥÐ»ÑĥÑħÑĬ Ð³Ð¸
Ð¢ Ð°ÑĢ
ÐĵÓı ÑĥÐ¼Ð°ÑĢ
ĠÐ·Ð°ÑħÓıÐ¼Ð°ÑĤ ÑĩÐ¸
ĠÐºÑĬÐ²Ð°ÑĢ Ð¸Ð´
ĠÑĢÑĥÐºÑĬ Ð°Ð»Ð´Ð°
Ġ4 7
ĠÑįÐº ÑģÐº
ĠÑħÓıÐ¸Ð½ÐºÑĬ Ð°ÑĢÐ°Ð±
Ġ7 4
Ġ7 00
ĠÐ±ÑĥÐºÓĢ Ð¸Ð½Ðµ
ĠÐºÑĬÐ°ÑĩÓı Ð°ÑĢÐ°Ð»
ĠÑĢÐ¾ÑģÐ°Ð± Ð°Ð»ÑĬÐ³Ð¸
ĠÑīÐ¸Ð² Ð°ÑģÐ´Ð°
ĠÑģÐ°Ð½ Ðº
Ð±Ð°Ñģ Ð¸
ĠÐ·Ð°Ð² ÐµÐ´ÐµÐ½
ĠÐ´Ð°Ð³ÑĬÐ¸ÑģÑĤÐ°Ð½ Ð°Ð»ÑĬÑĥÐ»
ĠÐ·Ð°ÐºÐ¾Ð½ Ð°Ð»Ð´Ðµ
ĠÐ¿ÑĢÐ¾ÐµÐºÑĤ Ð°Ð»ÑĬÑĥÐ»
ĠÐ´Ð¾Ð» Ð»Ð°ÑĢ
ĠÑĢÐ°ÑħÓı Ð¼Ñĥ
ĠÐ¥Ð°Ð´ÑĥÐ± Ð³Ð¸
ĠÐĵÓıÐ°Ð»Ð¸ Ð°ÑģÑħÓıÐ°Ð±
Ð¾Ð¿ Ð¾Ð»
ĠÑīÐ²ÐµÐ·Ð°Ð± ÑĥÐ½
Ð´ÐµÑĢ Ð¸Ð´Ð°
ĠÑĨÐ¸Ð½ Ð´Ð°Ð³Ð¾
ĠÑĤÓıÐ°Ð´ÑĢÑĥÑģÑģ ÑĥÐ½
ĠÐºÐºÐµÐ·Ð°Ð± Ð¸Ð·Ðµ
ĠÐ»ÑĬÐ°Ð·Ð°ÑĢ Ð¸Ð·Ðµ
ĠÑĤÑĥÑĢÐº Ð°Ð·ÑĥÐ»
ĠÐ²Ð¸ÑħÑĮÐ¸Ð·Ð°Ð² ÑĥÐ½Ð°
ĠÐĵÓıÐ°Ð· Ð¸Ð·
ĠÐĵÑĮÐ¾ÑĢÐºÑĮ Ð¾ÑħÑĬÐµÐ±
ĠÐ±Ð°ÑħÓıÐ°ÑĢÑĩÐ¸ Ð»ÑĬÐ¸Ð³Ð¸
ĠÐĶÐĵ Ð£ÑıÐ»ÑĬÑĥÐ»
ĠÑĢÐ¾ÑĨÓı Ð°ÑĢÐ°Ð±
ĠÐ½Ð¾Ð¼Ð¸Ð½ Ð°ÑĨÐ¸ÑıÐ»Ð´Ð°
ĠÐ¡Ðľ Ðĺ
ĠÐ³ÑĥÐº Ðº
ĠÐ²Ð¾ÐµÐ½ ÐºÐ¾Ð¼
ĠÐļÐ²Ð°ÑĤÓı Ð¸ÑĩÓıÐ¾Ð³Ð¾
ĠÐ´Ð¾Ñı ÑĢÐº
ĠÐ°ÑĤÑĤ ÐµÑģÑĤ
Ġ :
Ñĥ ÑıÐ»ÑĬ
Ð½ Ð¾Ð´
Ð½ Ð°Ð½Ð¸
Ð½ Ð¾Ðµ
Ð³ Ð»
Ð¼ ÑĥÑħÑĬ
Ð¸Ð½ ÐºÓĢ
Ð°ÑĤ Ð°Ð»ÑĬÐµ
ĠÐ² Ð¸ÑīÑĥÐ½
Ð¾Ð½ Ð³Ð¸
ĠÐ»ÑĬ Ð°Ð´Ð°Ð»
Ð°Ð¹ Ð´ÑĥÐ»
ĠÐ¶ Ð°ÑħÓı
ĠÑĤÓı Ð¾Ð²
ĠÐľ Ð°ÐºÐº
ÐµÐ· Ð¸Ð½
ĠÐ¥ ÑĥÐ±Ð°ÑĢ
ĠÑı Ñħ
ÑĪ Ð°
ĠÐ³ÑĮÐµÐ» Ð´ÐµÑħÑĥÐ½
Ð³ÑĬ Ð²
ĠÐĿ Ð¸ÐºÐ¾Ð»
ĠÑħÑĬÐ² Ð°ÑĩÓıÐ¾Ð³Ð¾
ÐĶ Ð¾Ð»
Ðł Ð°Ð¼Ð°Ð·Ð°Ð½
ĠÐ±Ð¾ÐºÑĮ ÑĥÐ»Ð°ÑĢÐ¾
ĠÐ±ÐµÐ³ÑĮ ÑĥÐ½
ĠÐ³ÓıÐ°ÑĢ Ð°ÐºÑĬÐ¸
ĠÐ°Ð´ Ð¼Ð¸Ð½Ð¸ÑģÑĤÑĢ
ĠÑħÑĮ Ð°Ð³
ĠÐºÐ¾Ð¼ Ð±
ĠÐĵÓıÐ°Ð±Ð´ÑĥÐ» Ñħ
ĠÐ¼ÑĥÐ½ Ð¿
Ð¢ ÐµÑĢ
ĠÑħÓıÐ°ÑģÐ¸Ð» Ð³Ð¸
ÐµÐ·Ð°ÑĢ ÑĥÐ½
ĠÑĤÓıÐ¾ÑĢÐ¸ÑĤÓı Ð¸
ĠÑĢÐ°Ð· Ð¸ÑıÐ»
Ġ8 00
Ð°Ñī Ð´Ð°Ð±
ĠÑĤÓıÐ°Ð³Óı Ð°Ð½Ð°
Ġ200 4
ĠÐĵÑĮÐµÐ»ÑĬ ÑĥÑħÑĬ
ÐĹ Ð°
ÑĥÑĤÐ°Ðº Ð°Ð»Ð´Ð°
ĠÐ³ÑĢ ÐµÐº
ĠÑĪÐ°ÑĢ Ð³Óı
ÑĥÑħÓĢ Ð°Ð¼Ð°Ð´
ĠÑħÓĢÐ°Ð»ÑĤÓĢ Ð¸Ð·Ð°Ð±ÑĥÐ»ÐµÐ±
ĠÐ³ÓıÐ¾ÑĢÑħÑĬ Ð¾Ð»ÑĬÐ°
ĠÐĵÑĮÐ¸ÑĤÓı Ð¸Ð½Ð³Ð¾
ĠÐ±Ð¸ÑħÑĮÐ¸Ð½ ÑĩÐ¸
ĠÑĢÐ¾ÑĢÑħ Ð°Ð½Ð°
ĠÐļÐ¾Ð½ ÐºÑĥÑĢÑģ
ĠÑĢÐ¸ÑĨ ÑĥÐ½ÐµÐ»
ĠÐ½ÑĥÑĨÓı Ð°
ĠÑİÑĢ Ð¸ÑģÑĤ
ĠÐ¼ÑĥÐºÑĬ ÑģÐ°Ð½
ĠÐ±Ð°ÑĢÐ°ÑħÑī Ð¸ÑĩÓıÐ¾Ð³Ð¾
ĠÑįÐ½ÐµÑĢÐ³ ÐµÑĤ
Ġ Ð°ÑĢÐ°Ð·ÑĥÐ»
ÑĢ Ð¾Ð²
Ð´ Ð¾Ð»ÐµÐ±
ĠÐ³ Ð¸Ð½
Ñħ Ð¾ÑĩÓı
ÐµÐ» Ð´ÐµÑĢÐ¸Ð»
ÐµÐ» ÐµÐºÑĮ
ĠÐ´ Ð·ÑİÐ´Ð¾
ĠÑģ Ð¾Ðº
ĠÑģ Ð¾ÑİÐ·
ĠÐ¶ Ð°Ð²
ĠÐ¶ ÑİÑĢ
ĠÐºÑĬ Ð¸Ð½
Ð°ÑħÑĬ ÑĥÑĪ
ÐºÑĬ Ð²Ð°ÑĢ
ĠÐ¿ Ð°ÐºÑĬÐ¸ÑĢ
ĠÐľ ÑĥÐ·
ÐµÐ½ Ð°Ð»ÑĬÑĥÐ»
ĠÑħÓıÐ°Ð» ÐµÐ»
ĠÐļ Ð¤
ĠÐł Ð°Ð³Óı
ĠÑħÑĬ Ð²Ð°ÑĢ
ĠÑĢÐ°Ð¹ Ð½Ð°Ð»ÑĬÑĥÐ»
ĠÑĢÐ°ÑħÑĬ Ð°Ð»ÑĬÑĥÐ»
ĠÐ¿ÑĢ Ð¸
ĠÐ¾ Ñĩ
ĠÐ³ÓıÐ¾Ð» Ð°ÑĢÐµÐ±
ĠÐŁ Ð°Ð»ÑħÓıÐ°ÑģÐ¸Ð»
ĠÐ»ÑĬÑĥÐ³ÑĮ Ð°Ð½Ð¸
ĠÑĪÐºÐ¾Ð» Ð°Ð»ÑĬ
ĠÑĢÐ°Ð³ÑĬ Ð°Ð·ÑĥÐ»ÑĬ
ĠÐĸ Ð°ÑħÓı
Ðĳ Ð¸ÑĤÓıÐ°ÑĢÐ°Ð±
ÑģÐº Ð°Ð»ÑĬÑĥÐ»
ĠÐ±Ð°Ð»Ð°Ð³ÑĮ Ð¸
ĠÐ²ÑĥÐ³ Ð¸Ñī
ĠÑĢÐ¾ÐºÑĬ Ð¾Ð¹
ĠÑĢÐ°ÑĤ Ð¸Ð»Ð°ÑĢÐ¾
ĠÐ±Ð¸ÑĩÑĩ Ð°Ð»
ĠÐ±ÐµÑĢÐ³ÑĮ Ð°ÑĢÐ°Ð»
ĠÐĵÑĮÐµÐ· Ð´Ð°ÑģÐ°Ð½
ĠÐ³ÓıÐ¾Ð»Ð¸Ð» Ð°Ð²
ÑĥÐºÑĬ Ð°Ð±
ĠÐĵÓĢ Ð°Ð±
ĠÐºÓıÐ°Ð» ÑĤÓıÐ°
ĠÐľÑĥÑħÓı ÑĥÐ¼
Ġ18 5
ĠÐ²ÑĥÐºÓıÑĥÐ½ ÐµÐ²
ĠÐ¿Ð°ÑĢÑĤ Ð¸Ñı
Ð±Ð°Ñģ Ð¸ÑıÐ·ÑĥÐ»
ĠÑħÐ²ÐµÐ·Ð°Ð± Ð¸Ð·Ðµ
ĠÐ³ÑĮÐ°Ð±ÑĥÐ» ÐµÐ»ÑĬÑĥÐ»
ĠÐºÑĬÐ°Ð½ÑĥÐ½ Ð°Ð»
ĠÑģÐµÐ½ÑĤ ÑıÐ±ÑĢÑĮ
ĠÐ¦Ð¾Ð³Ð¸ Ð´
ĠÐºÑĮÐ¾ ÑĩÓıÐ¾
ÑĢÐ°ÐºÑĮ Ð°Ð»ÑĬÑĥÐ»
ĠÐ½ÑĥÐ³Óı Ð·Ð°Ð»
ĠÐ³ÑĮÑĥÑĢÐ¼ Ð°Ð´Ð°
ÑħÐµÑĢ Ð°Ð»ÑĬÑĥÐ»
ĠÑĦÑĥÑĤÐ±Ð¾Ð» Ð°Ð»ÑĬÑĥÐ»
ĠÑĤÑĢÐ°Ð½ÑģÐ¿Ð¾ÑĢÑĤ Ð°Ð»ÑĬÑĥÐ»
ĠÐĵÓıÑĥÐ¼Ð°ÑħÐ°Ð½ Ð¾Ð²Ð°Ñģ
ĠÐļÑĢ ÐµÐ¼Ð»
ĠÐ²ÑĥÐºÑĬ ÑĥÐ½
ĠÐĳÐ°ÐºÑĮÐ°Ð³ÑĮÐµÑĩÓı Ð¸ÑģÐ°
ĠÑĢÐ¸Ð»ÑĬÐ»ÑĬ Ð¸Ð½
ĠÑĩÑĩÑĥÐ³Óı Ð°
ĠÐļÓıÐ²Ð°Ð½ Ð°Ð´Ð°
ĠÐ§ÑĥÑĢ Ð°ÐµÐ²
ĠÐºÑĬÑĥÑĢÐ± Ð°Ð½Ð°Ð»
ĠÑĤÓıÐ°ÑģÐ°Ð± Ð¸Ñī
Ð°Ð½ ÑīÐ¸Ð½Ð°Ð±
ÑĥÐ½ Ðº
ĠÐ³ÑĮ ÑĢ
ĠÐ³ÑĮ Ð°Ð»Ð´Ð°
Ñģ ÑĥÐ´
Ð°ÑĤ Ð°Ð»Ð´Ð°ÑģÐ°
ÐºÓı ÐºÓı
Ð»ÑĬÑĥÐ» Ð°ÑĢÐ¾
ĠÑģ Ð½
ĠÐ¶ Ð°Ð³ÑĬÐ°Ð»
ĠÐĵÑĮ Ð°Ðº
ĠÐľ Ð°Ð³ÑĬ
Ð³Óı ÑĥÑĢ
Ð¸Ðº ÑĤ
ĠÐ· Ð°Ñģ
ĠÐĶ Ð¾Ð½
ĠÐļ ÑĥÐ±
ĠÑĤÓıÐ°Ð´ ÑİÑģÑģ
ĠÐ³ÑĮÐ°ÑĢ ÑĥÑĢÐ°Ð±
ĠÐ¢ ÑĥÑĪ
ĠÑĨÓıÐ°Ð» ÐµÐ±
ĠÐĺ ÑĩÐºÓıÐ°
ĠÐ¹ Ð¸Ð»Ð°Ð½
ĠÐ³ÓĢ Ð°Ð´Ð°Ð»
ĠÐĵÑĬ ÑĥÐ¼ÐµÐº
ÑħÑĮ Ð°ÑĢÐ°Ð±
ĠÑĤÓıÑĥÐ± Ð°Ð»
ĠÐ½ÑĥÑħÐ¼Ð°Ð»ÑĬÑĥÐ» ÐµÐ·Ðµ
ĠÐ¼ÑĥÐ½ Ð³Ð¾
Ð¾Ñħ ÑĤÑĥÑĢ
ĠÑģÐ°Ñħ Ð»ÑĬÐ¸ÑıÐ»ÑĬÐµ
ĠÑĢÐµÐºÓı ÐµÐºÑĬ
ĠÐ³ÑĮÐ°Ð´ Ð°Ð±
ĠÑĥÑĢÐ³ÑĬ Ð°ÑĢÐ°Ð±
ĠÐľÑĥÑħÓıÐ°Ð¼Ð°Ð´Ð¾Ð² Ð½Ð°
ĠÐ¼Ð¾ÑĨÓı ÑĢÐ¾Ð»
ĠÑĩÑĥÑĢ Ð°Ð³Ð¸
ĠÐ³ÓıÐµÐ·ÐµÐ³ÓıÐ°Ð½ Ð°Ð»
ĠÐ¼ÐµÐ´ Ð¿
ĠÐ±ÑĥÑħÓı Ð¸Ð·Ðµ
ĠÐ¶Ð¸Ð²Ð³Ð¾ Ð³Ð¸
ĠÐºÐ¾ Ð¿
Ð³ÑĥÑĢ Ð¸
ĠÑĢÐ°ÐºÓıÐ°ÑĢ Ð¸Ð·Ðµ
ĠÐºÐ¸Ð» Ñī
ĠÑħÓıÐ°Ð»Ð±Ð¸ÑħÑĮ Ð¸Ð³Ð¸
ĠÐ³ÓĢÑĥÑĨÓĢ Ð¸ÑıÐ»Ð´Ðµ
ĠÑīÐ²ÐµÐ·Ð°Ð± ÑĥÐ»ÐµÐ±
ĠÐ²Ð¸Ñī Ð°ÑĢÐ°Ð²
Ð°ÑĢÐ± Ð¸Ð¶
Ð¿Ð¾Ð» ÐºÐ¾Ð¼Ð°Ð»ÑĬÑĥÐ»
ĠÐ±Ð°ÐºÐº Ð°ÑĢÐ°Ð±
Ð¼ÑĥÑħÓıÐ°Ð¼Ð°Ð´ Ð¾Ð²
Ñĳ ÑĢ
ĠÐĶÐ°Ð³ÑĬ Ð¸ÑģÑĤ
ĠÐ¢ÑĥÑĢÐº Ð¸ÑıÐ»ÑĬÑĥÐ»
ÑģÐ¾Ð½ Ð°Ð»ÑĬÑĥÐ»
ĠÐ±Ð°ÑħÓıÐ°ÑĢÑĩÐ¸Ð»ÑĬ Ð¸ÑıÐ»ÑĬÑĥÐ»
ĠÐļÑĢ ÑĭÐ¼
ĠÐºÐ¸Ð»Ð¾Ð¼ÐµÑĤÑĢ Ð°Ð»ÑĬÑĥÐ»
ĠÑĢÐ°ÑĤÓı Ð»
ĠÐ³ÑĢÐ°Ð½ ÑĤ
ĠÐĵÓıÐ°Ð±Ð´ÑĥÐ»ÑħÓı Ð°Ð¼Ð¸Ð´
ĠÐ³ÓıÑĥÑĢÑĩÑĩ Ð¸Ð½
ĠÐ¿ÑĢÐ¾Ð¼ÑĭÑĪÐ»ÐµÐ½ Ð½Ð¾ÑģÑĤ
ĠÐ°ÑģÑĦ Ð°Ð»ÑĮÑĤ
9 3
Ġ ÑĥÐ¿
Ð» Ð¸Ð±
ÑĢ Ð°Ðº
Ð°Ð½ Ð°Ð»ÑĬ
ĠÐ³ÑĮ Ð°Ð³ÑĬ
Ð»ÑĬ Ð¸ÑıÐ»Ð´Ð°Ð³Ð¸
Ñģ ÐµÑģ
Ð°Ð´ Ð°ÐµÐ²
ĠÐ³Óı Ð°
ĠÐºÑĬ Ð°ÑĢÐ°Ð»
ĠÐĵÑĮ Ð°ÐºÑĬ
ĠÐ¿ ÑĮ
ĠÑĨÓı Ð°ÐºÐº
Ð»ÑĬÐ¸ Ð³ÑĥÐ½
ĠÐºÓı Ð¾Ð»ÐµÐ»
ĠÑĨÐ¾ Ð´Ð°Ð³ÑĮÐ°Ð±
Ð¸Ðº Ð»
ĠÐĶ Ð¸ÑĨÐ°Ð³Ð¸
ĠÑħÑĬ Ð°Ð½
ĠÑħÑĬ Ð°Ð·
ĠÐĳ Ð¾ÑĢ
ĠÑĢÐ°Ð¹ ÐºÐ¾Ð¼
ĠÐ³ÑĮÐµÑģ ÑĥÑħÑĬ
ĠÐ¿ÑĢ Ð¾Ð·
ĠÐ¶Ð¸Ð½ Ð´Ð°ÑģÐ°
ĠÐĺ ÑĪ
ĠÐŁ ÑĥÑĪ
ĠÑĢÐ°Ð³Óı Ð¸ÑĩÓıÐ¾
ÐĲ ÑģÐ»
Ġ19 18
Ġ19 17
Ðľ Ñĥ
ĠÐ¼Ñĥ ÑĬÐ¼Ð¸Ð½
Ġ5 4
ĠÑģÑĤ ÑĢÐ°Ñħ
ĠÑĢÑĥÐºÓıÐ°ÑĢÐ°Ð» Ð°Ð½Ð¸
ĠÐºÑĥÑĨ Ð°Ð·Ðµ
ĠÐ²Ð°ÑĤ ÑĥÐ»ÐµÐ²
ĠÐ³ÓıÐ°ÐºÑĬ Ð¸Ð»Ð°Ð²
ÐĽÑĬ Ð°Ð¹
ĠÐ³ÓıÐµÐ·ÐµÐ³ÓıÐ°Ð½ Ð°Ð±
Ð°ÑģÑĤ ÑĢ
Ġ200 5
ĠÑĩÓıÐ°ÑħÓı Ð¸ÑıÐ·ÑĥÐ»
ĠÐ¸Ð´Ð°ÑĢÐ°Ð± Ð°Ð·Ð´Ðµ
ĠÑĢÐµÑĤÓı ÐµÐ»Ð³Ð¸
ĠÐļÐ¸Ð½ Ð°Ð·Ð´Ð°Ð³Ð¾
ÑħÐ°Ð» ÐºÑĬ
ĠÐ¶ÑĥÑĢÐ½Ð°Ð»Ð¸ÑģÑĤ Ð°Ð»
ĠÑħÑĬÐ¸Ð·Ð°Ð¼ Ð°Ð»ÑĬÑĥÐ»
ĠÐ±Ð¸ÐºÑĮ ÑĥÐ»Ð°
ĠÐĵÑĮÐ°ÑĢ ÑĥÐ½
ĠÑĩÐ²Ð°Ñħ ÑĥÐ½
ĠÐ¿ÐµÐ½Ñģ Ð¸ÑıÐ»Ð´Ðµ
ĠÑıÑĩÓı Ð°ÑĢÐ°Ð¹
ĠÐ¼Ð°Ð³ÓıÐ½ Ð°Ð³Ð¸
ĠÐºÑĮÑĥÑĢÐ´ Ð¸
ĠÐºÐºÐµÐ·Ð°Ð± ÑĥÐ½
ĠÑĢÑĥÐ³ÑĬ Ð½
ĠÑĢÑĥÐ³ÑĬ Ð½Ð°Ð»
ĠÐ¼ÐµÑĤÐµÑĢ Ð¸ÑģÐµÐ±
ĠÐ»ÑĬÐ¸Ð» Ð½Ð¸Ð³Ð¸
ĠÐ±Ð¾ÑĤÓıÑĢÐ¾ Ð»ÑĬ
ĠÐ¦ÐµÐ± ÐµÐºÐºÑĥÐ½
ĠÑģÐ¸ÑıÑħÓıÐ°Ð» Ð´Ð°
ÐľÐ°ÑħÓıÐ°ÑĩÑħÑĬÐ°Ð» Ð°ÑıÐ»Ð´Ð°
ĠÐĹÐ¸ÑıÐ² ÑĥÐ´Ð¸Ð½
Ð¥Ð¸ÑĢ Ð¸ÑıÐ»
ĠÐ³ÑĬÐ°Ð· Ð°Ð²Ð°ÑĤ
ĠÐ¸Ð½ÑĤÐµÐ»Ð» Ð¸Ð³ÐµÐ½
ĠÐ»Ð°ÑĥÑĢÐµ Ð°ÑĤ
Ð» Ð»Ð°Ð³ÑĮ
Ð°Ð½ ÐºÓĢ
ÑĥÐ½ ÐºÑĬ
ĠÐ»ÑĬ Ð°ÑĩÓıÐ¾
ĠÐ¶ ÐµÐ¼
Ñĩ ÑĩÐ¸
ĠÑī Ð¾Ð»ÐµÐ²
Ð°ÑĤÓı Ð¸Ð¼Ð°ÑĤ
ĠÐ½ÑĥÑħ Ð°Ð»Ð³Ð¸
ĠÑĢÐ°Ð¹Ð¾Ð½ ÑĨÐ¾ÑıÐ·
ĠÐ¦ ÐµÐ½ÑĤÑĢÐ°Ð»Ð´Ð°
Ðļ ÑıÐ»ÑĬÑĥÐ»
ĠÐ±Ð¾ÐºÑĮ Ð¸ÑĩÓıÐ¾Ð½Ð¸Ð³Ð¸
ĠÐ³ÓıÑĥÑĨÓı Ð°Ð´Ð³Ð¾
Ð°ÑĢÑĥÐ» Ð°Ð³Ð¾
ĠÐ°Ð½ Ð¸Ð»Ð°
ĠÑħÑĥÑĤÓı Ð¸Ð·ÐµÐ³ÓıÐ°Ð½
Ð½Ð¸Ðº Ð°Ð·ÑĥÐ»
ĠÐ»ÑĬÑĥÐ³Óı Ð°ÑĢÐ°Ð±Ð³Ð¾
Ð¸ÑıÐ· Ð³Ð¸
ĠÐ¼Ð°ÑĪ Ð³ÑĬÑĥÐ»
ĠÐ±ÑĥÐ³ÐµÐ» Ð»ÑĬÑĥÐ½
ĠÐ³ÑĬÐ¾ÑĢÐºÑĮ Ð°Ð½
ĠÐ³ÓıÑĥÑĢ ÑħÑĬÐ¸
ĠÑĤÓıÑĥÑĢ Ð°Ð½
ÑģÑĥÐ» ÑĤÐ°Ð½
ĠÑģÐ°Ð± ÑĥÑĢ
ĠÐľÐ¾ÑģÐºÐ² Ð°
ĠÑħÐ°ÑĢÐ¶ Ð³Ð¸
ĠÑįÐºÐ¾Ð½Ð¾Ð¼ Ð¸ÐºÐ¸ÑıÐ»
ĠÑĥÑģÑĤ Ð°Ð²
ĠÐºÐ¾Ð»Ð»ÐµÐºÑĤÐ¸Ð² Ð°Ð»ÑĬ
ĠÐ³ÓıÐµÐ½ÐµÐºÐº Ð°Ð½Ð°
ĠÐ£ÐºÑĢÐ°Ð¸Ð½ Ð°ÑıÐ»Ð´Ð°
ĠÐ¼Ð¸ÐºÑĮ Ð°Ð±Ð¸Ð»ÐµÐ±
ĠÐ³ÑĮÐ°Ð±ÑĥÑĢ Ð°Ð·Ðµ
ĠÑħÐ²Ð°Ð» Ñĩ
ĠÐºÐ»ÑĥÐ± Ð°Ð»ÑĬÑĥÐ»
ĠÐºÑĮÐµÐ» Ð¸Ð½
ĠÐ³Ð¾Ñģ ÑĤÐ¸Ð½
ĠÐºÐ°ÑĦ ÐµÐ´
ĠÑīÐ²Ð°ÑĢ Ð°Ð¹
ĠÐºÓıÐ°Ð»Ð´ Ð¸Ð±
ĠÐºÐ°Ð¼Ð¿Ð°Ð½ Ð¸Ñı
ĠÐĳÑĥÑĨÓı ÑĢÐ°
ĠÐĶÐ°Ð¼Ð°Ð´ Ð°Ð½Ð¾Ð²
ĠÐ¿ÑĢÐ¸Ð² Ð¸Ð²
Ð» ÑĥÐ±
ÑĢ Ðµ
ÑĬ Ð³Ð¸
ĠÐ³ Ð²
Ð°ÑĢ Ð¼
Ð¼ Ð¾
ĠÑħ Ð¾Ð»ÐµÐ±
ĠÐ³Óı Ð°Ð½Ñģ
ĠÐĵ ÑĥÐ»
ĠÐ¼ Ð¾ÑĢ
Ð°Ð¹ Ð¼Ð°Ð½
ĠÐ¶ ÑĥÐ³ÑĮ
ĠÑĤÓı Ð¾Ð¼
ÐºÑĬ Ð¸Ð»Ð°Ð±
ĠÐºÐº Ð°Ð½Ð¸Ð»Ð°
Ð¶ Ð¸Ð½Ð´Ð¸ÑĢ
ĠÐľ Ð°Ð¶Ð¸Ð´
ĠÑħÓıÐ°Ð» Ð°Ð»Ð°Ð±
ĠÐĲ ÑģÑģ
ĠÐļ Ð²ÐµÑĢ
ĠÐł Ð°Ð³ÑĮ
ĠÑħÑĬ Ð²Ð°ÑĢÐ°Ð²
ÑħÓı ÐµÐ»
Ð¸Ð¶ Ð°ÑĤ
ĠÐ¸ÑĪ Ð°Ð·Ðµ
ĠÑĨÐµÐ±Ðµ Ð»ÑĬ
ĠÐ»ÑĬÐ°Ð» Ð¸Ð½
ĠÐ¢Óı ÑĥÐ±Ð°ÑĢÐ°Ð±
ĠÐĲÐ»Ð»Ð°Ð³ÑĮ Ð³Ð¸
ĠÑıÑģ Ð°Ð·
Ð¾Ñħ Ð°
ĠÐ´Ð°ÑĢ Ð¼Ð¸Ð»
ĠÐĵÑĮÐµÐ´Ð¸Ð½ Ð°Ð·ÑĥÐ»
ÑĢÐ¾ ÐµÐºÑĤ
ÑĤÓĢ Ð°
ĠÑĨÐ¾Ð³Ð¸Ð´ Ð°Ð²
ĠÐĵÑĮÐ°Ð± ÑĥÐ»ÐµÐ±
ĠÐ±Ð°Ñħ Ð¸Ð½Ðµ
ĠÐºÓĢ Ð°Ð»
ĠÐ§Óı ÐµÐ³ÓıÐµÑĢ
ĠÐ¯ ÑĢÐ°Ð»
Ð¨ Ð°Ð³ÑĮ
ĠÐ¼Ð°Ð¶Ð³Ð¸ÑĤ Ð°Ð»
ĠÐ® Ð³
ĠÐ±ÑĥÑħÑĮ ÑĥÐ½
ĠÑĢÐ¸ÑĩÑĩ Ð°Ð½Ð°
ÐļÑĬ ÐµÑĨ
ĠÐļÐ¸Ð½ Ð°Ð·ÐµÐ³Ð¾
ĠÐ±ÐµÑĢÑĨÐ¸Ð½ Ð°Ð¹
ĠÐ·Ð°Ð² Ð¾Ð´Ð°Ð»
ĠÐºÐ¾Ð¼Ð¸ÑģÑģ Ð°ÑĢÐ¸
ĠÑĢÑĥÑģÑģ Ð°Ð½Ð°
ĠÑĢÐ¸ÑĤÓıÑĥÑħÑĬ Ð°Ð»
ĠÐ²Ð¸ÑĤÓı Ð°ÑĢÐ°Ð²
ĠÑĢÐ°ÐºÓıÐ°ÑĢ Ð¸ÑıÐ»ÑĬÑĥÐ»
ÑĢÐ°ÐºÓı Ð°Ð»ÑĬÐ³Ð¾
ĠÑĢÑĥÐºÓĢ ÑĥÐ½Ð°
ĠÑħÑĮÑĥÐ» Ð³Ð¸
ĠÐ±ÐµÐ³Ð°Ð²ÑĥÐ» Ð·Ð°Ð±Ð°Ð·
ĠÐ¿ÐµÐ´ ÑĥÑĩÐ¸Ð»Ð¸Ñī
ĠÑģÐµÐ½ÑĤ ÑıÐ±ÑĢ
ĠÐļÑĬÑĥÑĢÑĬ Ð°Ð½Ð°Ð»ÑĬÑĥÐ»
ĠÐ³ÑĮÐ°Ñİ Ð½
ĠÐ¼Ð°Ð³ÓĢ Ð½Ð°
ĠÐĳÐ¸ÑħÑĮ ÑĥÐ»ÐµÐ±
ĠÐĵÑĢ Ð¾Ð·
Ð´ÑĥÐ½ ÑıÐ»
ĠÐĸÐ°ÐºÑĬ Ð°ÑģÐµÐ±
ĠÐ¡Ð°Ð¹Ð¿ ÑĥÐ´Ð¸Ð½
ĠÐ³ÑĮÐ¸Ð½ Ð°Ð·Ð´Ð°
ĠÐ¦ÐµÐ± ÐµÑħÑĥÐ½
ĠÐ²ÐµÑĤÐµÑĢÐ¸Ð½Ð°ÑĢ Ð¸ÑıÐ±
ĠÑĤÐ°Ð²Ð°ÐºÐº Ð°Ð»
ĠÑĢÐ¾ÐºÑĮÑĥÐºÑĬ Ð»ÑĬÐ¸
ĠÐ¢ÓıÐ¾ÐºÓı Ð°Ð±
ĠÐºÐ¸Ð´Ð°Ð³ Ð¾ÑģÐµÐ±
9 2
Ġ A
Ðµ Ð´Ð°ÑģÐ°
ĠÐº Ð¸ÑĨ
ÑĤ Ð°ÑıÐ»ÑĬÑĥÐ»
Ð¼ Ð¸ÑĢ
Ð°Ð´ Ð¾Ð²
ĠÑĤ Ð¾Ð³Ðµ
Ð¸Ð» Ð°Ð·Ð´Ð°
Ð¸Ð» Ð°ÑħÐ°
Ð¾Ð» ÐµÑĤ
ĠÑĩ Ð°ÐºÐ°ÑĢ
Ð»ÑĬÐ¸ ÐµÐ³Ð¸
ĠÐļ Ð°Ðº
ĠÐļ Ð¸ÑģÐ°
ĠÐł Ð¾ÑħÑĮ
ĠÐĵÓı ÑĥÐ½
ĠÑħÑĬ Ð¸Ð½ÑĤÓı
ĠÑĩÓı ÐµÐ·Ð°Ð²
ĠÐ¡ Ð°Ðº
ĠÑĢÐ°Ð¹ Ð°Ð´
ĠÐ³ÑĬ ÑĥÐ´
ĠÑĨÓıÐ°Ð» Ð¸Ð·ÐµÐ³Ð¸
ĠÐ±Ð¸ÑħÑĮ Ð°ÑĢÐ°Ð²
ÑĥÐ¶ ÑĥÐ³ÓıÐ°Ð´Ð°Ð½
ÐµÐ½ÑĤ Ð°Ð»
ĠÑĢÐ°ÑĩÓı ÑĥÐ½ÐµÐ±
ĠÑĢÐµÑģÐ¿ÑĥÐ±Ð»Ð¸Ðº Ð°ÑıÐ»Ð´Ð°ÑģÐ°
Ñĭ Ñħ
ĠÑĢÐ°ÐºÓıÐ°Ð» Ð´Ð°Ð³Ð¾
ĠÐ±Ð°ÑĢÐº ÑĥÐ»ÐµÐ±
ĠÐľÐ°ÑħÓı Ð°Ð¼
ĠÐ´Ð°Ð½Ð´ Ð³Ð¸
ĠÑĩÐ°Ð³Óı Ð°ÑĨÐ°
ĠÐ³ÑĮÐ°Ð² ÑĥÐ»ÐµÐ²
Ġ5 8
ĠÑĨÐ¾Ð³Ð¸Ð´ Ð°Ð·Ð´Ð°
ĠÐ¼Ð°Ð¶ Ð¼Ñĥ
ĠÐ²Ð°ÑĨ Ð»ÑĬÐ¸
ĠÑĤÐµÐ» ÐµÐ³ÑĢÐ°Ð¼
ĠÐ¶Ð¸Ð³ Ð°ÑĢÐ°Ð»
ĠÐĶÐ¸ÑĢ Ð³Ð¾
ĠÑħÐ°Ð½ Ð¶
ĠÑħÐ°Ð½ Ð·Ð°Ð±Ð°Ð·ÑĥÐ»
ĠÑĤÑĢ ÐµÐ½
ĠÑįÐºÐ¾Ð½Ð¾Ð¼ Ð¸Ðº
ĠÐ°Ð¿ ÑĤÐµÐº
ĠÐ¼ÑĥÑħÓıÐº Ð°Ð½Ð°Ð»
ĠÐ±ÐµÑĢÐ±Ð°Ð»Ð°Ð³ÑĮ Ð¸Ð³Ð¸
ĠÐĵÓıÐ°Ð´ Ð°Ð´Ð°
ĠÐºÐ¾Ð½ÐºÑĥÑĢÑģ Ð°Ð·Ð´Ð°
Ð¸ÑĢÐ· Ð°ÐµÐ²
ĠÐºÐ°Ð»Ð°Ð¼ Ð°Ð»ÑĬÑĥÐ»
ĠÐ±Ð¸Ñī Ð°Ð½Ð°
ĠÐļÐ°Ð¼Ð¸Ð» ÑĮ
ĠÐ³ÑĬÐ°Ð» Ð¼Ð°Ð³ÑĬÐ¸ÑĢ
ĠÑĤÐ°ÑħÑĪÐ°Ð³ÑĮ Ð°ÑĢÐ°Ð»ÑĬÑĥÐ»
ĠÐĲÐ² ÑĤÐ¾ÑĢ
ĠÐ²Ð¾ÐºÑĮ ÑĥÐ»ÐµÐ²
ĠÐ°Ð´Ð¼Ð¸Ð½Ð¸ÑģÑĤÑĢÐ°ÑĤÐ¸Ð²Ð¸ÑıÐ± Ð³Ð¸Ð½
ĠÐ¦ÐµÐ½ÑĤÑĢ Ð°Ð»Ð¸ÑıÐ±
ĠÐ²Ðµ Ð³ÑĥÐ½
ĠÐĶÑĥÐ½ÑıÐ» Ð°Ð»ÑĬÑĥÐ»
ĠÑĢÐ°ÑĤÓıÐ°Ð»ÑĬ Ð°ÑĢÐ°Ð»
ĠÐĳÐ°Ð³ÑĮÐ°Ð² ÑĥÐ´Ð¸Ð½
ĠÑĢÐ°Ð¹Ð±Ð¾Ð»ÑĮÐ½Ð¸ÑĨ Ð°ÑıÐ»ÑĬÑĥÐ»
ĠÐ²Ð°ÐºÑĨÐ¸Ð½ Ð°ÑĨÐ¸Ñı
ĠÐ¿ÑĢÐµÐ¿ Ð¾Ð´
Ð¸ Ð¸Ð´Ð°Ð»
Ñĥ ÑıÐ»
Ðº Ð°Ð·
Ð± Ð°Ð¹
Ð± ÐµÐ³Ð¸Ð»
Ð°ÑĤ ÐµÑĢ
ĠÐ³Óı ÐµÐ·Ðµ
ĠÑĨ Ð²ÐµÐ»
ĠÐ¼ Ð°ÑıÐ»ÑĬ
ĠÐ´ Ð¾Ð¹
ĠÐ½ Ð¸Ð³Ð°ÑĤ
Ð°ÑħÓı Ð°Ð¶Ð¸
ĠÐł Ð¡Ð¤Ð¡
ĠÑģÐ¾Ð½ Ð°Ð·Ð´Ðµ
ÑĥÑģ Ð°Ð»
ÑħÑĬ Ð²Ð°ÑĢ
ĠÑĪ Ð°ÑħÐ¼Ð°ÑĤ
ÑħÓı ÑĥÑģ
ĠÐ³ÓıÐ°Ð´Ð°Ð¼ Ð°ÑģÑĥÐ»
ÐĵÑĮ Ð¾ÑĢÐºÑĮ
ĠÐ¾ Ð½
ĠÐ±Ð¾Ñģ Ð°Ð½Ð¸Ð³Ð¸
ĠÐĽ Ð°Ð²
ĠÐĸ Ð°Ð»Ð³Ð¾
ĠÑģÐ¾Ð½Ð°Ð»ÑĬ Ð³Ð¸
ĠÑħÓıÐ°ÐºÑĬ Ð¸ÑĢ
ĠÐºÐ¸Ð½Ð°Ð± Ð°Ð»Ð¸Ð³Ð¾
ÑĥÑħÑĬÐµ Ð³Ð¾
ÑĥÑĨ Ð°Ð³Ð¾
ĠÐ²ÑĥÐ³ ÐµÐ»ÑĬÑĥÐ»
ĠÐ¶Ð°Ð²Ð°Ð± Ð¸ÑıÐ²
ĠÑģÑĤ Ð°Ð´Ð¸Ð¾Ð½
Ð³ÑĥÑĤÓı Ð¸Ð·Ðµ
ĠÐ»ÑĬÐ°Ð± ÐºÑĬÐ¾ÑıÐ»Ð´Ð°
ĠÐ³ÓıÐ°ÑĢÑĨ ÑĥÐ´Ð°
ĠÐ³ÓıÐ°ÐºÑĬ Ð¸Ð»Ð°Ð±
ĠÐ±Ð°Ð³ÑĮ Ð°Ð½Ð°
ĠÑĢÐµÑĤÓı Ð°
ĠÐ±Ð°Ñī Ð°Ð»ÑĬ
ĠÑħÐ°Ð½ Ð°ÑģÑĥÐ»
ĠÐ´Ð°Ð³ÑĬÐ¸ÑģÑĤÐ°Ð½ Ð¸ÑıÐ²
ĠÐ°Ð· Ð±Ð°ÑĢ
ĠÐ³ÑĢ Ð°ÑĦ
ĠÑĪÐ°ÑĢ Ð³ÓıÐ°Ð»
ĠÐºÐ°Ð¿ Ð¸ÑĤÐ°Ð»
ĠÐ´Ð°Ð½Ð´ÑĩÓı Ð²Ð°Ð½
Ð°Ð·Ð´ Ð½Ð¸Ðº
ĠÐ¡ÐŁÐļ ÑıÐ»ÑĬÑĥÐ»
ÐĲÐ½ ÑĨÓı
ĠÑĦÑĢÐ¾Ð½ÑĤ Ð°Ð»Ð´Ðµ
ĠÐºÑĥÐ½ ÑĩÓı
ĠÐĸÐ°ÐºÑĬ Ð°Ð³Ð¸
ÑĩÓıÐ²Ð°Ð´ Ð¸ÑıÐ»ÑĬÑĥÐ»
ĠÐ¿Ð¾ÑįÐ· Ð¸ÑıÐ»ÑĬÑĥÐ»
ÐĵÓıÐ°Ð± Ð´ÑĥÑĢ
ĠÐ±Ð¾ÐºÑģ Ð°Ð»ÑĬÑĥÐ»
ĠÑĢÐµÑĨÓı ÐµÐ»
ĠÐ¥ÑĬÐ°Ð·Ð°Ð½Ð± Ð¸ÐµÐ²
ĠÐłÐ°Ð´Ð¸Ð¾ ÑıÐ»ÑĬÑĥÐ»
ĠÐľÐµÑĤÑĢ Ð°Ð´Ð°
ĠÐ¢Ð¾Ð» ÑģÑĤ
4 8
Ġ ÑĥÐ´
ÑĢ ÐµÐºÓı
Ð¾ Ð·ÑĥÐ»
Ð»ÑĬ Ð¸ÑĩÓıÐ¾
Ñģ Ð°ÑĢÐ°ÑĤ
Ð¸Ð½ Ð°Ð·ÑĥÐ»
ĠÐ´ Ðµ
Ð¸ÑĢ Ð°ÐºÑĬ
ĠÐľ ÑĥÑĤ
ĠÑĨÐ¾ ÑıÐ»Ð´Ð°
ĠÑħÓıÐ°Ð»ÑĤÓı ÑĥÐ»Ð°Ð°Ð½
ÐµÑģ ÐµÐ¹
Ð°ÑĤÓı Ðµ
ĠÐł ÑĥÑĩÑĩ
ĠÐºÐºÐ¾Ð» ÐµÐ¹
ĠÐ½Ð¸Ð»ÑĬ ÐµÐ´Ð°Ð³Ð¾
ĠÐ³ÑĮÐµÐ· Ð³Ð¸
ĠÐ¸Ð½ ÐµÐ³Ð¸
ĠÑį Ñģ
ĠÑį ÑĦÐ¸ÑĢ
ĠÑĢÐµÑģ Ð°Ð»Ð³Ð¸
ĠÑĦ Ð¾ÑĤ
ĠÐ½Ð°ÑħÑĬ Ð¸ÑģÐµÐ±
ĠÐ±Ð°ÑĤ ÑĥÐ»Ð°ÑĢÐ¾
ĠÐ±Ð°ÑĤ Ð°Ð»ÑĮ
ĠÐ±ÐµÐ³ÑĮ Ð¸Ð»Ð¸Ñī
ĠÐĴ ÐµÐ½
Ð¡ Ð¾Ð²ÐµÑĤ
Ðľ Ð¾ÑģÐºÐ²
Ðľ ÐµÑģÐµÐ´
ĠÐ±Ð°ÐºÓıÐ°Ð» Ð´Ð°ÑģÐ°Ð½
ĠÐłÐ¾ÑģÑģ Ð¸ÑıÐ»ÑĬÐµ
ĠÐĽÑĬ Ð¸ÑĨÐ°
ĠÐ½Ð¸Ð»ÑĬÐµ ÑĨÐ°Ð³Ð¾
ÑıÐ· Ð´Ðµ
ĠÑħÓıÐ°Ð¶ Ð°Ð»ÑĬÑĥÐ»
ĠÐ³ÑĮÐ°Ð» Ð°Ð³
ÐµÐ·Ð°ÑĢ Ð¸Ð·Ðµ
ĠÑĤÓĢ Ð¾ÑĨ
ĠÐ±ÑĥÑĤÓı ÑĢÑĥÐ·ÑĥÐ»
ĠÑĨÓĢ ÐµÑħ
ĠÐºÐ²Ðµ Ð³ÓıÐ°Ð±
Ð¥Óı Ð°Ð¼Ð·Ð°ÑĤ
ĠÑħÐ°Ð± Ð·Ð°Ð»
Ð¾Ð»ÑĮ ÐºÐ»
ĠÐºÑĬÐ¾ÐºÑĬ Ð°ÑıÐ»Ð´Ð°
ĠÐ¼Ð°Ð³ÓıÐ¸ÑĪÐ°ÑĤ Ð°Ð»ÑĬÐµ
ĠÐĵÑĮÐµÐ² Ð³Ð¸
ĠÐľÑĥÑħÓı Ð¸Ð´Ð¸Ð½
ĠÐ±Ð¾Ð¶ Ð°ÑĢÐ°Ð²
ĠÑħÓıÑĥÐ¶ Ð°Ð±Ð¸Ð³Ð¸
ĠÐºÑĮÑĥÑĢ Ð´ÑĥÐ»
Ð½Ñĭ Ðµ
ĠÑĢÐ¾ÑħÑĮ Ð°Ð»
ĠÑĤÓıÐ°Ð»ÑĬ Ð¸ÑıÐ»Ð´Ðµ
ĠÐ³ÑĮÐ°ÑĢÐ°ÐºÑĮ Ð³Ð¸
ĠÐ»Ð¸ÑĤ ÑĢ
ĠÐĳÑĥÐ¹ Ð½Ð°ÑħÑĬ
ĠÐľÑĥÑĢÑĤÐ°Ð· Ð³ÓıÐ°Ð»Ð¸ÐµÐ²
ĠÑĪÐ°Ð¿Ð°ÐºÑĬÐ°ÑĤ Ð°Ð·Ð´Ð°Ð»ÑĬÑĥÐ½
Ð³ÑĮÐ°Ð»Ð¼Ð°Ð³ÑĬ Ð·Ð°Ð±Ð¸
ĠÐºÑĬÐ°Ð½Ð°Ð³ÓıÐ°ÑĤ Ð³Ð¸
ĠÐ·Ð°Ð²Ð¾Ð´ Ð°Ð»ÑĬÑĥÐ»
ĠÐ¥ÓıÐ°Ð¹Ð± ÑĥÐ»Ð°
ĠÐ³ÑĬÑĥÐ½Ðº Ð¸
ĠÐ¾ÐºÑĢÑĥÐ³ Ð°Ð»Ð´Ð°
ĠÐĵÑĮÐ°Ð½Ð¶ ÐµÐ³Ð¸
ĠÐ¿Ð°ÑĩÐ°Ñı Ñģ
ĠÑħÑĮÐµÐ·Ð°ÑĢ Ð¸ÑıÐ»ÑĬÑĥÐ»
ĠÑĤÐµÑħÐ½ Ð¾Ð»Ð¾Ð³
ĠÐ´Ð°Ð½Ð´Ð± Ð°Ð·Ðµ
ĠÐ£ÑĢ Ð³ÑĬ
ÐµÐºÐº Ð¾Ð³Ð¾
ĠÐĲÐ¹ÑĤ Ð±ÐµÑĢ
ĠÐºÐ°ÑĢÑĤÐ¾ÑĪ ÐºÐ°
Ð¿Ð¾ÑĤÑĢÐµÐ± Ð½Ð°Ð´Ð·
1 00
V I
Ð°Ð Ĳ
ÑĢ ÐµÐºÑĬ
Ð½ Ð¸ÑĨÐ°
ÑĥÐ» Ð°Ð³ÑĮ
ĠÐ³ Ð²ÐµÐ½
Ð± Ðµ
ĠÐ³ÑĮ Ð¸ÑĢ
ĠÑĢ Ð°Ð»
ĠÑĢ Ð°ÑģÑĥÐ»
Ð¼ Ð¸
ĠÑĨ Ðµ
ĠÐ¼ Ð°Ðº
ĠÐ» Ð°ÑĤ
ĠÐ½ Ð°Ð»ÑĬ
ĠÐºÑĬ Ð¸ÑģÐ°
Ð°Ð² ÑĥÐ·
ĠÐ¿ Ð¾Ð¼
Ð¿ Ð°ÑĤ
ĠÑĨÓı Ð¾Ð±
ÐµÐ² ÑĤ
ĠÐ¥ Ð°Ð¹
ĠÑħÓıÐ°Ð»ÑĤÓı Ð°Ð±Ð°Ð·Ð´Ð°
Ð°ÑĨ Ð¸ÑıÐ»
ĠÐĶ ÑĥÐ´
ĠÑħÑĬ Ð°ÑĩÐ°Ð³ÑĬ
ĠÑĪ Ð°Ð¹
Ðĵ ÑĥÑĢ
Ðĵ ÐĺÐĽ
ĠÐ³ÑĮÐ°ÑĢ ÐµÐ³Ð¸
ĠÑĢÐ°Ð¹Ð¾Ð½ ÑĨÐ¾ÑıÐ·ÑĥÐ»
Ð¾ÑĢÐºÑĮ Ðµ
Ð¸Ð½Ð°Ð» Ð´Ð°Ð»ÑĬÑĥÐ½
ĠÐ³ÑĮÐµÑĩÓıÐ¾ Ð»ÑĬÐ¸Ð³Ð¸
ĠÐ³ÓıÐ¾Ð» Ð°
ĠÐ±Ð¾Ñģ Ð¸ÑıÐ»ÑĬÑĥÐ»
ĠÐ±Ð°ÑħÑĬ Ð¸Ð½Ð°Ð±ÑĥÐ½
ĠÑĢÐµÐºÑĬ ÐµÐ·Ð°Ð±ÑĥÐ½
ĠÐĴ Ð¸Ðº
ĠÐ³ÓıÑĥÑĨÓı ÑĥÐ»ÐµÐ»
ĠÐĸ Ð°Ð²
Ðľ Ð°Ð¶
ÐµÐ·Ð°Ð± ÑĥÐ»ÐµÐ±
ĠÐ²Ð°Ñģ Ð¸ÑıÑĤ
ĠÐºÐ¸Ð½ Ð¸Ð³Ð¸Ð½
Ð°Ð½Ð´ Ð°ÑĢÑĤ
ĠÐ´Ñĥ ÐµÐ³Ð¾
ÐµÐ¿ Ð¸Ñģ
ĠÐ³ÓıÐ¾Ð»Ð¾ÑħÑĬ Ð°Ð½Ð³Ð¾
ĠÑħÓĢ Ð°ÐºÐ¸Ð¼
ĠÑĢÐµÑħÑģ Ð¾Ð»Ð°
19 7
ĠÐŀ Ð¼
Ð´Ð¸Ð½ Ð°Ñı
ĠÐºÑĬÐµÑĨ Ð°Ð·ÑĥÐ»
ĠÐĺÐ½ Ð´
ĠÐ³ÓıÐ°Ð¹Ð¸Ð± Ð³Ð¸
Ġ18 0
ĠÐ¸Ð´Ð°ÑĢÐ°Ð± Ð¸
ĠÐ³ÑĮÐ¸ÐºÑĬ Ð°Ð½Ð¸
ĠÐ¿Ð°ÑĢÑĤ Ð¸Ð·
ĠÐ±Ð¸Ñĩ ÓĢÑĩÓĢ
ĠÐ±Ð¸ÑĨÐµÐ½ Ð°Ð»
ĠÐ°Ð· ÐµÑĢÐ±
ĠÐļÑĮ ÑĥÑĢ
ĠÑĢÐµÐ³Ð¸Ð¾Ð½ Ð°Ð»Ð´Ð°
ĠÐĲÐ· Ð°ÑĢÐ±Ð¸Ð¶
ĠÑĤÐµÑħÐ½Ð¸Ðº Ð¸ÑıÐ±
ĠÐ¾ÑĤÐ´ÐµÐ»ÐµÐ½ Ð¸Ðµ
ĠÐĺÑģÐ»Ð°Ð¼ Ð¸ÑıÐ±
ĠÐ¼ÑĥÐ³ÑĬ Ð·
ĠÐĵÓıÐ°Ð´Ð°Ð¼ Ð°Ð·
ĠÑħÐ²Ð°Ð» Ð¸Ð»
ĠÑģÑĥÐ´ Ð°Ð»ÑĬÑĥÐ»
ĠÐ¡ÑĥÐ³ÑĬ ÑĥÐ»Ð´ÐµÑĢÐ¸Ð»
ĠÐ±Ð°ÐºÑĬÑĤÓĢÐµÑĢÑħÑĮ ÑĥÐ»
ĠÐ°ÐºÐ°Ð´ÐµÐ¼ Ð¸ÑıÐ»ÑĬÑĥÐ»
ĠÐ±Ð¾ÑĢÑħÐ°Ð»ÑĬ ÑĥÐ´Ð°
ĠÐľÐ¾ ÑħÓı
ĠÐ±Ð¾Ð»Ð¶ Ð°Ð»Ð°Ð»Ð´Ð°
ĠÐĵÓıÐ°Ð±Ð´ÑĥÑĢÐ°Ð·Ð°ÐºÑĬ Ð¾Ð²
ĠÐ¿ÑĢÐµÐ´Ð¿ÑĢÐ¸Ð½Ð¸Ð¼Ð°ÑĤ ÐµÐ»ÑĮ
ĠÐ¼Ð¸Ñģ Ð°Ð»Ð¸ÑıÐ±
ĠÐĽÐ°Ð±Ð°Ð· Ð°Ð½
ĠÐľÐ¸Ñħ Ð°Ð¸Ð»
ĠÐ³ÑĬÐ°Ð½Ñģ Ð¸ÑĤ
ÐĲÐĽÐª Ð£ÐĽ
3 1
3 6
Ð³ Ð°ÑĢÑĥÐ»
Ðº Ð°ÑıÐ»Ð´Ðµ
ÑĥÐ½ Ð°ÑĢÐ¾
ĠÑĢ Ñģ
ĠÑĢ Ð¾Ð»ÑĮ
ĠÐ¼ ÐµÑĢÑħÑĮ
Ð¾Ð» Ð¾Ð±
ĠÐ´ ÑĥÑħÑĬÐµ
ĠÐ½ Ð¸Ð»
Ð°ÐºÑĬ Ð¾Ð²
Ð¹ Ð¸Ð»Ð°
Ð¸Ðº ÐµÑĢ
ĠÐ±ÑĥÐ³ Ð°Ð±
ĠÑģÐ¾Ð½ Ð»ÑĬÑĥÐ½
ĠÐĵÓı Ð°Ð¼
ÑĪ Ð°Ð¿
ÑħÓı ÑĥÑģÐµÐ½
ĠÑĨÓıÐ°Ð» ÐµÐ»
ĠÑĢÐ¾ ÑħÑĥÐ½
ĠÑĦ Ð¸ÑĢÐ¼
ĠÑĨÓıÑĥÐ½ ÑĥÐ»ÐµÐ²
ĠÐ»ÑĬÐ°Ð» ÐµÐ¹
ĠÑħÐ°Ð»ÐºÑĬ Ð°Ð»Ð´Ðµ
ĠÑħÑĮ Ð¸ÑĤ
ĠÑĢÐµÑħ Ð°ÑĢÐ°Ð±
ĠÐ½Ð¸Ð¶Ðµ ÑħÑĬ
Ð¸Ð¾Ð½ Ð½Ð¸ÑıÐ±
Ð¸ÑıÐ· Ð´Ð°Ð³Ð¸
ĠÐºÑĬÐ¾ÑĤÓı ÑĥÐ»ÐµÐ±
ĠÐºÓıÐ¾Ð´Ð¾ ÑįÐ±ÐµÐ»
ĠÐ·Ð°Ð³ÑĮÐ¸ÑĢ Ð»ÑĬÐ°Ð½Ð°
ĠÐ±Ð°Ñħ Ð°ÑĢÐ°Ð±
ĠÐ»ÑĬÐ¸Ð¼Ð°Ð»Ð°Ð·ÑĥÐ» Ð³ÑĥÐ½
ĠÐ°Ð» Ð¸Ð¿
ĠÐ²Ð°ÑĤ Ð¸Ð»Ð°
ĠÐĵÑĮÐµÐ½Ð¸Ð± Ð³Ð¸
ĠÑĩÑĥÑĢ Ð¸
ĠÐ³ÓıÐ°Ð´Ð°Ð½ Ð°Ð»ÑĬ
ĠÐ³ÑĮÐ¸ÐºÑĬ Ð¸Ð·Ðµ
ĠÐºÑĮÑĥÑĢ ÑĥÐ»
ÑĥÐ½Ð³Ð¾ Ð³Ð¸
ÑĥÐ½Ð³Ð¾ Ð»ÑĬÑĥÐ½Ð³Ð¸
ĠÐ¥Ð°Ð»ÐºÑĬ Ð°Ð»ÑĬÑĥÐ»
ĠÐºÑĮÐ²Ð°Ð³ÑĮ ÑĥÐ½
ĠÑĢÐ°ÐºÓıÐ°ÑĢ Ð°Ð½Ð°
ĠÐ³ÓıÐ°Ð½ Ð´Ð°Ð»
ĠÑħÓĢÐ°Ð»ÑĤÓĢ Ð¸
Ð¸Ð·Ð°Ð² ÑĥÐ½
ĠÑĨÓıÐ¾ÑĢ Ð¾ÑģÐ°ÑĢÐ¾Ð»ÑĬ
ĠÐ±Ð¸Ð±Ð»Ð¸Ð¾ÑĤÐµÐº Ð°
Ġ202 4
ĠÐłÐ¾ÑģÑĥÐ»ÑĬ Ðµ
ĠÐ±Ð°ÐºÐº Ð°Ð½Ð°
ĠÑĢÐ¸ÐºÓıÐºÓıÑĥÐ½ ÐµÐ²
ĠÐ°ÑĢÑħ Ðµ
ĠÐ³ÑĢÐ°Ð¶Ð´ Ð°Ð½Ð¸Ð½
ÐĳÐ°ÑĢÐº Ð°Ð»Ð°
ĠÑįÐºÑģÑĤÑĢÐµÐ¼Ð¸Ð·Ð¼ Ð°Ð»Ð´Ðµ
ĠÐĽÑĬÐ¸Ð¼ ÐµÑĢ
ĠÐ¡Ð²ÐµÑĢ ÑĥÑħÑĬ
ÐºÐ°Ð½Ð°Ð» Ð°Ð»Ð´Ð°
ĠÑĨÐµÑĢÐµÑĩÓı Ð°ÑĢÐ°Ð»
Ð Ļ
Ð½ ÐµÑĢ
Ð´ Ð°ÑĨÐ¸Ð½
Ð± Ð°ÑĤ
ĠÐ± ÐµÐ»
ĠÐ± Ð¾Ð¼Ð±
ĠÐº ÑĢÑĥÐ¶
Ð² ÐµÐ´Ðµ
ÑĤ Ð¸
Ñģ Ð°ÑĢ
Ñħ Ð¸Ð»
ĠÑħ Ð¸ÑıÐ½
ĠÐ² ÐµÐ³Ð¸
ĠÐĵ Ðµ
ĠÐ´ Ð¶
ĠÐ½ Ðµ
ĠÐºÐº ÐµÑıÐ»Ð´Ðµ
Ð³ÑĮ ÑĥÐ´ÑĥÐ»
ĠÑĨÓı ÑĥÐ±
ĠÑī ÑĥÐ»Ð°Ð³Ð¾
ĠÐł ÐĶÑıÐ»ÑĬÑĥÐ»
ĠÐł Ð°Ð´Ð¶Ð°Ð±
ÐµÐ´ Ð°Ðº
Ðĵ Ð°Ð·
ĠÐ±ÑĥÐ³ÐµÐ± Ð»ÑĬÐ¸
ĠÐ¥Óı ÑĥÑĢ
ĠÐ±Ð¸ÑĨ Ð°Ð½Ð¸Ð³Ð¸
ĠÐ¦ ÐµÑĢ
ĠÑĨÐ¾Ð³Ð¸ Ð´Ð°Ñģ
ÐĶ ÐłÑıÐ»ÑĬÑĥÐ»
ĠÑģÐ¾Ð½Ð°Ð»ÑĬ Ð³Ð¾
Ð²Ð°Ð» Ð°ÑĤ
Ðľ Ð°Ð³Óı
ÐµÐ·Ð°Ð± ÑĥÐ½Ð°
Ð¸ÑĪ Ð°
ĠÑħÑĮ Ð¸ÑĤÐ°Ð»
ĠÑģÑĥÐ°Ð» Ð³ÑĥÐ½
Ðĳ ÑĥÐ³Ð¾
ĠÐºÐ¸Ð½ Ð°Ð½
Ð¾ÑĤ Ð´ÐµÐ»
ĠÑĢÐµÑģÐ¿ÑĥÐ±Ð»Ð¸Ðº Ð°ÑıÐ»Ð´Ð°Ð³Ð¾
Ð¸Ð·Ð°ÑĢ ÑĥÐ»ÐµÐ±
ĠÑģÐ²ÐµÑĢ Ð¸Ð·Ðµ
ĠÐºÐ²ÐµÑĢ Ð°Ð»Ð³Ð¸
ÐµÑĨ Ðº
ĠÐºÑĬÐ¾ÑıÐ»ÑĬ Ð³Ð¾
ĠÐ±Ð°ÑıÐ½ Ð°Ð»Ð³Ð¸
Ġ5 6
ĠÐ°Ð´Ð¼Ð¸Ð½Ð¸ÑģÑĤÑĢÐ°ÑĨ Ð¸ÑıÐ·ÑĥÐ»
ĠÐ»ÑĬÐ¸ÐºÓıÐ°Ð» Ð°Ð½Ð³Ð¾
Ġ6 1
ĠÑĨÐ¾ÑĨ Ð°Ð·Ð´Ðµ
ĠÑīÐ²ÐµÐ·ÐµÐ³ÓıÐ°Ð½ Ð³Ð¸
ĠÐ³ÓıÐ°Ð¼Ð°Ð» Ð°Ð»ÑĬÑĥÐ»
ĠÑĢÐ°Ñħ ÑĥÐ½
ĠÐ¼Ð°Ð»ÑĬ Ð°Ð½Ð°
ĠÐ°Ð²ÑĤ Ð¾
ĠÑħÓıÐ°Ð»ÑĤÓıÑĥÑħÑĬÐ°Ð½ Ð°Ñģ
ĠÐ´Ð¸Ð² Ð°Ð½Ð°Ð»ÑĬÑĥÐ»
ĠÐ³ÓıÐ¸Ñģ Ð¸Ð½Ð°Ð±
ĠÑģÐ°Ð¹Ð³ÑĬÐ°ÑĤ Ð°Ð»Ð³Ð¸
ĠÑĥÑģÑĤÐ°ÑĢ Ð·Ð°Ð±Ð¸
ĠÑĨÐµÐ±ÐµÑĤÓıÐµÐ·Ð°Ð± Ð¸ÑıÐ»ÑĬÑĥÐ»ÑĬ
Ð°Ð´ÐµÑĢ Ð¸ÑĨÐ°
ĠÐ²Ð°Ñħ Ð°ÑĢÐ°Ð²
ĠÐºÓıÐ¾Ð»Ð°ÑĢÐ¾ Ð³Ð¾
ĠÑīÐ²ÐµÐ·Ð°ÑĢ Ð¸Ð·Ðµ
Ð¾Ð½Ð¾ Ð³ÑĬ
ĠÐºÑĬÐ°Ð½Ð°Ð³ÓıÐ°ÑĤ Ð°Ð±
ĠÐ±ÐµÑĤÓıÐµÑĢÐ³ÑĮ Ð°Ð±Ð°Ð·
ĠÐºÐ¸Ð»Ð¾Ð¼ ÐµÑĤ
ĠÐ²Ð°Ð³ÑĬ ÑĥÐ»ÐµÐ²
ĠÐ´Ð°Ð¸Ð¼ Ð°Ð±
ĠÑħÓıÐµÐ¶ Ð°Ð»Ð´Ðµ
ĠÐĲÐ»ÐµÐºÑģ ÐµÐ¹
Ð¥ÓıÐ°Ð¶ Ð¸Ð¼ÑĥÑĢÐ°Ð´
ĠÐĵÑĮÐ°Ð² ÑĥÐ½Ð°
ĠÐ³ÓıÑĥÐ· ÑĢÑĥ
ĠÑħÐ²Ð°ÑĢ Ð°Ð·ÑĥÐ»
ĠÐºÐ°Ð² Ð°Ð»
ĠÐ°Ð²Ð°Ð´Ð°Ð½ Ð°Ð±
ĠÐ³Ð¾Ñģ Ð¿
ĠÐ»ÑĬÐ¸Ðµ Ð³Ð¾
ĠÐ±Ð» Ð¾Ð³
ĠÐ¤Ð°ÑĤ Ð¸Ð¼Ð°
ĠÑĢÐ¾Ð³Óı ÑĢÐ°Ð»
ĠÐĹÑĥÐ»ÑĮ ÑĦÐ¸Ñı
ĠÐĶÐ¼Ð¸ÑĤ ÑĢÐ¸Ð¹
? ".
Ð°Ð» Ð»Ð°Ð³ÑĮ
Ð»ÑĬ Ð¸Ð¼
ĠÐ±Ñĥ ÑĢ
ĠÐ³Óı Ð¾
ĠÐ² Ð¾Ð»
ĠÐ¼ Ð°Ð³ÑĮ
Ð¾Ð» Ð°Ð±Ð³Ð¾
ĠÐ³ÑĮÐ°Ð± Ð¸ÑıÐ»Ð´Ð°Ð»ÑĬÑĥÐ½
Ð¸ÑıÐ» Ð»ÑĬÑĥÐ½
ĠÐľ Ð°Ñģ
ÐµÐ½ ÑĩÓı
ĠÑĨÓı Ð°Ð½Ð°
ĠÑĩ Ð°Ðº
Ð¸Ðº Ñģ
ĠÐļ Ðª
ĠÐ¡ Ð¾ÑİÐ·
ĠÐ³ÑĬ ÑĥÐ¶
Ð¾Ð´ Ð¸Ð»
ĠÐľÑĥÑħÓıÐ°Ð¼Ð°Ð´ ÐºÐ°Ð¼Ð¸Ð»
ĠÐ±Ð¸ÑĨ Ð°ÑĢÐ°Ð»
Ð¸Ð·Ð°Ð± Ð¸ÑıÐ»Ð´Ðµ
ĠÐ³ÑĮÐ°Ð±Ð¸Ð·Ðµ Ð»ÑĬÑĥÐ½
ĠÐ³ÑĮÐ°Ð±ÑĥÐ½ Ð¸Ð»Ð°Ð½
ĠÐ±ÐµÑĤÓıÐµÑĢ Ð°ÑģÐ´Ð°
Ðł ÐµÑħÑģ
ĠÐ±Ð¾ÐºÑĮ Ð¸
ĠÐ¢Óı ÑĥÐ±
ĠÐĹ Ð°Ð¸ÑĢÐ°
ĠÐºÐ¸Ð½ Ð¾
ĠÐ±Ð¸ÑħÑĮÐ¸Ð·Ð°Ð± ÑĥÑĢÐ°Ð»
ĠÐ°ÑħÐ¸ÑĢ Ð¸ÑıÐ»
ĠÐ¼Ð¸Ð»Ð» Ð°ÑĤÐ°Ð»
ĠÑĢÐ°ÑĤ Ð°Ð³Ð¸
ĠÐ¶Ð°Ð¼Ð°Ð³ÓıÐ°ÑĤ Ð°Ð·ÑĥÐ»
ĠÐºÑĬÐ²Ð°ÑĢÐ¸Ð³Óı Ð°ÑĢÐ°Ð»
ĠÐºÐ²Ð°Ð½ Ð°Ð»ÐµÐ±
ĠÐĵÓĢ ÐµÐ¼ÐµÑĢ
ĠÑĤÓıÑĥÑĢ Ð°Ð¹
ĠÐºÐ°Ðº Ð³Ð¸
ĠÑĢÐ¸Ñī Ð¸Ð·Ðµ
ÑĩÓĢ Ð²
ĠÐ¾Ð± ÐºÐ¾Ð¼Ð°Ð»ÑĬÑĥÐ»
ĠÑĢÐ°Ñħ ÑĩÑĥÐ½
ĠÐ³ÑĥÐ³ Ð°ÑĢ
ĠÐºÐ¾Ð¼Ð¸ÑģÑģ Ð°ÑĢ
ĠÐ°Ð¿ Ð¿Ð°ÑĢÐ°ÑĤ
ĠÐ´Ð¸Ð² Ð°Ð½Ð°Ð»Ð´Ð°
ĠÑĤÐµ Ð°ÑĤÑĢÐ°Ð»Ð´Ð°
Ġ199 1
ĠÑģÐ² Ð¸Ð½Ð°Ð±
ĠÐ¾ÐºÑĤ ÑıÐ±ÑĢ
ĠÐĲÐ±Ð°ÐºÐ°ÑĢ Ð¾Ð²Ð°Ñģ
Ð±ÐµÐº Ð¾Ð²
ĠÐľÐ°Ð» Ð»Ð°
ĠÐ±Ð°Ð¶Ð°ÑĢÑĥÐ» Ð°ÑĢÐµÐ±
Ðķ Ð´Ð¸Ð½Ð°Ñı
ĠÐĲÑģÐ» Ð°Ð½
ĠÐĶÐ°Ð½Ð´Ðµ Ð»ÑĬÐ¸
ĠÑħÑĬÑĥÑĤ Ð°Ð½Ð°Ð»Ð´Ð°
ĠÐ§ÓĢ Ð°ÑĢÐ°Ð´Ð°
ĠÐ³ÑĬÑĥÐ½Ðº Ð°ÑĢÐ°Ð±
ĠÐ¡Ð°Ñħ Ð»ÑĬÐ¸
ĠÐĸÐ°Ð¼Ð°Ð» ÑĥÐ´Ð¸Ð½
ĠÐĶÐĵ ÐŁ
ĠÑĤÐ°ÑĢÐ¶ Ð°Ð¼
ĠÐ¥Ð°ÑĩÐ°Ð» Ð¾Ð²
4 4
Ðº ÐµÐ¿
Ð± Ð½Ñĥ
Ð»ÑĬ Ð°Ð±
ĠÑĤ Ð¾Ð»ÐµÐ²
ĠÐ» ÐµÐ¹
ĠÐºÑĬ Ð¾Ð½Ð¾
ÐºÑĬ Ð°Ð´Ð¸
ĠÐ¿ ÑĥÐ±
ĠÐľ Ð¸Ñģ
ĠÐ¥ Ð¥
ĠÐĲ ÑħÑĬ
ĠÐĵÓı Ð¸
ĠÐĵÓı Ð°Ð¼Ð¼
ĠÐĳ Ð°ÑĨÓı
ĠÑħÐ°Ð» Ð°ÑĤÐ°Ð»
Ð¸Ð´Ðµ ÑħÑĥÐ½
ĠÐ±Ð°ÐºÓı Ð»ÑĬÑĥÐ½
ĠÐ»ÑĬÑĥÐ³ÑĮ Ð¸Ð½Ð´Ð°Ð»
ĠÐ±Ð°ÑħÑĬ Ð¸Ð½
ĠÑĦ Ð¾Ð»ÑĮÐºÐ»
ĠÐ¶Ð¾ ÑıÐ»ÑĬ
Ð¾Ðº ÓĢ
ĠÐ¹ Ð¸ÑĩÑĩ
ĠÐ³ÓĢ Ð°Ð³Ð°ÑĢ
ĠÐ¢Óı Ð°Ð±Ð¸Ð³Óı
ĠÐĹ Ð°Ð¿
ĠÐºÑĬÐ² Ð°ÑĤ
ĠÐ°Ñħ Ð¸ÑħÑĬÐ°Ð½
ĠÐĽÑĬ Ð°Ð»Ð°
ĠÐ¶Ð°Ð¼ Ð³ÓĢ
ĠÑħÑĬÑĥÐ»ÑĥÑħÑĬ Ð°Ð»ÑĬ
ĠÐ¦Óı ÑĥÐ¼
ĠÐ¦Óı Ð¾ÑĢÐ°Ð»ÑĬÑĥÐ»
ĠÐ¸Ð½Ñģ ÑĥÐµ
ÑĥÐ· Ð¼Ð°Ð½
ĠÐĲÑħÓı Ð¼
ÐµÐ¿ ÑĤ
ĠÐ¿Ð¾Ð» ÐºÐ°Ð»ÑĬÑĥÐ»
ĠÐĲÐ± Ð´ÑĥÐ»Ð°
Ġ5 2
ĠÑĤÓĢ Ð¾Ð»Ð³Ð¾
ĠÐ³ÑĬÐ¾ÑĢÐºÑĮ Ð¸ÑıÐ±
ÑħÐ°Ð½ Ð¸Ð»
ĠÐºÑĬÐ°ÑĩÓı Ð°Ð»ÐµÐ±
ÑħÓıÐ°Ð¶ Ð¸ÑĨÐ°
ĠÐ³ÓıÐ°Ð³Ð°ÑĢ Ð´Ð°
ĠÐ¼Ð¸Ð½ Ð°Ð³Ð¸
ĠÐ¸ÑħÑĤ Ð¸Ð»Ð°ÑĤ
ĠÐºÐ°Ð¼ Ð¸
ÐĽÑĬ Ð°Ð»ÐµÐ±
ÐĹ Ð°Ðº
ĠÑĩÐµÐ¼Ð¿Ð¸Ð¾Ð½ Ð°Ð»Ð»ÑĬÑĥÐ½
ĠÐ½Ð¾Ð¼ ÐµÑĢÐ°Ð»
ĠÑĩÓıÑĥÑħÓı Ð¸Ð·Ðµ
ÐĵÑĮÐµÐ½ Ð¸Ð²
Ð±Ð°ÑħÑĬÐ¸Ð½ Ð°Ð»Ð´Ð°
ĠÐ°ÑģÐºÓıÐ¾Ð± Ð³Ð¾
ĠÐ³ÓıÐ¾Ð´Ð¾Ð±Ðµ Ð³ÓıÐ°Ð½
ĠÐ±ÑĥÐºÓıÑĥÐ½Ð°ÑĢÐ¾ Ð°Ð½
ĠÐºÐ¾Ð»Ð»ÐµÐºÑĤÐ¸Ð² Ð°Ð»Ð´Ð°
ĠÑĩÐµÑĢÑħ Ð°Ð»Ð´Ð°
ĠÐłÐ°Ð³ÑĬ ÑĥÐ»Ð°Ð±
ĠÐ¢ÓıÐ¾Ð» Ð°Ð±Ð³Ð¾
ĠÐ¼Ð¾Ð½ ÑĥÐ¼ÐµÐ½ÑĤ
ĠÑĢÐµÑīÑĤÓı Ð°Ð½Ð°
ĠÐĳÐµÑĢÐ³ÑĮÐµÐ½ Ð»ÑĬÐ¸
ĠÑĨÓıÐ¸ÐºÓı Ð°ÑĢÐ°Ð±
ÐĿÑĥÐ¶ ÐµÑĢ
ĠÑĦÐ¾ÑĢÑĥÐ¼ Ð°Ð»Ð´Ð°
ĠÑĥÑĩÐ¸ÑĤÐµÐ»ÑĮÐ½ Ð¸ÑĨ
ĠÐºÓıÐºÓı ÑĥÐ¹
ĠÐ°Ð±Ð°Ð´ Ð¸ÑıÐ±
ĠÐ±Ð» Ð¾Ðº
Ð¶Ð¾ ÑıÐ»ÑĬÐµ
ĠÑĢÐµÐ¹ ÑĤÐ¸Ð½Ð³
ĠÑıÐ»Ð°Ð³ÑĮ ÑĥÐ½
ĠÐ§ÑĥÐ¿ Ð°Ð»
ĠÐłÑĥÐ³ÑĬ Ð¶
ĠÑĤÓıÐ°ÑĤÓıÐ°Ð» Ð°
ĠÐºÑĥÐ¼ Ð°Ðº
Ð»ÑĬÑĥÐºÑĮ ÐµÐ³Ð¾
Ð¢Ð°ÑĢ Ð¸Ñħ
ĠÐ¼ÑĥÐ½Ð¿ Ð°Ð³ÓıÐ°ÑĤ
ÑĢ Ð°Ð²Ðº
ÑĥÐ» Ð°ÑĢÐ¸Ñī
ĠÐ± Ð°Ð»ÑĬ
ĠÐ± Ð¸ÑħÑĬ
Ð°Ð½ Ð»ÑĬ
ÑĤ Ð°Ð²
Ð¼ Ð¸ÑĢÐ°
ĠÐ³Óı ÑĥÑĢÐ°Ð²
ĠÐ³Óı ÐµÑĩÓıÐ¾Ð³Ð¾
ĠÑĤ ÑĥÑĢÐ±
ĠÐĵ ÑĥÐ½
ĠÐ¼ Ð°Ð³
ĠÑģ Ð»
Ð°Ð³Óı Ð°Ð³Ð¸
Ð¾Ð² Ð°Ð½
ÐµÐ½ Ðº
ĠÑĨÓı Ð°Ð³Ð¸
ĠÐºÓı Ð°ÑĢ
ĠÑĩÓı ÐµÐ·Ð°Ð±Ð¸
ĠÐ½Ð¸Ð»ÑĬ Ð³ÑĥÐ½
Ð¸ÑĩÓı Ð¸Ð»Ð°Ð½
Ð¾ÑĨ ÓĢ
ĠÐĶÐ°Ð³ÑĬÐ¸ÑģÑĤÐ°Ð½ Ð³Ð¸
ĠÑĩÐ¸ Ð³Ð¾
ĠÐ±Ð°ÑħÑĬ Ð°Ð½Ð°Ð³ÓıÐ°Ð½
Ðļ Ð¸Ð½Ð°Ð»
ĠÐ¶Ð°Ð½ Ð¸ÑģÐ°
Ñİ ÑĤ
ĠÐ³ÓĢ Ð¾Ð»Ð¾
Ðĳ Ð°Ð»Ð°Ð³ÑĮ
Ð°Ð»ÑĬÑĥÐ»ÑĬ Ð³Ð¸
ĠÐĵÓıÐ°Ð±Ð´ÑĥÐ» Ð°ÐµÐ²Ð°Ñģ
ĠÑĤÓıÑĥÐ± Ð°ÑıÐ»Ð´Ðµ
ĠÐ¶Ð°Ð½Ð¸Ð± Ð³Ð¾
ĠÐ³Ð°Ð·ÐµÑĤ Ð°Ð»Ð´Ðµ
Ð¢ ÑĥÑĢ
ĠÐ±Ð°Ð»Ð°Ð³ÑĮ Ð°Ð·Ð´Ð°ÑģÐ°
ÑĢÐ¾ ÑħÑĮ
ÐŁ Ð»Ð°ÑĤÐ¾Ð½
ĠÑħÓıÐ°Ð»ÑĤÓıÐ¸Ð·Ðµ Ð³Ð¸
Ð³ÑĥÑĤÓı Ð¸ÑıÐ»Ð´Ð°
ĠÐ¯ Ð³Ð¸
Ð³ÑĮÐ°Ð½ Ð¶Ðµ
ĠÑįÑĢÐºÐµÐ½ Ð³Ð¾
Ð¾Ð²Ð¸Ñĩ Ð°ÑģÑĥÐ»
ĠÐ²ÑĥÐºÓıÑĥÐ½ Ð°ÑĢÐ¾
ĠÐ±Ð¸Ð¶ ÑĥÐ»ÐµÐ±
Ð¿ÑĢ Ð¾Ð¼
ĠÑĩÓıÑĥÑħÓı ÑĥÐ½
ĠÐ³ÑĢ Ð¸Ð¿Ð¿
ĠÐĲÑħÐ¸ÑĢ Ð°Ð»
ĠÐĲÑħÐ¸ÑĢ Ð³Ð¸
ĠÐĲÑħÐ¸ÑĢ Ð°Ð»Ð´Ð°Ð³Ð¸
ĠÐĲÑħÐ¸ÑĢ Ð¸ÑģÐµÐ±
ÑĥÐºÑĮ Ðµ
ĠÐ±Ð¸ÐºÑĮ Ð°Ð½Ð°
ĠÐ¿Ð°Ð¹Ð´ Ð°ÑıÐ»ÑĬÐµ
ĠÐľÑĥÐ½ Ð¸ÑĨÐ¸Ð¿Ð°Ð»Ð¸ÑıÐ±
ĠÐ¦Ð¾Ð³Ð¸ Ð´Ð°Ð±
ĠÐ´Ð°Ð½Ð´ÐµÑĩÓı ÐµÑıÐ»ÑĬÑĥÐ»
Ð»ÑĬÐ¸Ð¼Ð°Ð» Ð°Ð·Ð´Ð°
ĠÐ¾ÑĤÐ´ÐµÐ»ÐµÐ½ Ð¸ÑıÐ»Ð´Ð°
ĠÑģÑĥÐ± ÑĬÐµÐºÑĤ
ĠÐ½Ð°ÑĢÐº Ð¾Ð¼Ð°Ð½
ĠÑģÑĤÑĥÐ´ÐµÐ½ÑĤ Ð°Ð»
ĠÐ³ÐµÐ½ÐµÑĢÐ°Ð» Ð¸ÑıÐ²
ĠÐ¥ÑĬÐ² Ð°Ð¹
ĠÐºÑĮÐ°Ð» ÑĥÐ»
ĠÐľÐ°Ð¶ Ð»Ð¸Ñģ
ĠÑģÐµÑģÑģ Ð¸Ñı
ĠÐľÐ¸Ð»Ð» Ð¸ÑıÐ±
ĠÐ³ÑĬÐ¾ÑĤÓı Ð¾Ð»
ĠÐ¸Ð½Ð²ÐµÑģÑĤ Ð¸ÑĨ
ĠÐłÐ°Ð¼ ÑģÐµÑģ
ĠÐ¸Ð¼Ð°Ð¼Ð· Ð°Ð±Ð°Ð·ÑĥÐ»
Ð±ÐµÑĢÐ± Ð°ÑĪ
ĠÑĤÐ²Ð¾ÑĢÑĩÐµÑģÐº Ð¸ÑıÐ±
ĠÐ¥ÓıÐ°Ð¿ Ð¸Ð·
ĠÐļÐ¤ Ð¥
ÐĲÑģÐ» Ð¸ÑıÐ±
Ð¾ Ñı
Ð°Ð» Ð¸Ð±
Ð´ Ð¾Ð±
ĠÐ³ Ð°Ð±ÑĥÑĢ
Ð± Ð°ÐºÑĮ
Ð°Ð½ Ð°Ð»Ð´Ð°ÑģÐ°
Ð°ÑĢ Ð°ÑģÐ´Ð°
ĠÑĢ Ð°Ð±
ĠÑĢ ÑĥÑħÑĬ
Ñģ ÑĥÐ½
ĠÐ² ÐµÑĢÑĤ
ĠÑĤ Ð°Ð³Ð¸
Ð°Ð¼ ÐµÑĢ
ĠÐĵ ÐµÑĢÑĤÐ¼Ð°
ĠÐ» Ð°
Ð¾ÑĢ Ñī
ĠÐ¶ ÑĥÐ¼Ð³ÑĮÑĥÑĢÐ¸ÑıÑĤÐ°Ð»ÑĬÑĥÐ»
ĠÑĤÓı ÐµÐ»Ð°
Ð¸Ñģ Ð°Ð³Ð¸
ĠÐľ ÑĥÑĢ
ÐµÐ½ Ð¸ÑıÐ»
Ð³Óı Ð°Ð¼Ð°Ð»
ĠÑħÓıÐ°Ð»ÑĤÓı ÑĥÐ´Ð°Ð»ÑĬÑĥÐ½
Ð¸Ðº Ð°Ð·
ÑĥÐ± ÐµÑĢÐ½
ĠÑħÑĬ ÑĥÑĢ
ĠÐ¡ Ð¸Ñı
ĠÐĳ Ð¸ÑĤÓı
ÑħÓı Ð°Ð¹Ð²Ð°Ð½
ĠÐľÑĥÑħÓıÐ°Ð¼Ð°Ð´ Ð·
ĠÐ³ÑĥÑĢ Ð¸
ÑĥÐ»ÑĬ Ð¸
ĠÐºÐ² Ð°ÑĨÓı
ĠÐ³ÓıÐµÐ¼ÐµÑĢ Ð¸ÑģÐµÐ·ÑĥÐ»
ĠÐ±Ð°Ð¹ Ð´
ĠÑĦ ÐµÑĢ
ĠÑĨÓıÑĥÐ½ ÑĥÐ»Ð°
ĠÐĸ ÑĥÐ¼Ð³ÑĮÑĥÑĢÐ¸ÑıÑĤÐ°Ð»ÑĬÑĥÐ»
Ġ19 30
ĠÐ§ Ð°Ñĩ
ĠÐ¢Óı Ð°ÑģÐ°
ĠÐ°Ð½ Ð°Ð³ÓıÐ°Ð½
ĠÐ´Ð°Ð³ÑĮ Ð»ÑĬÑĥÐ»ÐµÐ±
ĠÑĢÐµÑħ ÑĥÐ»ÐµÐ±
ĠÐºÓıÐ°Ð»ÑĬ Ð°Ð»ÐµÐ²
ĠÐ¦Ð¾ Ð»ÑĬÐ°ÑĢÐ°Ð»
ĠÐļÓı Ð¾ÑĩÓı
ÐŁ Ð°ÑĩÐ°Ð»Ð¸ÑħÑĬ
ÐŁ ÑĥÑĤÐ¸Ð½
ÑħÓıÐ°Ð» Ð³Ð¸
ĠÐľÑĥÑģ Ð»Ð¸Ð¼Ð°ÑĤ
Ð»ÐµÐ½ Ð¸Ðµ
ĠÐºÓıÐ² ÐµÑĩÓıÐ¾Ð³Ð¾
ĠÐ½ÑĥÑħÐ¼Ð°Ð»ÑĬ Ð¸ÑıÐ»ÑĬÐµ
ĠÑĤÓıÑĥÑĢ ÑĥÐ½
ĠÐ§Óı Ð°Ð³Ð¾
ĠÑĤÓıÐ°Ð³Óı Ð°Ð¼Ð°Ð±
Ð¢Óı Ð¸Ð½Ð´
ĠÐ°Ðº ÑĤÐµÑĢ
ĠÐ°Ð½ÐºÑĮ Ð¸Ð´Ð°
ĠÐĺÑģ ÑħÓıÐ°ÐºÑĬ
ĠÑħÑĮÐ¸ÑħÑĮ ÑĥÐ»ÐµÐ±
ĠÐºÐ²ÐµÑĢÐ±Ð°ÐºÑĬ Ð°Ð½Ð°
ĠÐ·Ð°ÐºÐ¾Ð½ Ð°Ð»
ĠÐľÐ°ÑĢ Ð°ÑĤ
Ġ199 2
ĠÑıÑħÓı Ð³Ð¸
ĠÐ¼ÐµÐ´Ð°Ð» Ð°Ð»ÑĬÐµ
Ð¸Ð°Ð»Ð¸ÑģÑĤ Ð¸ÑıÐ±
ĠÐºÑĬÐ¸ÑģÐ¼Ð°ÑĤ Ð°Ð»ÑĬ
ĠÑĩÐµÑĢÑħ Ð°Ð»ÑĬÑĥÐ»
ĠÑĢÐµÐº Ð»Ð°Ð¼
ĠÐ¢ÓıÐ°Ð´ÐµÐ³ÓıÐ°Ð½ Ð°Ð±
ĠÐ±ÐµÐºÑĮ ÑĥÐ½
ĠÐ£Ð¼ ÑĥÐ¼ÑĥÐ·ÑĥÐ»
ĠÐ¼Ð°ÑģÑĬÐ°Ð» Ð°Ð»ÑĬÑĥÐ½
ĠÐ¢ÓĢ Ð°Ð´Ðµ
ĠÑĨÐµÑĢÐµÑĤÓı ÐµÑıÐ»
ĠÐ¼Ð°Ð³ÓıÐ½ Ð°ÑıÐ»Ð´Ð°
ĠÐ³ÑĮÐ°Ð±ÑĥÑĢ Ð°Ð»ÑĬÑĥÑħÑĬ
ĠÐłÐ°Ð¶Ð°Ð± Ð¾Ð²Ð°Ñģ
ĠÑĨÓıÐ¸Ð³ÑĮ Ð°Ð±ÑĥÐ½
ĠÑĢÐ¸Ð¶ Ð°ÑĢÐ°Ð»
ĠÑĩÐ¾ÑĢÐ¾Ðº Ð°Ð±
ĠÑĨÐµÐ±ÐµÐ³Ð¾ ÑıÐ»Ð´Ð°ÑģÐ°
ĠÐļÓĢ ÑĥÐ´Ð¸ÑıÐ±
ĠÑıÑĤ Ð°Ð½Ð°
Ġ% ),
ĠÑĢÐ¾ÑĢÑĩÓı Ð¸Ð·Ðµ
ĠÐĶÑĥÐ½ÑıÐ» Ð°Ð»Ð´Ð°
ĠÐ²Ð»Ð°ÑģÑĤ ÑĮ
ĠÐ¨Ð°ÑĢ Ð°Ð¿
ÑģÐ°Ð± Ð°Ð±
ĠÑĥÐ½Ð¸Ð²ÐµÑĢÑģÐ¸ÑĤÐµÑĤ Ð°Ð»Ð´Ð°
ĠÐĳÐµÐ» Ð¾ÑĢ
ĠÐ½Ð°ÐºÑĬ Ð¸ÑĤ
ÐºÐ¾Ð½ ÑĦÐµÑĢÐµÐ½
ÐļÐ¾Ð½ ÐºÑĥÑĢÑģ
ĠÐļÑĢÐ°Ñģ Ð½Ð¾Ð´
ĠÐ¡Ð°Ð»Ð°ÑĤ Ð°Ð²
Ð½ Ð°ÑıÐ»ÑĬ
Ð»ÑĬ Ð¸ÑĩÓıÐ¾Ð³Ð¾
Ð¼ Ð°ÑĨÓı
Ð¼ ÑĥÑĢÐ°Ð´
Ñħ Ð°Ð´
ĠÐ³Óı Ð°Ð½Ð´
Ð¸Ð· Ð²Ð¾Ð´
ÑĨ ÑĥÐ»
ĠÐ»ÑĬ ÑĥÐ´
ĠÐ³ÑĮÐ°Ð± ÑĥÑħÑĬÐµ
ĠÐºÑĬ Ð¸ÑıÐ¼Ð°ÑģÐµÐ±
Ð°Ð² Ð½
ĠÑħÓı Ð°ÑıÐ·ÑĥÐ»
ĠÑĩ Ð°ÑĩÐ°Ð½Ð°Ð»
ÑĥÐ¼ Ð°Ð»Ð´Ð°
ĠÐ°Ð± Ð¸Ð·ÐµÐ³Ð¸
ĠÐºÓı Ð¸ÑıÐ·
Ð°Ð±Ð¸ Ð³ÓĢ
ÑĢÑĥ Ð´
Ð¸Ð½Ð°Ð± Ð³Ð¾
ĠÑĢÐ°ÑħÑĬ ÐºÐºÐ¾Ð»
ĠÑīÐ² ÐµÑĩÓıÐµÐ»
ĠÐ¸Ð½ Ð´ÐµÐºÑģ
Ð¸Ð½Ð°Ð» Ð³Ð¸
ĠÐ¢ Ð¾Ðº
ĠÑĨÓıÐ°Ð» Ð°ÑĢÐ°Ð±
ĠÐ¨ Ð°Ð³Óı
ĠÐ±Ð¾Ñģ Ð¸Ð·ÐµÐ³Ð¸
ĠÐŁ Ð¾Ð»ÑĮÑĪ
ĠÐ¸ÑĪ Ð°Ð·Ð´Ðµ
ĠÐĴ Ð¸Ð½
ĠÐĵÑĬ Ð°ÑĢÐ°Ð±
ĠÑĢÐ°ÐºÓıÐ°Ð» Ð´Ð°ÑģÐ°
ĠÐ±Ð°ÑĢÐº Ð¸ÑıÐ»ÑĬÑĥÐ»
ĠÐ¼ÑĥÑħÑĬ Ð°Ð»Ð´Ðµ
Ð¸Ð³ÑĮ Ð°Ð»ÑĬ
ĠÐ³Ð°Ð·ÐµÑĤ Ð°Ð»Ð´Ð°ÑģÐ°Ð½
Ð°ÑıÐ»Ð´Ðµ ÑħÑĥÐ½
Ð¸ÐºÑĮ Ðµ
ĠÐ¥ÓıÐ°Ð¼Ð·Ð°ÑĤ Ð¾Ð²Ð°
ĠÐ±Ð°Ð¶Ð°ÑĢ Ð¸ÑĩÓıÐ¾
ĠÑĥÑĢÐ³ÑĬ ÐµÐ»Ð³Ð¸
ĠÐŀ Ð¼Ð°ÑĢ
Ð£ Ð»
ĠÐ±Ð°Ð¹ÑĢÐ°Ð¼ ÐºÑĬÐ¾
ĠÐ³ÓıÑĥÑĢÑĥÑģ Ð°Ð·
ĠÐ³ÓıÐ°ÑĤÓı Ð¸Ð´Ð°Ð»
ĠÐ³ÑĮÐµÐºÑĬ Ð¾Ð»Ð´
Ð´Ð°Ð¹ Ð¸Ð»Ð°Ð½
ĠÐ±Ð°ÐºÓıÐ°ÑĢ Ð°Ð½Ð°
ĠÐ·Ð°Ð² ÑĥÑĩ
ĠÑħÑĬÐ²Ð°Ð·Ðµ Ð³Ð¸
Ġ199 5
ĠÐºÐ¸ÑĢ Ð¸Ð³Ð¸
ĠÐ¹Ð¸Ð³ ÐµÐ±
ÑĩÓıÐ²Ð°ÑĢ Ð¸ÑıÐ»
ĠÐ±ÐµÑĩÐµÐ´ Ð°Ð²
Ð°Ð´ÐµÑĢ Ð¸Ðµ
ĠÑĢÐµÑī ÑĤÓıÑĥÐ½
ĠÑıÑħÑĬ Ð°ÑĢÐ°Ð¹
ĠÐ¿Ð¾Ñģ Ð¾Ð±
ĠÐ²Ð¸Ð´Ðµ Ð¾ÑĢÐ¾Ð»
ĠÑģÐ°Ð±ÑĢÑĥ Ð³Ð¸
ĠÐ³ÑĮÐ°Ð¹Ð± Ð°ÑĤ
ĠÐĿÐ°ÑħÑĬ Ð°
ĠÐ´Ð¸Ð¿Ð»Ð¾Ð¼ Ð°Ð»
ĠÑĢÐ¾ÑģÑĥÑĨÐ¾ÑıÐ· Ð´Ð°
ÐļÐ¸Ð½Ð°Ð± Ð³Ð¾
Ð¼Ð¸ÑĢÐ· Ð°
ĠÑįÐºÐ¾Ð»Ð¾Ð³ Ð¸ÑıÐ»ÑĬÑĥÐ»
ĠÑģÐ°Ð»Ð°ÑĦ Ð¸ÑıÐ·ÑĥÐ»
ĠÐ¼ÑĥÐºÑĬÑģ Ð°Ð½Ð°Ð±
ĠÐ£Ð¿ÑĢÐ°Ð²Ð»ÐµÐ½ Ð¸ÑıÐ»ÑĬÑĥÐ»
Ð¾Ð¿ÐµÑĢ Ð°ÑĤÐ¸Ð²
ĠÑħÐ¸Ð» Ð¸Ð¿
Ġ ÑĥÐ±
Ð¾ Ð»ÑĬÐ¸
ĠÑ Į
Ñħ Ðµ
Ñħ Ð°ÑĢÐ°Ð±
ĠÐ³Óı Ð°ÑĩÐ¸
ĠÐ² Ð¸ÑĤ
ÑĥÑĢ Ð°Ð»Ð³Ð¸
Ð°Ð¼ ÑħÐ°Ð»
ĠÐ¼ Ð°ÑıÐ»ÑĬÑĥÐ»
Ð¸Ð· Ð°ÑĤÐ¾ÑĢ
ÑĨ Ð¸ÑıÐ»Ð´Ð°ÑģÐ°
Ð°Ð¹ Ð¼
Ð³Óı Ð¾ÑĢ
Ð°ÑĨ Ð¸ÑıÐ»ÑĬ
ĠÐĶ Ð¾Ð²
ĠÐ³ÑĮÐµÐ± Ð¸Ð»Ð°Ð½
ÐµÑģ Ð°Ð½
ÑĥÐ± ÐµÑĢÐº
Ð°ÑĤÓı Ð¸
ĠÐĵÓı Ð°Ð´Ð°Ð»
ÑĨÓı Ð°ÑĢ
ÐµÐº ÑģÑĤ
ĠÐ½ÑĥÑħ Ð´Ð°ÑģÐ°
ĠÐ½ÑĥÑħ Ð°Ð»Ð´Ð°Ð³Ð¸
ĠÐ³ÑĥÑĢ Ð¸Ð»Ð°Ð½
ĠÐ±ÑĥÐºÓıÐ¸Ð½ Ð°Ð»ÑĬÐ³Ð¸
ĠÐĺ ÐĵÐĺÐĽ
ĠÑĦ Ð°Ð±ÑĢ
ÐĲ Ð¢
Ð²Ð°Ð» Ð°Ð·ÑĥÐ»
ĠÐļÑĬ ÑĥÐ´
ÑģÐº Ð°Ð»Ð´Ð°
Ð³ÓıÐ°Ð» Ð¸ÐµÐ²Ð°Ñģ
ĠÐºÐ²ÐµÑĢ Ð·ÑĥÐ»
ĠÑıÐ½ Ð³Ð¸
ĠÑĢÐ¾ÐºÑĬ Ð¾
Ð°Ð½Ð°Ð» Ð´Ð°Ð³Ð¸
ĠÑĤÓıÑĥÑĢ Ð°Ð·
ĠÐ²ÑĥÐºÓıÐ°ÑĢÐ°Ð² Ð°Ð½Ð¸
ĠÑĢÐ¸Ñī Ð¸ÑıÐ·Ð´Ðµ
ĠÐ® ÑĢÐ¸Ð¹
ĠÐĲÐ½ Ð¶
ĠÐĵÓıÐ°Ð»Ð¸ÐµÐ² Ð°Ð»ÑĬÑĥÐ»
ĠÐ³ÓıÐ°ÑĤÓı Ð¸Ð»ÑĬ
ĠÐ´Ð°Ð³ÑĬÐ¸ÑģÑĤÐ°Ð½ Ð¸ÑıÐ·Ðµ
ĠÑĢÐ¸ÑĤÓıÑĥÑħÑĬ Ð°Ð²
ĠÐºÑĮÑĥÑĩÓı Ð°Ð±
ĠÑĨÓıÐ°ÑĢÐ°Ð» Ð´Ð°ÑģÐ°Ð½
ĠÑģÐ°Ð¿ Ð°ÑĢÐ°Ð»ÑĬÑĥÐ»
ĠÐ¡Ð°Ð³ÓıÐ¸Ð´ Ð¾Ð²
ĠÐºÑĬÐ¾Ð¹ Ð¸Ð»Ð°Ð±
ĠÑĤÓıÑĥÐ±Ð°Ð·Ð°Ð± ÑĥÐ½
ĠÐ¼ÐµÐ´Ð¸ÑĨÐ¸Ð½ Ð°ÑıÐ»ÑĬ
ĠÐ³ÓıÐ°ÑħÑĮÐ°Ð»Ð»ÑĬ Ð°ÑĢÐ°Ð·ÑĥÐ»
ĠÐ³ÓĢÐµÐ¼ÐµÑĢ Ð¸ÑģÐµÐ»
ĠÑĤÐµÐ»ÐµÑĦÐ¾Ð½ Ð°Ð»ÑĬÑĥÐ»
Ġ192 1
ĠÐ½ÑĥÑĨÓı Ð±Ð¸
ĠÐĸÐ¸Ð½ ÑĨÐ°
ĠÐ±Ð°Ð·Ð°ÑĢ Ð°Ð»Ð´Ð°
ĠÑĦÐ¸Ð½Ð°Ð½Ñģ Ð¾Ð²Ð¸ÑıÐ±
ĠÐ¼ÑĥÐ·ÑĭÐº Ð°Ð»Ð¸ÑıÐ±
ĠÑĩÓĢÐ°ÑħÓĢ Ð¸ÑıÐ»
ĠÐľÐ§ Ð¡Ð°Ð»ÑĬÑĥÐ»
Ðµ Ñī
Ð½ Ð¸Ñģ
Ðº Ð°Ð±Ð¸Ð³Ð¸
Ð°ÑĢ Ð¸Ð»
ĠÐ³ÑĮ Ð°ÑĤÓıÐ°Ð½
Ð¼ Ð°Ð»ÑĬÑĥÐ»
Ñħ Ð¸
ĠÐ³Óı Ð°Ñī
ĠÐĵ Ð¸ÑĤÐ»
ĠÐ¼ Ð¾Ð´
ÑĨ Ð°Ð·ÑĥÐ»
ĠÐ½ Ð°Ð¹
ĠÐ³ÑĮÐ°Ð± Ð³Ð¾
ĠÐ¶ ÑĥÐ²
Ð°Ñı ÑģÑĥÐ»
ĠÑĤÓı Ð°Ð³ÓıÐ°Ð»
ĠÑĤÓı Ð¸Ð½ÑĩÓı
ÓĢ Ð°ÑĢ
Ð¾Ð² ÐºÐ°
ĠÐľ ÐµÑĤÐµÑĢ
ĠÑĨÓı Ð°Ð´ÑĥÐ»
ÐºÑĮ ÐµÐ»
ĠÑħÓıÐ°Ð» Ð°Ð»
ĠÑĢÐ¾Ñģ Ð¾
ĠÐ³ÓıÐ°Ð´ Ð°ÑħÑĬ
ĠÑħÑĬ Ð¸ÑĢ
ĠÐ¦ Ð¾Ð³Ð¾
ĠÐ±Ð°ÑħÑĬ Ð¸ÑıÐ»ÑĬÑĥÐ»
ĠÐ±Ð°ÑħÑĬ ÑĥÐ»ÐµÐ»
ĠÑĢÐ°Ð³ÑĬ Ð°Ð·ÑĥÐ»
ÐĲ Ð´
ĠÑīÐ¸Ð± Ð°Ð²
ĠÑĨÐµÐ±Ðµ ÑĩÓı
ÑĥÐº ÓĢ
ĠÐĵÑĮÐµÐ» Ð´Ð°ÑģÐ°Ð½
Ð¾Ð³ ÑĢÐ°Ð´
ĠÐ³ÑĮÐµÑģÑĥÐ» Ð³Ð¸
Ġ3 9
ĠÐ¼ÑĥÑħÑĬ Ð¸Ð»ÑĬÐµ
ĠÐ´Ñĥ Ð³Óı
ĠÑĢÐ¾ÑģÑĥ ÑĨÐ¾
Ð¸Ð¹ Ð¸Ð½
ĠÐ°ÑħÐ¸ÑĢ Ð¸ÑıÐ±
ĠÐĲÐ± ÑĥÐ»Ð°
ĠÐ³ÑĮÐµÑĩÓıÐµÐ± Ð»ÑĬÑĥÐ½
ĠÐ¼ÑĥÑĢÐ°Ð´ Ð°Ð»Ð´Ðµ
ĠÐ¶Ð¸Ð² Ð³Ð¸
ĠÑħÐ°Ð± Ð°Ð´Ðµ
ÑĢÐ³ Ð°Ð´ÑĥÐ»Ð°Ð±
Ð³ÑĥÑĤÓı Ð¸ÑıÐ»ÑĬ
ĠÐºÑĬÐ°ÑĩÓı Ð°Ð»ÐµÐ»
ĠÑģÐ²ÐµÑĢÑĥÑħÑĬ Ð»ÑĬÐ¸ÑıÐ»Ð´Ð°
ĠÐ¥ÑĬ Ð°ÑĢ
ĠÐ¸Ð½ÑģÐ°Ð½ Ð¸ÑıÑĤ
ĠÐ§Óı Ð°Ð½ÐºÓı
ĠÐľÑĥÑħÓı Ð°Ð¼Ð°
ĠÐ²Ð°ÑĤ Ð¸Ð·Ðµ
ĠÑħÓıÑĥÐºÐ¼Ñĥ Ð³Ð¸
ĠÑģÐ¾ÑĨ Ð¸Ð°Ð»
Ð¾Ð²Ðµ Ñī
ĠÑģÑĥÐ½ Ð´Ðµ
ĠÑĤÑĥÑĢ Ð¸ÑģÑĤÐ°Ð»
ĠÐĿÐ¸Ð»ÑĬÐµÑĢ Ð³Ð¾
Ð¿ÑĢ ÐµÐ¼ÑĮÐµÑĢ
ĠÑĤÐ¾Ðº Ð°Ð»ÑĬÑĥÑħÑĬ
Ð°Ð´Ð¼Ð¸Ð½Ð¸ÑģÑĤÑĢÐ°ÑĨ Ð¸ÑıÐ»ÑĬÑĥÐ»
ĠÐ¥ÑĮ Ð¸Ð½Ð´Ð°ÑħÑĬ
ĠÐ´Ð°Ð½Ð´ÐµÐ»ÑĬ Ð°ÑĢÐ°Ð·Ðµ
ĠÑħÓıÐ°ÑĢ Ñī
ĠÐ£ÐºÑĢÐ°Ð¸Ð½ Ð°Ð»ÑĬÑĥÐ»
ĠÐºÐ°Ð½Ð´Ð¸Ð´ Ð°ÑĤÑĥÑĢÐ°
ĠÐ»Ð¸ÑĤÐµÑĢÐ°ÑĤÑĥÑĢ Ð°
ĠÑĤÓıÐ°ÑħÑĮ Ð°Ð»Ð³Ð¸
Ð¸ÑĩÐµÑģÐº Ð¸ÑıÐ»
Ð¥ÑĬ Ð°ÑħÓıÐ°Ð»
ĠÐ²Ð°ÑĤÓıÐ°Ð½ Ð°Ð»Ð´Ðµ
ĠÐ±Ð°ÑģÑĢ Ð¸ÑıÐ»
ĠÑĢÐ¾ÑģÑĥÑĨÐ¾ÑıÐ· Ðµ
ĠÐ¼Ð°Ð´Ð°Ð½Ð¸ÑıÑĤ Ð³Ð¸
ĠÑĤÓıÑĥÐ³ÑĮ Ð´ÑĥÐ·ÑĥÐ»
ĠÑĦÐ°ÑĪ Ð¸ÑģÑĤÐ°Ð·ÑĥÐ»
ĠÑħÓıÑĥÐ± Ð¸
ĠÐĺÐ· Ð±ÐµÑĢÐ±Ð°ÑĪ
ĠÐ¡Ð°Ð¹ Ð¸Ð´
ĠÑĪÐ¸Ð³Óı ÑĢÑĥ
ĠÑĤÑĥÑĪÐ± Ð°Ð±Ð¸
ĠÐ³ÓĢÐ°Ð»Ð¸Ð¼ ÑĩÐ¸
ĠÐ²ÑĭÑģÑĤ Ð°Ð²ÐºÐ°
ĠÐ¡Ð°Ð¼ ÑĥÑĢ
ĠÐ¡Ð¸Ð» Ð´Ð¸
ĠÑĢÐ°ÐºÓıÐ°Ð»Ð´ÐµÑīÐ²Ðµ ÑıÐ»
ÐļÐ¾Ð» ÑħÐ¾Ð·
ÑĤÐµÐ½ Ð°Ð½ÑĤ
ĠÐºÑĢÐµÐ´ Ð¸ÑĤ
3 4
5 7
6 1
Ðµ ÑħÑĬ
Ð½ Ð¸ÑıÐ»ÑĬÑĥÐ»
Ð½ Ð¾Ð³Ð¾
Ð½ ÑĥÑĨÐ°Ð»
Ð°Ð»ÑĬ Ð¸ÑıÐ»ÑĬ
ÐºÓı Ð°ÑĢÐ°Ð±
Ð°Ñħ Ð°Ð»
ĠÐ² ÐµÑĨÑĨ
ĠÑĨ ÑĥÐ´
Ð¸Ð» Ð¾Ð²Ð°
Ð¸Ð» Ð¾Ð²Ð°ÑģÑĥÐ»
ĠÐĵ Ð°Ð³Ð¸
Ð¾ÑĢ Ð¾
ĠÑĤÓı Ð°Ð¶
ĠÑĤÓı Ð°Ð½Ñĩ
ÑĩÓı Ð²Ð°Ð½
Ð°Ð³ÑĮ Ð°Ð½
ĠÐºÓı ÑĥÑģ
ĠÑĨÐ¾ Ð»ÑĬÐ¸Ð·Ðµ
ÐµÐ´ ÑģÐµÐ´Ð°ÑĤ
Ð°Ð¶ Ð¸ÑĢ
ĠÑĢÐ°Ð¹Ð¾Ð½ Ð°
ĠÑīÐ² Ð°Ð½Ð¸Ð½
ĠÐ·Ð°Ð¼Ð°Ð½ Ð°Ð»Ð´Ð°Ð³Ð¾
ĠÐ¾ Ð²Ð¾
Ð´ÑĥÐ» Ð³Ð¸
ĠÐ°Ð±ÑĥÐ½ Ð³Ð¸
ĠÐłÐ¾Ñģ ÑĤÐ¾Ð²
ĠÐ¢Óı Ð°Ð³ÑĮ
ĠÑħÐ°Ð»ÐºÑĬ Ð¸ÑıÐ¹
ĠÐĹ Ð°Ð²
ĠÐ±Ð°Ð¹Ð±Ð¸ÑħÑĮ Ð¸Ð»Ð°Ð»Ð´Ðµ
ĠÐ°Ñħ Ð°Ð·ÑĥÐ»
ĠÐ´Ð°Ð³ÑĮ Ð°Ð»Ð³Ð¸
ĠÑģÐ²ÐµÑĢ ÑĥÐ»ÐµÐ±
ÐµÐ»ÑĬ ÑĥÑħÑĬ
ĠÐĵÑĮÐµÐ´Ð¸Ð½ Ð°Ð²
Ð¥Óı Ð°Ð¶Ð¸
Ð±Ð°ÑħÑĬ Ð¸Ð½Ð°Ð»ÑĬÑĥÐ»
ĠÐ³ÑĮÐ°Ð´ Ð¸Ð³ÓıÐ°Ð½
ĠÑīÐ°Ð¹ ÑħÐ°
ĠÐ¼Ð°Ð³ÓıÐ¸ÑĪÐ°ÑĤ Ð°Ð·
Ð°Ð¹Ð´ Ð°ÐºÑĬ
ĠÐ³ÓıÐ°Ð³Ð°ÑĢ Ð»ÑĬÑĥÑħÑĬ
ĠÐºÐ¾Ð»ÑħÐ¾Ð· Ð°Ð»ÑĬ
ĠÑĢÐ¸Ñī Ð°ÑĢÐ°Ð»
ĠÐ²ÑĥÐ³ÐµÐ² Ð°Ð»Ð¸
Ð³ÑĮÐ°Ð½ Ð°ÑĤ
ĠÑĩÑĥÑĢ Ð°ÑıÐ¹
ĠÐ°Ð·Ð°ÑĢÐ³Ð¾ ÑıÐ»Ð´Ð°ÑģÐ°
ĠÐ°Ðº ÑĨ
ĠÑĤÑĥÑĢ Ð¸ÑģÑĤ
ĠÑĤÑĥÑĢ Ð¸ÑģÑĤÐ°Ð·ÑĥÐ»
ĠÐ½Ð°Ñģ Ð¸ÑħÓı
ĠÐĵÓıÐµÐ¼ÐµÑĢ Ð¸ÑģÐµÐ±
ĠÐºÐ¸Ð³ÓıÐ°Ð½ Ð³Ð¾
ÐĵÑĮÐµÐ½ Ð¸ÑĢÐµ
ĠÐ¼Ð¸Ð½Ð¸ÑģÑĤÑĢ Ð»ÑĬÑĥÐ½
ÐĵÑĬ Ð°Ð·
ĠÐ³ÑĮÐ°Ð±ÑĥÐ» ÐµÐ·ÑĥÐ»
ĠÐºÐºÐµÐ» Ð°ÑĢÐ¸Ñī
ÐµÑĢÑĤ Ð¸ÑĦÐ¸Ðº
ĠÑħÓĢÐ°Ð»ÑĤÓĢ Ð¸Ð·Ð°Ð±ÑĥÐ»Ð°
ĠÐ¥ÓıÑĥÑģÐµÐ½ Ð¸Ð»
ĠÑĨÓıÐ°Ð»Ð´Ð¾ÑħÑĬÐ°Ð±Ð¸ Ð³ÑĥÐ½
ĠÐºÐ°Ð¼Ð¸Ð» Ð°Ð²
ĠÐ³ÑĬÑĥÐ½ ÐºÑĥÐ½
ĠÑĥÐ¼ÑĥÐ¼ÑĥÐ· Ð´Ð°
ĠÐ§Ð°ÑĩÐ°Ð½ Ð°Ð·ÑĥÐ»
ĠÐ°Ð½Ð»ÑĬ Ð°Ð±Ð¸Ð»ÐµÐ±
ĠÐĵÓıÐ°Ð±Ð´ÑĥÐ»Ð¼ÑĥÑģÐ»Ð¸Ð¼ Ð¾Ð²
ĠÐĵÓıÐ°Ð±Ð´ÑĥÐ»Ð¼ÑĥÑģÐ»Ð¸Ð¼ Ð¾Ð²Ð°Ñģ
Ð°Ð»Ð´ Ð°Ð³ÑĥÐ½
ĠÐľÐ°Ñħ Ñģ
ĠÐĸÐ°Ð½ Ð¸ÑģÐµÐ»
ĠÑħÑĬÑĥÑĤ Ð°Ð±Ð°Ð·Ð´Ð°
ÐĿÑĥÐ¶ ÐµÑĨÐ°
ĠÐŃÐ»ÑĮ Ð´Ð°ÑĢ
ĠÑħÓıÐ¸ÐºÐ¼Ð°ÑĤ Ð°Ð±
ĠÐĵÐ°Ð·ÐµÑĤ Ð°Ð»ÑĬÑĥÐ»
ĠÐŁÐ°ÑĤÐ°ÑħÓı Ð¾Ð²
ĠÐĳÐµÐ¶ ÑĤÓıÐ°
ĠÐ¾ÑĤÐ»Ð¸Ñĩ Ð½Ð¸Ðº
ĠÐ¼ÐµÐ´Ð¿ ÑĥÐ½ÐºÑĤ
Ð°ÐĲ Ð»Ð»Ð°Ð³ÑĮ
8 4
Ð´ Ð°Ð²
Ð´ Ð¸ÑģÐ°Ð½
ÑĥÐ» ÐµÐ´ÑĥÑħÑĬ
Ðº ÑĥÑĢ
ĠÐº Ð¸Ð²Ðµ
ĠÐ³ÑĮ Ð°Ð·ÑĥÐ»
ÑĤ ÐµÐ»ÑĮ
ĠÐ´ Ð°Ð±
ĠÐ½ ÐµÐ´Ðµ
ĠÐľ Ð°ÑĢÐº
ĠÑī Ð¾Ð±
ĠÐ· Ð°ÑħÓĢ
ĠÐĶ Ð¾Ð½Ð¾Ð³ÑĬ
ĠÑħÑĬ Ð°ÑħÓıÐ°Ð»
ĠÑı ÑĤÓı
ĠÐĳ Ð¾Ð»ÑĮÐ½Ð¸ÑĨ
ĠÐ±Ð¾ ÑıÐ»
ĠÐ¿ÑĢ Ð°Ð·Ð´Ð½Ð¸Ðº
Ð°ÑħÑĮ Ð¸
ĠÐ±Ð¸ÑħÑĮ Ð¸Ð·Ð°Ð±Ð¸
ĠÑĢÐ¾ Ð´Ð°Ð»
ĠÐĺ ÑĤÐ°Ð»
ĠÐ±Ð°ÐºÓı Ð°Ð·Ð´Ð°ÑģÐ°
ÐĶ Ð°Ð³ÑĮ
ĠÑĢÐ°Ð³Óı Ð´ÑĥÐºÑĮ
ĠÐ±Ð¾ÐºÑĮ Ð¸Ð»Ð°
ĠÐĴ Ð¸Ð´Ðµ
ĠÐ³ÓıÑĥÑĨÓı Ð¸ÑıÐ»Ð´Ðµ
ĠÐ³ÓĢ Ð°Ð¼Ð¼Ð°Ð±
ĠÐļÑĬ Ð¾Ð¹
ĠÐĹ ÑĥÐ³ÑĮ
ĠÐ±Ð°Ð¹Ð±Ð¸ÑħÑĮ Ð°ÑĢÐ°Ð±Ð³Ð¾
ĠÐ½Ð¸Ð»ÑĬÐµ ÑħÑĬ
ĠÑĢÐ¸ÐºÓıÐºÓı Ð°Ð´Ð°Ð±
ĠÐ´Ñĥ Ð¹
ĠÐ±Ð¸ÑĩÓıÑĩÓı ÑĥÐ»Ð°ÑĢÐµÐ±
ĠÑħÓĢ Ð¸Ð½ÐºÑĬ
Ġ4 1
Ð°ÑģÐ°Ð½ Ð¾Ð²
ĠÑģÑĤ Ð°Ð¶
Ð°ÑĦ Ð¸Ð³Óı
Ð£ Ñĩ
ĠÐºÐ°Ð¼ ÑĥÐ»ÐµÐ»
ĠÑīÑĥÐ» Ð°Ð»ÑĬÐ¸
ĠÐ·Ð°ÑĢÐ°Ð» Ð¸ÑıÐ»
ĠÑĢÐ¾ÑģÐ´ Ð°Ð´Ð°ÑģÐ°
ĠÐºÑĬÐ°Ð¹ Ð¸Ð¼
ĠÐľÐ°ÑĢ ÑıÐ¼
ĠÑĢÐ°ÐºÓıÐ°ÑĢ ÑĥÐ»ÐµÐ»
Ð¾Ð³ÑĮ Ð¾ÑĢ
ĠÐ³ÓıÐ°Ð½ Ð°ÑģÐµÐ²
ĠÐ¡ÑĥÐ» Ð°Ð¹Ð¼Ð°Ð½
ĠÐ¢ÑĥÑĢ ÑĨÐ¸ÑıÐ»Ð´Ð°
Ð¸ÑıÐ»ÑĬÑĥÐ»ÑĬ Ð³Ð¸
ĠÐ¡Ð¸ÑĢ Ð¸ÑıÐ»ÑĬÑĥÐ»
ĠÐ±Ð¸ÑħÑĮÐ¸Ð½ Ð°Ð·ÑĥÐ»
ĠÐ³ÑĮÐ°Ð»Ð± Ð°Ð´ÐµÑĢÐ¸Ð»
ĠÐľÑĥÑĢÐ°Ð´ Ð¸ÑĨÐ°
ĠÐ»ÑĬÑĥÐºÑĬ Ð°Ð½Ð°
ĠÐ³ÓıÑĥÐ¶ Ð°Ð»ÑĬ
Ġ198 0
ĠÐŃÐ±ÐµÐ» Ð°Ð»ÑĬÑĥÐ»
ĠÐºÐ»ÑĥÐ± Ð°Ð»Ð´Ð°
ĠÐ¸ÑģÐºÑĥÑģ ÑģÑĤÐ²
ĠÐºÐ¾Ð¼Ð¿Ð°Ð½ Ð¸ÑıÐ»ÑĬÑĥÐ»
ĠÐļÑĬÐ°Ð´Ð¸ÑĢ Ð¾Ð²Ð°Ñģ
Ð¼Ð°Ñģ Ð°Ð³Ð¾
ĠÑĢÑĥÐº Ð½Ñĥ
ĠÑĩÓıÐ²Ð°Ð½ÐºÑĬÐ¾ÑĤÓı Ð°ÑĢÐ°Ð±
ĠÑģÐ¿ÐµÐºÑĤÐ°Ðº Ð»
ÐĽÐµÐ½ Ð¸Ð½Ð°ÑĥÐ»
ĠÐ³ÓıÐ°Ð± Ð´Ð°Ð»
ĠÐ¿ÑĢÐµÐ¿Ð¾Ð´ Ð°Ð²Ð°ÑĤ
8 5
ÑĢ Ð°ÑģÑĤ
ÑĢ Ð°Ð³ÓıÐ¸
Ð´ Ð¾Ð»
Ðº Ð¸Ð»
Ð°Ð± Ð¸Ð·ÐµÐ³Ð¸
ĠÐ± Ð°ÑıÐ»ÑĬÐµ
ĠÐº Ð¸
Ð°Ð¼ Ð¸Ð½
ÑĨ ÐµÑĢ
Ð¾Ð½ ÑĤÐµÑĢ
ĠÐ»ÑĬ ÐµÑĨÐ°
ĠÑģ Ð°ÐºÑĬ
ÑĤÓı Ð°Ð½Ð¾Ð²
ĠÑĤÓı ÑĥÑĤÓı
ĠÐľ Ð°Ð¹
Ð³ÑĮ Ñĥ
Ð¸ÑĤ ÓıÐ°Ð»
ĠÑħÓıÐ°Ð» ÐµÐ±
ĠÐ¥ Ð¾Ð½Ð¾ÑħÑĬ
Ð°ÐºÑĬ Ð°Ð»
ĠÐºÑĮ ÐµÑıÐ»Ð´Ðµ
ĠÐĳ ÑĥÑĢ
ĠÐĳ Ð¾Ð»
ĠÐĳ Ð°Ð³Óı
ĠÑĢÑĥÐºÓı Ð°ÑĢÐ°Ð·ÑĥÐ»
ĠÐ³ÑĮÐ°ÑĢ Ð¸Ð³Ð¸
Ð³ÑĬ Ð°Ð»
ĠÐºÐ² Ð°Ð´
ĠÑĨÓıÐ°Ð» Ð¸Ð³Ð¸
ĠÐ¨ ÑĤ
ĠÐ¨ Ð°Ð²
ĠÐ¨ Ð°Ð³ÓıÐ¸ÑĢ
ĠÑĪÐºÐ¾Ð» Ð°Ð·Ðµ
ĠÐ³ÓĢ Ð°ÑģÑĢ
ĠÐĽÑĬ ÐµÐ±
ĠÑģÐ²ÐµÑĢ Ð¸
ĠÑĥÐ½ÑĤ Ð¸Ð³Ð¸
ĠÐľÐ°ÑħÓı Ð°ÑĤÓı
ĠÐ¶Ð¸Ð´Ðµ Ð´Ð°ÑģÐ°
ĠÐ© ÑĥÐ³Ð¾
ĠÐĵÑĮÐµÐ´Ð¸Ð½ Ð°Ð½
ĠÐ¦Óı Ð°Ð´
ĠÐļÓı Ð¸ÑıÐ±Ð³Ð¾
ĠÑħÓıÐ¸ÑģÐ°Ð± Ð³Ð¸
ĠÑĤÐ°Ð´Ð±Ð¸ÑĢ Ð°Ð»Ð´Ðµ
ĠÐ¼Ð¾ÑĨÓı Ð°Ð·
ÐŃ Ð»ÑĮ
Ġ9 5
ĠÐĺÐ½ Ð³
ĠÐ±ÑĥÑħÓı Ð°Ð½Ð°
ĠÐ±Ð¾ÑĨÓı ÑĥÐ´Ð°
ĠÑĤÐµÑĢÑĢÐ¾ÑĢ Ð¸ÑģÑĤ
ĠÐ¶ÑĥÑĢÐ½Ð°Ð»Ð¸ÑģÑĤ Ð°Ð·
ĠÑħÓıÐ°ÐºÐ¸Ð¼ Ð·Ð°Ð±Ð°Ð·ÑĥÐ»
ĠÐ¿ÑĢÐ¾ÑĦ ÑģÐ¾ÑİÐ·Ð°Ð»ÑĬÑĥÐ»
ĠÐ¸Ð· Ð±Ð¸ÑĢ
ĠÐ±Ð°ÑĩÑĥÐ½ ÐµÐ²
ĠÐ£Ð· Ð»
ĠÐ¸ÑİÐ½ ÑĮ
Ð³ÑĮÐ°Ð»Ð¼Ð°Ð³ÑĬ Ð»ÑĬÐ¸
ĠÑĨÓıÐ¾Ð´Ð¾ÑĢ Ð°Ð»
ĠÐ³ÓıÐµÐ·Ð°ÑĢ ÑĥÐ½Ð°
ÐĲÐ± Ð¸Ð·Ðµ
ĠÐĲÐ² ÑĤ
ĠÑħÓıÐ°Ð¹Ð²Ð°Ð½ Ð°Ð»
ĠÐºÑĬÐ²Ð°ÐºÓı Ð°ÑĢÐ°Ð±
ĠÐ¼ÑĥÑħÓıÐºÐ°Ð½ Ð»ÑĬÐ¸
ĠÐ´Ð¾Ñģ ÑĥÐ»
ĠÑįÑĤ Ð½
ĠÐ»ÑĬÐµÐ± ÐµÑĢ
ĠÑģÑĤÐ°Ð½ ÑĨÐ¸Ñı
ĠÑħÑĬÐ°ÑĢÐ°Ð²ÑĥÐ» Ð»ÑĬÐ¸
ĠÐ»ÓĢÑĥÐ³ÑĮ Ð°Ð½Ð°
ĠÐ¨Ð°ÑĢ Ð¸Ð¿
ĠÐĵÑĮÐ°Ð¹ Ð³ÑĮÐ°Ð¹
ĠÐ¿ÑĢÐ¾Ð±Ð»ÐµÐ¼ Ð°
ĠÐ³ÐµÑĢ Ð¾
ĠÐ¾Ð¿ Ð¿Ð¾Ð·Ð¸ÑĨ
ÐĽÑĬÐ°Ð± Ð°Ð±Ð¸Ð»ÐµÐ±
ÑħÑĬÐ²Ð°ÑĢ ÑīÐ¸Ð½
ĠÐļÐª Ðķ
ÑĥÐ±ÐµÑĢÐº ÑĥÐ»ÐµÐ·
Ðµ Ð¾Ð½
Ð°Ð» Ð´Ð°ÑģÐ°Ð³Ð¾
Ð½ Ð°Ñħ
Ð¼ Ð½
Ð¼ ÑĭÐº
ĠÑħ Ð¾Ð»ÐµÐ»
Ð°Ð´ Ð°Ð»ÑĬÑĥÐ»
Ð°Ð´ Ð°Ð»Ð´Ð°
Ð°ÑĤ Ð¾Ð²
ĠÐ³Óı Ð°Ð½ÑĤ
ÑĥÑħ Ðµ
ĠÐ½ ÑĥÑħÓı
Ð¸ÑĢ ÑĥÐºÑĬ
Ð¸Ñģ Ð¿
ĠÐºÑĬ Ð°ÑĤÓı
ĠÐ¿ Ð»Ð°ÑģÑĤ
ĠÐľ Ð°Ð·
ÐµÐ½ ÑĮ
Ð³ÑĮ Ð°Ð²
Ð³Óı Ð°ÑĤÓı
ĠÑĩ Ð¸Ð½
ĠÐ°Ð± Ð¸Ð»Ð°ÑĢÐ¾
Ð°Ð¶ Ð°
Ð°ÑıÐ» Ð´Ð°ÑģÐ°Ð³Ð¸
ĠÑħÑĬ ÑĥÐ¹
ĠÐ±Ðµ ÐºÑĥÐ½
ĠÐ¡ Ð°Ð»Ð°Ð¼
ĠÐ´Ð°Ð½Ð´Ðµ Ð»ÑĬÐ°Ð½Ð°
ĠÐ±ÑĥÐºÓıÐ¸Ð½ Ð´Ð°Ð»
ĠÐĺ ÑģÑĤ
ĠÐ³ÑĮÐ°Ð±ÑĥÐ½ Ð°Ð½Ð¸
ĠÐ±ÐµÑĢ Ð°Ð·Ð´Ð°
ĠÑĢÐ°Ð³Óı Ð°Ð±Ð°Ð·ÑĥÐ»
ĠÐĸ Ð¸Ð±
ĠÐ³ÑĮÐ°Ð½ Ð³Ð¸
Ġ19 12
ĠÐ¼Ñĥ ÑĩÓı
ÑģÑĤ Ð²ÐµÐ½
ĠÐ²Ð°Ñģ Ð°Ð»Ð³Ð¸
ĠÑĢÐ°ÐºÑĮ Ð°Ð»Ð´Ð°ÑģÐ°
ĠÐ±Ð°Ð»Ð°Ð³ÑĮ Ðµ
ĠÐ»ÑĬÐ°Ð·Ð°Ð± Ð¸ÑıÐ»Ð´Ð°
ĠÑħÓıÐ¸ÑģÐ°Ð± Ð°Ð»Ð´Ð°Ð³Ð¸
ĠÐºÐ¾Ð» Ð»ÐµÐ´Ð¶
ĠÑĨÓĢ Ð¸ÑıÐ±
ĠÐºÓıÐ¾Ð´Ð¾ Ð»ÑĬÐ¸
ĠÐ°ÑģÐºÓı Ð¾Ð¹
ĠÑħÑĬÐ¸Ð·Ð°Ð½ Ð°Ð»ÑĬ
ĠÑħÑĮÐ² Ð°Ð´Ð¸
ĠÐºÑĬÐ¸Ð¼Ð°ÑĤ Ð°Ð·Ð´Ð°
ĠÑħÓıÐ°ÑĢÐ°ÐºÐ°ÑĤ ÑĩÐ°Ð³ÓıÐ°Ð·
ĠÐºÑĬÐ°ÑĩÓı Ð°ÑıÐ»ÑĬÑĥÐ»
ĠÐ³ÓıÐ°Ð³Ð°ÑĢ Ð»ÑĬÐ¸Ð³Ð¸
ĠÐ±Ð¾ÑĢÑħ Ð°ÑĤÐ³Ð¾
ĠÐ³ÓıÐ°ÐºÑĬ Ð¸Ð»Ð°Ð»
ĠÑıÑĩ Ð¸Ð½Ðµ
ĠÐ·Ð°ÑĢÐ°Ð» Ð³Ð¸
ĠÑħÐ°Ð´ÑĥÑģ Ð°
ĠÑĤÐµÐ·Ðµ Ð³Ð¸
ĠÐ²Ð°Ñĩ Ð¸Ð½Ðµ
ĠÐºÐ¸Ð» Ð¸Ñī
ĠÑĢÐ°ÐºÑĬ ÑĥÐ½
ĠÐ³ÓıÐ¾Ð»Ð¾ÑħÑĬÐ°Ð½ ÑĩÐ¸ÑıÑģ
ĠÐ¨Ð°Ð³ÑĮ Ð°ÑĢÐ°Ð»Ð´Ð°
ĠÐĿÑĥÑĢÐ¼ÑĥÑħÓıÐ°Ð¼Ð°Ð´ Ð¾Ð²Ð°Ñģ
ĠÐºÐ¾Ð»Ð»ÐµÐºÑĤÐ¸Ð² Ð°Ð»ÑĬÐµ
ĠÐºÑĬÐ¾ÑıÐ» Ð´Ð°ÑģÐ°Ð½
ĠÑĤÑĥÑģÐ½Ð°ÑħÑĬ Ð°Ð»Ð´Ð°
ĠÐ³ÑĮÑĥ ÑĬ
ĠÑĤÑĥÐº Ð°Ð´Ð°
ĠÐ²Ð¾Ñģ ÑĥÐ½
ĠÑģÐ¾Ð»Ð´ Ð°ÑĤÐ°Ð»
ĠÐºÑĥÐ» Ð°Ðº
ĠÐ²Ðµ Ñī
Ð±Ð°Ñĩ Ð°ÑĢÐ¸
ĠÑģÐ¾Ð±ÑĢÐ°Ð½ Ð¸Ðµ
ĠÑĩÓıÐ°Ð» Ð³ÓıÑĥÐ½
ĠÐ³ÓıÐ¸Ñı Ð´Ð°
ĠÐºÐ¾Ð½ÑĤÑĢ Ð¾Ð»
ĠÐ³ÓıÐ°ÑģÑĢ Ð°Ð±Ð°Ð·
ĠÐ¼Ð°Ð· Ð³ÑĮÐ°Ð±
ĠÐĹÐ°ÑĢ ÐµÐ¼Ð°
ĠÐĺÐ½ÑĤÐµÑĢÐ½ ÐµÑĤ
ĠÐ·Ð°Ð²ÐµÐ´ÑĥÑİÑīÐ¸Ð¹ Ð»ÑĬÑĥÐ½
ÐĵÑĮÐ°ÑĢ ÑĥÐ»Ð°
ĠÐ¼Ð°ÑģÐ» Ð¸ÑħÓıÐ°ÑĤ
ĠÐ°ÑģÑģ Ð¾ÑĨÐ¸
ĠÐ¨ÑĥÐ³Óı Ð°Ð¹Ð±
ĠÐ¥Ð¸ÑĨÓı Ð¸Ð±
3 2
a r
Ġ C
ĠÐº ÐµÐ½ÑĩÓı
ĠÑĤ Ð¸ÑĢÐ°
ĠÐ»ÑĬ Ð°Ð¼
ĠÑģ ÑĬÐµÐ·Ð´
ĠÑĤÓı Ñĥ
ÐºÑĬ Ð°Ð¹Ð³Ð¸
Ð¿ Ð°
Ð¸Ð± Ð°ÑĤ
ĠÐ¥ Ð¾Ñĩ
Ð¸Ðº Ð°Ð»Ð´Ð°
ĠÐļ ÑĥÐ¼ÐµÐº
Ð°ÑĤÓı Ð°ÑģÐ°
ĠÑĢÐ°Ð¹Ð¾Ð½ Ð³Ð¸
Ð¸Ð¶ Ð³Ð¸ÑĤ
Ð³ÑĬ ÑĥÑĢ
ĠÑĨÓıÐ°Ð» Ð°
ĠÑĢÑĥÐ³ ÐµÐ·Ð´Ð°
ĠÐ³ÑĮÐ°Ð±ÑĥÐ»ÐµÐ± Ð³Ð¸
Ðł Ð°ÐºÑĮ
Ðļ Ð¾ÑĢ
ÐĲ Ð¿
ĠÐĽ ÐµÐ²
ĠÑĨÓıÑĥÐ½ Ðµ
ĠÑĨÓıÑĥÐ½ Ð°ÑĢÐ°Ð²
ĠÐ³ÓıÐ°ÑħÑĮÐ°Ð» ÑĩÓıÑĥÐ¶Ñĥ
ĠÐ¹ Ð¸ÐºÓĢ
ÐµÐ·Ð°Ð± ÑĥÑĢÐ°Ð±
ĠÐºÑĥÐ¼ÐµÐº Ð°Ð»ÑĬÑĥÑħÑĬ
Ðĳ Ð°Ð»
ÑĥÑĨ Ð°ÑĢÐ°Ð»
Ð¸Ð·Ð°ÑĢ Ð¸ÑıÐ»ÑĬÑĥÐ»
ĠÐ»ÑĬÑĥÐ³Óı Ð¸Ð´Ð°Ð»
ĠÑĩÐ¸ÑıÑģ Ð´Ð°ÑģÐ°Ð½
Ð·Ð°Ð±Ð¸ Ð³ÑĥÐ½
ÑĥÐ² Ðµ
ĠÐ³Ð°Ð·ÐµÑĤ Ð°Ð·ÑĥÐ»
Ð¾Ñħ Ð¾Ð´
ĠÐºÑĬÐ¾ÑĤÓı ÑĥÐ»Ð°
ĠÑģÑĤ Ð°Ð½Ð´Ð°ÑĢÑĤ
ĠÐŀ ÐºÑĤ
Ð³ÑĥÑĤÓı Ð¸ÑıÐ»ÑĬÑĥÐ»
Ð±Ð°ÐºÑĬ Ð¸
ĠÐºÐ¾Ð»ÑħÐ¾Ð· Ð°Ð»ÑĬÐµ
ĠÐ§Óı Ð°Ð½ÐºÓıÐ°Ð»
ĠÑĨÐ¾ÑĨ Ð°ÑħÑĬÐµ
ĠÑĤÓıÐ°Ð³Óı Ð¸Ð½Ð°Ð±Ð¸Ð·Ðµ
ĠÑİ Ðº
ĠÑĤÐ¾ÑħÑĤÑĥÑĢ Ð°Ñģ
ÑĢÐµÑħ ÑĩÐ°Ð³ÓıÐ°Ð·
ĠÐ±ÐµÐ³ÑĮÑĥÐ» Ð°ÑĢÐ¸Ð»Ð°Ð½
ĠÑĢÐ°Ñħ ÑĥÐ½ÐµÐ»
Ġ15 00
ĠÐ±Ð¾ÑĨÓı ÑĥÐµ
ĠÐ¼Ð°ÑĨÓĢ Ð°Ð·Ð´Ð°
ĠÐĳÐµÑĢ Ð³ÑĮ
ÑıÑģ Ðµ
ĠÐĺÐ±ÑĢÐ°Ð³ÑĮÐ¸Ð¼ Ð¾Ð²Ð°Ñģ
ĠÐ±ÑĥÑģÑĥÑĢÐ± Ð°Ð±Ð°Ð·Ðµ
ĠÐ³ÓıÐ¾Ð»Ð¾ÑħÑĬÐ°Ð½ Ð°Ð¹
ĠÐ²ÑĥÐºÓĢ ÑĥÐ½
ĠÑĤÓıÑĥÐ±Ð°Ð·Ð°Ð± ÑĥÐ»ÐµÐ±
ĠÑİÐ±Ð¸Ð» ÐµÑıÐ»Ð´Ðµ
ĠÐ¸Ð¼Ð°Ð½ Ð°Ð»Ð´Ð°
ĠÐ²Ð°Ñħ ÑĥÐ½
ĠÑĢÐ°ÑĨÓıÑĨÓı Ð°Ð´Ð°Ð»
ĠÑıÑħÑĬ Ð¸Ð½Ðµ
ĠÐ¿ÑĥÐ» ÐµÐ¼
Ġ195 7
ĠÐĳÐ¸ÑĨ Ð°Ð½Ð°
ĠÑĢÐ°ÐºÐº Ð°Ð½Ð°
ĠÐľÐ°Ð³ÓıÐ°ÑĢÑĥÐ» Ð°Ð·ÑĥÐ»
Ñĳ ÑĤ
ĠÐ³ÑĬÐ¸ÑĢ Ð°Ð³Ð¸
ĠÐ°ÑģÐ¸ÑĢ Ð»ÑĬÑĥÐ´Ðµ
ĠÐ·Ð¾Ð± Ð°Ð»
ĠÐ±ÑĥÐºÓıÐ¸Ð½Ð°Ð± Ð¸ÑıÐ»ÑĬÐµ
ĠÑĢÑĥÑħ ÓıÐ°Ð»
ĠÑĨÓıÐ°Ð»Ð´Ð¾Ð» ÐµÐ·ÑĥÐ»
ĠÑĦÐµÐ²ÑĢÐ°Ð» ÑĮ
ĠÐĵÓıÐ¾ÑĢ ÑĥÑĤÓıÐ°
ĠÐ°Ð±Ð°Ð´ Ð¸ÑıÐ»ÑĬ
ĠÐĽÑĬÐ°ÑĢÐ°ÑĤÓĢ Ð°ÑģÐ°
ĠÑıÐºÑĬ Ð¸Ð½Ð³Ð¾
ĠÑĪÑĤÐ°Ð± Ð°Ð»ÑĬÑĥÐ»
ĠÐ¥Ð°ÑĤ Ð¸Ð¼Ð°ÑĤ
ĠÑĥÐº Ð°Ð·
ÐľÐ°ÑĪ Ð³ÑĮ
9 1
Ð» Ð°ÐµÐ²
ÑĢ Ð°Ð³ÓĢ
Ð°Ð» ÑĥÐ»
Ð± Ð°ÑĪ
Ð°Ð³ ÑĥÑĢÐ¸
ĠÑħ Ð°ÑĪ
ĠÑħ ÐµÐºÐºÐ¾Ð³Ð¾
ÐµÐ» Ð¾
ĠÐ¼ ÐµÐ³
ĠÐ» Ð¸Ð¼
ĠÐ»ÑĬ ÐµÐ´
ĠÐ»ÑĬ Ð°Ð´Ð°ÑĢ
ĠÑģ Ð¸Ð³
ĠÑģ Ð¸ÑĦ
ĠÑĤÓı ÑĥÐ»
Ð¾Ñģ Ðº
ĠÐ¿ Ð°Ðº
ĠÑħÓı Ð°ÑĤÓıÐ°Ð»
ĠÐ°Ð± ÑĥÐ»
ĠÑĨÐ¾ ÑħÓĢ
Ð°ÑĨ Ð¸
ĠÐ±ÑĥÐ³ ÐµÐ·
ĠÑģÐ¾Ð½ Ð¸Ð´Ðµ
ĠÐĵÓı Ð°ÑĤÓı
ĠÐĵÓı Ð°Ð½Ð´Ð¸
Ð¸Ð´ Ð°Ð»ÑĬ
ÑĪ ÑĤ
Ð²Ð°ÑĢ Ð´
ÐµÑĤ Ð°
ÐµÑĤ Ð°Ð·ÑĥÐ»
ĠÐ¥Óı Ð°ÐºÐ¸Ð¼
ĠÑīÐ² ÐµÐ·
ĠÐľÑĥÑħÓıÐ°Ð¼Ð°Ð´ Ð³ÓıÐ°Ð»Ð¸
Ð³ÓıÐ°Ð½ Ð°ÑģÐµÐ²
ĠÐ°Ñģ Ð¿Ð¸ÑĢ
ĠÐ±ÐµÑĢ Ð·ÑĥÐ»
ĠÑĢÐ°Ð³Óı ÑĥÐ»Ð°ÑĢÐ¾
Ðļ Ð¤
ĠÐ±Ð¾ÐºÑĮ Ð¸Ð·Ðµ
ĠÐĽ Ð¸ÑĤ
Ð¥ Ð°Ð½
Ð¡ Ð°Ñħ
ĠÐ¼ÐµÑħ ÑĤ
ĠÐºÑĮÐ¾Ð» Ð°ÑĢÐµÐ±
ĠÐļÑĬ Ð¾ÑĤÓı
ĠÐĹ Ð¸ÐºÑĢ
ĠÑģÑĥÐ°Ð» Ð»ÑĬÑĥÐ½
ĠÐºÑĬÐ² Ð°ÑĩÓı
ĠÑĢÐ°ÐºÑĮ Ð°Ð»Ð³Ð¸
ĠÐłÐ¾ÑģÑģ Ð¸ÑıÐ»Ð´Ð°Ð³Ð¾
ĠÑĨÓıÐ°ÐºÑĬ Ð°Ð±
ĠÐ¿Ð¸Ðº ÑĢÐ°Ð±
ĠÑĢÐ°Ð³ÑĮ ÑĥÐ»Ð°
ĠÑħÓıÐ¸ÑģÐ°Ð± Ð³ÑĥÐ½
ĠÐ¼ÐµÑħÐ°Ð»ÑĬ Ð³Ð¾
ĠÑģÐ°Ñħ Ð»ÑĬÐ¸ÑıÐ»ÑĬÑĥÐ»
ĠÑĢÐµÑħÑģ ÐµÑĩÓıÐ¾Ð³Ð¾
ĠÑħÓıÐ°Ð´ÑĥÑĢ ÑĥÐ»ÐµÐ»
ĠÑħÐ¸Ñģ ÑĥÐ»Ð°
ĠÑĢÐ°Ð· Ð¸ÑıÐ²
ĠÐ¹Ð¸ÐºÓı ÑĥÐ½Ð°Ð°Ð½
ĠÐ´Ð¸Ð½ Ð°Ð»Ð´Ðµ
ĠÐ¼Ð°ÑħÑī Ð°Ð»Ð¸Ðµ
ĠÐ²Ð°ÐºÐ¸Ð» Ð·Ð°Ð±Ð°Ð·ÑĥÐ»
ĠÐºÓıÐ°Ð» Ð°Ð»
ĠÐŁÐ°ÑĤÓıÐ¸Ð¼Ð°ÑĤ Ð¸Ðµ
ĠÑħÑĮÐ²Ð°Ð´ Ð¸ÑıÐ»ÑĬÑĥÐ»
ĠÐ¼Ð°Ð´ ÑĢÐ°ÑģÐ°
ĠÐłÐ°Ð¼Ð°Ð·Ð°Ð½ Ð¸ÑĨÐ°
ÑĥÐºÓı Ð°Ð½Ð°
ĠÐºÐ¾Ð´ Ð¾ÑģÐ°
ĠÑĩÓıÐ²Ð°Ð½ ÐºÑĬÐ¾ÑĤÓıÑĥÐ½
Ð¸Ð½ÑĩÓı Ð¾Ð½Ð¸
ĠÑĢÐ°ÐºÑĬ Ð¸
ĠÐºÐºÐµÐ» Ð¸Ð»Ð°Ð½
ÑĢÐ¾Ñģ ÑĥÐ»ÑĬÐ°
ĠÐ¿Ð°ÑĪÐ¼Ð°Ð½ Ð°Ð»
ĠI II
ĠÑħÐ¸Ð½ ÐºÓıÐ°Ð»
ĠÐºÐ°ÑĢ Ð°Ñĩ
ĠÑĢÐ°ÑħÓıÐ°ÑĤ ÑħÐ²
ĠÐĳÑĥÐ¹Ð½Ð°ÐºÑģÐº Ð°Ð»ÑĬÑĥÐ»
ĠÑĤÐµÑĢÑĢÐ¸ÑĤÐ¾ÑĢ Ð¸ÑıÐ»Ð´Ð°
ĠÑħÐ°ÑĢÐ± Ð°Ð»Ð³Ð¸
ĠÐºÑĮÐ°Ð» Ð±Ð°Ð»
ĠÐĵÓıÐ°Ð· Ð°ÐµÐ²Ð°ÑģÑĥÐ»
ĠÐ»Ð°ÑħÓıÐ· Ð°ÑĤÐ°Ð»ÑĬ
ĠÐ¼ÑĥÑĦÑĤ Ð¸Ð¹
ĠÐ¸Ð½Ð²Ð°Ð» Ð¸Ð´Ð°Ð»
ĠÐĳÑĥÐ» Ð°Ñĩ
ĠÐ³ÓĢÐ°Ð´Ð°Ð¼ Ð°Ð·ÑĥÐ»
ĠÑģÐµÑģÑģ Ð¸ÑıÐ»Ð´Ð°
ÐłÐ¾ÑģÑģ Ð¸Ñı
ÑĢÐ°ÑħÓı Ð¼ÑĥÑıÐ»ÑĬÑĥÐ»
ĠÐ½Ð°Ð¿ Ñģ
Ð±Ð¸ÐºÑĬ Ð¸Ð½Ð°Ð»
ĠÐĵÑĮÐ°Ð´Ð¸ÑĢ Ð¸
ĠÐĲÐ¢Ðļ ÑıÐ»ÑĬÑĥÐ»
ĠÑĩÐ¸Ð½Ð¾Ð² Ð½Ð¸Ðº
Ð¸Ð½ÐºÓĢ Ð¸Ð»
Ð» Ð¸ÑĨÐ°
Ð½ Ð¾Ð¼
Ð³ Ð¸Ð½Ð°
Ð°Ð½ ÑĨÓĢ
Ð°ÑĤ Ð°ÑĢ
ĠÑĤ Ð°Ñģ
Ð°Ðº Ð¸ÑĢ
ĠÐ¼ ÑĥÑħÓĢ
ĠÐ»ÑĬ ÐµÐ»ÑĬ
ĠÑģ ÐµÑĢÑĤÐ¸ÑĦÐ¸Ðº
Ð¶ Ð°ÑĤ
ĠÐľ ÐµÑħ
ÐµÐ½ Ð¸
Ð¿ Ð¾Ð´
ĠÐĲ Ð½ÑĤ
ĠÐºÓı Ð¸Ð¹
ĠÑħÓıÐ°Ð»ÑĤÓı Ð°Ð±Ð°Ð·Ðµ
Ð¸Ðº Ð°Ð·ÑĥÐ»
ĠÑĢÐ¾Ñģ Ð°Ñģ
ĠÐļ ÑĥÐ´Ð°Ð»
ĠÐł Ð¾
Ð°Ð¶ Ð°Ð»
ĠÐ³ÑĬ ÑĥÐ³ÑĬ
ĠÑĢÐ°ÑħÑĬ Ð°Ð»Ð³Ð¸
ĠÑĢÐ°ÑħÑĬ ÐºÐºÑĥÐ½
ĠÑĨÓıÐ°Ð» Ð¸ÑıÐ»ÑĬÑĥÐ»
ĠÑĢÐ¾ Ð»ÑĬÑĥÐ»
ĠÐ¨ Ð°Ð¹Ð¸Ñħ
ĠÐ´Ð°Ð½Ð´Ðµ Ð»ÑĬÐ°ÑĢÐ°Ð±
Ð¾Ð³Ð¾ Ð²
ĠÑĢÐ°Ð³ÑĬ Ð³Ð¸
ĠÐ¶Ð¾ Ð»ÑĬÑĥÐ½
ĠÐ±Ð¾ÐºÑĮ Ð°
ĠÐ°ÑħÓı ÑĥÐ»ÐµÐ²
ĠÑĢÑĥÐ³ÐµÐ» ÑīÐ¸Ð½Ð°Ð»
ĠÑĢÐ°ÑĩÓı Ð°
ĠÐ°Ð´ Ðµ
ĠÐĶÐ°Ð³ÑĬÐ¸ÑģÑĤÐ°Ð½Ð°Ð»ÑĬÑĥÐ» Ð³Ð¸
Ð°Ð·Ð°Ð± Ð¸Ð·Ðµ
ÐĿ Ð°ÑħÑĬ
ĠÑıÑģ Ð°Ð»Ð³Ð¸
ĠÐ»ÑĬÑĥÐ³Óı Ð¸Ð·Ð°ÑĢÐ¸Ð·Ðµ
Ð¦ ÐĲÐĽÐªÐ£ÐĽ
ĠÐ±Ð°Ð»Ð°Ð³ÑĮ Ð°Ð½Ð¸
ÐŁ Ð°ÑĤÓıÐ¸Ð¼Ð°ÑĤ
ĠÐ±Ð¸ÑĩÑĩ Ð°Ð¹
ĠÑĢÐ°Ð· Ð²ÐµÐ´
ĠÑĤÓıÐ°Ð»Ð°Ð± Ð³Ð¸
ĠÐ³ÑĮÐ¾ÑĢÐºÑĮÐ¾ÑĢ Ð»ÑĬÐ°Ð±Ð°Ð·ÑĥÐ»
ĠÑĢÐ¾ÐºÑĮ Ð¸ÑıÐ»ÑĬ
ĠÐºÐ»Ð°ÑģÑģ Ð³Ð¸
Ġ8 6
Ð¸Ð·Ð¼ Ð°Ð»Ð´Ðµ
ĠÐ±ÑĥÐ³Ð¸Ð»Ð°Ð½ Ð³Ð¸
ĠÑħÐ°Ð´ÑĥÑĢ ÐºÐºÑĥÐ½
Ð°Ð±Ð°Ð·Ð´Ðµ Ð³Ð¸
ĠÐ¸Ð½ÑĤÐµÑĢ Ð²
ĠÐ¥ÓıÐ°Ð¶Ð¸ÐµÐ² Ð°ÑģÑĥÐ»
ĠÐĺÐ±ÑĢÐ°Ð³ÑĮÐ¸Ð¼ Ð¸Ð»
ĠÐºÐ¸Ð» Ð¸Ñģ
ĠÐ±Ð¸ÑĤÓıÐ°ÑĢÐ°Ð± Ð»ÑĬÑĥÐ½
ĠÐ¥ÓĢ Ð°Ð¼Ð·Ð°ÑĤ
ĠÑĢÐ¸Ð³ÑĮ Ð°Ð»Ð´Ð°
ĠÐ¡Ð°Ð» Ð¸Ð¼Ð°ÑĤ
ĠÐŁÐ°ÑĩÐ°Ð»Ð¸ÑħÑĬ Ð°Ð»ÑĬÑĥÐ»
ĠÑħÐ°Ð»Ð³ÑĮÐ°Ð± Ð¸Ð·Ðµ
ÑħÐ°Ñģ Ð¸ÑıÑĤÐ°Ð»ÑĬÑĥÐ»
ĠÐ´Ð°Ð¸Ð¼ Ð³Ð¾
ĠÐ»ÓĢ ÑĥÐ³ÓĢ
ĠÑįÐºÐ·Ð°Ð¼ÐµÐ½ Ð°Ð»
ĠÐ¶ÑĥÑĢ Ð°Ð½
ĠÐ¥ÓıÐ°Ð¶Ð¸Ð¼ÑĥÑħÓıÐ°Ð¼Ð°Ð´ Ð¾Ð²
ĠÐ³ÑĥÐ» Ð»Ð°
ĠÐ»Ð°Ð³ Ð°
ĠÐļÑĬÐ°Ð´Ð¸ÑĢ Ð¾Ð²
ĠÐ±ÐµÑĢÐ³ÑĮÐµÐ½Ð»ÑĬ Ð°Ð±Ð¸Ð³Ð¸
ĠÑĢÐ¾ÑħÑħ ÐµÐ»
ĠÑģÐµÐ¼ Ð¸Ð½Ð°ÑĢ
ĠÐĶÐ°Ð´ Ð°ÐµÐ²
Ð¢ÓıÐ°Ð´ ÐµÑħÑĥÐ½
ĠÐĺÐ½ÑģÐ°Ð½ Ð°ÑģÑĥÐ»
ĠÑĩÐ°Ð±ÑħÑĬ ÐµÐ½
ĠÐ±Ð°Ð»ÑĥÐ³ÑĬ Ð»ÑĬÐ¸ÑıÐ»Ð´Ðµ
ĠÑĩÓıÐ°Ð¼ ÑĥÑĩÓı
ĠÐ³ÓıÐ¸ÑıÐ»ÑĬÐ°Ð¶ Ð¾
ĠÐŁÐ°Ñħ ÑĢÑĥÐ´Ð¸Ð½
ĠÑħÓĢÐ°ÑģÐ¸Ð» Ð°Ð»Ð´Ð°
ĠÐºÐ°Ð²Ð°Ð» ÐµÑĢ
ĠÐļÐªÐķ Ð¦ÐĲÐĽÐªÐ£ÐĽ
ĠÐĹÐ¸ÐºÑĢ ÑĥÐ»Ð°
Ġ Ð°ÑĪ
Ñĥ ÐµÐ²Ð°Ñģ
ÑĢ ÐµÑģÑĤ
Ð½ Ð°ÑıÐ»ÑĬÑĥÐ»
ĠÐ± Ð¾Ð´ÑĥÐ»
Ð³Ð¾ ÑĢÐ¾Ð´
ĠÑħ ÑĥÑħ
ĠÑĤ ÐµÐºÑģÑĤ
ÑĨ ÐµÐ½ÑĤÑĢ
ĠÐ» ÑĮ
ĠÑģ Ð¸
Ð°Ð² Ð´Ð¸Ð½
ĠÐĵÑĮ Ð°Ð´Ð¸Ð½
Ð¸ÑıÐ± Ð³ÑĥÐ½
ĠÑħÓı Ð°Ð¿
ĠÑĨÓı ÑĥÐ½Ð°
ĠÑī Ð°ÑıÐ»Ð¸Ð³Ð¾
ĠÐĲ ÑģÐº
ĠÑĨÐ¾ Ð´Ð°Ð³ÑĮ
ĠÐļ ÑĥÑĤÐ°ÐºÐ°Ð»Ð´Ð°
ĠÐł ÐĲ
ĠÐ³ÓıÐ°Ð´ Ð°ÑĤÐ°Ð±
Ð°Ð¶ Ð°Ð»Ð´Ð°
ĠÑĢÐ°ÑħÑĬ Ð°ÑĢÐ°Ð·
ĠÐ»ÑĬÑĥ Ð³ÓıÐ°Ð½
ĠÐ±Ð¸ÑĨ Ð¸Ð½ÑĩÓıÐ¾Ð³Ð¾
Ð°Ð±Ð°Ð·ÑĥÐ» Ð³ÑĥÐ½
ĠÐ±ÑĥÐºÓıÐ¸Ð½ Ð¸Ð»Ð°Ð½
ĠÐ»ÑĬÑĥÐ³ÑĮ Ð°ÑıÐ½
ĠÐ±Ð°ÑħÑĬ Ð°ÑĢÐ°Ð»
Ðł ÑĥÐ³Ð¾
Ð¾Ðº Ð°Ð»
Ð¡ Ðŀ
ĠÐļÑĬ ÑĥÐ²
ĠÑıÑģ Ð°Ð»Ð´Ð°
ĠÑĢÐµÑħ ÑĥÐ»Ð°
ĠÐ»ÑĬÐ°Ð¹ ÐºÑĮ
ĠÐ±Ð°ÑĢÐº Ð¸ÑıÐ»ÑĬÑĥÐ»Ð°Ð±
Ð¦ ÐµÐ±
Ð¦ ÓĢ
ĠÐ³Ð°Ð·ÐµÑĤ Ð°Ð³Ð¸
ÐµÑĨ Ð¸Ð½
ĠÐ±Ð¸ÑĩÓıÑĩÓı Ð¸ÐºÑĮ
ĠÐºÑĬÐ²Ð°ÑĢ Ð¸Ð´Ð°Ð±
ĠÑĢÐµÐºÓı Ð°ÑĢÐ°Ð±
ĠÐĲÐ± ÑĥÑģ
ĠÑĤÓĢ Ð¾Ð±
ĠÑħÓıÐ°Ð»ÑĤÓıÑĥÐ» ÐµÐ·
ĠÐ±ÑĥÑĤÓı Ð°Ð±Ð¸
ĠÐ±ÑĥÑĤÓı Ð°Ð»ÑĬÑĥÐ½
ĠÑħÐ¸Ñģ Ð¸ÑĩÓıÐ¾Ð³Ð¾
ĠÐ³ÑĬÐ¾ÑĢÐºÑĮ Ð¸ÑģÐ°
ĠÐ»ÑĬÐ°Ð± Ð°Ð±Ð¸Ð»ÐµÐ»
ĠÑĤÓıÑĥÑĢ ÑĩÑĩÐ¸
ĠÐ±Ð°ÑħÓıÐ°ÑĢ Ð·Ð°Ð·ÑĥÐ»
ĠÐºÐ¾Ð¼Ð°Ð½Ð´ Ð°Ð±Ð°Ð·Ð´Ð°
ĠÐ¶Ð¸Ð± Ð³Ð¸
ĠÑĢÐ¾ÑħÑĮ Ð¾Ð±
ĠÐºÐ¾Ð½ÐºÑĥÑĢÑģ Ð°Ð»
ĠÐ³ÑĮÐ°Ð±ÑĥÐ» Ð¸Ð½
ĠÐ³ÑĮÐ¾Ð±Ð¾Ð» Ð»ÑĬÐ¸
ĠÐ±Ð¸ÑħÑħ Ð¸Ð·Ðµ
ĠÐ±ÐµÐºÑĮ ÑĥÐ»ÐµÐ±
ĠÑĢÐ°Ð´Ð°Ð» Ð³Ð¾
ĠÐ³ÑĮÐ°Ð±ÑĥÑĢ Ð°Ð¹
Ð¾Ð³ÑĢÐ°ÑĦ Ð¸ÑıÐ»ÑĬÑĥÐ»
ĠÐ°Ð´Ð°Ð±Ð¸ÑıÑĤ Ð°Ð»Ð´Ð°
Ð°ÑĤÐ¸Ð² Ð¸ÑıÐ»
ĠÐľÑĥÑĢÑĤÐ°Ð·Ð°Ð³ÓıÐ°Ð» Ð¸
ĠÐ³ÓĢÐ°ÑģÑĢÑĥ ÑıÐ»Ð´Ð°
ĠÐ»Ð°ÑħÓıÐ· Ð°ÑĤ
ĠÐ¸ÑĩÓı Ð°Ð±Ð¸Ð»ÐµÐ±
Ð¥Ð°Ñģ Ð³Ð¾
Ð¥Ð°Ñģ Ð°Ð²ÑİÑĢÑĤ
ĠÑĦÐ¸Ð·Ðº ÑĥÐ»ÑĮÑĤÑĥÑĢ
ĠÐºÐ°Ð¿Ð¸ÑĤ Ð°Ð½
ĠÐĳÐ°Ð¹Ð±Ð¸ÑħÑĮ ÑĥÐ´Ð°
ĠÐºÓıÐ¸ÐºÑĬ Ð¾Ð³Ð¾
ĠÐºÐ¾Ð¼Ð¸ÑĤÐµÑĤ Ð°Ð»ÑĬ
Ð±Ð¸ÐºÑĬ Ð¸Ð½Ð°Ð±
ĠÐ³Ð¾ÑģÑĤÐ¸Ð½ Ð¸ÑĨ
ĠÐĴÐ¸Ð½ Ð¾Ð³ÑĢÐ°Ð´
" ).
Ð» ÐµÐ²
ÑĢ Ð¸Ñĩ
Ð°Ð» Ð¾Ð³
Ð½ Ð¾Ð²
Ð³ Ð°Ð·ÐµÑĤ
Ðº Ð¸Ð½Ð¸Ð»
ĠÐ± Ð³
Ð°ÑĢ ÑĥÐ»ÐµÐ»
Ð°ÑĢ Ð°Ð·Ð³Ð¸
ĠÑĢ Ð°Ð´Ð¸
Ñģ Ð¸Ð¼
Ð°Ðº Ð¾Ð²
ĠÐ¼ Ð¸ÑħÑĬ
ĠÐ³ÑĮÐµ ÑĤÓı
Ð°Ð¹ Ð¸Ñī
ĠÐ³ÑĮÐ°Ð± ÑĥÐ»Ð°ÑĢÐ¾Ð°Ð½
ĠÐºÑĬ Ð°Ð»ÑĬ
ĠÐĵÑĮ Ð°
Ð¾Ð² Ð°Ð½Ð¸Ðµ
Ð³ÑĮ ÐµÐ´
ĠÑĢÐµ Ð¿ÑĢÐµÑģÑģ
ĠÐĶ Ð¾Ñģ
ĠÐļ Ð°Ð¿
ĠÑĪ Ð¸Ð¼Ð°Ð»
ĠÑĢÐ°Ð¹ Ð¸Ñģ
ĠÑĢÐ°Ð¹Ð¾Ð½ ÑĨÐ¾ÑıÐ·Ð´Ð°
ĠÐ³ÓıÐ°Ð´Ð°Ð¼ Ð°ÑĨÐ°
ĠÐ³ÓıÐ°Ð´Ð°Ð¼ Ð°Ð·Ð´ÐµÑħÑĥÐ½
ĠÐ¿ÑĢ Ð°ÐºÑĤ
ĠÐ±Ð°ÑħÑĬ Ð¸ÑĩÓıÐ¾Ð³Ð¾
ÐĲ Ðĵ
ĠÐ°ÑħÓı Ð¸ÑıÐ»Ð´Ð°
ĠÐ°ÑħÓı ÑĥÐ»Ð°Ð°Ð½
ÐµÐ»ÑĮ ÑģÐ¾Ð²ÐµÑĤ
ĠÑĢÐ°ÐºÓı Ð³ÑĬ
ĠÑĨÓıÐ¸ÐºÓıÐºÓı ÑĥÐ½Ð°
ĠÐºÐ¸Ð½Ð°Ð» Ð´Ð°Ð³Ð¾
ĠÑħÐ² ÐµÐ·Ð°Ð±Ð¸
Ð°Ð·Ð°ÑĢ Ð¸Ð·Ðµ
ĠÐĵÑĮÐµÑģ Ð³Ð¸
ĠÐ±Ð¸ÑħÑĮÐ¸Ð·Ð°Ð± Ð¸ÑıÐ»Ð´Ð°
Ð¢ ÓĢ
ĠÐļÓı Ð°Ð»ÑĬ
ĠÐ²Ð°ÑĩÓı Ð°ÑĢÐ°Ð»Ð´Ð°ÑģÐ°
ĠÐ¶Ð°Ð²Ð°Ð± ÑĩÐ¸Ð»ÑĬÐ¸Ð³Ð¸
ĠÑĤÓıÐ°Ð¼ Ð°Ñħ
ĠÑĢÐµÑħÑģ ÐµÐ¹
Ġ4 9
ĠÑģÐ¿Ð¾ÑĢÑĤ Ð°Ð»ÑĬÑĥÐ»ÑĬ
ĠÑĤÓıÐ¾ÑĢÐ¸ÑĤÓı ÑĥÐ½
ĠÑĢÐ¸ÑħÑĮ Ð¸Ð´Ð°Ð»
ĠÑĨÓĢ Ð°ÑĢÐ°Ð»Ð´Ð°
ÑħÓıÐ°Ð» ÑĤÓı
19 6
ĠÐľÑĥÑģ Ð°ÑĨÐ°
ĠÐŀ Ð½
Ġ7 7
ĠÐ²Ð°ÑĨ Ð°Ñģ
ĠÐ³ÑĬÑĥÑĢÑĥÑī Ð°Ð»Ð´Ðµ
ĠÐĵÓĢ ÑĥÑģÐ¼Ð°Ð½
ĠÐ°Ð´Ð°Ð± Ð³Ð¸
ĠÐĲÐ²Ð°ÑĢ Ð°Ð·ÑĥÐ»
ĠÐ°Ðº ÑĥÑĪ
ĠÐ°Ð½ÐºÑĮ Ð°Ð»Ð´Ð°
ĠÐ·Ð°ÑħÓıÐ¼ Ð°Ð»ÑĬÑĥÐ»ÐµÐ±
ĠÐ³ÑĮÐ°Ð½Ð¸Ð± Ð³Ð¸
ĠÐ³Ð¾Ñĩ Ð¸Ð½Ðµ
ĠÐ±Ð°Ð» Ð°Ð³Ð¾
ĠÐ±ÑĥÑħÑĮÐµÐ½ Ð°Ð»ÑĬÑĥÐ»
ÑĢÑĥÐ· Ð´Ð°
ĠÑĢÑĥÐ³ÑĮÑĥÐ½ Ð°Ð±
ĠÐĵÓıÐ°ÑĢ Ð¸Ð¿
ĠÐ¥ÓĢ Ð°Ð¶
ĠÐºÑĬÐ°Ð½ÑĥÐ½ Ð°Ð»ÑĬÑĥÐ»
ĠÑĤÐ°Ð¹Ð¿ Ð°Ð±Ð¸
ĠÑĤÐ°Ð¹Ð¿ Ð°Ð±Ð°Ð·ÑĥÐ»
ĠÐ´Ð°Ð³ÑĮÐ°Ð» Ð³Ð¾
ĠÐ³ÑĬÐ²Ð°ÑĢ Ð¸Ð´Ð°Ð»
ĠÑĤÓıÑĥÐ±Ð°Ð·Ð°Ð± ÑĥÐ½Ð°
ĠÐ°Ð¿ÑĢ ÐµÐ»
ĠÐĳÐ°ÑĤ Ð¸ÑĢÐ¾Ð²
Ġ193 9
ĠÑĨÓıÐ¸Ð³ÑĮ Ð°Ð±Ð¸Ð·Ðµ
ĠÑĩÓıÐµÐ³ÓıÐµÑĢ ÑħÓıÐ°Ð¹Ð²Ð°Ð½
ĠÐĵÓıÐ°Ð´Ð°Ð¼ Ð°Ð·Ð´Ð°
ĠÐ±ÐµÑĨÓı Ð°Ð±
ĠÐŁÐ°ÑĢ Ð¸Ð¶
ĠÐ¼ÐµÑĤ ÑĢÐ°Ð»ÑĬ
ĠÐ°ÑĤ Ð»ÐµÑĤ
ĠÐ²Ð°Ð³ÑĬ Ð¸Ð·Ðµ
ĠÑĩÐ°Ð± Ð°Ñħ
ĠÐĴÐ°Ð» Ð»Ð°Ð³ÑĮ
ĠÐ³ÑĮÑĥÐ½ Ð°ÑĢÐ°Ð»
ĠÐ¡Ð°Ð³ Ð¸ÑĤÐ¾Ð²
ĠÐºÐ°ÑĤÐµÐ³Ð¾ÑĢ Ð¸ÑıÐ»ÑĬÑĥÐ»
ĠÐ³ÓıÐµÐ¼ÐµÑĢÐ¸Ñģ ÐµÐ·Ð´Ð°
ĠÑģÐ°ÑĢ Ð´Ð°Ð»
ĠÐ±ÐµÑĤÓıÐµÑĢÐ±Ð°ÑħÑĬ Ð¸
ĠÐ³ÑĥÑĢÐ³ Ð¸Ð½Ð°Ð±
ĠÐ¢Ð¾Ð»ÑģÑĤ Ð¾
ÑĢÐµÐºÓı ÐºÓı
o r
Ġ L
Ġ S
Ð» Ð¸ÑħÑĬ
ÑĢ Ð°Ð¹Ð¾Ð½Ð°Ð»ÑĬÑĥÐ»
Ð½ Ð¸Ð¶
Ð³ Ð°Ð·
Ð³ Ð¸ÑħÐ°
ĠÐ± Ð°Ð±
ĠÐº Ð»Ð°Ñģ
ĠÑĢ Ð¸ÑĤÓĢ
ĠÑĢ Ð¸Ð»ÑĬÐ»ÑĬÑĥÐ½
ĠÑĤ ÑĭÐ»
ÑĥÑĢ Ð¸ÑħÑĮ
ĠÐ» Ð°Ð»
ĠÐ»ÑĬ Ð¾Ð±Ð°
Ð¸Ñģ ÐµÐ·Ðµ
ÐµÐ½ ÐºÐ¾
Ð³Óı Ð¾
ĠÑĩ Ð¸Ð´
ĠÐł Ð¾ÐºÑĮ
Ð¸Ð´ Ð¶
ÑĥÑħÓı ÑĥÐ½
ĠÑĩÓı ÐµÑĩÓıÐ¾
ĠÐĳ Ð¸Ñģ
ĠÑĢÑĥÐºÓı Ð°Ð½Ð¸Ð»Ð°Ð½
ĠÑĤÓıÐ°Ð´ ÑĩÓı
ĠÐ³ÑĮÐµÑģ Ð´ÐµÑħÑĥÐ½
Ð¸ÑĩÓı Ð¸Ð»Ð°
ĠÑĥÐ½ Ð°ÑĢÐµÐ±
ĠÐ¦ ÐµÑĢÐµÑģÐµÐ»
ĠÐ»ÑĬÐ¸ÐºÓı Ð¸Ð»Ð°Ð½
Ð°ÑĢÐ°Ð² Ð³Ð¸
Ð¾ÑĨ Ð¾ÑģÐ°
Ð¾ÑħÑĬ Ð°Ð½
Ð¾Ð²Ð°Ñģ ÑĥÑħÑĬÐµ
ĠÑĪÐºÐ¾Ð» Ð°Ð»Ð´Ð°Ð³Ð¸
ĠÐ¶Ð¸Ð½Ð´ Ð¸
ĠÑĢÐ°Ð³Óı Ð°Ð´
ĠÑĢÐ°Ð³Óı Ð¸Ð´Ð°Ð»
ĠÐ³ÓıÑĥÑĨÓı Ð°ÑĢÐ°Ð·ÑĥÐ»
Ð¡ Ð¾Ð½
ĠÑĤÓıÐ¾Ð±Ð¸ÑĤÓı ÑĥÐ»Ð°
ĠÐ³ÑĮÐµÐ»ÑĬÑĥÐ» Ð³Ð¸
Ð¸Ð½Ð° Ð°Ð½
ĠÐ±ÑĥÐºÓıÑĥÐ½ Ð°ÑĢÐµÐ±
ĠÐ°ÑħÐ¸ÑĢ Ð°ÑĤÐ°Ð»ÑĬÑĥÐ»
ĠÐĲÑħÓıÐ¼Ð°Ð´ Ð¸Ðµ
ĠÑħÓıÐ°Ð»ÑĤÓıÑĥÐ» ÐµÐ·ÑĥÐ»
ÑĤÓĢ Ð°Ð½
ĠÐ³ÑĬÐ¾ÑĢÐºÑĮ Ð»ÑĬ
ĠÑĩÓıÐ² Ð°ÑıÐ»ÑĬÑĥÐ»
ĠÐ¤ Ð¸Ð½
ĠÑĨÐ¾Ð³Ð¸Ð´ Ð°Ð·ÑĥÐ»Ð³Ð¸
Ð³ÓĢ Ð°Ð½Ð°Ð±
Ð±Ð°ÐºÑĬ Ð°Ð»ÑĬÑĥÐ»
ĠÐ±Ð°Ð¹ÑĢÐ°Ð¼ Ð°Ð»
ĠÑĤÓıÑĥÑĢ Ð°Ð½Ð³Ð¾
ĠÐ°ÑģÐ°ÑĢ Ð°Ð»Ð´Ð°
ĠÑģÑĥÐ½ Ð´Ð°
ĠÐ±Ð°Ð³ÑĮ Ð°ÑıÐ±
ĠÐºÐ¾Ð´ Ð¾ÑĢÐµ
ĠÐ¸Ð½ÑĦ ÑĢÐ°ÑģÑĤ
ĠÑĪÐ°Ð³ÓıÐ¸ÑĢ Ð·Ð°Ð±Ð¸
ĠÐ·Ð°ÐºÐ¾Ð½ Ð°Ð»ÑĬ
ĠÑĩÓıÑĥÑħÓı Ð°ÑĢÐ°Ð±
ĠÐ³ÓıÐµÐ»Ð¼Ñĥ Ð³Ð¸
ĠÑħÑĬÐ¸Ð·Ð°Ð¼ Ð°Ð»ÑĬÐµ
ĠÐ³ÑĬÑĥÑĤ Ð°Ð±Ð°Ð·Ð´Ð°
ĠÐ³ÑĮÑĥÐºÑĬ Ð¸Ð·Ðµ
ĠÐ¾ÐºÑĤ ÑıÐ±ÑĢÑĮ
ĠÐ½Ð¾ ÑıÐ±ÑĢÑĮ
ĠÐļÐ°Ð· Ð°Ñħ
ĠÐľÐ°Ð³Ð¾Ð¼ÐµÐ´ Ð¾Ð²
ĠÑĩÐ»ÐµÐ½ Ð»ÑĬÑĥÐ½
ĠÑħÓıÑĥÑħÑĮÐ±Ð°ÑħÑĬ Ð¸ÑıÐ»ÑĬÑĥÐ»
ĠÑĦÐ¸Ð· Ð¸ÐºÐ°ÑıÐ»ÑĬÑĥÐ»
ĠÐ²Ð¸Ð´Ðµ Ð¾Ðº
ĠÐ±Ð°Ð´ Ð¸Ð±Ðµ
ĠÑģÑĥÐ½Ð´ ÑĥÑħÑĬ
ĠÐºÑĮÐ²Ð°ÑĢ ÑĥÐ½
ÐµÑĢÐº ÐµÑģ
ĠÑĢÐ¸Ñħ ÑħÑĥÐ½
ĠÐĲÑĢÐ¼ Ð¸ÑıÐ»Ð´Ðµ
ĠÐ³ÓıÑĥÑħÑĮ Ð±Ð¸
ĠÐ¢ÓıÐ¸ÑģÑģÐ¸ Ð°ÑħÐ¸ÐºÑĮ
ĠÐ¥Ð°Ð·Ð°Ð¼ Ð¾Ð²
ĠÑĦÐ°Ð¼Ð¸Ð» Ð¸Ñı
ĠÐĲÐ»ÑĮ Ð±
ĠÐºÐ²ÐµÐºÓı ÐµÐ½Ð°Ð»
ĠÐºÐ°Ð»ÐµÐ½Ð´ Ð°ÑĢÐ°Ð»Ð´Ð°
ĠÐļÑĬÐ°Ð½ ÑĥÐ½
ĠÐ¢ÓıÐ¾Ð»Ð± Ð¾ÐµÐ²
ÐļÑĬÑĥÑĢ ÑĬ
ÐŁÑĢÐ¸Ð· Ð°Ð»ÑĬÑĥÐ»Ð°Ð»
ĠÐ³Ð¾ÑģÐ¿ Ð¸ÑĤÐ°Ð»
ĠÐĳÐµÐ»Ð¾ÑĢ ÑĥÑģÑģ
3 8
Ðµ ÐµÑģÐµÐ¹
Ð» Ð°Ðº
ÑĢ Ð°Ð»ÑĬÑĥÐ»
Ð½ Ð¸ÑĨ
ĠÐº Ð°Ñĩ
ĠÐº ÑĥÑĤ
ĠÐº Ð¸ÑĨÐ¸
Ð² ÐµÐ¹
Ñħ Ð°Ð½Ð°
Ñħ Ð¾Ñĩ
ĠÐ² Ð·
ĠÐ² Ð°ÑĤÓıÐ°
Ð¸Ð· Ð°ÑĢÑĥÐ»
ĠÐ»ÑĬ ÐµÐ»Ð°
ĠÐ´ Ð¸ÐºÑĤ
ĠÑģ ÑĥÐ¼
ÐºÑĬ Ð¾Ð³Ð¾
ĠÐºÐº Ð°ÑĢÐ°Ð¹
ĠÐľ ÑħÓı
ĠÑĢÐ¾Ñģ ÑĥÐ»Ð°
ĠÐļ Ð¸Ð±
ĠÐł Ð£
ĠÑħÑĬ Ð°Ð½Ñĩ
ĠÐĳ Ð¸Ð»
ĠÐ³ÑĬ Ð°Ð·Ð°Ð²
ĠÑį Ð·
ĠÐ³ÑĥÑĢ ÑĥÐ½
ĠÐºÐ² Ð°ÑģÑĥÐ»
Ð°Ð½Ð¸ Ð´Ðµ
ĠÐ±ÑĥÐºÓıÐ¸Ð½ Ð°Ð»Ð´Ðµ
ĠÐ±ÐµÑĢ Ð°Ð·ÑĥÐ»
ĠÑĨÐ¾Ð³Ð¸ Ð³Ð¸
ĠÐ³ÓıÑĥÐ¼ÑĢÑĥ Ð´ÑĥÐ»ÑĬ
ĠÑĢÐ°Ð³Óı Ð°Ð±Ð°Ð·
ĠÐ±Ð¾ÐºÑĮ Ð¸Ð»ÐµÐ±
ĠÐ¶Ð°Ð½ Ð°Ð·
ĠÐłÐ¾Ñģ Ð¿Ð¾ÑĤÑĢÐµÐ±Ð½Ð°Ð´Ð·
ĠÐ»ÑĬÐ¸Ð¼Ð°Ð» Ð°Ð·Ð´Ð°ÑģÐ°
ĠÐ°Ð² Ð°ÑĢÐ°Ð»
ĠÑħÐ°Ñģ ÑģÐ°Ð±
ÑģÑĤ Ð°Ð½Ð°Ð»ÑĬÑĥÐ»
ĠÑħÑĮ ÑĥÑħÑĮ
ĠÐ°Ð½ ÑĤ
ÑıÐ± Ð³Ð¾
ÐĿ Ð°ÐºÓıÐºÓı
ĠÑıÑģ Ð°Ð·Ð´Ð°
ĠÑĥÐ½ÑĤ Ð¸ÑıÐ»ÑĬ
ĠÐ¼Ð°Ð³ÓıÐ°ÑĢÑĥÐ» Ð°Ð¹
ĠÐ»ÑĬÐ°Ð·Ð°Ð± ÑĥÐ»Ð°
ĠÑĤÓıÐ°Ð¼ ÑĥÐ»ÐµÐ²
ĠÑĤÓĢ Ð°Ð±Ð¸Ð³ÓĢ
ĠÑģÐ¿Ð¾ÑĢÑĤ ÐºÐ¾Ð¼
ĠÐ¥ÓıÐ°Ð¼Ð·Ð°ÑĤ Ð¾Ð²Ð°Ð»ÑĬ
ĠÐ±Ð°ÐºÑĬ Ð»ÑĬÑĥÐ»
ĠÑĤÓıÐ°Ð»Ð°Ð± Ð°Ð»Ð³Ð¸
ĠÑĢÐ¾ÐºÑĮ ÑĥÐ»Ð°
Ðĸ Ð¸Ð²
ĠÑħÓıÐ°ÑĢÐ°ÐºÐ°ÑĤ ÑĩÐ¸Ð»ÑĬ
ĠÑĥÐ»Ðº Ð°ÑıÐ»ÑĬÐµ
ĠÐ³ÓıÐ°Ð´Ð°ÑĤ Ð°Ð·ÑĥÐ»
ĠÐ¿ÑĢÐ¾ Ð¸Ð·Ð²Ð¾Ð´
ĠÐ±Ð¾ÑĢÑħ ÑĥÐ»ÐµÐ±
ĠÑĤÓıÐ°Ð³Óı Ð¸Ð½Ðµ
Ð»ÑĬÐ¸Ð·Ðµ Ð³ÓıÐ°Ð½
ĠÑħÓıÑĥÑĢÐ¼Ð°ÑĤ Ð³Ð¸
ĠÑĢÐµÑĤÓı Ð¸Ð½Ðµ
ĠÑħÐ°ÑģÐ°Ð» Ð¸ÑħÑĬ
ÑĨÐ¸Ñı Ð³Ð¸
ĠÐ·Ð°ÑĢÐ°Ð» Ð°Ð»ÑĬÑĥÐ»
Ð°Ð·ÑĥÑħÑĬ Ð³Ð¸
ĠÐºÐ²ÐµÑĢÐ±Ð°ÐºÑĬ ÑĥÐ»ÐµÐ±
ĠÐ²Ð¸ÑħÑĮ ÑĥÐ½
ĠÐ¸Ð´Ð°ÑĢ Ð°ÑıÐ»Ð´Ðµ
Ð°Ð·Ð´Ð°Ð»ÑĬÑĥÐ½ Ð³Ð¸
ĠÐºÑĮÑĥÑĩÓı Ð´Ð°ÑģÐ°Ð½Ð³Ð¾
ĠÐºÑĬÐµÑĢÐºÑĮ Ð¾Ð»ÐµÐ»
Ð¸Ð·Ð°Ð² Ð¸Ð·Ðµ
ĠÐ±Ð°ÑĩÑĩ ÑĥÐ»ÐµÐ±
ĠÐĵÑĬÐ¾ÑĢÐºÑĮ Ð¸ÑıÐ±
ĠÑħÑĬÐ²Ð°Ð´Ð°ÑĢÑĥÑħÑĬ Ð°Ð±Ð¸
ĠÐºÐ°Ð¼Ð¸Ð» Ð°Ð»
ĠÐºÑĮÐ¾ ÑıÐ»
ĠÐ±ÐµÐºÑĮ Ð¸Ð·Ðµ
ĠÐ£Ð¼ ÑĥÐ¶
ĠÐ¸ÑĢÑģ Ð¸Ð»Ð°Ð»
Ð±ÐµÐ³ Ð¸ÑĨÐ°
ĠÐĶÐ¸Ð»Ð¸Ð¼ Ð°Ð»Ð´Ð°ÑģÐ°
ĠÐĵÓıÐ°Ð¹ÑĪ Ð°ÑĤÐ¸ÑĨÐ°
ĠÑĢÐ¾ÑĢÑħ Ð°ÑĢÐ°Ð»
ĠÐ¥ÓıÑĥÐºÑĥÐ¼ Ð°ÑĤÐ°Ð»ÑĬ
ĠÐ°ÑģÐ»Ð¸ÑıÐ» Ð»ÑĬÑĥÐ½
ĠÐ£Ð» ÐºÐ°ÑıÐ»ÑĬÑĥÐ»
ĠÐ·Ð°Ð²Ð¾Ð´ Ð°Ð»Ð´Ð°
ĠÐ³ÓıÐ¾Ð»Ð°ÑĢÐ¾ Ð³Ð¾
ĠÐ¿Ð¾Ð»Ð¸ÑĨ Ð¸ÑıÐ»Ð´Ðµ
ĠÐ¾ÑĢÐ³Ð°Ð½Ð¸Ð·Ð°ÑĨ Ð¸ÑıÐ±Ð°Ð·Ðµ
ĠÐ¼ÑįÑĢ Ð»ÑĬÑĥÐ½
ĠÐºÑĥÑĢ Ð¾ÑĢÑĤ
ĠÐŁÑĢÐµÐ·Ð¸Ð´ÐµÐ½ÑĤ Ð°ÑģÑĥÐ»
ĠÐºÑĬÐ²Ð°ÑĤÓĢ Ð¸Ð±Ðµ
ĠÐ°Ð²Ð°Ð´Ð°Ð½ Ð»ÑĬÐ¸
Ð±ÑĥÐ»Ð°ÑĤ Ð¾Ð²
Ð°Ð¾ Ñĩ
ÐĳÐµÑĢ Ð³ÑĮ
ĠÑħÐ°ÑģÐ» Ð¸ÑħÑĬ
ĠÑĩÐ¸Ñı Ð´Ð°
ĠÐ¾Ð±ÑīÐµÑģÑĤÐ²Ð¾ ÑıÐ»ÑĬÑĥÐ»
ĠÐ´ÐµÐºÐ°Ð±ÑĢ ÑĮ
ĠÐĺÐ½Ñģ ÑĥÑĨÐ°
ĠÐ¤Ð¡ ÐĳÑıÐ»ÑĬÑĥÐ»
ĠÐ¸Ð¶Ð°ÑĢ Ð°ÑıÐ»ÑĬÐµ
ÐĿÐ¾Ð² Ð¾Ðµ
ĠÑĦÐµÑĢ Ð¼Ð°
3 7
s t
ÑĢ Ð°Ð³ÑĬ
Ð½ Ð°Ð±
ÑĮ ÑıÐ½
ĠÐ³ ÑĥÐ±ÐµÑĢÐ½
Ð°ÑĢ Ð°Ð½Ð°
Ð»ÑĬ Ð¸ÑıÐ»Ð´Ð°ÑģÐ°Ð½
ÑĤ Ð°Ð»Ð´Ð°
Ð¼ Ð°Ð¹
Ð¼ Ð¾Ñħ
ĠÑħ Ð°ÑĤÓı
ĠÐ² Ð¸ÑĢÑĥÑģ
ĠÐ² Ð¸Ð»ÑĬÐ»ÑĬÐ°Ð½Ð°
ĠÑĤ Ð¾Ð»Ð°ÑĢÐµÐ±
Ð°Ðº ÑĤÐ°Ð»
ĠÐ» Ð¸Ð½
ĠÐ»ÑĬ Ð¾Ð»
ĠÐ»ÑĬ ÐµÑıÐ»ÑĬÑĥÐ»
ĠÐ´ ÐµÑĤ
ĠÐ´ Ð¾Ð²Ð°
ĠÑģ ÐµÐ·
ĠÐ½ Ð¸
ĠÐ½ ÑĥÐ¼Ð°Ð»ÑĬÑĥÐ»
Ð°Ð³Óı Ð°Ð½Ð°
ĠÐºÐº Ð°ÑĢÐ°Ð»ÑĬ
ĠÐ¿ Ð¾Ð·Ð¸ÑĨ
ĠÐľ Ð¸ÑĤÓı
ĠÐľ Ð°Ð³ÓĢ
ĠÑħÓı ÐµÐ±
ĠÑħÓı Ð¸Ð½ÑĩÓı
ĠÑħÓıÐ°Ð» Ð°Ð»ÑĬÑĥÐ»
ĠÑĨÐ¾ Ð°Ð±Ð¸Ð»ÐµÐ±
Ð¾Ð± Ð¾Ð»
ĠÐł Ð°ÐºÑĬ
ĠÐł ÐµÐºÑĬ
ĠÑģÐ¾Ð½ Ð°Ð»ÑĬÐµ
ĠÐĵÓı Ð°Ð´Ð°Ð½
ĠÐĵÓı Ð¾ÑĩÓı
ĠÑĩÓı Ð¾Ð»
ĠÑīÐ² Ð°Ð½Ð¸
ĠÐĿ ÑĥÑģ
ĠÑĨÓıÐ°Ð» ÑĥÐ´Ðµ
ĠÑħÐ°Ð» Ð³Ð¸
ĠÐ³ÑĮÐµÑĩÓı Ð¸ÑīÑħÐ°
ÐĶ Ð¸Ð½
ĠÐ±Ð°ÑħÑĬ ÑĥÐ»Ð°Ð³Ð¾
ÐĲ Ðł
ĠÑīÐ¸Ð± Ð¸Ð»Ð°Ð½
ĠÐ³ÓĢ ÑĥÐ½
ĠÐ°Ð² Ð°Ð´
ĠÐ»ÑĬÐ°Ð» Ð°ÑĢÐ¸Ð½
ĠÐºÐ¾Ð¼ Ð¼ÐµÐ½ÑĤ
ĠÐ±Ð°ÑĤÓı Ð¸ÑıÐ²
ĠÑıÑģ Ð°Ð·Ðµ
ĠÐĵÓıÐ°Ð» Ð¸ÑħÐ°Ð½
ĠÐ¥ÓıÐ°Ð¶ Ð¸ÑıÑģÑĥÐ»
ĠÐľÐ°ÑħÓı Ð°Ð½Ð´Ð¸Ð»
ĠÐ±ÑĥÐºÓıÑĥÐ½ ÐµÐ»ÑĬÑĥÐ»
ĠÐ´Ð°Ð½Ð´ ÑĢ
ĠÐ© Ð²Ð°Ð½Ð°
Ðĺ Ðĳ
ĠÐ¶Ð°Ð²Ð°Ð± Ð¸ÑıÐ±
ĠÑĤÐ°ÑĢÐ¸Ñħ Ð°Ð»Ð´Ðµ
ĠÐ°Ð´Ð¼Ð¸Ð½Ð¸ÑģÑĤÑĢÐ°ÑĨ Ð¸Ñı
ĠÐ¶Ð°Ð¼Ð°Ð³ÓıÐ°ÑĤ Ð³ÑĥÐ½
ĠÐ³ÑĮÐµÐ´Ð¸Ð½ Ð°Ð·ÑĥÐ»
ĠÐ´ÑĥÐ½ÑıÐ» Ð°Ð»Ð´Ðµ
Ġ7 8
ĠÐ±ÑĥÐºÓĢ Ð°Ð½Ð¸Ð³Ð¸
Ð£ Ð½ÑĤ
ĠÐ±Ð¾ÑĢÑħ Ð¸Ð·Ð°Ð±Ð¸Ð·Ðµ
ĠÑĨÐ¾ÑĨ Ð°Ð·Ð´ÐµÑħÑĥÐ½
ĠÐľÑĥÑħÓı ÑĥÑĩ
ĠÐ±Ð¸ÑĨÑĥÐ½ ÐµÐ²
ĠÐ³ÓıÐ°Ð»Ð¸Ð¼ Ð·Ð°Ð±Ð¸Ð³Ð¸
ĠÐļÐ°Ð²ÐºÐ°Ð· Ð°Ð»Ð´Ð°ÑģÐ°
ĠÐ±ÑĥÑģ Ð°Ð´Ð°
ĠÐ°Ð½ÐºÑĮ Ð°Ð±Ð¸Ð»ÐµÐ±
ĠÐĵÑĬÐ°Ð· Ð¸
ĠÐ±ÐµÐ³ÑĮÑĥÐ» Ð¸Ñī
ÑĢÐ°ÑħÑĬ Ð°Ð»Ð´Ðµ
ĠÑĪÐ°Ð³ÓıÐ¸ÑĢ Ð°Ñģ
ĠÐ¿ÑĢÐµÐ·Ð¸Ð´ÐµÐ½ÑĤ Ð»ÑĬÑĥÐ½
ĠÑħÐµÑħ Ð»ÑĬÐ¸
ĠÐ³ÑĢÐ°Ð¼ Ð¼Ð°ÑĤ
Ġ194 0
ĠÐ³ÓĢÑĥÑĨÓĢ ÑĥÐ½
ĠÐ¨Ð°Ð³ÑĮ Ð°ÑĢÐ°Ð»ÑĬÑĥÐ»
ĠÐ¿Ð°ÑĪÐ¼Ð°Ð½ Ð³Ð¾
ĠÐĶÐ¾Ð± Ð°
ĠÐ¿ÑĢÐ¾Ð³ÑĢÐ°Ð¼Ð¼ Ð°ÑıÐ»ÑĬÑĥÐ»
ĠÐºÐºÐ¾Ð»Ð°ÑĢÐ¾ Ð°Ð½
ĠÐ¼Ð°ÑĪÐ¸Ð½ Ð°Ð³Ð¸
ĠÐºÑĬÐ°Ð´ÑĢÑĥ ÑıÐ±
ĠÐºÐ°ÑĢ Ð°Ð½
ÐľÑĥÑħÓıÐ°Ð¼Ð°Ð´ Ð¾Ð²
ĠÑģÑĥÑĢÐ°ÑĤ Ð°Ð»Ð³Ð¸
ĠÐłÐ°Ð¶ Ð±
ĠÐºÑĬÐ¾ÑıÐ» Ð´Ð°Ð³Ð¸
ĠÐĳÑĥÐ¹Ð½Ð°ÐºÑģÐº Ð¸ÑıÐ»Ð´Ð°
ĠÐĺÑģÐ¼Ð°Ð³ÓıÐ¸Ð» Ð¾Ð²
ĠÐ±Ð°ÑĩÓıÐ¸Ð½ Ð°ÑħÑĬÐµÐ³Ð¾
ĠÑĢÐ¸ÑĪ Ð²
ĠÐ³ÑĮÐ¸Ð¼ Ð¸
ĠÑħÐ²ÐµÐ·Ð°ÑĢ ÑĥÐ½
ĠÐ¿Ð¸ÑĢ Ð³ÓĢ
ĠÐ¼Ð°ÐºÑĮ Ð¸Ð»ÑĬ
ĠÑĩÓıÐ¾Ð±Ð¾Ð³Ð¾ ÑıÐ±
ĠÐĲÑĦÐ³ÑĬÐ°Ð½ Ð¸ÑģÑĤÐ°Ð½Ð°Ð»ÑĬÑĥÐ»
ĠÐ²ÑĥÐºÓıÐ¸Ð½ÑĩÓı ÐµÐ²
ĠÐ¿Ð»Ð¾ÑīÐ°Ð´ ÐºÐ°
ĠÑĤÐ°Ð¼Ð°Ñħ Ð°Ð±
ĠÐ¼Ð°Ð²Ð» Ð¸Ð´Ð°Ð»
ĠÐŀÐŀ Ðŀ
ÑģÑĥÑĢ Ð°ÑĤ
ĠÐ¿ÑĢÐ¾ÑĤ Ð¾ÐºÐ¾Ð»
ĠÐ¡Ð¸Ð±Ð¸ÑĢ Ð°Ð»Ð´Ðµ
ĠÐľÐ¸Ðº Ð°Ð³ÓıÐ¸Ð»
ĠÐºÐ¾Ð½ÑĦ Ð»Ð¸Ðº
ĠÐľÐ¤ Ð¦
ĠÐĵÐ¸Ð½Ð¸Ñĩ ÑĥÐºÑĮ
ĠÐºÐ¸Ð»Ð¾Ð¼ÐµÑĤ ÑĢÐ°Ð»ÑĬ
ÑĥÐ» Ð³Óı
Ð°Ð± Ð·
Ð°ÑĢ Ð»ÑĬÑĥÐ½
ĠÐ³ÑĮ Ð¾Ð¹
Ð»ÑĬ Ð¸ÑıÐ»
Ð¸Ð½ Ð°Ð³Ð¸
ĠÐ³Óı Ð°Ð³Ð¸
ĠÐ² ÐµÐ»ÑĬ
ĠÐ² Ð¸Ð»ÑĬÐ»ÑĬÑĥÐ½
ĠÐ» ÑĥÐ³
ĠÑģ Ð¾ÐºÓı
Ð°Ñı Ñģ
ĠÐºÑĬ ÐµÐ±Ðµ
Ð¶ ÑĥÑĢÐ½Ð°Ð»
ĠÐ¿ Ð¾Ð²
ĠÐľ Ð°ÑĢÐ¸Ð½
ĠÑħÓı Ð°
Ð¿ Ð¸ÑģÐº
ĠÑĢÐµ Ð»ÑĬÐ°ÑĢÐ°Ð»
ĠÑĩ Ð¾ÑħÑĮ
ĠÐł Ð°ÑĤ
ÑħÑĬ ÐµÑĢ
Ð°Ñĩ Ð°Ð³Óı
ĠÑĪ Ð¸Ð³ÓĢ
ĠÐ³ÑĮÐµÐ» Ðµ
ĠÑĢÐ°ÑħÑĬ ÑĥÐ»Ð°
ĠÑĢÐ°ÑħÑĬ ÐºÐºÐ²
ÐĵÑĮ Ð°Ð´
ĠÐĿ Ð°Ñħ
ĠÐ²ÑĥÐºÓı Ð°Ð½Ð¸Ð»Ð°Ð½
ÐĶ Ð°Ð½Ð´
ĠÐ±Ð°ÑħÑĬ Ð¸Ð»Ð°
Ð°Ð¿ Ð°Ð½Ð´Ð¸
ĠÑīÐ¸Ð± Ð¸Ð·Ðµ
ĠÐĸ Ð°Ð²Ð°Ð±
ĠÐ³ÑĮÐµÐ² Ð³Ð¾
ĠÑħÐ°Ñģ Ð¸ÑıÑĤÐ°Ð»ÑĬÑĥÐ»
Ġ19 10
ĠÐ°Ð¼ Ð°Ð½Ð°ÑĤ
ĠÐ²Ð°Ñģ Ð°Ð·Ð´Ð°
ĠÑħÑĥÑĤÓı Ð¸
ĠÐºÑĬÐ°Ð´ Ð³Ð¸
Ð¾Ñĩ ÓĢ
Ð¾ÑĨÓı Ð¸
Ð¸ÐºÑĮ Ð°
ĠÑģÐ°Ñħ Ð°Ð»
ĠÑĤÓıÐ°Ð¼ ÑĥÑĢÐ°Ð»
ĠÑĢÑĥÐºÓıÐ¸Ð½ ÐµÐ»
ĠÑħÐ¸Ñģ Ð¸Ð·Ð°Ð±
ĠÑħÐ°Ð± Ð°Ð´Ð°
Ð°Ð´ÑĥÐ» Ð°Ð»
ĠÐŀ ÑĦÐ¸ÑĨ
Ġ7 6
Ð°ÑĢÐ°Ð·ÑĥÐ» Ð³Ð¸
ĠÐºÑĬÐ°ÑĩÓı Ð°Ð¹
Ġ9 7
ĠÐ³ÑĮÐ¸ÐºÑĬ ÑĥÐ»Ð°
Ð°ÑĤÑĥÑĢ Ð³
ĠÐ±ÐµÐ³ÑĮÑĥÐ» Ð°ÑĢÐ¸Ñī
ĠÑħÐ°Ð´ÑĥÐ² Ð³Ð¸
ĠÑĢÐ¾ÑħÑĮ Ð°Ð·Ð´Ð°
ĠÐ³ÑĮÐ°Ð±ÑģÐ°Ð³ÓıÐ°ÑĤ Ð³Ð¸
ĠÐļÑĮ Ð¾ÑħÑĬ
ĠÑĢÐ°Ð³ÓĢ Ð°Ð±Ð¸
ĠÑģÐ² Ð¸Ð½Ð°Ð±Ð¸Ð·Ðµ
ĠÐ±Ð°ÐºÓĢ Ð°Ð»ÑĬÑĥÐ»
ĠÑĤÐµÑħÐ½Ð¸Ðº ÑĥÐ¼
ĠÐºÑĮÐ°Ð± Ð¸Ð·Ðµ
ĠÐ¸Ð¼Ð°Ð½ Ð³Ð¸
ĠÐ²Ð°Ð»Ð°Ð³ÑĮ Ð¸Ð·Ðµ
ĠÐĶÐ¶ Ð°Ð¼Ð°Ð»
ĠÑĤÓıÐ¾Ð»Ð³Ð¾ ÑĢÐ¾ÑģÑģÐ¸ÑıÐ»ÑĬÑĥÐ»
ĠÐĽÑĬÐ¸Ð¼Ð°Ð» Ð°Ð·Ðµ
ĠÑħÓıÐ°Ð»ÑĥÑĨ Ð¸Ð½
ĠÐĳÐ¸ÑĨ ÑĥÐ½ÐµÐ±
ĠÐ¼Ð°ÑħÑģ Ð°ÑĢÐ°
ĠÐĳÐ¸ÑħÑĮ Ð¸Ð½
ĠÑĤÑĥÐ¼ Ð°Ð·ÑĥÐ»
ĠÐĲÑĢÐ¼ Ð¸ÑıÐ»Ð´Ð°
ĠÐ³ÓıÐ¸Ð± Ð°Ð´
Ð±Ð¾Ð¶ Ð°ÑĢÐ°Ð»
ĠÐĺÐ´ÑĢÐ¸Ñģ Ð¾Ð²
ĠÐ´Ð¸Ð´Ðµ ÑħÑĥÐ½
ĠÐłÐ¾ÐºÑĬ Ð¾Ð±
ĠÑħÑĬÐ°Ð¼ ÑĥÐ½
ĠÐĲÐ·ÐµÑĢÐ±Ð°Ð¹ Ð¶Ð°Ð½
ĠÐ¼Ð°Ð»ÑĬÑĥÐ»Ð° Ð°Ð½
ĠÐĲÑģÐ°Ð´ ÑĥÐ»Ð°
ĠÐºÐ²ÐµÐºÓı ÐµÐ½
ĠÑĩÓıÐµÐ³Óı ÐµÑĢÐ°Ð»
ĠÐºÑĮÐ¾Ð³Óı Ð»ÑĬÐ¸
ĠÑħÑĥÐ½Ð· Ð´ÐµÑĢÐ¸Ð»
ĠÐºÓıÐ²Ð°Ð½ Ð°Ð³ÓıÐ°Ð½
ĠÑįÑĢ Ð¼ÐµÐ½
ĠÐºÑĮÐ¾ÑĩÓıÐ¾ Ðµ
ĠÑĤÓıÐ°ÑģÐ°Ð±Ð¸Ñī Ð°ÑĢÐ°Ð±
ĠÐ¸Ð½ÑĤÐµÑĢÐ² ÑĮÑİ
_ _
n t
Ġ ?
Ð» Ð¸Ð³
Ð½ Ð¸Ð¹
Ð°Ð´ Ð¸ÑģÐµÐ±
ĠÐ³Óı Ð¾ÑĢÐºÑĮ
ÐµÑĢ Ð°Ð±
Ð¾Ð» Ð°Ð»
ĠÐ´ ÑĥÐ»
ĠÐ½ Ð°ÑĦ
ĠÐ³ÑĮÐ°Ð± Ð¸Ð»Ð¸Ð»Ð°Ð½
ĠÐºÐº ÐµÑĩÓı
ÐºÑĮ Ð¸Ð±Ð¸Ð»
Ð¸Ð± Ð¸
ÐµÐ² ÐµÑģÐµÐ²
ĠÑĩ Ð¾Ð´Ð°
ĠÑĨÐ¾ ÑĨÐ¾
ĠÐĶ Ð°Ð½
ĠÐĳ ÐµÐ³
ĠÐ³ÑĬ ÐµÐ·Ðµ
ĠÐ³ÑĮÐµÑģ ÑĥÑħÑĬÐ°
ĠÐ¸Ð½ Ð´
Ð¸Ð½Ð°Ð» Ð´Ð°Ð³Ð¸
ĠÑĢÐµÑģ ÑĤÐ¾ÑĢ
ĠÐ´Ð°Ð½Ð´Ðµ ÐºÐº
ĠÐŁ ÐµÑĢ
ĠÐŁ Ð¾Ñį
ĠÐ±ÐµÑĤÓıÐµÑĢ Ð»ÑĬÑĥÐ´Ð°
ĠÐ±ÐµÐ³ÑĮ Ð°ÑĢÐ°Ð±
ĠÑĨÓıÑĥÐ½ Ð¸Ð·ÐµÐ³Ð¸
Ñİ Ð½
Ġ19 13
Ð¸ÑıÑĤ Ð¸ÑĨÐ°
ĠÐºÑĬÐ²Ð°ÑĤÓı Ð¸ÑģÐ°Ð½
ĠÑĢÐµÑħ Ð¸
ĠÑģÐ¿ ÑĢÐ°Ð²
ĠÐ»ÑĬÐ¸ÐºÓıÐ°Ð± Ð³Ð¸
ĠÑģÐ²ÐµÑĢ ÐµÐ»
ĠÐ¼ÑĥÑħÑĬ Ð¸Ð»ÑĬ
ĠÐ³ÓıÐµÐ» Ð°
ÑĥÐ»Ð°Ð°Ð½ Ð¸Ð»Ð°
ĠÐ¶Ð°Ð½Ð¸Ð± Ð³Ð¸
ĠÐ»ÑĬÐ°Ð·Ð°Ð± Ð¸ÑıÐ»ÑĬÑĥÐ»
ÐĵÓı Ð¾Ð»Ð¾ÑħÑĬ
ĠÑĢÑĥÐºÑĬ Ð·Ð°Ð±Ð°ÑħÑĬÐµ
ĠÑħÓıÐ°Ð´ÑĥÑĢ Ð°ÑĢÐ°Ð»
ĠÑĢÐ°Ñĩ Ð¸Ð½
ĠÐ¶Ð°Ð¼Ð°Ð³ÓıÐ°ÑĤ Ð³Ð¸
ĠÐ³ÓıÐ°Ð´Ð°Ð¼Ð°Ð·ÑĥÐ» Ð³Ð¸
Ð·Ð°Ð±Ð°Ð· Ð³Ð¸
ĠÐ¾ÑĤÐ´ÐµÐ» Ð°Ð»ÑĬÐµ
ĠÐĵÓĢ ÑĥÐ¼Ð°ÑħÐ°Ð½
ĠÐºÓĢ Ð¾Ð´Ð¾
ĠÑĩÓıÐµÐ·Ð°Ð± Ð¸ÑıÐ»ÑĬÐµ
ĠÑĤÐ¾Ñħ Ð»ÑĬÑĥÐºÑĮÐµÐ³Ð¾
ÐºÐ°ÑĢ Ð¸Ð¼
ĠÑħÑĮÐ²Ð°Ð´ ÑĥÐ»ÐµÐ²
ĠÑĩÓĢ Ð²Ð°Ð½
ĠÑĨÐµÐ± ÐµÑĤÓĢ
ĠÑĪÐ°Ð³ÓıÐ¸ÑĢ Ð·Ð°Ð±Ð°Ð·ÑĥÐ»
ĠÐ¸ÑģÐ»Ð°Ð¼ Ð°Ð»Ð´Ð°
ĠÑĢÑĥÑģÑģ Ð°ÑĢÐ°Ð»
ĠÐºÐ²ÐµÑĢÐ±Ð°ÐºÑĬ Ð°ÑĢÐ°Ð»
ĠÑģÐ¾Ð²ÐµÑĤ Ð¸ÑıÐ»
ĠÑĢÐ°ÐºÓıÐ°ÑĢ Ð°ÑĢÐ°Ð»
Ġ14 0
ĠÐ¿Ð°ÑĪÐ¼Ð°Ð½ Ð»ÑĬÐ¸ÑıÐ»Ð´Ð°
ĠÐ±ÑĥÐºÓıÐ¸Ð½ÑĩÓı Ð¸Ð»Ð°Ð½
ĠÐºÓıÐ°Ð½ÑĨÓı Ð¸Ð·Ðµ
ĠÐľÐ°ÑħÓıÐ¼ÑĥÐ´ Ð¾Ð²
ĠÐĳÐ°ÐºÑĬ ÑĤÓıÐµÑĢÑħÑĮÑĥÐ»
Ð·Ð°Ð± Ð°ÑĨÐ°
ĠÐ¿ÑĢÐ¸Ð· ÐµÑĢÐ°Ð»
ĠÐ³ÑĮÐ°Ñİ ÑĢÐ°Ð¹
ĠÐºÓıÐ¸ Ð°Ð±Ð¸Ð»
ĠÐ¿Ð°Ñĩ Ð°
ĠÐĳÑĥÐ¹Ð½Ð°ÐºÑģÐº Ð¸ÑıÐ»ÑĬÑĥÐ»
Ġ192 2
ĠÐ¼Ð°Ð¹Ð´ Ð°Ð½Ð°Ð»Ð´Ðµ
ĠÑħÓıÐ°Ð»ÑĥÑĨ Ð°ÑĢÐ°Ð»
ĠÐ³ÑĮÑĥÑĢÐ¼ Ð°Ð»
ĠÑĥÐ¼ÑĥÐ¼ÑĥÐ» Ð³Ð¸
ĠÐ£Ð» ÑĥÐ±
ĠÐ²ÐµÑħÑĮ Ð»ÑĬÑĥÐ½
ĠÐłÑĥÐºÑĬ Ð°Ð»ÑĬÑĥÐ»
ĠÐ±Ð°ÐºÑĬÑĤÓĢÐµÑĢÑħÑĮ ÑĥÐ´Ð°
ĠÐ½Ð°ÑģÐ» Ð°Ð±Ð°Ð·Ðµ
ĠÐºÓıÐºÓıÐ°Ð» Ð°ÑħÑĬ
ĠÐºÓıÐ¾Ð» Ð°ÑĢÐµÐ»
ĠÐ¼Ð¸Ð½Ð°Ð± Ð°Ð·ÑĥÐ»
ĠÐ³ÓĢÐ¾ÑĢ ÑħÑĬ
ĠÑģÐ¸ÑıÑħÓıÐ°Ð» Ð´Ðµ
ĠÐ³ÑĮÐ¾ÑĨÓı Ð¾
ĠÐĲÑĦÐ³ÑĬÐ°Ð½ Ð¸ÑģÑĤÐ°Ð½
ĠÐ¿ÑĢÐµÐ´Ð¿ÑĢÐ¸Ð½Ð¸Ð¼Ð°ÑĤ ÐµÐ»
ÑĢÐ°ÑħÓı Ð¼Ñĥ
Ð¼ÑĥÐ» ÐºÐ°Ð»ÑĬÑĥÐ»
ĠÐļÑĬÐ¾ÑĢ Ð¾Ð´Ð°
ĠÐ½Ð°ÑħÑĬÑĢÐ°ÑĤ ÐµÐ»
ĠÐºÑĬÐ°Ð± Ð¸ÑħÓı
ĠÐ²ÐµÑĩ ÐµÑĢ
ĠÐļÐ°Ð² ÑģÐ°ÑĢÐ°ÑĤ
ĠÐ·Ð°Ñģ ÐµÐ´
Ð³ Ð¸ÑıÐ»
ĠÐ³ Ð°Ð»Ð°Ð±Ð¸
Ðº Ð°Ð±Ð°Ð·ÑĥÐ»
ĠÐ± ÑħÑĮ
Ð°Ð½ Ð¸ÑģÐ°
Ð°Ð½ ÑĩÓĢ
Ð°ÑĢ Ð´Ð°
ĠÐº ÑĥÐ»ÑĮÑĤ
Ð¼ Ð¸Ð»Ð»
Ð¸Ð½ Ð°ÑıÐ»ÑĬÑĥÐ»
Ð°ÑĤ Ð°
ĠÑĤ Ð°Ð±
ĠÑĤ Ð°Ð½Ð¸Ð³Ð¸
Ð°Ð¼ Ð°Ñģ
Ð¾Ð» Ð±Ð¾Ð»
ĠÐ»ÑĬ Ð°ÑıÐ»Ð´Ð°
ĠÐ´ Ð¸Ð»ÑĬÐ°
ĠÐ³ÑĮÐ°Ð± ÐµÐ¹Ð¸Ð»Ð°Ð½
ĠÐ¶ ÑĥÑĢÐ½
ĠÐºÑĬ Ð°Ð»ÐµÐ±
ĠÐºÑĬ ÐµÑĩ
Ð¶ ÐµÑģÐµÐ±
ĠÐľ Ð¸Ð»
ÐµÐ½ Ð°Ð»Ð´Ð°
ĠÐ±ÑĥÐºÓı Ð¸Ð½Ð°Ð»Ð´Ð°ÑģÐ°
Ð¸ÑĤ Ð°ÑĢÐ¸ÑıÐ±
Ð³Óı Ð°Ð³Ð°ÑĢ
Ð°ÐºÑĬ Ð»ÑĬÑĥÐ½Ð³Ð¾
ĠÐĶ ÐµÐ¿ÑĥÑĤ
ĠÑĢÐ¾Ñģ Ð°Ð±Ð¸Ð³Ð¸
ĠÐļ ÑĥÑĤ
ĠÐł Ð°ÑħÑĮÐ´Ð°Ð»
ÐµÐ´ Ð¸ÑģÐ°
Ð¸Ð´ Ð¾ÑĢ
Ð¸Ð´ Ð¸Ð±
ÑĪ Ð°ÐĲÐ»Ð»Ð°Ð³ÑĮ
ĠÑĢÐ°Ð¹Ð¾Ð½ Ð°Ð»ÑĬ
ĠÑĢÐ°Ð¹Ð¾Ð½ Ð°Ð·Ð´Ðµ
ĠÑīÐ² ÐµÑıÐ»Ð´Ð°ÑģÐ°
ĠÐ³ÑĥÑĢ Ð¸Ð»Ð°
ÐºÐ¾Ð» Ð¾
ĠÐ±Ð¸ÑħÑĮ Ð°ÑĢÐ°Ð»
ĠÑĢÐµÑģ Ð¿ÑĥÐ±
ĠÐ¨ ÐµÐ¹Ñħ
ĠÐ´Ð°Ð½Ð´Ðµ Ð»ÑĬÐ¸Ð·Ðµ
ĠÐ³ÑĮÐµÐ½ Ð¸Ðµ
ÐĶ ÑĥÐ´Ð°
ĠÐ±Ð¾ÐºÑĮ Ð¸ÑĩÓıÐ¾Ð³Ð¾
ĠÐ³ÓıÑĥÑĨÓı Ð°ÑĢÐ°Ð·Ðµ
ĠÐºÑĮÐ¾Ð» ÐµÐ¹
ĠÐĵÓıÐ°Ð±Ð´ÑĥÐ» ÑħÓıÐ°Ð»
Ð°Ð·Ð°Ð± ÑĥÑĢÐ°Ð±
ĠÐĽÑĬ Ð°Ð³ÓıÐ°Ð»
ĠÐ½Ð¸Ð»ÑĬÐµ Ð´Ðµ
ĠÐ½ÑĥÑħÐ¼Ð°Ð»ÑĬÑĥÐ» ÐµÐ»Ð³Ð¸
ĠÑħÑĥÑĢ Ð·Ð°Ð±Ð°ÑħÑĬ
ĠÐ±Ð°Ñĩ ÑĥÐ½ÐµÐ»
ĠÐ±Ð°Ñĩ Ð¸Ð½Ð°Ð»ÑĬÐµ
ĠÐ´Ð°Ð½Ð´ Ð±Ð°Ð½
ĠÐ¼Ð°Ð³ÓıÐ°ÑĢÑĥÐ» Ð°ÑģÑĥÐ»
ĠÐ³Ð°Ð·ÐµÑĤ Ð°Ð»Ð´Ð°Ð³Ð¸
ĠÐºÑĮÑĥÐ½ Ð¸Ð³Ð¸
ĠÐ±ÑĥÑĤÓı Ð°Ð±Ð°Ð·Ð´Ð°
ĠÐĵÑĮÐµÐ· Ð³Ð¸
ĠÐ³ÑĮÐ°ÑĢÐ¸Ð·Ðµ ÑģÐµÐ»
ĠÐ°ÑģÐºÓı Ð¾ÑģÐ°Ð½
Ð·Ð°Ð±Ð°Ð· Ð´Ðµ
ĠÐŀ Ð»Ð¸Ð¼Ð¿Ð¸Ð°Ð´
ĠÐŀ ÑģÐµÑĤ
ĠÐ³ÑĮÐ°Ð½Ð¶Ðµ ÑıÐ»Ð´Ð°ÑģÐ°
Ð£ ÐŁ
ĠÐ¾Ð± Ð¾ÑĢÐ¾Ð½
ĠÐºÑĮÑĥÑĢ Ñĥ
ĠÐ¼ÐµÐ´ Ð¸Ð½ÑģÑĤÐ¸ÑĤÑĥÑĤ
ĠÑħÑĮÐ¸ÑħÑĮ ÑĥÐ»ÐµÐ»
ĠÐļÐ¸Ð½ ÑħÐ°
ĠÐ¸ÑģÐ»Ð°Ð¼ Ð¸ÑıÐ»
ĠÐ²Ð¸ÑħÑĮ ÑĥÐ»Ð°
ĠÐ³ÓıÐ°ÑħÑĮÐ°Ð»ÑĩÐ°Ð³Óı Ð°Ð·Ð´Ð°
ĠÑħÓıÐ°ÐºÑĬÐ¸ÐºÑĬ Ð¸ÑıÐ»
ĠÐ´Ð¾Ð» Ð»
ĠÐºÐºÐµÐ» ÐµÐ±
ĠÐ¼Ð°ÑĢ ÐºÓıÐ°ÑĩÓı
Ð°ÑıÐ· Ð´Ðµ
ĠÐ±ÐµÐ³Ð°Ð²ÑĥÐ» Ð°ÑģÑĥÐ»
ĠÐĵÓıÐ°Ð±Ð´ÑĥÑĢÐ°ÑħÓıÐ¼Ð°Ð½ Ð¾Ð²
ĠÐ³ÓıÐ¾Ð´Ð¾Ð±Ðµ Ð³ÓıÐ°Ð½Ð°Ð±
ĠÐ±ÑĥÐºÓıÐ¸Ð½ÑĩÓı Ð¸Ð»Ð°
ĠÐ³ÑĬÐ²Ð°ÑĢ Ð¸Ð»ÑĬ
ĠÐ±Ð°ÑĩÑĩ ÑĥÐ»ÐµÐ»
Ð±ÑĥÐ· Ðµ
ĠÐ¿ÐµÑĢ ÐµÐ¿Ð¸Ñģ
ĠÑĥÑĩÑĢÐµÐ¶Ð´ÐµÐ½ Ð¸ÑıÐ·ÑĥÐ»
ĠÐºÐ°Ð³ÑĬÑĤ Ð°Ð»Ð³Ð¸
ĠÐĺÑģÐ»Ð°Ð¼ Ð°Ð»ÑĬÑĥÐ»
ĠÑĩÐ»ÐµÐ½ Ð°Ð»
ÐĲÑħÐ¸ÑĢ Ð°Ð»Ð´Ð°
Ġ198 9
ĠÑħÓıÑĥÑħÑĮÐ±Ð°ÑħÑĬ Ð¸Ð·Ðµ
ĠÑģÑĥÐ½Ð´ ÑĥÐµ
ĠÑĪÐ°ÑĢÑĤÓı Ð°Ð·ÑĥÐ»
ĠÐ¿Ð°Ð¼ÑıÑĤÐ½Ð¸Ðº Ð°Ð»Ð´Ð°
ĠÑģÐ°Ð¼ Ð±
ĠÐ¿ÑĢÐ¾ÐºÑĥÑĢÐ°ÑĤÑĥÑĢ Ð°ÑıÐ»ÑĬÑĥÐ»
ĠÐ·Ð¾Ð½ Ð°ÑıÐ»Ð´Ð°
ĠÐ±Ð°ÑĩÓĢ Ð°ÑĢÐ°Ð±
ĠÑħÐ°ÑĢÐ°Ð± Ð¸
ĠÐĵÑĮÐ¾ÑĢÐºÑĮ Ð¾Ð±
ĠÑīÐ°Ð» Ð°Ð»Ð¸
ĠÑĨÐ¾Ð¹Ð³Ð¸Ð´Ð°Ð» Ð³Ð¸
ĠÐ¾Ð»Ð¸Ð¼Ð¿Ð¸Ð°Ð´ Ð°Ð±Ð°Ð·Ð´Ð°
ĠÐ¿ÑĢÐ¾Ð±Ð»ÐµÐ¼ Ð°Ð±Ð¸
ĠÐĵÐ°Ð´Ð¶ Ð¸
ĠÐ¼ÐµÑĤÐ¾Ð´ Ð¸ÐºÐ¸ÑıÐ±
ĠÐ¸Ð´ÐµÐ¾Ð»Ð¾Ð³ Ð¸ÑıÐ»Ð´Ðµ
ĠÐ¡Ð°Ð³ÓıÐ¸ÑĤ Ð¸Ð»
Ð°ÑĨÓıÐ°Ð» ÑĥÑħÑĬ
ĠÐļÐ°Ð» Ð¼ÑĭÐº
ĠÐ¼ÐµÐ´ÑģÐµÑģÑĤ ÑĢ
ĠÐĶÐ°ÑĢÐ±Ð¸ÑĪ ÐµÐ²
ĠÑĩÓıÐµÐ³Óı ÐµÑĢÐ±
Ð¸Ð´Ð¸ ÑĥÐ¼Ð°Ð»ÑĬÑĥÐ»
ÐĵÑĮÐ¸ÑĤÓı Ð¸Ð½Ð°Ð±
ĠÑħÑĬÐ¸Ð·Ð°Ð± Ð°Ð·Ðµ
ĠÑĢÐ¸Ð· ÐºÑĬ
ĠÐ¥Ð°Ð¹ ÑĢÑĥÐ»
4 1
Ñĥ ÐµÐ³Ð¾
ÑĢ Ð¸Ð»
ÑĢ Ð°Ð¸Ð»
Ð»ÑĬ Ð°Ð½Ð¸
Ð»ÑĬ Ð°Ð±Ð¸Ð³Ð¸
Ð¼ Ð°Ð±Ð¸Ð³Ð¸
ĠÑħ ÑĢÐ¸ÑģÑĤ
Ð°Ð· Ð´Ð°Ñģ
Ð°Ð· Ð¸Ð¼
ĠÐ³Óı Ð¸Ð´
ĠÐ¼ Ð°Ñī
Ð¾Ð» Ð¾ÐºÑĮ
ÑĨ ÑĥÑħÑĬ
ĠÐ½ Ð¾ÑĢÐ¼
ĠÐ½ ÐµÑĢÐ²
Ð¾ÑĢ Ð°ÑĤÐ¾ÑĢ
ĠÐºÑĬ Ð¸ÑĢÐ°Ð»
ĠÐľ Ð¸ÐºÑĮ
ĠÑĩ Ð°Ð¼
ĠÐºÓı Ð¾Ð»ÐµÐ²
ĠÐł Ð°ÑħÓıÐ¼Ð°ÑĤ
ĠÐ¡ Ñĥ
ĠÐĳ Ð°Ð²ÑĤ
ĠÑīÐ² ÐµÑĩÓı
ĠÑį Ð¼
ĠÐ²ÑĥÐºÓı Ð¸Ð½Ð³Ð¸
ĠÑħÐ°Ð» Ð¸ÑĦ
ĠÐ³ÑĮÐ°Ð±Ð¸Ð·Ðµ ÑıÐ½
ĠÐĺ Ð±Ð½
ĠÐ»ÑĬÐ¸Ð¼Ð°Ð» Ð°Ð·Ð´Ðµ
Ðľ Ð°Ñħ
Ðľ Ð°ÐºÑĮ
ĠÐ±Ð°ÑĩÓı Ð¾Ð³Ð¾
ĠÐĽÑĬ ÑĥÐ³Óı
ĠÐ£ ÑģÑĤ
ĠÐºÑĬÐ°Ð´ Ðµ
Ð¦ ÐµÑĢÐµ
Ð¦ Ð¾Ð¹Ð³Ð¸
Ð¸Ð¹ Ð¸Ð»Ð°Ð½
ĠÑĪÐ°Ð³ÑĮÐ°ÑĢ Ð°Ð·Ð´Ðµ
ĠÐĲÑħÓı Ð´ÑĥÑħ
ĠÐ¿Ð°ÑĩÐ°Ð»Ð¸ÑħÑĬ Ð¸ÑıÐ²
ÑĢÐ¾ ÑıÐ»ÑĬÑĥÐ»
ĠÐĲÐ± Ð¸ÑħÓı
ĠÐĲÑħÓıÐ¼Ð°Ð´ Ð½Ð°Ð±Ð¸
ĠÐ³ÑĮÐµÐ»ÑĬ Ð³Ð¸
ĠÐ°Ð´Ð¼Ð¸Ð½Ð¸ÑģÑĤÑĢÐ°ÑĨ Ð¸ÑıÐ»ÑĬÐµ
ĠÐ¾ÑĤ Ð¿ÑĥÑģÐº
ĠÑħÐ¸Ñģ Ð°ÑĢÐ°Ð±
ÐĵÑĮÐµÐ± Ð³Ð¸
ĠÐ²Ð°ÑĨ Ð³Ð¸
ĠÐºÑĬÐ°ÑĩÓı Ð°ÑıÐ»ÑĬÐµ
ĠÐ¼ÑĥÐ³ÓıÐ°Ð»Ð¸Ð¼ Ð·Ð°Ð±Ð°Ð·Ð´Ð°
ĠÐ¥ÑĬ Ð°Ð¹ÑĤ
ÑħÓıÐ°Ð¶ Ð¸Ð»
ĠÐ±Ð¾ÑĢÑħ Ð°ÑĢÐ°Ð±
ĠÐ°Ð» ÑĦ
ĠÐ´ÐµÐ¿ÑĥÑĤÐ°ÑĤ Ð°Ñģ
Ð¢Óı Ð¾ÑĨ
ĠÐ³ÓıÐ°Ð¹Ð¸Ð± Ð°Ð»Ð´Ð°Ð»ÑĬÑĥÐ½
ĠÑħÐ°Ð´ÑĥÑĢ Ð³Ð¸
ĠÐ±ÐµÐ³ÑĮÑĥÐ» Ð¸Ð»Ð°
ĠÐ±ÑĥÑħÓı Ð¸
ĠÐ¥ÓıÐ°Ð¶Ð¸ÐµÐ² Ð¸Ñĩ
ĠÐºÑĮÐ²Ð°Ð³ÑĮ Ð´
ĠÐ±Ð°Ð» ÐµÐ²
ĠÐľÐ°ÑĢ Ð·
ĠÐºÑĮÐµÐ¹ Ð¸Ð½
ĠÐ¥ÓıÐ°ÑģÐ°Ð½ Ð¾Ð²Ð°Ñģ
Ð±Ð°ÑħÑĬÐ¸Ð½ Ð°Ð·Ð´Ð°
Ð»ÓĢ Ðµ
ĠÐ½Ð¾ ÑıÐ±ÑĢ
Ð·Ð°Ð¼ Ð°Ð½Ð°Ð»Ð´Ð°
ĠÑĩÑĥ ÑıÐ·ÑĥÐ»
ĠÐ±Ð¸ Ð¾Ð»Ð¾Ð³Ð¸ÑıÐ»ÑĬÑĥÐ»
ĠÐ³ÑĬÐ°Ð» Ð±Ð°ÑĨÓı
ĠÑĤÓıÑĥÑĢÐ°Ð» ÐµÐ»
ĠÑģÑĤÐ°ÑĤ Ð¸ÑģÑĤ
ĠÑįÐºÑģÑĤÑĢÐµÐ¼ Ð¸ÑģÑĤ
ĠÑĤÐ°ÑħÑĪÐ°Ð³ÑĮ Ð°ÑĢÐ°Ð»Ð´Ð°
Ð¾Ð³ÑĢÐ°ÑĦ Ð¸Ñı
ĠÐ°Ð±ÑĥÐ»ÐµÐ» Ð³Ð¸
ĠÐ³ÑĢÐ°Ð¶Ð´ Ð°Ð½Ð°Ð·ÑĥÐ»
ĠÐĵÑĬÐ¸Ð·Ð¸Ð»ÑİÑĢÑĤ Ð°Ð»Ð´Ð°
ĠÐ¢ÑĥÑĢÐº Ð¸ÑıÐ»Ð´Ð°
ĠÑĢÐµÐºÑĮ Ð°ÑĢÑĥÑħÑĬ
ĠÐĵÑĮÐ°Ð½Ð¶ ÐµÑģÐµÐ±
ĠÐ²Ð¸ÑħÑĮÐ¸Ð·Ð°Ð² ÑĥÐ½
ĠÑįÐ»ÐµÐºÑĤ ÑĢ
ĠÐ²Ð°ÑħÓıÑĪ Ð¸ÑıÐ»
ĠÐĵÐµÑĢÐ¼Ð°Ð½ Ð¸ÑıÐ»Ð´Ð°
ĠÐ³ÓıÑĥÐ· ÑĢ
ĠÐ»ÐµÐ± Ð°Ð»
ĠÐ³ÓıÐµÐ´Ðµ Ð³ÓıÑĥÐ½
ĠÐºÑĬÑĥÐºÑĬ Ð°
ĠÐľÐµÐ´ Ð²ÐµÐ´Ðµ
ĠÐĿÐ°ÐºÓıÐºÓı Ð°Ð·ÑĥÑħÑĬ
ĠÑĥÑĩÑĥÐ· Ð°Ð±
ĠÐĹÐ°ÐºÐ°ÑĢ ÑĮÑı
ĠÐ¼Ð¸Ñģ Ð°Ð»Ð³Ð¸
ÐĽÑĬÐ¸Ð¼Ð°Ð» Ð°Ð·ÑĥÐ»
Ð¦ÓıÐ°Ð» Ð´Ð¾ÑħÑĬ
ĠÐ¼ÑĥÐ·Ðµ ÑıÐ»Ð´Ðµ
ĠÑĤÐµÐ½ Ð½Ð¸Ñģ
ĠÑĪÐ°ÑĢÐ¸Ð³Óı Ð°ÑĤ
ĠÐĺÑģÑĢÐ°Ð¿ Ð¸Ð»
ĠÐ³ÑĮÐ°Ð½Ð¶ÐµÐ»ÑĬ Ð¸Ð·ÐµÐ³ÓıÐ°Ð½
ĠÑĤÐ°ÑĤ Ñĥ
ĠÑĢÐµÑĪ ÑĤÓı
ĠÐĵÑĬÐ¾Ð· ÑĤÐ°Ð»Ð°
? -
ÑĢ ÐµÐ´
Ð¾ ÑıÐ»ÑĬ
Ð½ Ðµ
Ð½ Ð¾Ð±
Ð´ ÑĥÑħÑĬ
Ðº Ð°Ð±Ð°Ð·Ð´Ð°
Ð± Ð°Ð·ÑĥÐ»
ĠÐ± ÑĢÑĥÑĨÐµÐ»Ð»ÐµÐ·
Ð°ÑĢ Ð¸ÑıÐ»Ð´Ð°
ÑĥÐ½ ÐºÑĬÐ¾
ĠÑĢ ÑĥÑħÓĢ
Ð² Ð°Ð´
Ð· Ð°ÑĤ
Ñħ Ð¾ÐºÑĬ
Ð°Ð»ÑĬ Ð°ÑĢÐ°Ð±
ĠÑĤ Ð¾Ð¿
ĠÐ»ÑĬ ÐµÐ´Ð°
ĠÐ´ Ð¸ÑģÑģ
ĠÑģ Ð°ÑħÑĬ
ĠÐ½ Ð°ÑģÑĤ
ĠÐ³ÑĮÐ°Ð± ÑĥÐ´Ðµ
ĠÑĤÓı Ð°Ð»ÑĬÑĥÐ»Ð°
Ð¸Ñģ Ð°Ð½Ð³Ð¸
ĠÐ¿ ÑĥÑĤ
ĠÐľ Ð°Ð³
ĠÐľ Ð¸Ð½Ð¸ÑģÑĤÐµÑĢ
ĠÑĩ Ð°ÑĢ
ĠÐºÑĮ ÐµÑĢÐ°Ð»
ĠÑħÓıÐ°Ð»ÑĤÓı ÑĥÑĨÐ°
ĠÐĶ Ð®Ð¡Ð¨
ĠÐļ Ð¸Ð´Ð°Ð½Ð¸Ð³Ð¸
ĠÐĳ ÐµÐº
ÑĪ Ð¸
ÐµÑĤ ÑĩÐ¸Ðº
ĠÐ±ÑĥÐ³ÐµÐ± Ð³Ð¸
ĠÐ¥Óı Ð¥
ĠÑĥÐ½ ÐµÐ·ÑĥÐ»
ĠÐ¸Ð½ ÐµÐ»
ĠÐ¸Ð½ ÐºÑĬÐ¸Ð»Ð°Ð±
Ð°ÑĢÐ¾ Ð³Ð¾
ÐĵÑĮ ÐµÐ¹
ĠÐ¦ ÐµÐ±ÐµÑģÐµÐ±
ĠÐĿ Ð°Ð¸Ð´Ð°
ĠÑħÑĬÐ² Ð°Ð²
ĠÐ±ÐµÑĤÓıÐµÑĢ Ð»ÑĬÑĥÐ´Ðµ
ĠÐ±Ð¾ÐºÑĮ ÑĥÐ»Ð°ÑĢÐµÐ±
ĠÐ³ÓıÑĥÑĨÓı Ð°Ð±Ð°Ð·Ðµ
ĠÐ§ Ð°Ð»
ĠÐĵÓıÐ°Ð±Ð´ÑĥÐ» Ð³ÑĬ
Ð½Ð¸Ðº Ð°Ð»Ð´Ð°
Ð¾Ð· Ð¸ÑĤÐ¾ÑĢ
ĠÐ¥ÓıÐ°Ð¶ Ð¸ÑıÑģ
ĠÑĥÐ½ÑĤ ÑĥÑĨÐ°
ÐĵÓı ÑĥÑĢÑĥÑģ
ĠÑĢÐ°ÑĤ Ð¸Ð»Ð¸Ð½
ĠÐ³ÑĥÑĢÐµÐ± Ð»ÑĬÐ¸
ĠÐºÐ²Ðµ Ð³ÓĢ
ĠÑĤÓıÐ°Ð»Ð°Ð± Ð°Ð»Ð´Ð°
Ġ6 8
ĠÐŀ ÑĤ
ĠÐĵÑĮÐ°Ð½ Ð¸Ð±Ð³Ð¾
Ġ7 3
ĠÐ¼Ð°Ð³ÓıÐ¸ÑĪÐ°ÑĤ Ð°Ð·Ðµ
ĠÐ³ÑĮÑĥÐ´ÑĥÐ» Ð»ÑĬÐ¸ÑıÐ»ÑĬÑĥÐ»
ĠÐ»ÑĬÐ¸Ð¼Ð°Ð»Ð°Ð·ÑĥÐ» Ð³Ð¸
ĠÑĤÐµÐ» ÐµÐº
ĠÐ³ÓıÐ°Ð»Ð¸Ð¼ Ð·Ð°Ð±Ð°Ð·Ð´Ð°
ĠÑĢÑĥÑħÓı Ð¸ÑıÐ»
ĠÐ©Ð¸Ð± Ð³Ð¾
Ġ18 6
ĠÑĢÐµÑĤÓı Ð°ÑĢÐ°Ð»
ĠÑĤÓıÐµÑħÑĮ Ð³Ð¸
ĠÐļÐ¸Ð½ Ð°Ð·Ð³Ð¾
ĠÐ²Ð¸ÑħÑĮ Ð°Ð½Ð°
ĠÐ¼Ð¸Ð½Ð¸ÑģÑĤÑĢ Ð°Ñģ
ĠÐ¨Ð°Ð¼ Ð°Ð¹
ÑĥÐ¿ÑĢÐ°Ð²Ð»ÐµÐ½ Ð¸ÑıÐ»ÑĬÑĥÐ»
ĠÑĢÐ¸Ð³ÑĮ Ð½
Ð¸Ð·Ð°Ð² ÑĥÐ½Ð°
ĠÑģÐ¿Ð¾ÑĢÑĤÐ°Ð»ÑĬÑĥÐ» Ð³ÑĥÐ½
ĠÐ¸Ð½ÑĤÐµÑĢÐ½ Ð°ÑĤ
ĠÑĥÐ½ÐºÑĬÐ¾ ÑıÐ»Ð´Ð°
ÑĩÓıÐ²Ð°ÑĢ Ð¸ÑıÐ»ÑĬÑĥÑħÑĬ
Ðķ Ð²ÑĢÐ¾Ð¿
ĠÑħÓıÐ°Ð»ÑĤÓıÑĥÐ´Ðµ ÑħÑĥÐ½
ĠÐºÐ²Ð°ÑĢ ÑĤ
ĠÐ³ÑĮÐµÑĩÓĢ Ð¾Ð³Ð¾
ĠÐ³ÑĮÐ°Ð»Ð± Ð°Ð»Ð³Ð¸
Ġ196 0
ĠÑĤÑĥÐº Ð°Ð±Ð°Ð·Ð´Ð°
ĠÐ¼ÑĥÐ³ÓıÑĢÑĥÐ·ÑĥÐ» Ð°Ð±
ĠÑĢÐµÑĩÓıÑĩÓı ÑĥÑħÑĬÐ°Ð½
ĠÐ¼Ð°Ð³ÓıÐ½ Ð°ÑıÐ±
ĠÐĵÓıÐ°Ð´Ð°Ð¼ Ð°Ð·Ðµ
ĠÐĳÑĥÐºÓı Ð¸Ð½Ðµ
ĠÐ¥ÑĥÑĪÑĤ Ð°Ð´Ð°ÑģÐ°
ĠÑģÐ°Ð½Ð°Ð³Óı Ð°Ð»ÑĬÐ°Ð±Ð¸
ĠÐ¿Ð¸ÐºÑĢ Ð°Ð±Ð¸Ð³Ð¸
ĠÐ¸Ð½ÑĤÐµÑĢÐµÑģ Ð°Ð»
ĠÐĵÐµÑĢÐ¼Ð°Ð½ Ð¸ÑıÐ»ÑĬÑĥÐ»
ĠÐĵÓıÑĥÐ¼ÑĢÑĥ ÑıÐ»ÑĬÑĥÐ»
ÑģÑĥ Ð°Ð»
ĠÐ¼ÑĥÐ³ÓĢ ÑĢÑĥÐ·ÑĥÐ»
ĠÐ¯ÑħÓı Ñı
ĠÑİÑĢÐ¸Ð´ Ð¸ÐºÐ¸ÑıÐ±
ĠÑĢÐ°Ð´Ð¸Ð¾ÑıÐ»ÑĬÑĥÐ» Ð³ÑĥÐ½
Ð¸ÑĨÓĢ Ð³Ð¾
ĠÐ¸Ð½ÑĦÑĢÐ°ÑģÑĤ ÑĢÑĥÐºÑĤÑĥÑĢ
ĠÐ¥ÑĬÐ°Ð¹ÑĤ Ð¼Ð°Ð·
Ð± Ð°Ð³ÑĮ
ĠÐ± Ð¸Ð½
Ð² Ð°ÑĢÐ°Ð»
Ð»ÑĬ Ð°ÑĢ
ÑĤ Ð¾
Ð°Ð»ÑĬ Ð¸ÑıÐ»ÑĬÐµ
Ð°Ð´ Ð°Ñģ
ĠÐ³Óı Ð°Ð»Ð°
ĠÐ² Ð°ÑĤÓı
ĠÑĨ Ð°ÑĢ
ĠÐ´ Ð¾ÑĤ
ĠÑģ Ð²Ð°Ð»Ð°ÑĤ
Ð¸ÑĤ Ð¸Ð»
ĠÐºÓı Ð¾Ð´
ĠÐ· Ð°Ð·
ĠÐł Ð¸Ð¸Ð´Ð°Ð»
ĠÑĩÓı ÐµÑıÐ»ÑĬÑĥÐ»
ĠÐĳ Ð°ÑıÐ½
ĠÐĳ ÑĥÑģÑĥÑĢÐ±
ĠÐ¸Ð½ Ð¸ÑĨÐ¸
ĠÐ¢ Ð°Ð»Ð¸ÑħÓı
ĠÐ±Ð¾Ñģ Ð°ÑĢÐ°Ð»Ð´Ð°ÑģÐ°
ĠÐŁ Ð°Ð»
Ðł Ð°Ð¹
Ðļ ÓıÐ°Ð»
ÐĲ Ð»ÑĮ
ĠÐĴ Ð°Ð¹
Ð¡ Ð°Ð»
ĠÑģÑĥ Ð´Ð°Ð»Ð´Ðµ
ĠÐ¹ Ð¾Ñģ
Ð¾ÑĤ ÓĢ
ĠÑħÐ² ÐµÐ¹
ĠÐ¦Ð¾ ÑıÐ»
ĠÐ±Ð¸ÑĩÓıÑĩÓı ÑĥÐ½ÐµÐ±
ĠÐŃ ÐºÐ¾Ð½Ð¾Ð¼
ĠÑĤÓıÐ°Ð¼ ÑĥÑĢÐ°Ð²
ÐŁ Ð¾Ð»
ĠÑĢÐµÑħÑģ Ð°ÑĢÐ°Ð²
ĠÐ±ÐµÑĢÐ³ÑĮ Ð¸Ð½Ðµ
ĠÐĵÑĮÐµÐ· Ð´Ð°ÑģÐ°
ĠÐºÑĬÐ°Ð³ÓıÐ¸Ð´ Ð°ÑıÐ»ÑĬÑĥÐ»
ÐºÑĬÐ¾ ÑıÐ·
ĠÐ±Ð°ÐºÑĬ Ð½Ð°Ð»
ĠÑĢÐ¾Ñħ Ð°Ð»Ð¸Ð´Ð°
ĠÐºÓıÐ² ÐµÐºÓı
ĠÐłÐ°ÑģÑĥÐ» Ð¾Ð²
ĠÐ¥ÑĬ Ð¸Ð·Ð°Ð½
ĠÐ±Ð°Ð¹ÑĢÐ°Ð¼ Ð°Ð»ÑĬÑĥÐ»Ð°Ð±
ĠÐºÓıÐ°Ð» Ð°Ð»ÑĬ
ĠÐ²Ð°ÑĤ Ð°Ð³Ð¸
ĠÐ³ÓıÐ°ÐºÑĬ ÑĥÐ±
ĠÐºÐ°Ð¼ Ð¸ÑıÐ»
ÐĽÑĬ Ð°Ð±Ð³Ð¾
ĠÐ´Ð¸ÑĢÐµÐºÑĤÐ¾ÑĢ Ð°Ñģ
ĠÑĢÐ°Ð³ÑĬÑĥÐ»Ð°Ð± Ð³ÑĥÐ½
Ð¸Ð»ÑĬÑĥÐ½ Ð³Ð¸
ĠÑĩÓıÐ°ÑħÓı Ð¸ÑıÐ·
ĠÑģÐ°Ð³ÓıÐ°ÑĤ Ð°Ð»Ð´Ð°
ĠÑĢÐ°Ñħ Ð¸Ð½Ðµ
ĠÑĢÐµÐ´Ð°Ðº ÑĨÐ¸ÑıÐ»ÑĬ
ĠÐ»ÑĬÐ°Ð·Ðµ Ð³Ð¸
Ð°Ð±Ð°Ð·Ð´Ðµ ÑħÑĥÐ½
ĠÑħÐ°Ð½ Ð°Ñģ
ĠÑĢÐ¾ÑģÐ´ Ð°ÑĨÐ°
ĠÐºÑĮÐ²Ð°Ð³ÑĮ ÑĥÐ»ÐµÐ±
ĠÐ±ÑĥÑģÑĥÑĢÐ± Ð°Ð±Ð°Ð·Ð´Ð°
ĠÑĤÓıÐ°Ð»ÑĬ Ð¸ÑıÐ»ÑĬÐµ
ĠÐºÐºÐµÐ·Ðµ Ð³Ð¸
ĠÑĢÑĥÐºÓĢ ÑĥÐ½
ĠÑĤÓıÐ°Ð´ÐºÑĬ Ð°Ð½
ĠÐ¿Ð¾Ð»Ð¸ÑĨÐ¸ÑıÐ»ÑĬÑĥÐ» Ð°Ð·
ĠÐ¸Ð½ÑĤÐµÑĢÐ½ Ð°ÑĤÐ°Ð»Ð´Ð°
ĠÑĩÐµÑĢÑħ Ð°Ð»ÑĬÐµ
ĠÑĨÓıÐ¾ÑĢ Ð¾Ð»
ĠÐ¶Ð¸Ð³Ð°ÑĢ ÑĩÐ¸Ð»ÑĬ
ĠÐłÐ°Ð³ÑĬ Ð´Ð°
ĠÑĪÐ°Ð¿Ð°ÐºÑĬÐ°ÑĤ Ð°Ð·Ðµ
ĠÐ¼ÐµÐ´Ð¸ÑĨÐ¸Ð½Ð°ÑıÐ»ÑĬÑĥÐ» Ð°Ð±
ĠÑĢÐ°ÐºÐº Ð¸Ð·Ðµ
ĠÐľÑĥ Ð³ÓıÐ°Ð»Ð¸Ð¼
ĠÐ³ÓıÐµÐ·Ð°ÑĢ Ð¸Ð·Ðµ
ĠÐĵÓıÐ°Ð¼Ð¸ÑĢ ÑħÐ°Ð½Ð¾Ð²
ĠÐ±Ð°ÑģÑĢ Ð°Ð»ÑĬÑĥÐ½
ĠÑħÓıÑĥÐºÑĥÐ¼Ð°ÑĤ Ð°Ð»ÑĬÐµ
ĠÐ»Ð°Ð³ÑĬ Ð»ÑĬÐ¸
ĠÐºÐ¾Ð¼Ð°Ð½Ð´Ð¸ÑĢ Ð»ÑĬÑĥÐ½
ĠÐ¢ÓıÐ°Ð½ÑĥÑģ Ð¸ÑģÐ°
Ð±Ð¾Ð¶ Ð°ÑĢÐ°Ð·Ð´Ð°
ĠÐ¸Ð¼Ð¿ÐµÑĢ Ð¸ÑıÐ»ÑĬÑĥÐ»
ÐĳÐµÑĢ Ð³ÑĮÐµÐ½
Ð¥Ð°Ð»ÐºÑĬ Ð¸ÑıÐ±
ĠÐ³ÓıÐ°ÑħÑĮÐ°Ð»Ð»ÑĬÑĥÐ» ÐµÐ²
ĠÑħÓıÑĥÐ¶Ð¶ Ð°
ĠÑħÓıÑĥÐ¶Ð¶ Ð°Ð±Ð¸
ĠÐĵÓıÐ¸ÑģÐ°Ð» Ð³Óı
ĠÐĿÐ°Ð³Ð°Ð³ÑĮ Ð»ÑĬÑĥÐ½
ĠÑģÐ°ÑħÐ°Ð² Ð°ÑĤÐ°Ð»
ĠÐ¥ÓıÐ¸Ð½ÐºÑĬ Ð¸
ĠÐ¥Ð°ÑģÐ°Ð» Ð¾
ĠÐ³ÓıÐ°Ñĩ Ð¸ÑıÐ·ÑĥÐ»
ĠÑĢÐ°Ð¾ Ð½Ð°Ð»ÑĬÑĥÐ»
ĠÑħÑĥÐ´Ð¾Ð¶ÐµÑģÑĤÐ²ÐµÐ½ Ð½Ð¸ÑıÐ±
Ð¡ÑĥÐ³ÑĬ ÑĥÐ»Ð´ÐµÑĢÐ¸Ð»
ĠÐ³ÓıÐ°ÐºÑĬÐ»ÑĥÑĩ Ð¸
ĠÐ½ÑĥÐ³ÓıÐ·Ð°Ð» Ð»ÑĬÑĥÐ½
ĠÐ¿ÑĢÐ¸Ð²Ð¸Ð² ÐºÐ°Ð±Ð¸
ĠÐłÐ¡Ð¤Ð¡ ÐłÐ°Ð»ÑĬÑĥÐ»
Ð½ Ð¾Ñģ
ĠÐ³ ÑĥÐ½
Ð°Ð½ ÑĤÑĥÑĢ
Ð² Ð°Ð³ÑĮÐ°Ð±
ÑĤ Ð°ÑĢÐ°Ð±
Ñģ Ð¸Ð½
Ð¼ Ð¾Ð»
ĠÑħ ÐµÐ½
Ð°Ð´ ÐµÐ³Ð¸
ĠÐ² ÐµÑĢÑģ
ĠÑĤ ÑĥÐ±ÐµÑĢÐºÑĥÐ»ÐµÐ·
Ð°Ð¼ Ð°ÑħÓı
Ð¸Ð» Ð°Ð´Ð°Ð¹
ĠÐĵ ÐµÐ»
Ð°Ð¹ Ð»ÑĬÑĥÐ½
Ð°Ð¹ Ð¸ÑģÐ°
Ð¾ÑĢ Ð³
ĠÐ³ÑĮÐ°Ð± ÐµÐ¹Ð¸Ð½
ĠÑĤÓı Ðµ
Ð°Ð² ÑĥÑģ
Ð¾Ñģ Ñģ
ĠÑħÓı Ð°Ñģ
Ð³ÑĮ ÐµÑĩÓıÐ¾
ĠÑĩ Ð°Ð»
ĠÑĩ Ð°Ð´Ð¸Ð»
ĠÑĨÐ¾ Ð¹Ð¸Ð´Ðµ
ĠÐł ÑĥÐ³
ĠÑħÑĬ ÑĥÐ½
ĠÑĩÓı Ð°Ð½Ð¸
ĠÐ³ÑĮÐ°ÑĢ Ð¸ÑıÐ»Ð´Ðµ
ĠÐŁ Ð°ÑĪ
ĠÐ±Ð°ÑħÑĬ Ð°ÑĢÐ°Ð²
ĠÐ½Ð°ÑħÑĬ ÑĢ
ĠÐ³ÓĢ Ð°Ð»Ð°Ð¼
Ð¸ÐµÐ² Ð°Ð»ÑĬ
Ðľ ÑĥÑħÓı
ĠÑĢÐ°ÑĩÓı Ð¸Ð½Ð°ÑĢ
ĠÑħÑĮ Ð¸Ð±Ð¸Ð»
ĠÑħÐ² ÐµÐ·ÐµÐ³ÓıÐ°Ð½
Ð¸Ð·Ð°ÑĢ Ð¸ÑıÐ»ÑĬÐµ
ĠÑĢÐ¸ÐºÓıÐºÓı Ð°Ð´Ð°Ð»
Ð¸Ð¹ ÑģÐº
ĠÑĢÑĥÐºÑĬ Ð·Ð°Ð»Ð³Ð¸
ĠÑħÓĢ ÑĥÐºÐ¼Ñĥ
ĠÑħÓıÐ°Ð»ÑĤÓıÑĥÐ» Ð³Ð¸
Ð°Ð»Ð´Ð°ÑģÐ°Ð½ Ð³Ð¸
ĠÑĩÓıÐ² Ð°Ð´
ĠÑħÐ°Ð± Ð°Ð»ÑĬ
ĠÐ´Ð°Ð½Ð´ÑĩÓıÐ² Ð°ÑıÐ»ÑĬÑĥÐ»
ĠÐ´ÑĥÑĢ ÑĨ
ĠÐºÑĥÐ»ÑĮÑĤÑĥÑĢ Ð°Ð±Ð¸
ĠÑĨÐµÐ² ÐµÐ³Ð¾
ĠÑĤÓıÐ°Ð³Óı ÐµÐ»Ð°Ð»
ĠÐ¯ Ð¿Ð¾Ð½
ĠÐĲÐ½ Ð³Ð»
ĠÐ·Ð°Ðº Ð°ÑĤ
ĠÑĩÓĢ Ð°Ð³Ð¾
ĠÐ¶ÑĥÑĢÐ½Ð°Ð» Ð°Ð»
ĠÑĢÐ°Ñħ Ð°ÑĢÐ°Ð»
ĠÑħÐµÑĢ Ð°Ð¹
ĠÑĤÐ°Ð¼ Ð°Ð½Ñĩ
ĠÐ½Ð¸Ð³ÓıÐ¼Ð°ÑĤ Ð°Ð»Ð³Ð¸
ĠÐ±ÐµÑĢÐ±Ð°Ð»Ð°Ð³ÑĮ Ð¸ÑıÐ»Ð´Ð°
ĠÐ²Ð¸ÑĤÓı Ð¸Ð·Ðµ
ĠÑħÐ²ÐµÐ·Ð°Ð± ÑĥÐ½Ð°
ĠÐ³ÓıÐµÐ»Ð¼Ñĥ ÑıÐ»Ð´Ð°
ĠÐ³ÑĢ Ð°Ð´
Ġ199 6
Ġ13 0
ĠÐºÓıÐ°Ð½ÑĨÓı Ð°Ð½Ð°
ĠÑĢÐ¸ÐºÑĮ Ð¸
ĠÑĢÐ°Ñģ Ð°Ð½Ð´
ĠÐºÐ¾Ð»Ð»ÐµÐºÑĤÐ¸Ð² Ð°Ð»ÑĬÑĥÐ»
Ð±Ð¾ÑĨÓı ÑĥÑħÑĬÐ°Ð½
ĠÐ¼Ð°ÐºÑĬÐ°Ð» Ð°ÑıÐ»ÑĬÑĥÐ»
ĠÐ³ÑĮÐ°Ð»Ð¼Ð°Ð³ÑĬ Ð·Ð°Ð±Ð°Ð·
Ġ196 3
ĠÐºÐ°Ð³ÑĬÑĤ Ð¸Ð»
ÐºÑģ Ð¿ÐµÑĢÑĤ
ĠÐ³ÓıÑĥÐ¶ Ð´Ð°
ĠÑģÑĤÐ°ÑĤ ÑĮ
ĠÐºÑĮÑĥÑĢÐ´ Ð°Ð±Ð¸
ĠÐĹÐ°Ðº Ð°ÑĤ
ĠÑĦÐµÑĢÐ¼ ÐµÑĢÐ°Ð·ÑĥÐ»
ĠÐ¼Ð°ÑĤÐµÑĢÐ¸Ð°Ð» Ð°Ð»
ĠÐ±Ð¸Ð·Ð½ÐµÑģ Ð¼ÐµÐ½
ĠÐºÐ°Ð±Ð¸Ð½ ÐµÑĤÐ°Ð»Ð´Ð°
ĠÐĲÑĤ ÑĢÐ°Ñĩ
ĠÐ¿Ð¸ÐºÑĢ Ð°Ð±Ð°Ð·Ð´Ð°
ĠÑĤÐ¾Ð»Ð°ÑĢÐ¾ Ð°Ð½
ĠÐ²Ðµ ÐºÑĮ
ĠÐ³ÑĢÑĥÐ¿Ð¿ Ð°ÑıÐ»ÑĬÑĥÐ»
ĠÐºÐ¸Ð½Ð°Ð² Ð³Ð¾
ĠÐ±Ð¸Ð´ ÑĥÑĢÐ¸ÑħÑĮ
Ð£Ð½ ÐºÑĬ
ĠÐķÐ³Ð¸Ð¿ ÐµÑĤ
ĠÑĥÐ»Ð±ÑĥÐ· Ðµ
ĠÐľÐ°ÐºÑĬ ÑģÑĥÐ´
ÐļÐ°Ð²ÐºÐ°Ð· Ð°Ð»ÑĬÑĥÐ»
ĠÐ¡Ð°Ð³ÓĢ ÑĥÐ´Ð¸ÑıÐ·ÑĥÐ»
ÐĸÐ°ÐºÑĬ Ð°ÑģÐµÐ±
ĠÑĤÐ¾ÑĢ Ð³ÓıÐ¾
ÑĢÐ¾ÑĦÐ¸ÑĢÐ¼ Ð°ÑıÐ»ÑĬÑĥÐ»
ĠÐ¢ÑĥÑĪ Ð¼Ð°Ð½
ĠÐĵÑĮÐ°ÐºÑĬ Ð¾
ĠÐĲÐ²ÑĤÐ¾ÑĢ Ð°ÑģÑĥÐ»
Ð¿Ð°ÑĤ Ð°ÑħÓı
ĠÐ¼ÐµÐ³ ÐµÐ¶
4 2
8 8
Ġ /
Ð» Ð°Ð½Ð´
Ð°Ð± Ð°ÑĢÐ´
ĠÑħ Ð¸ÑģÐ°Ð±
ĠÐ³Óı ÐµÐ·
ÐµÐ» ÐµÐ±
ĠÐ»ÑĬ Ð°Ð³ÓĢ
ĠÐ½ Ð°ÑħÓı
ĠÐ³ÑĮÐ°Ð± ÑĥÐ´Ð°Ð»
Ð¸Ñģ ÐµÐ·Ð´Ð°
ĠÐºÑĬ Ð¾ÑĢÐ¾Ð»
ĠÐĵÑĮ ÐµÑĢ
Ð¿ Ð°Ð»
Ð¿ Ð»ÐµÐºÑģ
ĠÐ±ÑĥÐºÓı Ð°Ð½Ð¸Ñī
ĠÑĨÓı Ð°ÑĢÐ°Ð±
ĠÐ¥ ÑĥÐ½Ð·
ĠÐ¥ Ð°Ð¹Ð´Ð°ÐºÑĬ
ĠÐĲ ÑİÐ±
ĠÐºÑĮ Ð¸Ð½Ð´Ð°Ð»
ĠÐºÓı Ð¸ÑĩÓı
ĠÐºÓı Ð¸ÑĤÓıÐ°Ð»
ĠÐł Ðĵ
ÑĨÓı ÐµÑĢ
ĠÐ¡ ÑĥÐ°Ð»
ĠÐ¡ ÐļÐ¤
ĠÑĪ ÐºÐ»
ĠÐĳ Ð°Ñģ
Ð°Ð»Ð´Ðµ Ð³Ð¾
ĠÐ³ÑĮÐµÐ· Ð´Ð°Ð³Ð¸
ĠÑīÐ² ÐµÑıÐ»ÑĬ
ĠÐľÑĥÑħÓıÐ°Ð¼Ð°Ð´ ÑĤÓı
ĠÐ¦ Ðł
Ð°Ð¿ Ð°
ÑģÑĤ ÑĢÐ¾Ð¹
ĠÐĹ Ð°Ð¹Ð¸ÑĢ
ĠÑĢÐ°ÐºÑĮ Ð°
ĠÐºÐ¸Ð½ Ð°Ð»ÑĬÐ³Ð¾
ĠÑĥÐ½ÑĤ Ð°Ð±Ð°Ð·ÑĥÐ»
Ð¸Ð¹ Ð³Ð¾
Ð°Ð³ÓĢ Ð¸Ð»
ĠÑĪÐ°Ð³ÑĮÐ°ÑĢ Ð°Ð·Ð´Ð°ÑģÐ°
ÑĥÐ· Ð½
ĠÐ²Ð°ÑĩÓı Ð¸Ð½Ð´Ð°Ð»
ĠÑħÓıÐ¸ÑģÐ°Ð± ÐºÑĮÐµÐ¹
ÐĵÓı Ð¾Ð»
ĠÑĨÓıÐ°Ð»Ð´Ð¾ÑħÑĬ Ð°Ð±Ð¸Ð³Ð¸
ĠÑħÓĢ Ð°Ð¶
ĠÑħÓıÐ°Ð´ÑĥÑĢ Ð³Ð¾
ĠÑĩÓıÐ² Ð°ÑıÐ»Ð´Ð°
ĠÐ¤ Ð¾ÑĢ
19 12
Ġ6 6
ĠÑĨÓıÐµÑħ ÐµÐ´Ð°Ð»
ĠÐºÓĢ ÐºÓĢ
ĠÐľÑĥÑħÓı Ð°
Ð°ÑĨÐ¸Ñı Ð³Ð¸
ĠÐ¯ Ð½
ĠÐ°ÑģÐ°ÑĢ Ð³Ð¸
ĠÐĲÑħ Ð°Ð»
ĠÐ³ÓıÐ°Ð´Ð°Ð½ Ð»ÑĬÐ¸Ð³Ð¸
ĠÐºÐ¾Ð´ Ð¾Ñģ
ÐĵÑĮÐµÐ» Ðµ
Ð¸Ð½ÑĩÓı ÐµÐ²
ĠÐ´Ð°Ð³ÑĬÐ¸ÑģÑĤÐ°Ð½ Ð¸ÑıÐ·Ð´Ð°
ĠÐ¾Ð¿ÐµÑĢ Ð°ÑĤÐ¸Ð²Ð¸ÑıÐ±
ĠÐłÐµÑģÐ¿ÑĥÐ±Ð»Ð¸Ðº Ð°
ĠÐ³ÑĮÐ¾Ð± Ð¾
ĠÐ°ÑĢÐ¼ Ð¸Ñı
ĠÑĢÐµÐ³Ð¸Ð¾Ð½ Ð°Ð·Ð´Ð°ÑģÐ°
Ġ199 4
Ð°ÑĢÐ°Ð»ÑĬ ÑĥÑģÐ°
ĠÐ²Ð¸Ñī ÑĥÐ»Ð°
ĠÐ³ÓıÐ°ÐºÑĬÐ»Ñĥ ÑıÐ»ÑĬÑĥÐ»
ĠÐ³ÑĮÐµÐ½Ð¸Ð² Ð³Ð¾
ÐµÑģÑĤÐ²Ð¾ ÑıÐ»ÑĬÑĥÐ»
Ð°ÑĢÐ± Ð¸Ñı
ĠÐĲÐ´ Ð¼Ð¸Ð½Ð¸ÑģÑĤÑĢÐ°ÑĨ
ĠÐ±ÐµÑĤÓıÐµÑĢÐ³ÑĮÐ°Ð½ Ð°Ñģ
ĠÑİÐ±Ð¸Ð» ÐµÑıÐ»Ð´Ð°
ĠÑĩÓıÑĥÐ¶ÑĥÐ³ÓıÐ°Ð´Ð°Ð½ Ð°Ð»ÑĬ
ĠÐĶÐ¸Ð±Ð¸ÑĢ Ð°ÑģÑĥÐ»
ĠÐ¿ÑĢÐ¸Ð· ÑĭÐ²
ĠÑĢÐµÐºÓıÐµÐ» Ð³ÑĬ
ĠÐºÓıÐ¸ Ð°Ð±Ð¸Ð»ÐµÐ²
ĠÑĤÐµÐ»ÐµÑĦÐ¾Ð½ Ð°Ð»ÑĬ
ĠÑĨÓıÐ¸Ð´Ð°ÑģÐ°Ð½ Ð³Ð¸
ĠÐ±Ð°ÑĤÓĢ Ð¸ÑıÐ±
ĠÑĤÓıÐ¸ÑĢ Ð¸ÑĤÓıÑĥÐ½
ĠÑĩÓıÑĥÐ¶Ñĥ ÑıÐ»ÑĬ
ĠÐĹÐ°Ðº Ð°ÑĤÐ°Ð»
ĠÐ³ÑĮÐ°Ð¹Ð± Ð°ÑĤÐ°Ð»
ĠÑĢÐ¸ÑĨ ÑĥÐ½
ĠÐ²ÐµÑħÑĮ Ð°ÑģÑĥÐ»
ĠÑĨÑĨ Ð¸Ð´
ĠÐ¼ÑĥÑĦÑĤ Ð¸ÑıÑĤÐ°Ð»ÑĬÑĥÐ»
ĠÑĢÐ¾Ð³ÑĮ Ð¾
ĠÐ¸Ð½ÑĤÐµÑĢÐµÑģ Ð°Ð±
ĠÑģÐ¾Ð±ÑĢÐ°Ð½ Ð¸ÑıÐ»Ð´Ð°
ĠÐ±ÑĥÑĤÓıÑĢÑĥÐ· Ð´Ð°
ĠÑĨÓĢÐ¸ÐºÓĢÐºÓĢ Ð°ÑĢÐ°Ð±
ĠÐĴÐ°Ñģ Ð°ÑģÑĥÐ»
ĠÐ¿Ð¾ÑģÐµÐ» ÐµÐ½Ð¸ÑıÐ»ÑĬÑĥÐ»
ĠÐľÐµÐ´ Ð¶Ð¸Ð´
ĠÐ¼ÐµÑĤÐ¾Ð´ Ð¸ÑģÑĤ
ĠÐŁÐ°Ð¹ Ð·ÑĥÐ»
ĠÐĲÐ·ÐµÑĢÐ±Ð°Ð¹ Ð¶Ð°Ð½Ð°Ð»ÑĬÑĥÐ»
ĠÐ¨Ð°Ð¼Ñģ ÑĥÐ´Ð¸Ð½
ĠÐĹÐ°Ð³ÑĬÐ°Ð» Ð°Ð²
ĠÐ´ÑĢÐ°Ð¼ Ð°ÑĤÑĥÑĢÐ³
ĠÐ¢ÓıÐ¸Ð½ Ð°Ð¼ÑĥÑħÓıÐ°Ð¼Ð°Ð´
ĠÐĵÑĬÐ¾ÑĢ Ð»ÓĢÐµ
ĠÐĿÐ¸ÐºÐ¾Ð» Ð°Ð¹
ĠÑĪÐ°ÑĢÐ³ÓıÐ°Ð» Ð´Ð°
Ð¢ÓıÐ¸Ð½Ð´ Ð¸
7 5
Ð» Ð°Ð»ÑĬÑĥÐ»
Ð½ Ð¸Ð±
Ðº Ð°Ð½Ð³Ð¾
ĠÑĤ ÐµÑıÐ½
ÑĥÑĢ Ð°Ð·Ð´Ð°
ÑĥÑĢ Ð¸ÑģÐ°
ĠÐ¼ ÑĥÑħÓıÐ°Ð¼Ð°Ð´
ÑĨ ÐµÑĢÐµ
Ð´Ðµ Ð¹
ĠÑģ Ð¾ÑĤ
ĠÐ½ Ð°ÑıÐ»
Ð¾ÑĢ Ð¾ÑĪ
ĠÐ³ÑĮÐ°Ð± Ð¸ÑıÐ»Ð´Ð°ÑģÐ°
ĠÐºÑĬ Ð¸Ð±Ð»
Ð¾Ð² ÑģÐº
Ð¿ Ð°ÑĢÑĤ
Ð¿ Ð°Ð½Ð·
ÐºÑĮ ÑĥÐ½
ĠÑĩ Ð°Ð³ÑĬ
ĠÐļ ÑĥÐ»
ĠÐļ Ð¸Ð²
ĠÐļ Ð°ÑĢÑĤ
ĠÐł Ðŀ
Ð°Ð¶ Ð°Ð±
ĠÐ±Ðµ Ð³ÑĥÐ½
Ð°ÑĩÓı ÐµÐ»
ĠÐĳ Ð°ÑģÑĢ
ĠÑĢÑĥÐºÓı ÐºÓı
ÑĥÑĢÐ°Ð± Ð°Ð·ÑĥÐ»
ĠÑĢÐ°Ð¹Ð¾Ð½ ÑĨÐ¾ÑıÐ·Ðµ
ĠÑį Ð·ÑĥÐ»
ĠÐ¿ÑĢ Ð¸Ð½ÑĨ
ĠÐ¶Ð¸Ð½ Ð´Ð°ÑģÐ°Ð½
ÐµÐ³Ð¸ Ð¾Ð½
ĠÑĢÑĥÐ³ ÐµÐ²
ĠÐ´Ð°Ð½Ð´Ðµ Ð»ÑĬÐ¸Ð³Ð¸
ĠÐ±ÐµÑĢ Ð´Ð°
Ðļ ÓĢ
Ð°ÐµÐ² Ð³Ð¸
Ð¡ Ðļ
ĠÐ³ÑĮÐ°Ð½ Ð¸Ð±Ðµ
Ġ19 14
ĠÐ°Ð¼ Ð¸ÑĢ
ĠÐ²Ð°Ñģ Ð°Ð·
ĠÐ±Ð°ÐºÓıÐ°Ð» Ð´Ð°Ð³Ð¾
ĠÑĢÐµÑħ ÑĥÐ»ÐµÐ»
ĠÑģÐ¿ Ð¸ÐºÐµÑĢ
ĠÑħÑĬÑĥÐ»ÑĥÑħÑĬ ÑĩÐ°Ð³ÓıÐ¸
ĠÑĢÐ°Ð³ÑĮ ÑĥÐ»ÐµÐ»
ĠÐ³Ð°Ð·ÐµÑĤ Ð°Ð·Ð´Ð°
ĠÑħÓıÐ°Ð¶ Ð°Ð»ÑĬÑĥÐ»ÐµÐ»
Ð³ÓıÐ°Ð» Ð¸Ð»
ĠÐ¦Óı Ð°
ĠÐºÑĮÑĥÐ½ Ð¸Ð»Ð°
ĠÐºÐ²ÐµÑĢ Ð°Ð·
ĠÐĵÑĮÐµÐ½ Ð¸Ð±Ðµ
ÐĵÓı Ð°Ð´Ð°ÑĤ
ĠÑĤÐ°Ð´Ð±Ð¸ÑĢ Ð°Ð»Ð³Ð¸
ĠÐŃ Ð±
Ðĺ Ñģ
Ðĺ ÐĲ
ĠÐ°ÑģÐ» Ð¸ÑıÐ²
ĠÐ³ÑĮÐµÐ»ÑĬ ÑĥÑħÑĬÐµ
ĠÐ±Ð¸ÑĤÓı Ð°ÑħÑĬÐµÐ³Ð¾
ĠÐ²Ð°ÑħÑĬ Ð¸Ð·Ðµ
ĠÐºÐ²Ðµ Ð³ÑĬ
ĠÐ¤ Ð°Ð·ÑĥÐ»
ĠÑĨÐ¾Ð³Ð¸Ð´ Ð°Ð·ÐµÐ³Ð¸
ĠÑĢÐ¸ÑĤÓı ÑĥÐ»Ð°
ĠÐŀ Ðº
ĠÐ½ÑĥÐ¶Ðµ ÑħÑĬÐµ
ĠÐ±Ð°Ñħ ÓĢÐ°ÑĢ
Ð£ ÐºÑĢÐ°Ð¸Ð½
ĠÐºÑĥÐ»ÑĮÑĤÑĥÑĢ Ð¸ÑıÐ»
ĠÑĨÐµÐ² ÐµÐ²
ĠÐºÓıÐ°Ð» Ð³Ð¸
ĠÑĩÓıÐµÐ·Ð°Ð± Ð¸ÑıÐ»Ð´Ð°
Ð¨ ÐºÐ¾Ð»Ð°
ĠÐĲÐ²Ð°ÑĢ Ð¸ÑģÑĤÐ°Ð½Ð°Ð»ÑĬÑĥÐ»
ĠÑĤÓıÐ¾ÐºÓı Ð°Ð»ÑĬ
ĠÑħÓıÑĥÐ¶ Ð°Ð±Ð°Ð·ÑĥÐ»
ĠÐ¿Ð°ÑĢÑĤ Ð¸ÑıÐ»ÑĬ
ÐĵÑĮÐµÐ» Ð´Ðµ
ĠÐ»ÑĬÐ¸Ð¼Ð°Ð»Ð°Ð·Ðµ Ð³Ð¸
ĠÑįÐºÐ¾Ð½Ð¾Ð¼ Ð¸ÑģÑĤ
ĠÐºÑĮÐµÑĢ Ð°Ð·ÑĥÐ»ÑĬ
Ð¶Ð°Ð½ Ð°ÑĤ
ĠÐ¿ÑĢÐ¾Ð³ÑĢÐ°Ð¼Ð¼ Ð°Ð±Ð¸
ĠÑĢÐ°ÐºÓıÐ± Ð°ÑĨÓıÑĨÓı
ĠÑĢÐ¸Ñĩ Ð¸Ð·Ðµ
ĠÑģÐ¸ÑģÑĤÐµÐ¼ Ð°ÑıÐ»ÑĬÑĥÐ»
Ġ196 4
ĠÐ½ÑĥÑħÐ¼Ð°Ð»ÑĬÑĥÐ»ÐµÐ» Ð³ÑĥÐ½
ÐĲÑħÐ¸ÑĢ Ð°Ð»
ĠÑģÐ°Ð´ Ð¸Ðº
Ġ195 0
[...]
