{"<s>":0,"<pad>":1,"</s>":2,"<unk>":3,"<mask>":4,"!":5,"\"":6,"#":7,"$":8,"%":9,"&":10,"'":11,"(":12,")":13,"*":14,"+":15,",":16,"-":17,".":18,"/":19,"0":20,"1":21,"2":22,"3":23,"4":24,"5":25,"6":26,"7":27,"8":28,"9":29,":":30,";":31,"<":32,"=":33,">":34,"?":35,"@":36,"A":37,"B":38,"C":39,"D":40,"E":41,"F":42,"G":43,"H":44,"I":45,"J":46,"K":47,"L":48,"M":49,"N":50,"O":51,"P":52,"Q":53,"R":54,"S":55,"T":56,"U":57,"V":58,"W":59,"X":60,"Y":61,"Z":62,"[":63,"\\":64,"]":65,"^":66,"_":67,"`":68,"a":69,"b":70,"c":71,"d":72,"e":73,"f":74,"g":75,"h":76,"i":77,"j":78,"k":79,"l":80,"m":81,"n":82,"o":83,"p":84,"q":85,"r":86,"s":87,"t":88,"u":89,"v":90,"w":91,"x":92,"y":93,"z":94,"{":95,"|":96,"}":97,"~":98,"¡":99,"¢":100,"£":101,"¤":102,"¥":103,"¦":104,"§":105,"¨":106,"©":107,"ª":108,"«":109,"¬":110,"®":111,"¯":112,"°":113,"±":114,"²":115,"³":116,"´":117,"µ":118,"¶":119,"·":120,"¸":121,"¹":122,"º":123,"»":124,"¼":125,"½":126,"¾":127,"¿":128,"À":129,"Á":130,"Â":131,"Ã":132,"Ä":133,"Å":134,"Æ":135,"Ç":136,"È":137,"É":138,"Ê":139,"Ë":140,"Ì":141,"Í":142,"Î":143,"Ï":144,"Ð":145,"Ñ":146,"Ò":147,"Ó":148,"Ô":149,"Õ":150,"Ö":151,"×":152,"Ø":153,"Ù":154,"Ú":155,"Û":156,"Ü":157,"Ý":158,"Þ":159,"ß":160,"à":161,"á":162,"â":163,"ã":164,"ä":165,"å":166,"æ":167,"ç":168,"è":169,"é":170,"ê":171,"ë":172,"ì":173,"í":174,"î":175,"ï":176,"ð":177,"ñ":178,"ò":179,"ó":180,"ô":181,"õ":182,"ö":183,"÷":184,"ø":185,"ù":186,"ú":187,"û":188,"ü":189,"ý":190,"þ":191,"ÿ":192,"Ā":193,"ā":194,"Ă":195,"ă":196,"Ą":197,"ą":198,"Ć":199,"ć":200,"Ĉ":201,"ĉ":202,"Ċ":203,"ċ":204,"Č":205,"č":206,"Ď":207,"ď":208,"Đ":209,"đ":210,"Ē":211,"ē":212,"Ĕ":213,"ĕ":214,"Ė":215,"ė":216,"Ę":217,"ę":218,"Ě":219,"ě":220,"Ĝ":221,"ĝ":222,"Ğ":223,"ğ":224,"Ġ":225,"ġ":226,"Ģ":227,"ģ":228,"Ĥ":229,"ĥ":230,"Ħ":231,"ħ":232,"Ĩ":233,"ĩ":234,"Ī":235,"ī":236,"Ĭ":237,"ĭ":238,"Į":239,"į":240,"İ":241,"ı":242,"Ĳ":243,"ĳ":244,"Ĵ":245,"ĵ":246,"Ķ":247,"ķ":248,"ĸ":249,"Ĺ":250,"ĺ":251,"Ļ":252,"ļ":253,"Ľ":254,"ľ":255,"Ŀ":256,"ŀ":257,"Ł":258,"ł":259,"Ń":260,"Ð°":261,"Ð°Ð":262,"ĠÐ":263,"Ð¸":264,"Ñĥ":265,"Ðµ":266,"Ð»":267,"ÑĢ":268,"Óı":269,"ÑĬ":270,"Ð¾":271,"Ð°Ð»":272,"Ð½":273,"ĠÑ":274,"ÑĮ":275,"Ð°Ñ":276,"Ð³":277,"Ð´":278,"ÑĥÐ»":279,"ĠÐ³":280,"Ð¸Ñ":281,"Ðº":282,"Ð°Ð±":283,"Ð±":284,"ĠÐ±":285,"Ð°Ð½":286,"Ð°ÑĢ":287,"ÑĥÐ½":288,"ĠÐº":289,"ĠÐ³ÑĮ":290,"ĠÑĢ":291,"Ð²":292,"Ð»ÑĬ":293,"ÑĤ":294,"Ñģ":295,"Ð¼":296,"Ð·":297,"Ñħ":298,"Ð¸Ð½":299,"Ð°Ð»ÑĬ":300,"Ð³Ð¾":301,"Ð°Ð³":302,"Ð´Ð°":303,"Ð¸Ñı":304,"ĠÑħ":305,"Ð°Ð·":306,"ÐµÐ±":307,"Ð³Ð¸":308,"Ð°Ð´":309,"Ð°Ñģ":310,"ĠÐ±Ñĥ":311,"Ð°ÑĤ":312,"ÐºÓı":313,"Ð°Ñħ":314,"ĠÐ³Óı":315,"ĩÓı":316,"ÐµÑĢ":317,"ÐµÐ»":318,"ĠÐ²":319,"ĠÑĨ":320,"ĠÑĤ":321,"ÑĥÑĢ":322,"Ð°Ð¼":323,"Ð°Ðº":324,"Ð°Ð»ÑĬÑĥÐ»":325,"Ð¸Ð»":326,"ĠÐĵ":327,"ĠÐ¼":328,"Ð¾Ð»":329,"ĠÐ³ÑĮÐµ":330,"Ð¸Ð·":331,"ÓıÐ°Ð»":332,"ÑĥÑħ":333,"Ð»ÑĬÑĥÐ»":334,"ÑĨ":335,"ĠÐ»":336,"Ð°Ð½Ð°":337,"Ð´Ðµ":338,"Ð¾Ð½":339,"ĠÐ»ÑĬ":340,"Ð°Ð¹":341,"ĠÐ´":342,"ĠÑģ":343,"ĠÐ½":344,"Ñı":345,"Ð°Ð»Ð´Ð°":346,"ÑĤÓı":347,"Ð¾ÑĢ":348,"ĠÐ³ÑĮÐ°Ð±":349,"ĠÐ¶":350,"Ð¸ÑĢ":351,"Ð°Ñı":352,"ĠÑĤÓı":353,"ÑĩÓı":354,"Ð¸Ñģ":355,"čĊ":356,"ĠÐºÑĬ":357,"Ð°Ð²":358,"ÓĢ":359,"Ð¾Ñģ":360,"ĠÑĢÑĥ":361,"ĠÐĵÑĮ":362,"ĠÐ²Ð°":363,"Ð°ÑħÑĬ":364,"Ð¸Ð·Ðµ":365,"ÐºÑĬ":366,"Ð°ÑĢÐ°Ð±":367,"ĠÐ±ÑĥÐ³Ð¾":368,"Ð°Ð³Óı":369,"Ð¾Ð²":370,"Ð°Ð·ÑĥÐ»":371,"Ð¸ÑıÐ»":372,"ĠÐºÐº":373,"Ð¶":374,"Ñĩ":375,"Ð°Ð³ÑĮ":376,"Ð¸Ñħ":377,"Ð¸ÑıÐ±":378,"Ð¸ÑĨ":379,"ĠÐ¿":380,"ĠÐľ":381,"ÐµÐ½":382,"ÐµÐ·":383,"ĠÑħÓı":384,"Ð¿":385,"ĠÐ±ÑĥÐºÓı":386,"Ð³ÑĮ":387,"ĠÑĨÓı":388,"ÐºÑĮ":389,"ĠÐ¸":390,"Ð´Ð°Ñģ":391,"Ð¸ÑĤ":392,"Ð¸Ð±":393,"Ð³Óı":394,"ÐµÐ²":395,"ÑĥÑħÑĬ":396,"Ð¸Ð¼":397,"ĠÑĢÐµ":398,"ÑĥÐ½Ð°":399,"ĠÑī":400,"ĠÑĩ":401,"ĠÑħÓıÐ°Ð»":402,"ÑĥÐ¼":403,"Ð¸ÑıÐ»ÑĬÑĥÐ»":404,"ĠÐ¥":405,"Ð°ÐºÑĬ":406,"ĠÐĲ":407,"ĠÐºÑĮ":408,"ĠÐ°Ð±":409,"Ð»ÑĬÐ¸":410,"ĠÐºÓı":411,"Ð¹":412,"Ð°ÑĢÐ°Ð»":413,"ĠÑĨÐ¾":414,"Ð°Ð±Ð¸":415,"Ð°ÑħÓı":416,"Ð°Ð·Ðµ":417,"ĠÑħÓıÐ°Ð»ÑĤÓı":418,"Ð°Ð³ÑĬ":419,"Ð°ÑĨ":420,"Ð¸Ðº":421,"ĠÐ·":422,"ÑĥÐ»ÐµÐ±":423,"ĠÐĶ":424,"ĠÑĢÐ¾Ñģ":425,"ĠÐļ":426,"Ð¸Ð»ÑĬ":427,"Ð´Ð°Ð»":428,"Ð´Ð°ÑģÐ°":429,"ĠÐ³ÑĮÐµÐ±":430,"ÐµÑģ":431,"ĠÐ±ÑĥÐ³":432,"Ð¸ÐºÓı":433,"ÑĥÐ±":434,"Ð¸ÑģÑĤ":435,"Ð¾Ð±":436,"Ð°ÑĤÓı":437,"ĠÐł":438,"ÐµÐ´":439,"ĠÐ³ÓıÐ°Ð´":440,"ÑĥÐ»Ð°":441,"ĠÐºÐºÐ¾Ð»":442,"ĠÑģÐ¾Ð½":443,"Ð°Ð·Ð´Ð°":444,"Ġ\"":445,"ÑĥÑģ":446,"ĠÐĵÓı":447,"ÑħÑĬ":448,"Ð¸Ð´":449,"Ð¸ÑħÑĮ":450,"Ð°Ð¶":451,"Ð°ÑıÐ»":452,"ÑĥÑħÓı":453,"ĠÑħÑĬ":454,"Ð¸Ð³Ð¸":455,"ÑĨÓı":456,"Ð»ÑĬÑĥÐ½":457,"ĠÐ²Ñĥ":458,"ÑĩÓıÐ¾":459,"Ð°Ñĩ":460,"ĠÐ±Ðµ":461,"ĠÑĩÓı":462,"ÑıÐ»":463,"ÑĢÑĥ":464,"Ð°ÑĩÓı":465,"Ð°Ð³Ð¸":466,"Ð¸ÑĤÓı":467,"ÐµÐ¼":468,"ĠÐ¡":469,"ĠÑĪ":470,"ÐµÑħ":471,"Ð¸Ð½Ð°Ð±":472,"ĠÑı":473,"Ð°ÑģÑĥÐ»":474,"Ð³ÑĥÐ½":475,"Ðĵ":476,"ÐµÐº":477,"ĠÐĳ":478,"ÑĪ":479,"Ð°Ð³Ð¾":480,"Ð°ÑıÐ»ÑĬÑĥÐ»":481,"ÑĥÐ´":482,"ĠÑĢÐ°Ð¹":483,"Ð°Ð»Ð´Ðµ":484,"ĠÑĢÑĥÐºÓı":485,"Ð°Ð¼Ð°Ð´":486,"Ġ1":487,"Ð°ÐºÓı":488,"ÑĥÑĢÐ°Ð±":489,"ĠÐºÑĬÐ¾":490,"ÐµÐ·Ðµ":491,"ĠÐ³ÑĬ":492,"ĠÐ½ÑĥÑħ":493,"ĠÑĤÓıÐ°Ð´":494,"Ġ(":495,"Ð²Ð°ÑĢ":496,"ĠÐ³ÑĮÐ°ÑĢ":497,"ĠÐ½Ð¸Ð»ÑĬ":498,"Ð¸ÑĨÐ°":499,"ÑĥÑħÓıÐ°Ð¼Ð°Ð´":500,"ĠÑĢÐ°Ð¹Ð¾Ð½":501,"ÐµÑĤ":502,"Ð¸Ñī":503,"ĠÐ±ÑĥÐ³ÐµÐ±":504,"ĠÑĢÑĥÐ³Ð¾":505,"Ð¾ÑĢÐºÑĮ":506,"Ð¸Ð²":507,"ĠÐ³ÑĮÐµÐ»":508,"ĠÐ³ÑĮÐµÑģ":509,"ÐµÐ¹":510,"Ð¸Ðµ":511,"ÑħÓı":512,"ÑıÐ»ÑĬÑĥÐ»":513,"ĠÐ³ÑĮÐµÐ·":514,"ĠÐ¥Óı":515,"Ð¸Ð¶":516,"Ð¸ÑĩÓı":517,"Ð¸ÑıÐ»Ð´Ð°":518,"ÑĥÐ»ÐµÐ»":519,"ĠÑĢÐ°ÑħÑĬ":520,"Ð¸ÑıÐ»ÑĬ":521,"ĠÑīÐ²":522,"ĠÐ»ÑĬÑĥ":523,"ĠÑĥÐ½":524,"Ð°Ð»ÑĬÐµ":525,"Ð¾Ð¼":526,"ĠÐ¸Ð½":527,"Ð°ÑıÐ»Ð´Ð°":528,"ĠÐ´Ð°Ð½":529,"Ð¾Ð´":530,"Ð³ÑĬ":531,"ĠÐľÑĥÑħÓıÐ°Ð¼Ð°Ð´":532,"Ñī":533,"ĠÐºÐºÐ¾Ð»Ð°":534,"Ð¸Ð½Ðµ":535,"ĠÐ³ÓıÐ°Ð´Ð°Ð¼":536,"ĠÑį":537,"ÐµÐ¼ÐµÑĢ":538,"Ð¸Ð½Ð°Ð»":539,"Ð¸ÑģÑĤÐ°Ð½":540,"ĠÐ±Ð¸ÑĨ":541,"Ð°ÑĢÐ¾":542,"ĠÐ¢":543,"Ð³ÓıÐ°Ð½":544,"ĠÐ±Ð¾":545,"ĠÐ·Ð°Ð¼":546,"ÐĵÑĮ":547,"ĠÐ³ÑĮÐµÑĩÓıÐ¾":548,"ĠÐ±ÑĥÐºÓıÐ°Ð½Ð°":549,"ĠÐ³ÑĥÑĢ":550,"Ð¸Ñĩ":551,"Ð°Ð³ÑĬÐ¸ÑģÑĤÐ°Ð½":552,"ÑĥÐ»ÑĬ":553,"ĠÐ¦":554,"Ð¸Ð·Ð°Ð±":555,"Ð¸Ð»Ð°":556,"ĠÐĿ":557,"Ð°Ð±Ð°Ð·ÑĥÐ»":558,"ĠÐ¿ÑĢ":559,"ĠÐºÐ²":560,"Ð°ÑħÑĮ":561,"Ð¼Ð°":562,"ĠÐ»ÑĬÐ¸ÐºÓı":563,"ĠÐ¶Ð¸Ð½":564,"ÐºÐ¾Ð»":565,"ĠÐ³ÑĮÐ¾ÑĢÐºÑĮ":566,"ĠÐ»ÑĬÐ¸Ð¼":567,"Ð°ÑĢÐ°Ð²":568,"ĠÑĨÓıÐ°Ð»":569,"ĠÐ²ÑĥÐºÓı":570,"Ð°ÐºÓıÐ°Ð»":571,"Ġ2":572,"ĠÐĵÑĮÐµÐ±":573,"ĠÐ³ÓıÐµÐ¼ÐµÑĢ":574,"Ð¸Ð´Ð°":575,"Ð¾ÑĨ":576,"Ġ-":577,"ĠÐ·Ð°Ð¼Ð°Ð½":578,"ĠÐ±Ð¸ÑħÑĮ":579,"Ð¾ÑħÑĬ":580,"ÑĥÐ¶":581,"ÐµÐ³Ð¸":582,"âĢ":583,"ĠÐ¾":584,"ĠÑĢÑĥÐ³":585,"ĠÑĢÐµÑģ":586,"ĠÑħÐ°Ð»":587,"Ð¸ÐºÓıÐºÓı":588,"ĠÐ¼Ð°Ð³Óı":589,"ĠÐ³ÑĮÐ°Ð±Ð¸Ð·Ðµ":590,"ĠÑħÑĬÐ²":591,"ÑĨÐ°":592,"ĠÑĢÐ¾":593,"ĠÐ½Ð¸Ð»ÑĬÐµÑĢ":594,"Ð°Ð½Ð¸":595,"ĠÐĶÐ°Ð³ÑĬÐ¸ÑģÑĤÐ°Ð½":596,"Ð°Ð»Ð°":597,"Ð¸Ð»Ð°Ð½":598,"ĠÐ°Ñģ":599,"ĠÐ¨":600,"Ð°Ð±Ð°Ð·":601,"ĠÐ³ÓıÐ¾Ð»":602,"ĠÑħÐ°Ð´":603,"ÑıÐ»ÑĬ":604,"ĠÐ´Ð°Ð½Ð´Ðµ":605,"Ð¼Ð°ÑĤ":606,"ĠÑĢÐ°Ð¹Ð¾Ð½Ð°Ð»ÑĬÑĥÐ»":607,"ĠÐ±ÑĥÐºÓıÐ¸Ð½":608,"Ð´ÑĥÐ»":609,"ÑĥÑĤ":610,"ĠÐĺ":611,"ĠÐ°Ð±ÑĥÐ½":612,"Ð°Ð»Ð³Ð¸":613,"ĠÐ³ÑĮÐµÑĩÓı":614,"Ð°ÐºÑĮ":615,"ÑĤÓıÐµÑĢ":616,"Ð¸ÑħÑĬ":617,"ÑĥÐ¼ÑĢÑĥ":618,"ĠÐ³ÑĮÐ°Ð±ÑĥÐ½":619,"Ð¾Ð²Ð°Ñģ":620,"ÑĥÑĤÓı":621,"ĠÐ³ÑĮÐµÐ½":622,"ÐµÐ±Ðµ":623,"ĠâĢ":624,"Ð´Ð°ÑģÐ°Ð½":625,"Ð¸Ð´Ðµ":626,"ĠÐ±Ð°ÐºÓı":627,"ĠÑĩÐ¸":628,"ĠÐ±Ð¾Ñģ":629,"ĠÐŁ":630,"Ð°Ðµ":631,"ĠÐ±ÐµÑĢ":632,"ĠÑĨÐ¾Ð³Ð¸":633,"ĠÐ½Ð¸Ð¶":634,"Ð¾Ð³Ð¾":635,"ĠÐ´ÑĥÐ½":636,"ĠÐ»ÑĬÑĥÐ³ÑĮ":637,"Ð¸ÐºÑĬ":638,"ĠÐ³ÑĮÐ°Ð±ÑĥÐ»ÐµÐ±":639,"ÐĶ":640,"ĠÐ±Ð°ÑħÑĬ":641,"Ð·ÑĥÐ»":642,"ĠÐĵÓıÐ°Ð±":643,"ĠÐ±ÐµÑĤÓıÐµÑĢ":644,"Ðł":645,"Ð°ÑĪ":646,"ĠÑĪÐºÐ¾Ð»":647,"ĠÑĢÐ¾ÑģÐ´Ð°Ð»":648,"ĠÑĢÐ°Ð³ÑĬ":649,"ĠÐ±Ð°Ð¹":650,"Ð¸ÑıÑģ":651,"ĠÐ³ÓıÑĥÐ¼ÑĢÑĥ":652,"Ð°Ð»ÑĬÑĥÐ½":653,"ÑĥÑĢÐ°Ð»":654,"ĠÐ¶Ð¸Ð½Ð´":655,"Ð°ÑħÑĮÐ°Ð»":656,"ÑĦ":657,"ÑĥÑĨÓı":658,"ĠÑĦ":659,"ĠÐ½Ð°ÑħÑĬ":660,"ĠÐ¶Ð¾":661,"ĠÐ³ÑĮÐµÐ´":662,"Ð°ÑıÐ»ÑĬ":663,"ĠÑĢÐ°Ð³Óı":664,"Ð°ÑĨÓı":665,"Ðļ":666,"ÐĲ":667,"ĠÐ±Ð°ÑĤ":668,"ĠÐ½ÑĥÑħÐ¼":669,"ĠÐĵÑĮÐµÐ´":670,"ĠÐ±Ð¾ÐºÑĮ":671,"ĠÐ¶Ð°Ð½":672,"Ð°Ð¿":673,"ĠÐĽ":674,"ĠÐ±ÐµÐ³ÑĮ":675,"ĠÑĨÓıÑĥÐ½":676,"Ð°Ð»Ð´Ð°ÑģÐ°":677,"ĠÐłÐ¾Ñģ":678,"ĠÑīÐ¸Ð±":679,"ÐµÐ½ÑĤ":680,"Ð¸Ð³Ð¾":681,"ĠÑĢÐµÐºÑĬ":682,"ĠÐºÓıÑĥÐ´":683,"Ð°Ð³ÓıÐ°ÑĤ":684,"Ð°ÐµÐ²":685,"ĠÐ¸ÑĪ":686,"Ð´Ð°Ð³Ð¸":687,"Ð°ÑĢÐº":688,"ĠÑĢÐ¾ÑģÑĥÐ»ÑĬ":689,"ĠÐ³ÑĮÐ°Ð±ÑĥÐ½Ð°":690,"ĠÐĴ":691,"ĠÐ°ÑħÓı":692,"ĠÐ´Ð¸ÑĢ":693,"Ð¾Ðº":694,"ÑħÑĥÐ½":695,"ĠÐ³ÓıÑĥÑĨÓı":696,"ĠÐ³ÓıÐ°ÑħÑĮÐ°Ð»":697,"ÑĥÐ½ÐµÐ±":698,"ÑĨÐ¾":699,"Ñİ":700,"Ð¸Ð½Ð³Ð¾":701,"Ð¥":702,"ĠÐ³ÓıÐ°ÑĢ":703,"Ð¸Ð½Ð¸ÑģÑĤ":704,"Ð¡":705,"ĠÐĸ":706,"ĠÑģÑĥ":707,"ĠÐ³ÑĮÐµÐ²":708,"ĠÐ¹":709,"ĠÑĤÓıÐ°Ð´Ðµ":710,"ĠÐ³ÓĢ":711,"Ð°Ð½Ð¸Ð³Ð¸":712,"Ð±Ð¸ÑħÑĮ":713,"Ð¸Ð»ÐµÐ±":714,"ÑıÐ»Ð´Ð°":715,"ĠÑĨÐµÐ±Ðµ":716,"ĠÑĢÑĥÐ³ÐµÐ»":717,"Ð¼Ð°Ð½":718,"ĠÑģÐ¾Ð½Ð°Ð»ÑĬ":719,"ĠÐ²ÑĥÐ³Ð¾":720,"ĠÐ»ÑĬÐ¸Ð¼Ð°Ð»":721,"ĠÐ°Ð²":722,"ĠÐĲÐ»":723,"00":724,"ĠÐ¼ÐµÑħ":725,"Ð°Ð»Ð°Ð³ÑĮ":726,"ĠÐºÑĮÐ¾Ð»":727,"ÐµÐ»ÑĮ":728,"ÑĥÐº":729,"Ð»Ð°Ð³ÑĮ":730,"Ð²Ð°Ð»":731,"Ð¸ÑıÐ»Ð´Ðµ":732,"ĠÑħÐ°Ñģ":733,"Ð°ÑĤÐ°Ð»":734,"Ð°ÑĢÑĥÐ»":735,"ĠÐĵÑĮÐµÐ»":736,"ĠÐ³ÑĮÐ°Ð½":737,"ĠÐļÑĬ":738,"Ġ19":739,"Ð¸ÐµÐ²":740,"ĠÑħÓıÐ°Ð»ÑĤÓıÐ¸":741,"Ðľ":742,"ĠÐ¼Ñĥ":743,"ĠÑĢÐ°ÑĩÓı":744,"Ð¸ÑıÐ»ÑĬÐµ":745,"ÐµÐ»ÑĬÑĥÐ»":746,"ĠÐ»ÑĬÐ°Ð»":747,"ĠÐĵÑĬ":748,"ÑģÑĤ":749,"ÑĥÐ¼ÐµÐº":750,"Ð»Ð¸Ðº":751,"ÐµÐ·Ð°Ð±":752,"ĠÐ§":753,"ĠÐĲÐ¼":754,"Ð´Ð°Ð»ÑĬÑĥÐ½":755,"Ð¸ÑĪ":756,"ĠÐ¢Óı":757,"ÑĥÑĩ":758,"ĠÐ°Ð´":759,"ĠÑħÐ°Ð»ÐºÑĬ":760,"Ð¿ÑĥÐ±":761,"ĠÐ°Ð¼":762,"ĠÑħÑĮ":763,"Ð°Ð´Ð°ÑħÑĬ":764,"ĠÐ±Ð°ÑĩÓı":765,"Ð¿ÑĥÐ±Ð»Ð¸Ðº":766,"ĠÐ¶Ð¸Ð½Ð´Ð¸ÑĢ":767,"ĠÐĹ":768,"ĠÑħÐ°Ð´ÑĥÐ±":769,"ĠÐºÑĥÐ¼ÐµÐº":770,"ĠÐ²Ð°Ñģ":771,"Ð¸Ð»Ð»":772,"ĠÑħÓıÐ°ÐºÑĬ":773,"ĠÐ°Ð±ÑĥÑĢÐ°Ð±":774,"ĠÑģÑĥÐ°Ð»":775,"ĠÑĢÐ°ÐºÓı":776,"ĠÐ°Ð½":777,"ĠÐºÑĬÐ²":778,"ĠÑĨÓıÐ¸ÐºÓıÐºÓı":779,"Ð¸Ð½Ð¸ÑģÑĤÑĢ":780,"ĠÐ±Ð°ÐºÓıÐ°Ð»":781,"ÑħÑĮ":782,"ĠÐºÐ¸Ð½Ð°Ð±":783,"Ð°Ð¼Ð¸Ð»":784,"Ð°Ð´Ð°":785,"Ð³Ð¸Ð»":786,"Ð°ÑĩÐ°Ð»":787,"ĠÑĢÐµÐºÑĬÐ¾Ð½":788,"ÐµÐºÑĤ":789,"ĠÐºÐ¾Ð¼":790,"Ðĳ":791,"Ð¾Ð³":792,"Ð¸ÑıÐ²":793,"Ð°Ð»ÑĬÑĥÐ»ÑĬ":794,"Ð²ÐµÑĢ":795,"ĠÐ±Ð°Ð¹Ð±Ð¸ÑħÑĮ":796,"Ð½Ð¸Ð³Ð¸":797,"ĠÐ±Ð°ÑĤÓı":798,"ĠÑĨÐ°Ð´Ð°ÑħÑĬ":799,"Ð¸Ð¼Ð°ÑĤ":800,"ĠÐ³ÑĮÐµÑģÑĥÐ»":801,"ĠÐĵÓıÐ°Ð±Ð´ÑĥÐ»":802,"ĠÐ°Ñħ":803,"ÐºÓĢ":804,"ĠÐ³ÑĮÐµÐ·ÑĥÐ»":805,"ĠÑĢÐ°ÐºÑĮ":806,"Ð¸ÑģÐ°":807,"ÑĥÐ»ÐµÐ²":808,"ĠÑĢÑĥÐºÓıÐ°Ð½Ð°":809,"Ð¸ÑıÑĤ":810,"ĠÑĤÓıÐ¾Ð±":811,"Ð¾ÑĢÑĤ":812,"ĠÐĶÐ°Ð³ÑĬÐ¸ÑģÑĤÐ°Ð½Ð°Ð»ÑĬÑĥÐ»":813,"ĠÐºÓıÑĥÐ´Ð¸ÑıÐ±":814,"ÑıÐ±":815,"ĠÑĤÓıÐ¾Ð±Ð¸ÑĤÓı":816,"Ð°Ð·Ð°Ð±":817,"Ð°Ð»Ð¸ÑıÐ±":818,"ĠÑħÑĥÑĤÓı":819,"ĠÐºÐ¸Ð½":820,"Ð¸ÑĩÑĩ":821,"Ð¸Ð´ÐµÑĢ":822,"ĠÑĨÐµÑĢ":823,"ĠÑĨÓıÐ°ÑĢ":824,"ĠÑĤÐ°ÑĢ":825,"Ð°Ð±Ð¸Ð»ÐµÐ±":826,"ĠÑĤÓıÑĥÐ±":827,"ÐµÑıÐ»ÑĬÑĥÐ»":828,"Ð¾Ð½Ð¸":829,"Ð°Ð½Ð´":830,"ĠÐłÐ¾ÑģÑģ":831,"ĠÐĽÑĬ":832,"ĠÑĪÐ°Ð³ÑĮ":833,"ĠÐ£":834,"Ð°Ð±Ð°Ð·Ð´Ð°":835,"ĠÐ³ÑĮÐµÐ»ÑĬÑĥÐ»":836,"ĠÐºÑĬÐ°Ð´":837,"ÑĥÑħÑĬÐµ":838,"ĠÐ½Ð¸Ð»ÑĬÐµ":839,"ĠÐ´Ð°Ð³ÑĮ":840,"ÐµÑģÐµÐ±":841,"Ð¾ÑĤ":842,"ĠÐºÐ¸Ð½Ð°Ð»":843,"ĠÐ½Ð°ÑħÑĬÐµ":844,"ÑĥÑĨ":845,"ĠÐ°Ð¼Ð¼Ð°":846,"ĠÐĲÐ»Ð»Ð°Ð³ÑĮ":847,"ĠÑħÐ²":848,"Ð°ÑĤÐ°Ð»ÑĬÑĥÐ»":849,"ĠÑħÓıÐ°Ð»ÑĤÓıÑĥÑħÑĬ":850,"ĠÑĨÓıÐ°ÐºÑĬ":851,"Ð°ÐºÑĬÐ°":852,"Ð¸ÑīÑĥÐ½":853,"Ð¸Ð³":854,"..":855,"ĠÐ½ÑĥÑħÐ¼Ð°Ð»ÑĬÑĥÐ»":856,"ĠÑĢÐµÑģÐ¿ÑĥÐ±Ð»Ð¸Ðº":857,"ĠÐ³ÑĮÐ°Ð±ÑĥÑĢÐ°Ð±":858,"Ð°Ð¸":859,"Ð±ÐµÐ»":860,"ÑĢÐ°Ð¼":861,"ĠÐ·Ð°ÑħÓı":862,"Ð°ÑĢÑĤ":863,"Ð½Ð¸Ðº":864,"ĠÐ±ÑĥÐºÓıÐ°ÑĢÐ°Ð±":865,"Ð¸Ð·Ð°ÑĢ":866,"Ð¸Ð¿":867,"ĠÐ³ÓıÐ°Ð´Ð°Ð¼Ð°Ð»":868,"Ð»ÑĬÐ¸ÑıÐ»ÑĬÑĥÐ»":869,"Ð°Ð·Ð´Ðµ":870,"ÐµÑĩÓıÐ¾":871,"ÐµÑģÑĤ":872,"Ð¼Ð¸Ð½Ð¸ÑģÑĤÑĢ":873,"Ð¸ÑĩÓıÐ¾Ð³Ð¾":874,"ÑĩÐ¸":875,"Ð°ÑıÐ½":876,"ĠÐºÐºÐ¾Ð»ÐµÐ±":877,"Ñĭ":878,"ÑĥÑĢÐ°Ð´":879,"ĠÐ¶Ð°Ð¼":880,"ĠÐ·Ð°Ð¼Ð°Ð½Ð°Ð»Ð´Ð°":881,"ĠÐ³ÑĮÐ¾ÑĢÐºÑĮÐ¾Ð±":882,"ĠâĢĵ":883,"ĠÐĲÐ¼Ð¼Ð°":884,"ĠÐºÑĬÐ²Ð°ÑĤÓı":885,"Ð¼Ð°Ð´":886,"ÐĿ":887,"Ð°Ð±Ð³Ð¾":888,"ĠÑıÑģ":889,"Ð°Ð·Ð°ÑĢ":890,"ĠÑĢÐµÑħ":891,"Ð°ÑģÐ¸Ð»":892,"ĠÐ»ÑĬÑĥÐ³Óı":893,"ÑıÐ·":894,"Ð°Ð»ÑĬÐ¸":895,"Ð°Ð½Ð³Ð¾":896,"ĠâĢĶ":897,"ĠÑģÐ¿":898,"ĠÐ½ÑĥÐ¶":899,"ĠÐ»ÑĬÐ¸ÐºÓıÐ°Ð±":900,"ÑĥÐ»ÑĥÑħÑĬ":901,"ĠÑģÐ²ÐµÑĢ":902,"Ð¸Ð³Óı":903,"ĠÐ»ÑĬÐ°Ð¹":904,"Ð¼Ñĥ":905,"ÑĤÑĥÑĢ":906,"ĠÐ¶Ð¸Ð´ÐµÑĢ":907,"ĠÑĤÓıÐ¾ÑĨ":908,"Ġ3":909,"ĠÐĵÓıÐ°Ð»":910,"ÑıÐ½":911,"ĠÑħÑĥÑĢ":912,"Ð¾Ð·":913,"ÐµÐ·ÑĥÐ»":914,"ĠÑĩÐ¸ÑıÑģ":915,"Ð±Ð¸ÑĢ":916,"ĠÑĢÐ°ÐºÓıÐ°Ð»":917,"ĠÐ¥ÓıÐ°Ð¶":918,"ĠÑĥÐ½ÑĤ":919,"ÐµÐ»ÑĬ":920,"ĠÐ¼ÑĥÐ½":921,"Ð·Ð°Ð±Ð¸":922,"ĠÑħÓıÐ°ÐºÑĬÐ°Ð»ÑĬÑĥÐ»ÑĬ":923,"Ð°Ð·ÐµÑĤ":924,"ĠÐ±Ð°Ñĩ":925,"ĠÐºÐºÑĥÐ½":926,"ĠÐ¿Ð¸Ðº":927,"ĠÐ±Ð°ÑĢÐº":928,"ÐµÐ±ÐµÑģÐµÐ±":929,"ĠÐ¼ÑĥÑħÑĬ":930,"ĠÑĢÐ¸ÐºÓıÐºÓı":931,"Ð°ÑģÐ°":932,"Ð°Ð»Ð¸":933,"Ð¸ÑĩÓıÑĩÓı":934,"ĠÐĵÑĮÐµÑģ":935,"ÑĥÑģÑĤ":936,"ĠÐľÐ°ÑħÓı":937,"Ð¸Ð½Ð°":938,"ĠÐ³ÓıÐ°Ð³":939,"Ð°ÑĩÐ°Ð»Ð¸ÑħÑĬ":940,"ĠÑħÑĬÑĥÐ»ÑĥÑħÑĬ":941,"ĠÐ°Ð±ÑĥÐ½Ð°":942,"ĠÐ¼Ð°ÑĨÓı":943,"Ð¸ÑģÐ°Ð±":944,"Ð¸Ð³ÑĮ":945,"ĠÐ³ÓıÐµÐ»":946,"Ð²Ð°Ð½":947,"ĠÐ±ÑĥÐºÓıÑĥÐ½":948,"ĠÐ´Ð°Ð½Ð´":949,"ĠÐ±Ð¸ÑĨÐ°Ð½Ð°":950,"ĠÐ¶Ð¸Ð´Ðµ":951,"ÑĥÐ»Ð°Ð°Ð½":952,"ĠÐºÑĮÐµÐ·Ðµ":953,"ĠÑĢÐ°ÑħÑĬÐ°Ð»ÑĬ":954,"ĠÐ´Ð¸Ð´Ð°":955,"ĠÐ¼Ð°Ð³ÓıÐ°ÑĢÑĥÐ»":956,"ĠÑĥÑĩ":957,"ĠÐ´Ñĥ":958,"Ð¾Ñĩ":959,"ĠÑĩÐ°Ð³Óı":960,"ĠÐºÑĮÑĥÐ½Ð°":961,"ĠÐ±Ð¸ÑħÑĮÐ¸Ð·Ð°Ð±":962,"Ð´Ð°Ð³Ð¾":963,"ĠÐ±ÑĥÐ³Ð¸Ð½":964,"ĠÑĢÐ°Ð³ÑĮ":965,"ĠÑĨÐ¾Ð³Ð¸Ð´Ð°Ð»":966,"Ð¶Ðµ":967,"ĠÐ¶Ð°Ð½Ð¸Ð±":968,"Ð¼Ð¸Ð½Ð¸ÑģÑĤÑĢÐ°ÑĨ":969,"ĠÐ³ÑĮÐ°Ð²":970,"ÑĥÐ²":971,").":972,"ĠÐ³ÓıÐ°Ð´Ð¸Ð½":973,"Ð¦":974,"ĠÑħÓıÐ°Ð´":975,"ĠÐºÓıÐ°Ð»ÑĬ":976,"ĠÐ³Ð°Ð·ÐµÑĤ":977,"Ð¾ÑĨÓı":978,"Ð°Ð´Ð±Ð¸ÑĢ":979,"ĠÑĢÐ¾ÑģÑĥ":980,"ĠÐºÓıÐ²Ð°ÑĢ":981,"Ð¾Ñħ":982,"ĠÐ´Ð°ÑĢ":983,"ĠÑħÓıÐ°Ð¶":984,"ĠÑįÐ±ÐµÐ»":985,"ĠÐ±Ð¸ÑīÑĥÐ½":986,"ĠÐ©":987,"ÑģÐº":988,"ĠÐĵÑĮÐµÐ´Ð¸Ð½":989,"),":990,"ÑĢÐ°Ð½":991,"Ð³ÓıÐ°Ð»":992,"Ð¸Ð¹":993,"ĠÐ¶Ð¸Ð½Ð´Ð¸ÑĢÐ³Ð¾":994,"ĠÐ¦Ð¾":995,"Ð¢":996,"Ð°ÑıÐ»Ð´Ðµ":997,"ĠÐ±Ð°Ð»Ð°Ð³ÑĮ":998,"ĠÐ³ÑĮÐµÐ½Ð¸Ð±":999,"ĠÑĨÓıÐ°Ð»Ð´":1000,"ĠÐ¦Óı":1001,"ĠÐ¸Ð½Ñģ":1002,"ĠÐºÑĮÑĥÐ½":1003,"ÐµÑĩÓı":1004,"ĠÐļÓı":1005,"\",":1006,"ĠÐ½Ð¸Ð¶Ðµ":1007,"Ð°Ð³ÓĢ":1008,"\".":1009,"Ð¾Ð»ÐµÐ±":1010,"ÐµÐ·ÐµÐ³ÓıÐ°Ð½":1011,"Ð°Ð³ÓıÐ¸Ð´":1012,"ĠÐ²ÑĥÐºÓıÐ°Ð½Ð°":1013,"ĠÐºÐ¸Ð½Ð°Ð»Ð³Ð¾":1014,"ĠÑĪÐ°Ð³ÑĮÐ°ÑĢ":1015,"ĠÑĢÐ°Ð³ÑĬÑĥÐ»":1016,"ĠÐ´Ð¸ÑĨÐ°":1017,"ĠÐºÐ²ÐµÑĢ":1018,"ÑĥÐ·":1019,"ĠÐ°ÑħÐ¸ÑĢ":1020,"Ð°ÑĢÐµÐ±":1021,"Ð¸ÑĤÐµÐ»ÑĮ":1022,"ĠÐ»ÑĬÐ°Ð·Ð°Ð±":1023,"Ġ20":1024,"ĠÐĲÑħÓı":1025,"ÐµÑĨ":1026,"ÐºÑĥÐ½":1027,"ĠÐºÑĬÐ¾ÑıÐ»ÑĬ":1028,"ĠÐ²Ð°ÑĩÓı":1029,"ĠÐ±Ð¸ÑĩÓıÑĩÓı":1030,"ĠÑħÓıÐ°ÑģÐ¸Ð»":1031,"Ð¸Ð¾Ð½":1032,"ĠÑħÓıÐ¸ÑģÐ°Ð±":1033,"ĠÐ³ÓıÐ¾Ð´":1034,"Ð¸ÐºÑĮ":1035,"ĠÐ¼ÐµÑħÐ°Ð»ÑĬ":1036,"ĠÐ°Ð±ÑĥÐ»ÐµÐ±":1037,"Ð°Ð¼Ð·":1038,"Ð½Ð°":1039,"ĠÐĵÑĮÐµÐ½":1040,"ÑıÐ»Ð´Ðµ":1041,"Ð°ÑģÐµ":1042,"ĠÐ¿Ð°ÑĩÐ°Ð»Ð¸ÑħÑĬ":1043,"Ð¸ÑħÓı":1044,"ĠÐ³ÓıÐ°ÑĢÐ°ÑĨ":1045,"Ñį":1046,"ÑĥÐ»ÑĮ":1047,"ĠÑģÐ°Ñħ":1048,"Ð¾Ð²Ð°":1049,"Ð¸ÑıÐ·":1050,"Ð°Ð³ÓıÐ°Ð»":1051,"ÐĵÓı":1052,"ĠÐ·Ð°ÑħÓıÐ¼Ð°ÑĤ":1053,"ÐµÐ¿":1054,"ÑĩÓıÐ²":1055,"ĠÑħÓıÑĥÐº":1056,"ĠÑĤÐ°Ð´Ð±Ð¸ÑĢ":1057,"ĠÑĨÐµÑĢÐµ":1058,"ĠÐ¼Ð°Ð³ÓıÐ¸ÑĪ":1059,"Ð¾ÑĢÑħ":1060,"ĠÑħÑĬÐ¸Ð·":1061,"Ð°ÑĢÐ°Ðº":1062,"ĠÐ³ÑĮÐ°Ð»":1063,"ĠÐºÐ¸Ð´":1064,"ĠÐ³ÓıÐ¾Ð»Ð¾ÑħÑĬ":1065,"ĠÑīÐ²Ð°Ð½Ð°":1066,"ĠÐ²ÑĥÐ³":1067,"ĠÑĨÓıÐ°Ð»Ð´Ð¾ÑħÑĬ":1068,"Ð°Ð²Ð°Ð±":1069,"ĠÐºÑĬÐ²Ð°ÑĢ":1070,"Ð¸ÑĢÐµ":1071,"Ð°Ð»ÐµÐ±":1072,"ĠÑĢÐµÐºÓı":1073,"ĠÐŃ":1074,"ĠÐ±Ð°ÑıÐ½":1075,"Ð°Ð»Ð°Ð¼":1076,"Ð°Ð±Ð°Ð·Ðµ":1077,"ĠÑĢÑĥÐºÑĬ":1078,"ÑĨÐ¸Ð½":1079,"ÑĩÐ°Ð³Óı":1080,"Ð¾Ð²Ð°ÑģÑĥÐ»":1081,"ĠÐ¿Ð¾Ð»":1082,"ĠÐ¿Ð¸ÐºÑĢÑĥ":1083,"ĠÐºÐºÐ°Ð½Ð°":1084,"ĠÐłÐ¾ÑģÑģÐ¸ÑıÐ»ÑĬÑĥÐ»":1085,"ĠÐ¨Ð°Ð¼Ð¸Ð»":1086,"ÑĢÐ¾":1087,"ĠÐ±ÑĥÐ³Ð¸Ð»":1088,"Ð»ÑĬÐ¸Ð³Ð¸":1089,"ÑħÐ°":1090,"ĠÐ¼Ð¸Ð»Ð»":1091,"ĠÐ±ÑĥÐºÓıÐ¸Ð½Ðµ":1092,"ÑĥÐ»Ð°ÑĢÐ¾":1093,"ĠÑģÐ¾Ð½Ð°Ð»ÑĬÑĥÐ»":1094,"Ðĺ":1095,"ĠÐ¶Ð°Ð²Ð°Ð±":1096,"ĠÐ³ÓıÐµÐ¼ÐµÑĢÐ°Ð»":1097,"ĠÑĤÓıÐ°Ð¼":1098,"Ð»ÑĬÐ°Ð½Ð°":1099,"Ð¼ÐµÐ½":1100,"ÑģÑģ":1101,"Ð»ÑĬÐ¸ÑıÐ»Ð´Ð°":1102,"ĠÑĢÑĥÐºÓıÐ¸Ð½":1103,"ÐµÐ·Ð°ÑĢ":1104,"ĠÐºÐ¾Ð»":1105,"ĠÐ¼Ð°Ñħ":1106,"ĠÐºÑĬÐ¾ÑĤÓı":1107,"Ð»Ð°Ñģ":1108,"Ð°Ð¼Ð°Ð»":1109,"ĠÑıÐ½":1110,"ÑĥÑĢÐ°Ð²":1111,"ĠÐ³ÑĬÑĥÑĢ":1112,"ĠÐ¶ÐµÐ³Ð¸":1113,"ĠÐ³ÑĬÐ¾ÑĢ":1114,"ÐµÑħÑĥÐ½":1115,"ĠÐĲÐ±":1116,"Ð¸ÑıÐ·ÑĥÐ»":1117,"ĠÑĤÓıÐ¾ÑĢ":1118,"ĠÑĥÐ»":1119,"ĠÐ±Ð°Ð½":1120,"ĠÐ¼Ð°ÑĪ":1121,"ĠÐ±Ð°Ð¶":1122,"ÑĥÐ³":1123,"ĠÑħÓĢ":1124,"Ġ5":1125,"ĠÑĢÐ¾ÐºÑĬ":1126,"ĠÑĤÑĥÐ½":1127,"ÑĥÐ´Ð°":1128,"ĠÐ°ÑģÐ»":1129,"Ð°Ð½Ð°Ð»":1130,"ĠÐĲÑħÓıÐ¼Ð°Ð´":1131,"ĠÐºÓıÐ¸Ð³Ð¾":1132,"Ð°Ð±Ð¸Ð³Ð¸":1133,"ĠÐĵÓıÑĥÐ¼":1134,"ÐŁ":1135,"ĠÐ±ÐµÐ³ÑĮÑĥÐ»Ð°":1136,"Ð¸Ð½ÐºÑĬ":1137,"ĠÑĢÐµÑħÑģ":1138,"Ġ4":1139,"ĠÐºÑĬÐ°Ð´Ð°ÑĢ":1140,"Ð±Ð°ÑĤÓı":1141,"Ð°ÑĤÐ°Ð±":1142,"ĠÑĤÓĢ":1143,"ĠÑħÓıÐ°Ð»ÑĤÓıÑĥÐ»":1144,"ÐĽ":1145,"ÑĤÓĢ":1146,"ĠÑģÐ¿Ð¾ÑĢÑĤ":1147,"ĠÑĤÐ°ÑĢÐ¸Ñħ":1148,"ĠÑĤÓıÐ°Ð»":1149,"ĠÑĤÓıÐ¾ÑĢÐ¸ÑĤÓı":1150,"ĠÑĢÐ°ÑĤ":1151,"Ð°Ð³ÑĮÐ¸ÑĢ":1152,"ĠÑĢÐµÑģÐ¿ÑĥÐ±Ð»Ð¸ÐºÐ°ÑıÐ»ÑĬÑĥÐ»":1153,"ĠÐ¼Ð°ÑĨ":1154,"Ð»ÑĬÐ¸Ðµ":1155,"ĠÐ±Ð¸ÑĩÑĩ":1156,"Ð°Ð´Ðµ":1157,"ĠÐ½Ð¸Ð¶ÐµÑĢ":1158,"ĠÐ³ÑĮÐµÐ»ÑĬ":1159,"ĠÐ±ÐµÑĢÐ³ÑĮ":1160,"ÐºÐ°":1161,"ÐµÑħÑĮ":1162,"ĠÐ°Ð´Ð¼Ð¸Ð½Ð¸ÑģÑĤÑĢÐ°ÑĨ":1163,"ĠÑħÓıÐ°Ð´ÑĥÑĢ":1164,"ĠÐ³ÑĥÑĢÐ¾Ð½Ð¸":1165,"ĠÐ±Ð¸ÑĤÓı":1166,"Ð°Ð½Ð¸Ð½":1167,"ĠÐºÑĮÐ¾Ð»ÐµÐ±":1168,"ÑģÐ»":1169,"ĠÐ¾ÑĤ":1170,"Ð°Ð¼Ð·Ð°ÑĤ":1171,"Ð¸Ð´Ð°Ð»":1172,"ÑĥÐ½Ð·":1173,"ÑĥÑĪ":1174,"ÑıÐ»ÑĬÐµ":1175,"ÑĥÐ³ÑĬ":1176,"ĠÐ³ÑĮÐµÑĩÓıÐµÐ±":1177,"ĠÐ±ÑĥÑĤÓı":1178,"ĠÐ¶Ð°Ð»":1179,"ÑĥÑī":1180,"ÑĥÐ½ÐµÐ»":1181,"ĠÐ²Ð°ÑħÑĬ":1182,"ĠÐºÐ¸Ð½Ð°Ð±Ð³Ð¾":1183,"ĠÐ±ÑĥÐ³ÐµÐ»":1184,"Ð°ÑģÐ°Ð½":1185,"ĠÑģÑĤ":1186,"Ð¾Ð»Ð°":1187,"ÑĥÑģÑģ":1188,"ÐµÐ³Ð¾":1189,"Ð°Ð»Ð´Ð°ÑģÐ°Ð½":1190,"Ð°ÑģÐ´Ð°":1191,"ĠÐ±Ð°ÑĤÓıÐ¸":1192,"ĠÑĢÐ¸ÑħÑĮ":1193,"Ð¾Ð²ÐµÑĤ":1194,"ĠÑħÐ¸Ñģ":1195,"Ð°ÑĢÐ°":1196,"ĠÐ³ÑĬÐ¾ÑĢÐºÑĮ":1197,"ĠÐĵÑĮÐµÐ·":1198,"ÑĥÑĢÐ½":1199,"ĠÐ³ÑĥÑĢÐµÐ±":1200,"Ð½ÑĤ":1201,"ĠÑĢÐ°Ð·":1202,"Ð¾Ð´Ð¾":1203,"ĠÐ¶Ð¸Ð´ÐµÑĢÐ³Ð¾":1204,"ĠÑĥÑĢ":1205,"ĠÑįÐº":1206,"Ð»Ñĥ":1207,"ĠÐ°Ð½Ð°":1208,"ÑĢÐº":1209,"ÑĥÑĩÓı":1210,"ĠÐľÐ°ÑħÓıÐ°Ñĩ":1211,"ÑĥÐ¿":1212,"ĠÐ°Ð²Ð°ÑĢ":1213,"ÐĴ":1214,"ĠÐ³ÓıÐ¾Ð»Ð¸Ð»":1215,"ĠÑĢÐ°Ñĩ":1216,"ĠÑĢÐ°ÐºÓıÐ°Ð»Ð´Ðµ":1217,"ĠÑĨÓĢ":1218,"Ð¾Ð½Ð¸Ð³Ð¸":1219,"ĠÑħÓıÐ¸Ð½ÐºÑĬ":1220,"Ð°ÑĢÑĥÑħÑĬ":1221,"ĠÐ¥ÓıÐ°Ð¼Ð·Ð°ÑĤ":1222,"Ð°ÑĢÐ°ÐºÐ°ÑĤ":1223,"ĠÐºÑĬÐ°Ð³ÓıÐ¸Ð´":1224,"ÑĥÐ½Ð·Ð°ÑħÑĬ":1225,"ĠÑĢÐ°Ð¹Ð¾Ð½Ð°Ð»Ð´Ð°":1226,"Ð°ÑĤÓıÐ°Ð½":1227,"ĠÐ¸Ð´":1228,"Ð¸ÑģÐµÐ»":1229,"ĠÐºÐ²Ðµ":1230,"ĠÐ±Ð¾ÑģÑĥÐ½":1231,"Ð¥Óı":1232,"ĠÑģÐ¾Ð½Ð°Ð»Ð´Ð°":1233,"ĠÐ´Ð¸Ðµ":1234,"ĠÐ³ÑĮÐµÑĩÓıÐ¾Ð³Ð¾":1235,"ĠÐ¼ÑĥÑĢÐ°Ð´":1236,"ĠÑıÐ³Ð¸":1237,"ÑħÐ¾Ð·":1238,"ĠÐ³ÑĮÐ°ÑĢÐ¸Ð·Ðµ":1239,"ÑħÐ°Ð½":1240,"ĠÑĤÓıÐ¾ÑĨÐµÐ±ÐµÑģÐµÐ±":1241,"Ð°Ð·Ð´Ð°ÑģÐ°":1242,"ÑıÐ»Ð´Ð°ÑģÐ°":1243,"Ð°ÑĨÓıÑĨÓı":1244,"ÑħÑĬÐ°Ð»":1245,"ĠÑĢÑĥÐºÓıÐ°ÑĢÐ°Ð»":1246,"ĠÑĩÓıÐ²":1247,"ĠÑħÐ°ÑĢ":1248,"ÐµÑĢÐ¸Ð»":1249,"ĠÐ¶Ð°Ð¼Ð°Ð³ÓıÐ°ÑĤ":1250,"Ð½Ð¸":1251,"ĠÐ³ÓıÑĥÑĢ":1252,"ĠÐ¶Ð¸Ð²":1253,"ĠÐ¸Ð¼":1254,"ÐºÑĬÐ¾":1255,"ÑĥÐ»ÑĮÑĤÑĥÑĢ":1256,"ÑĥÐ´Ðµ":1257,"ĠÐ¶Ð°ÐºÑĬÐ°":1258,"ĠÐ³ÑĮÐµÐ´Ð¸Ð½":1259,"ÑħÓıÐ°Ð»":1260,"ĠÐ±Ð°ÐºÓıÐ°Ð»Ð´Ð°":1261,"Ð±Ð°ÑĤÓıÐ¸ÑıÐ»":1262,"Ð°Ð»Ð¸Ð¼":1263,"ĠÐ¹Ð¸ÐºÓı":1264,"ĠÐ³ÑĮÐµÐ»Ð´Ð°":1265,"ĠÐ¤":1266,"ĠÑħÐ°Ð±":1267,"Ð¸ÑģÐ°Ð»":1268,"ĠÐ±Ð°ÐºÑĬ":1269,"ĠÐ´ÑĥÐ½ÑıÐ»":1270,"ÑĢÐ°Ð»Ð´Ð°":1271,"ĠÑĨÐ¾Ð³Ð¸Ð´":1272,"ÑĢÐºÐµÐ½":1273,"ÐµÐ³":1274,"ĠÑĢÐ¸ÑĤÓı":1275,"ĠÑĤÓıÐ°Ð»Ð°Ð±":1276,"Ð±Ð°ÑħÑĬ":1277,"Ð¸Ð°Ð»":1278,"ÑĥÐºÑĬ":1279,"ĠÐ³ÑĮÐ¸ÑĤÓı":1280,"Ð´ÐµÐ»":1281,"ĠÐ±Ð°Ð¶Ð°ÑĢ":1282,"ĠÐ³ÑĮÐ°Ð´":1283,"ĠÐ³ÑĮÐµÐ·Ð´Ð°":1284,"ĠÐ¼Ð°Ñģ":1285,"19":1286,"ĠÐ³ÓıÐ°Ð´Ð°Ð¼Ð°Ð·ÑĥÐ»":1287,"ĠÐĵÓıÑĥÐ¼Ð°ÑĢ":1288,"ÑĥÑĢÐ±":1289,"ĠÐºÓıÐ¾Ð´Ð¾":1290,"Ð¸ÑĩÓıÐ¾":1291,"ĠÑģÐ¾Ð½Ð°Ð·":1292,"ĠÐ³ÑĬÐ¾ÑĢÐ»ÑĬ":1293,"ĠÐ³ÑĮÐ°Ð±ÑĥÐ»Ð°":1294,"ĠÐ·Ð°Ð³ÑĮÐ¸ÑĢ":1295,"ÑĥÑĢÐ¼Ð°ÑĤ":1296,"ĠÐ¿ÑĢÐµÐ´":1297,"ĠÐºÐ¾Ð½":1298,"ĠÐ´Ð¾Ð±":1299,"ÐĵÑĮÐµÐ±":1300,"ĠÐ³ÑĮÐµÐ½Ð¸ÑĢ":1301,"ĠÐ´Ð°Ð½Ð´ÑĩÓıÐ²":1302,"ĠÐ²Ð°Ðº":1303,"ĠÑħÓıÐ°Ð»ÑĤÓıÐ¸Ð·Ðµ":1304,"ĠÐ¥ÑĥÐ½Ð·Ð°ÑħÑĬ":1305,"ĠÐ³ÑĮÐ¾ÑĢÐºÑĮÐ¾ÑĢ":1306,"Ð°ÑħÓıÐ°ÑĢ":1307,"ÐµÑĩÓıÐ¾Ð³Ð¾":1308,"ÑĤÐµÑĢ":1309,"Ð²Ð¾":1310,"ĠÐ´Ð¸Ð½":1311,"Ðŀ":1312,"ĠÑĥÐ¼":1313,"ÑĢÐ³":1314,"Ð»Ð°ÑģÑģ":1315,"ĠÐ³ÓıÑĥÐ½":1316,"ĠÐºÐºÐ°ÑĢÐ°Ð±":1317,"ĠÐĵÑĮÐ°Ð±":1318,"ÑĤÐ¾ÑĢ":1319,"ĠÐ¼Ð°Ð¶":1320,"ĠÐ°ÑģÐºÓı":1321,"Ð¸Ð½Ð°ÑĢ":1322,"ĠÐľÑĥÑģ":1323,"ÑĥÐ´ÑĥÐ»":1324,"ĠÐ¸Ð½Ðµ":1325,"ÑĥÐ³Ð¾":1326,"Ð·Ð°Ð±Ð°Ð·":1327,"Ð°Ð²Ðº":1328,"Ð¸ÑıÑĢ":1329,"ÑĥÐ³ÑĮ":1330,"ĠÑħÑĬÐ¸Ð·Ð°Ð½":1331,"Ð°Ð´ÑĥÐ»":1332,"ĠÑĢÐ¾ÐºÑĮ":1333,"Ð¾Ð»ÑĮ":1334,"ĠÐºÑĬÐ¾ÐºÑĬ":1335,"ĠÐºÐ¸Ð´Ð°Ð³Ð¾":1336,"ĠÐĵÑĮÐµÐ´Ð¸Ð½Ð³Ð¾":1337,"ÑĥÐ»Ð°Ð³Ð¾":1338,"ĠÑħÑĮÐ²":1339,"ĠÐ³ÑĮÐµÐ´Ð¸Ð½Ð³Ð¾":1340,"ĠÐĿÐ¸Ð»ÑĬ":1341,"Ð°Ð»Ð´Ð°Ð³Ð¸":1342,"ĠÑĥÑĢÐ³ÑĬ":1343,"ÑĥÐ³Óı":1344,"ĠÑĪÐºÐ¾Ð»Ð°Ð»ÑĬÑĥÐ»":1345,"ĠÐºÐ»Ð°ÑģÑģ":1346,"ĠÐ»ÑĬÐ¸ÐºÓıÐ°Ð»":1347,"Ġ6":1348,"Ð°Ð»ÑĬÑĥÑħÑĬ":1349,"ĠÐľÑĥÑħÓıÐ°Ð¼Ð°Ð´Ð¾Ð²":1350,"Ð°ÑĦ":1351,"ĠÐŀ":1352,"ĠÐºÑĬÐ¸Ð¼Ð°ÑĤ":1353,"ÑĩÑĩ":1354,"ĠÐ°ÑģÐ»Ð¸ÑıÐ±":1355,"Ð°ÑıÐ»ÑĬÐµ":1356,"ĠÐ¼Ð¾ÑĨÓı":1357,"Ð»ÑĬÐ¸Ð´Ð°Ð»":1358,"ĠÐ¥Ð°Ð´":1359,"ĠÐĲÐ»Ð»Ð°Ð³ÑĮÐ°Ñģ":1360,"Ð¸Ð½Ð³Ð¸":1361,"ĠÐºÑĬÐ°Ð½":1362,"Ġ8":1363,"ÐŃ":1364,"ĠÐ¾ÑĤÐ´ÐµÐ»":1365,"ĠÐ¸Ñħ":1366,"ĠÑĩÐ°Ð½Ð³Ð¾":1367,"Ð»ÐµÐ½":1368,"ĠÐ¼Ðµ":1369,"ĠÐĵÑĮÐ°Ð½":1370,"ĠÑĢÐ¾Ñħ":1371,"Ġ7":1372,"Ð°Ð½Ð¸Ð»Ð°":1373,"Ð¸Ð³ÓıÐ°Ð½":1374,"ĠÐ²Ð°ÑĨ":1375,"Ð¸Ð·ÐµÐ³Ð¸":1376,"Ð³ÓıÐ°Ð»Ð¸Ð¼":1377,"ÑĥÑħÑĮ":1378,"ĠÑīÐ°Ð¹":1379,"Ðĸ":1380,"ĠÐ½ÑĥÐ¶Ðµ":1381,"Ð¸ÑıÐ»Ð´Ð°ÑģÐ°":1382,"ĠÐ¼Ð°Ð³ÓıÐ¸ÑĪÐ°ÑĤ":1383,"Ð°Ð´Ð°Ð½":1384,"ĠÐ³ÑĮÐµÐ·Ð¸Ðµ":1385,"Ð°ÑĢÐ°Ð·ÑĥÐ»":1386,"ĠÐ±Ð°Ñħ":1387,"Ð°Ð»ÑĬÑĥÐ»Ð°Ð±":1388,"ÑĥÑĢÑģ":1389,"ĠÐ½ÑĥÑħÐ¼Ð°Ð»ÑĬÑĥÐ»ÐµÐ²":1390,"ĠÐ³ÑĮÐ°Ð½Ð¶Ðµ":1391,"Ð°ÑĢÐ°Ð¹":1392,"ĠÐ¼ÑĥÑģÑĤ":1393,"...":1394,"ÐµÐ¿ÑĥÑĤ":1395,"Ð°ÑħÓıÐ¸ÐºÑĬ":1396,"ĠÐºÓıÐ²":1397,"Ð³ÓĢ":1398,"ĠÐ¹Ð¸Ð³Ð¾":1399,"ĠÐ°Ð±ÑĥÐ½Ð¸":1400,"ĠÑĨÓıÐ¸ÐºÓıÐºÓıÑĥÐ½":1401,"Ð°ÐºÐº":1402,"Ð°Ð»Ð°Ð»Ð´Ð°":1403,"ĠÑħÓıÐ°ÑĢÐ°ÐºÐ°ÑĤ":1404,"ĠÐ³ÓıÐ°Ð´Ð°Ð¼Ð°Ð·":1405,"ĠÐĵÓıÐ°Ð±Ð´":1406,"ĠÑĥÐ¼ÑĥÐ¼":1407,"ĠÑĥÐ»Ðº":1408,"Ð°Ð¹Ð´":1409,"ĠÐłÐ°ÑģÑĥÐ»":1410,"ĠÐ¼Ð°ÑħÑī":1411,"ĠÐ±ÑĥÐºÓĢ":1412,"Ð³ÑĥÑĤÓı":1413,"ÑĥÐ´Ð¸Ð½":1414,"Ð°ÑĨÐ°":1415,"Ð¿ÐµÑĢ":1416,"ĠÐ¼ÐµÑħÐ°Ð»Ð´Ð°":1417,"ĠÐ±ÑĥÐºÓıÐ¸Ð½ÑĩÓıÐ¾":1418,"ÑĢÐ°Ð»ÑĬ":1419,"ĠÐľÐ°ÑħÓıÐ°ÑĩÑħÑĬÐ°Ð»":1420,"Ð°Ð´Ð¸":1421,"ÐºÐ²":1422,"ĠÐ¼ÑĥÑģÑĤÐ°ÑħÓıÐ¸ÐºÑĬ":1423,"ĠÐºÐ²ÐµÑĪ":1424,"ÑıÐ²":1425,"ĠÑĩÐ°Ð³ÓıÐ¸":1426,"ĠÑĨÓıÐ¸ÑıÐ±":1427,"Ð£":1428,"ÑģÐ°Ð³ÓıÐ°ÑĤ":1429,"Ð°Ð»Ð¸Ð»":1430,"ĠÐºÑĬÐ°ÑĩÓı":1431,"ĠÐ³ÑĮÐ°ÑĢÑĥÐ½":1432,"ĠÐ»ÑĬÐ°Ð»Ð°":1433,"ĠÐ³ÑĬÑĥÑĢÑĥÑī":1434,"ĠÑģÐ²ÐµÑĢÑĥÑħÑĬ":1435,"ĠÑīÐ¸Ð±Ð°Ð±":1436,"ĠÑħÑĬÐ²Ð°Ð½":1437,"ĠÐ´ÑĥÑĢ":1438,"ĠÐ´ÐµÐ¿ÑĥÑĤ":1439,"ĠÐ¼ÑĥÐ³ÓıÐ°Ð»Ð¸Ð¼":1440,"ĠÐ³ÓıÐ°Ð´Ð°ÑĤ":1441,"ĠÐ¥ÑĬ":1442,"ĠÐ³ÓıÐ¾Ð»Ð¾":1443,"Ð¸Ð½Ð´":1444,"ÐµÑĩ":1445,"Ð¾ÐºÑĮ":1446,"Ð³Ð¸ÑĤ":1447,"ÑĥÐ½Ð°Ð°Ð½":1448,"Ð°Ñī":1449,"ĠÐºÑĬÐ²Ð°ÑĢÐ¸Ð³Óı":1450,"ĠÐ»ÑĬÐ°Ð±":1451,"ĠÑīÑĥÐ½":1452,"ÑĢÑĤ":1453,"ĠÐ¸Ð½ÑģÐ°Ð½":1454,"ĠÐ»ÑĬÑĥÐ½":1455,"ĠÐ°Ð·Ð°ÑĢ":1456,"ÑĥÑĨÐ°":1457,"ÑħÑĬÐ²":1458,"ĠÐºÑĥÐ»ÑĮÑĤÑĥÑĢ":1459,"ĠÑĨÐµÐ²":1460,"ĠÐ¿ÑĢÐ¾":1461,"Ð¸ÑĨÐ¸Ð½":1462,"Ð¸Ð±Ðµ":1463,"ĠÑĤÓıÐ¾":1464,"ĠÐĶÐ°Ð³ÑĬÐ¸ÑģÑĤÐ°Ð½Ð°Ð»Ð´Ð°":1465,"ÑħÓıÐ°Ð¶":1466,"Ð°Ð¹Ð¾Ð½":1467,"Ð±Ð°ÐºÑĬ":1468,"ĠÐŁÐ°ÑĤÓı":1469,"Ð°Ð´Ð°Ð»":1470,"ĠÐ°Ð±Ð¸Ð·Ðµ":1471,"Ġ9":1472,"Ð·Ð°Ð±Ð°Ð·ÑĥÐ»":1473,"ĠÑĨÓıÐµÑħ":1474,"ĠÐºÐºÐ¾Ð»ÐµÐ»":1475,"ĠÐºÐ²Ð°Ð½":1476,"ĠÐ³ÓıÐ°Ð³Ð°ÑĢ":1477,"Ð°ÑĢÐµÐ»":1478,"Ð°Ð²ÐºÐ°Ð·":1479,"Ð¾Ð¹":1480,"Ð¸Ð°Ð±Ð¸Ð»ÐµÐ±":1481,"Ð°Ð·Ð°Ð½":1482,"Ð°ÑĢÐ°Ð»Ð´Ð°ÑģÐ°":1483,"ĠÐ°ÑħÓıÐ²Ð°Ð»":1484,"ĠÐ½ÑĥÑħÐ°Ð»ÑĬ":1485,"ĠÐĿÐ¸Ð¶":1486,"ĠÐĵÓĢ":1487,"ĠÑħÐ¸ÑĢ":1488,"ĠÐ±Ð¾ÑĢÑħ":1489,"Ð¸ÑģÐµÐ±":1490,"Ð°Ð±ÑĥÐ»":1491,"ĠÐ²Ð°ÐºÐ¸Ð»":1492,"ĠÐ±Ð¾ÐºÑĮÑĥÐ½":1493,"ÐµÐºÑĤÐ¾ÑĢ":1494,"ĠÐºÑĥÑĨ":1495,"ÑģÐ»Ð°Ð¼":1496,"ÑĥÐ·ÑĥÐ»":1497,"ĠÑĥÐ½ÐµÐ±":1498,"ĠÐºÓĢ":1499,"ĠÐ½ÑĥÑħÐ¼Ð°Ð»ÑĬ":1500,"ĠÑħÐ°ÑģÐ°Ð±":1501,"ĠÐ±Ð°Ð¹ÑĢÐ°Ð¼":1502,"ĠÐ»ÑĬÐ°Ð±Ð³Ð¾":1503,"ÐĵÑĮÐµÐ´":1504,"ĠÑĤÐµÑĢ":1505,"ĠÑĨÐ¾Ð³Ð¸Ð´Ð°Ð»Ð³Ð¸":1506,"ĠÐºÐ¾Ð»ÑħÐ¾Ð·":1507,"ÐµÑģÑģ":1508,"ĠÐºÑĬÑĥÐ²":1509,"ÑĤÐ°Ð»":1510,"ĠÑĨÐµÐ±ÐµÑĤÓı":1511,"ĠÑĤÓıÐ¾Ð±Ð¸ÑĤÓıÐ°Ð½Ð°":1512,"ĠÐ¶Ð°Ð¼Ð³Óı":1513,"Ð¸Ð·Ð¼":1514,"ĠÐ¼Ð¸Ð½":1515,"ĠÐºÓıÐ°Ð»":1516,"ĠÑĤÓıÑĥÑĢ":1517,"Ð»ÑĬÐ¸ÑıÐ»ÑĬ":1518,"ĠÐ±Ð°ÑĢÐºÐ°Ð»Ð°":1519,"Ð»Ð°Ð½":1520,"ĠÐ³ÑĮÑĥÐ´ÑĥÐ»":1521,"ĠÐĵÑĮÐµÐ²":1522,"ĠÐ»ÑĬÐ¸Ð¼Ð°Ð»Ð°Ð·ÑĥÐ»":1523,"ĠÐ°Ð»":1524,"ĠÐ³ÑĮÐ°ÑĢÑĥÐ»ÐµÐ»":1525,"ĠÐŁÐ°ÑĤÓıÐ¸Ð¼Ð°ÑĤ":1526,"Ð´Ð¸Ð½":1527,"ÐºÐºÑĥÐ½":1528,"ĠÐ±Ð°ÑħÓıÐ°ÑĢ":1529,"ĠÑĨÓıÐ°ÐºÑĬÐ³Ð¾":1530,"ĠÐĴÐ°ÑĤÓıÐ°Ð½":1531,"ÐµÑĢÐ°Ð»":1532,"ÑģÐ°Ð½Ð°":1533,"ĠÐ±ÐµÑĢÐ³ÑĮÐµÐ½":1534,"ĠÑĤÓıÐ¾Ð»":1535,"ĠÐºÑĬÐ°Ð±ÑĥÐ»":1536,"ĠÑĩÓıÐµÐ·Ð°Ð±":1537,"ÑģÐµÐ´":1538,"ĠÐ§Óı":1539,"ÑĥÐ¹":1540,"ĠÑĨÐ¾ÑĨ":1541,"ĠÑģÐ°Ð¹":1542,"ĠÐ±ÑĥÐ³Ð¸Ð»Ð°Ð½":1543,"ÐµÐ¶":1544,"ĠÐľÑĥÑħÓı":1545,"ĠÐ²ÑĥÐºÓıÐ°ÑĢÐ°Ð²":1546,"ĠÐ¸Ð¼Ð°Ð¼":1547,"ĠÐ²Ð°ÑĤ":1548,"ĠÐ³ÑĮÐµÐ»ÑĬÐ¸Ðµ":1549,"Ð°ÑĨÐ¸Ñı":1550,"ĠÑĤÓıÐ°Ð³Óı":1551,"ĠÐ´Ð°Ð³ÑĮÐ°Ð±":1552,"ĠÐ¯":1553,"ĠÑĤÓıÐ°ÑģÐ°":1554,"ĠÐ³ÓıÐ°ÑĢÑĨ":1555,"Ð¸Ð»ÑĬÐ¸":1556,"ÑģÐµÐ´Ð°ÑĤ":1557,"ĠÐ¥Ð°Ñģ":1558,"ĠÐ»ÑĬÑĥÐ³ÑĮÐ°Ð½Ð°":1559,"ĠÑħÐ°Ð±Ð°ÑĢ":1560,"ĠÐĶÑĥÐ½":1561,"ÐµÑĤÐµÑĢ":1562,"Ð¸ÑģÑģ":1563,"ĠÑĢÐ¾ÑģÐ°Ð±":1564,"ÑĥÐ´Ð¸ÑıÐ±":1565,"ĠÐºÑĬÐ¾ÑıÐ·":1566,"ĠÑĤÐµÐ»":1567,"ĠÐ³ÑĮÐµÑģÐ´Ð°":1568,"Ð»Ð¸Ð¼":1569,"Ð¨":1570,"ĠÐ»ÑĬÐ¸Ð¼ÐµÑĢ":1571,"ĠÐĵÑĮÐµÐ»ÑĬÑĥÐ»":1572,"Ð´Ð°ÑģÐ°Ð³Ð¸":1573,"ÐµÐ»Ð³Ð¸":1574,"ĠÑīÐ²ÐµÐ·ÐµÐ³ÓıÐ°Ð½":1575,"ĠÑĥÑĩÐ¸ÑĤÐµÐ»ÑĮ":1576,"ĠÐ±ÐµÑĢÑĨ":1577,"Ġ201":1578,"ĠÐºÐ°Ðº":1579,"ĠÐ³ÓıÐ°ÐºÑĬ":1580,"ĠÐ·Ð°Ð¼ÐµÑģÑĤ":1581,"ĠÑĤÐ¾Ñħ":1582,"Ð¸ÑĨÓı":1583,"ĠÐ³ÑĮÐµÑģÐ¸Ðµ":1584,"ĠÐ°Ð´Ð°Ð±":1585,"ĠÐ´ÐµÐ¿ÑĥÑĤÐ°ÑĤ":1586,"ĠÐ±Ð¸ÑīÑĥÐ½Ð³Ð¾":1587,"ĠÐºÐ¾Ð¼Ð°Ð½Ð´":1588,"ĠÐ°ÑģÐ°ÑĢ":1589,"ĠÑĢÐ¸Ñī":1590,"ĠÑĢÑĥÑĩÑĩ":1591,"ĠÐ³ÓıÑĥÑĢÑĥÑģ":1592,"ÐµÑıÐ½":1593,"ĠÐ¼Ð°Ð¶Ð³Ð¸ÑĤ":1594,"ĠÐ±ÑĥÐºÓıÑĥÐ½Ð°":1595,"ĠÑĢÐ°Ð³ÓıÐ¸":1596,"ĠÑĩÓıÑĥÐ½":1597,"ĠÐºÑĮÐµÑıÐ»ÑĬÑĥÐ»":1598,"ĠÐ°ÑĢ":1599,"Ð°Ð¹Ð³Ð¸":1600,"ĠÐ¿ÑĢÐµÐ´ÑģÐµÐ´Ð°ÑĤ":1601,"Ð¸ÐºÐ¸ÑıÐ±":1602,"ĠÑĤÓıÐ°Ð´ÐµÐ³ÓıÐ°Ð½":1603,"Ð°Ð½Ð³Ð¸":1604,"Ð°ÑıÐ»Ð´Ð°ÑģÐ°":1605,"ÐµÐ½ÑĤÑĢ":1606,"ĠÑīÐ¸Ð²":1607,"ĠÐ³ÑĮÐ¾ÑĢÐºÑĮÐ¾ÑħÑĬ":1608,"ĠÐ¼Ð°ÑĨÓıÐ°Ð»":1609,"ĠÐ¥Ð°Ð»":1610,"Ð¸Ð°Ð»Ð¸ÑıÐ±":1611,"ĠÐ³ÓıÐ°Ð´Ð°Ð¼Ð°Ð·Ðµ":1612,"ĠÐ±Ð¸ÑĨÑĥÐ½":1613,"ĠÑĢÑĥÐºÓıÑĥÐ½":1614,"ĠÐ³ÑĮÐ°ÑĢÑĥÐ½Ð°":1615,"ĠÐ³ÑĮÐµÐ´Ð¸Ð½Ð°Ð±":1616,"ĠÐ®":1617,"ĠÑħÑĥÑĢÑħ":1618,"Ð¸Ð·Ð°Ð±Ð¸Ð·Ðµ":1619,"ĠÑħÓıÑĥÐºÑĥÐ¼":1620,"ĠÐ¸ÑħÑĤ":1621,"Ð»ÑĬÐ¸Ð·Ðµ":1622,"ĠÑģÑĥÑĢ":1623,"ĠÐĵÑĮÐµÐ½Ð¸Ð±":1624,"Ð´ÐµÑĢÐ¸Ð»":1625,"ĠÐºÐ°Ð¼":1626,"ĠÐ±Ð¸ÑĨÑĥÐ½ÐµÐ±":1627,"ĠÐºÐ°Ð³ÑĬ":1628,"ĠÐ²ÑĥÐ³ÐµÐ²":1629,"ĠÐ³ÑĮÐµÐ¹":1630,"ĠÐ°ÑĢÐ°Ð±":1631,"Ð¾Ð±Ðµ":1632,"ĠÐ²ÑĥÐºÓıÐ¸Ð½":1633,"Ð¸ÑıÑģÑĥÐ»":1634,"ĠÐ³ÓıÐ°Ð»Ð¸Ð¼":1635,"Ð¸Ð²Ðµ":1636,"Ð·Ð°Ð»":1637,"ĠÐĲÐ½":1638,"ÐĽÑĬ":1639,"Ð°ÑĢÐ¸Ð½":1640,"Ð¢Óı":1641,"Ð°Ð¹Ð¸Ð±":1642,"ĠÐ³ÓıÐ°ÑħÑĮÐ°Ð»Ð»ÑĬÐ¸":1643,"ĠÐ³ÓıÐµÐ¼ÐµÑĢÐ°Ð±":1644,"Ð°ÑĨÓıÑĨÓıÐ°Ð´":1645,"ĠÐĲÑħ":1646,"ĠÑħÑĥÑĢÑħÑĥÐ½":1647,"Ð¾ÑģÐ°":1648,"ÐºÐ°ÑĢ":1649,"ĠÐ³ÑĥÑĢÐ¾":1650,"Ð¾Ð»ÑĬ":1651,"ĠÐ±ÑĥÑħÑĮ":1652,"Ð»Ð¸":1653,"ĠÑĢÑĥÑħÓı":1654,"ĠÐ»ÑĬÑĥÐ³ÑĮÑĥÐ½":1655,"Ð¾Ð»ÐµÐ»":1656,"Ð°ÑĤÐ°Ð»Ð´Ð°":1657,"ĠÐ³ÑĮÐ°Ð±ÑĥÐ»ÐµÐ»":1658,"ĠÐĲÐ²Ð°ÑĢ":1659,"ĠÑĢÑĥÐºÓıÐ¸Ð½Ðµ":1660,"ĠÐ¼Ð°ÑĪÐ³ÑĮ":1661,"ĠÐ½Ð¸Ð»ÑĬÐµÐ´Ð°":1662,"ĠÐķ":1663,"ĠÐļÐ°Ð²ÐºÐ°Ð·":1664,"ĠÑħÓıÑĥÐºÐ¼Ñĥ":1665,"ĠÐ³ÓıÐ¸Ð»Ð»":1666,"Ð³ÑĮÐ°Ð½":1667,"ĠÐ³ÑĮÐ°Ð±Ð¸":1668,"ĠÑģÐ°Ð½":1669,"20":1670,"ĠÐ³ÑĮÐ°ÑĢÑĥÑĢÐ°Ð»":1671,"Ð±Ð°Ð»":1672,"Ð¾Ð»Ð¾Ð³":1673,"ĠÐĵÑĮÐµÑģÑĥÐ»":1674,"ĠÐºÑĬÐµÑĨ":1675,"Ð¾Ð»ÑĮÐ½":1676,"ĠÐ´Ð¸ÑĢÐµÐºÑĤÐ¾ÑĢ":1677,"ĠÑİ":1678,"ĠÐ±Ð¾Ð¶":1679,"ĠÑīÐ²ÐµÐ·Ðµ":1680,"ĠÐĵÑĮÐµÐ·ÑĥÐ»":1681,"ĠÑĩÑĥÑĢ":1682,"ĠÑĨÐµÐ²Ðµ":1683,"Ð°Ð¼Ð°Ð·Ð°Ð½":1684,"ĠÑĢÑĥÐ³Ð¸Ð½":1685,"ĠÑĪÐºÐ¾Ð»Ð°":1686,"ĠÐ°Ð½ÑĨÓı":1687,"Ð°ÐºÐ°ÑĢ":1688,"ĠÐ¼Ð°ÑģÑĬ":1689,"ĠÐ³ÓıÐµÐ·ÐµÐ³ÓıÐ°Ð½":1690,"ĠÑģÐ°ÑħÐ»ÑĬÐ¸":1691,"ĠÐ´Ð¾Ðº":1692,"ÐµÑĢÐ±":1693,"ÑĥÑĢÐ½Ð°Ð»":1694,"Ð°ÑģÑĤ":1695,"ÐµÐ»Ð°":1696,"Ð°Ð½Ð´Ðµ":1697,"ÑĥÐ½Ð°ÑĢ":1698,"Ð¾ÑĢÐ¼":1699,"Ð°Ð»Ð¸ÑħÓı":1700,"ĠÐ³ÓıÐ°Ð´Ð°Ð½":1701,"Ð´ÐµÐ½":1702,"Ð°ÑģÐµÐ±":1703,"ĠÐ°Ð·Ð°ÑĢÐ³Ð¾":1704,"Ð°ÐµÐ²Ð°Ñģ":1705,"ĠÐ±Ð°Ð¹Ð±Ð¸ÑħÑĮÐ°Ð½Ð°":1706,"Ð°ÑĨÐ¸ÑıÐ»ÑĬÑĥÐ»":1707,"ĠÑħÑĮÐ²Ð°Ð´":1708,"ĠÐ©Ð¸Ð±":1709,"ĠÑĤÐ°ÑĢÐ±":1710,"Ð°ÑıÐ±":1711,"ĠÐ±ÑĥÐ³ÐµÐ²":1712,"ĠÐ¼Ð°ÐºÑĬ":1713,"Ð¸Ð±Ð¸ÑĢ":1714,"ĠÑĢÐ¾ÑģÐ°Ð±Ð°Ð·ÑĥÐ»":1715,"ĠÐ±ÐµÑĩ":1716,"ĠÑįÑĢÐºÐµÐ½":1717,"ĠÐ»ÑĬÐ°Ð»ÐµÐ±":1718,"Ġ10":1719,"Ġ200":1720,"Ð¸Ð´ÐµÐ½ÑĤ":1721,"ĠÐºÓıÐ¾Ñĩ":1722,"ĠÐ¸ÑħÑĤÐ¸ÑıÑĢ":1723,"Ð¾Ð½Ð¾Ð¼":1724,"Ð¸ÑĤÐµÑĤ":1725,"Ð°Ð»ÐµÐ»":1726,"ĠÐ³ÑĮÐ¾ÑĢÐºÑĮÐ¾ÑħÑĬÐµÐ±":1727,"ÑĩÓĢ":1728,"Ð³ÓıÐ°Ð³Ð¸":1729,"ĠÐ¼ÑĥÑħÑĬÐ°Ð»ÑĬÑĥÐ»":1730,"ĠÑįÐ¼ÐµÐ½":1731,"ĠÐ¼Ð¸ÑģÐ°Ð»":1732,"ĠÐĲÑĢ":1733,"Ð°Ð»ÑĬÐ³Ð¸":1734,"ĠÐ°Ð´Ð¼Ð¸Ð½Ð¸ÑģÑĤÑĢÐ°ÑĨÐ¸ÑıÐ»ÑĬÑĥÐ»":1735,"ĠÐºÑĮÐ¾Ð»Ð°":1736,"ĠÐ¿Ð°ÑĢ":1737,"ĠÐ´Ð°ÑĢÐ°Ð¶":1738,"ÐµÐ·Ð¸Ð´ÐµÐ½ÑĤ":1739,"ÐµÐ´Ð°":1740,"Ð´Ð¾":1741,"Ð°ÑĢÐ°Ð·Ðµ":1742,"ĠÑħÓıÑĥÑĢÐ¼Ð°ÑĤ":1743,"ÑĥÐµ":1744,"ĠÐ¡Ð¾Ð²ÐµÑĤ":1745,"ÑĥÐ»ÐµÐ¹":1746,"ÐµÐ¼Ð¿":1747,"Ð¾ÑĢÐµ":1748,"ÑĢÐ°Ð²":1749,"ĠÐ±Ð°ÑĢÐ°Ð±":1750,"ĠÐ·Ð°Ðº":1751,"ĠÐ¥ÓıÐ°Ð¶Ð¸Ð¼":1752,"Ð°Ð½ÑĨÓı":1753,"ĠÐ±Ð¾ÑģÐ¸Ð·Ðµ":1754,"ĠÑģÐ¾ÑĨ":1755,"ĠÐ¾Ð±":1756,"Ð¸Ð·Ð°Ð±ÑĥÐ½":1757,"ĠÐ·Ð°Ð¼ÐµÑģÑĤÐ¸ÑĤÐµÐ»ÑĮ":1758,"ÑĥÑĢÐ¼":1759,"ĠÐ¸ÑĢÐ³":1760,"Ð°Ð±Ð¸Ð»":1761,"ĠÐĺÐ½":1762,"ĠÐ±Ð¸Ð³ÑĮ":1763,"ĠÐ½Ð¸Ð¶ÐµÑĨÐ°":1764,"Ð¸Ð¼Ð°Ð»":1765,"ĠÑĤÐµÑĢÑĢ":1766,"Ð¹Ð³Ð¸":1767,"ĠÑĨÓıÐ¸ÐºÓıÐºÓıÐ°ÑĢÐ°Ð±":1768,"ĠÑĢÐ°Ð³ÑĬÑĥÐ»Ð°Ð±":1769,"Ð¸Ð»ÑĬÑĥÐ½":1770,"Ð°Ð½Ð°Ð»Ð´Ð°":1771,"ĠÑīÐ²Ð°ÑĢÐ°Ð±":1772,"ĠÐ±ÑĥÑģ":1773,"Ð°Ð³ÑĮÐ°Ð»":1774,"ĠÑĤÐ¾ÑħÑĤÑĥÑĢ":1775,"Ð¾Ð¶":1776,"ÑģÑĥÐ»":1777,"ĠÑĢÐ¾ÑģÑĥÐ»ÑĬÐ°":1778,"ÐµÐµ":1779,"ÑĥÐ³ÑĬÑĢÐ°Ð»ÑĬ":1780,"ĠÐ±ÑĥÐ³Ð¸Ð»Ð°":1781,"ĠÑĪÐºÐ¾Ð»Ð°Ð»Ð´Ð°":1782,"Ð¸Ð·Ð°Ð¼":1783,"ÑİÑĢÑĤ":1784,"ĠÐ³ÓıÐ°Ð¹Ð¸Ð±":1785,"ĠÑĩÓıÐ°ÑħÓı":1786,"ĠÐ³ÑĮÐµÐ´Ð¸Ð½Ð°Ð»":1787,"Ð¾Ð²Ðµ":1788,"ĠÑĩÓĢ":1789,"ÑĢÐµÑħ":1790,"ĠÐ³ÑĮÐµÑĩÓıÐµÐ»":1791,"ĠÑĢÐ¾ÑģÑĥÐ»ÑĬÐµ":1792,"ĠÑĤÓıÐ¾ÐºÓı":1793,"ĠÑħÓıÑĥÐ¶":1794,"Ġ18":1795,"Ð°Ð·Ð³Ð¸":1796,"Ð¾Ð»Ð°ÑĢÐ¾":1797,"ĠÑĤÐ°ÑĢÐ±Ð¸Ñı":1798,"Ð¾Ð²Ð¸Ñĩ":1799,"ĠÑĢÐ°Ð³ÓıÐ°Ð»":1800,"ĠÐ³ÓıÐ¾ÑĢ":1801,"ĠÐ±Ð°ÑĩÓıÑĥÐ½ÐµÐ±":1802,"ĠÐ¸Ð´Ð°ÑĢÐ°Ð±":1803,"ĠÑģÑĥÐ½":1804,"Ð¤":1805,"ĠÐ±Ð°Ð³ÑĮ":1806,"ĠÐĵÑĮÐµÐ»ÑĬ":1807,"ĠÐ°Ðº":1808,".)":1809,"ÑħÓıÐ¾":1810,"Ð°Ð¸Ð±":1811,"ĠÐ¿Ð¾Ð»Ð¸ÑĤ":1812,"ĠÐ¶Ð¸Ð±":1813,"Ð¸ÑıÑĤÐ°Ð»ÑĬÑĥÐ»":1814,"ÑģÑĤÐ²Ð¾":1815,"ĠÐ³ÑĮÐ¸ÐºÑĬ":1816,"ĠÐ±Ð°ÑħÑĬÑĥÐ½":1817,"ĠÑģÐ°Ð³ÓıÐ°ÑĤ":1818,"Ð°Ð´Ð¸ÑĢ":1819,"ĠÐ±ÑĥÐ³Ð¾Ð½Ð¸Ð³Ð¸":1820,"Ð¸Ð»Ð¸Ð½":1821,"ÐĿÐ¸Ð»ÑĬ":1822,"ĠÐ¶Ð¸Ð³":1823,"ĠÑĨÓıÑĥÐ½Ð¸Ð·Ðµ":1824,"ĠÑĨÐµÐ±":1825,"Ð¾Ð»ÑĮÐ½Ð¸ÑĨ":1826,"ĠÐ±Ð°Ð·Ðµ":1827,"Ð°ÑĤÓĢ":1828,"Ð¾ÑģÐºÐ²":1829,"Ð°ÐºÓĢ":1830,"ĠÑĨÓıÐ°Ð»Ð¸Ð·Ðµ":1831,"ĠÐºÑĮÑĥÑĢ":1832,"ĠÐºÑĮÑĥÑĢÐ°Ð±":1833,"ĠÐºÓıÐ¸Ð°Ð±Ð¸Ð»ÐµÐ±":1834,"Ð»ÑĬÑĥÐ½Ð³Ð¸":1835,"ÐµÐ¼Ð¿Ð¸Ð¾Ð½":1836,"Ð¸ÐºÓĢ":1837,"ĠÐ³ÑĮÐµÑĩÓıÐ¸Ð½":1838,"ĠÐĶÐ¸ÑĢ":1839,"ÐłÐ¾Ñģ":1840,"ĠÑħÐ°Ð´ÑĥÑĢ":1841,"Ð°ÑĤÑĥÑĢ":1842,"Ð°Ð¼Ð¼":1843,"ĠÑĢÐ¸ÑħÑĮÐ¸Ð·Ð°ÑĢ":1844,"ÐĹ":1845,"ĠÑīÑĥÐ»":1846,"ĠÐ²ÑĥÐºÓıÑĥÐ½":1847,"ĠÐ±ÑĥÑģÑģ":1848,"Ð°ÑħÑĬÐµ":1849,"ÐµÑĨÐ°":1850,"ĠÐ³ÓıÑĥÐ¼ÑĢÑĥÑıÐ»ÑĬÑĥÐ»":1851,"ĠÐ»ÑĬÑĥÐ³ÑĮÐ°":1852,"Ð¼Ð°Ð³ÑĬ":1853,"ĠÐĸÐ°ÐºÑĬÐ°":1854,"Ð¾Ñį":1855,"ÑĨÑĨ":1856,"ÑĨÐ¾ÑıÐ·":1857,"ĠÐ°Ð½ÐºÑĮ":1858,"Ð°Ð»Ð´Ð°Ð»ÑĬÑĥÐ½":1859,"Ð¸ÐºÐ°ÑıÐ»ÑĬÑĥÐ»":1860,"ĠÐ¿ÑĢÐµÐ´ÑģÐµÐ´Ð°ÑĤÐµÐ»ÑĮ":1861,"Ð°Ð»Ð°ÑĤ":1862,"Ð°Ð½Ð°Ð±":1863,"ĠÐĵÓıÐ°Ð±Ð´ÑĥÑĢ":1864,"ĠÑĢÐµÐ´":1865,"Ð¸ÑħÑĬÐµ":1866,"ĠÐ¿Ð°Ð¹":1867,"ĠÐ¼Ð°ÑħÑīÐµÐ»":1868,"ÐµÑıÐ»ÑĬÐµ":1869,"ĠÐ¼Ð°Ð´":1870,"Ð°Ð±Ð¸Ð³Óı":1871,"Ð°Ð³ÑĥÐ½":1872,"ĠÐĵÓıÐ°Ð»Ð¸ÐµÐ²":1873,"ĠÐ¼ÐµÐ´":1874,"ĠÐ·Ð°ÑħÓıÐ¼":1875,"ĠÐ°Ð¹":1876,"ÑĢÑĥÐ»":1877,"ĠÐĶÐ¸ÑĨÐ°":1878,"ÑĥÑĤÐ°Ðº":1879,"ĠÐ½Ð¸Ð»ÑĬÐµÑĨÐ°":1880,"ĠÑħÓıÐ¸ÑģÐ°Ð±Ð°Ð»Ð´Ð°":1881,"ĠÑģÐ°Ð±":1882,"ĠÑģÑĥÐ°Ð»Ð°Ð»":1883,"Ð±ÑĢ":1884,"ĠÑĢÑĥÐ³Ð¸Ð»":1885,"ĠÑĢÐµÑĤÓı":1886,"ÑıÐ±ÑĢÐ°Ð»Ð´Ð°":1887,"ĠÐĵÑĮÐµÐ»Ð´Ð°":1888,"ĠÐłÐ°Ð¼Ð°Ð·Ð°Ð½":1889,"ĠÑĩÐµÐ¼Ð¿Ð¸Ð¾Ð½":1890,"Ð°Ð³ÓıÐ¸ÑĢ":1891,"ĠÐºÑĥÑĩÓı":1892,"ĠÐ¶ÑĥÑĢÐ½Ð°Ð»":1893,"ĠÐ´ÑĥÑĨÐ°":1894,"ÑĥÐºÓı":1895,"ĠÐ½ÑĥÑħÐ´Ð°":1896,"ĠÑĢÐ¸ÑĩÑĩ":1897,"Ð°Ð½Ð¾Ð²":1898,"ĠÐĵÑĬÐ°Ð·":1899,"ÐµÑıÐ»Ð´Ð°":1900,"ÐµÑģÐµÐ»":1901,"ĠÐ³ÓıÐ°Ð¼Ð°Ð»":1902,"ĠÐ³ÓıÐ°ÑħÑĮÐ°Ð»Ð»ÑĬÐ°Ð½Ð°":1903,"ĠÑħÐ°ÑģÐ°Ð»":1904,"Ð°Ð¹Ð¾Ð½Ð°Ð»ÑĬÑĥÐ»":1905,"ĠÐ±Ð°Ñī":1906,"ĠÑħÑĬÐ²Ð°Ð¹":1907,"ĠÑĢÐ¾ÑģÐ°Ð±Ð°Ð»ÑĬ":1908,"Ð°ÑĤÐ³Ð¸":1909,"ÑĤÐ¸Ð½":1910,"Ð¸ÑģÐ°Ð½":1911,"ĠÐ¼ÑĥÐ³Óı":1912,"ÐºÑĤ":1913,"ĠÐ¿Ð°ÑĢÑĤ":1914,"Ð§":1915,"ĠÑĤÑĥÑĢ":1916,"ĠÐ±Ð¸ÑħÑĮÑĥÐ»ÐµÐ±":1917,"ÑĥÐ½Ð³Ð¾":1918,"ÐļÑĬ":1919,"Ð¸ÑıÐ½":1920,"ÐµÑĤÑĢ":1921,"ĠÐºÐ¾Ð´":1922,"Ð¾ÑĢÑĩÓı":1923,"ĠÐ±ÐµÐ³ÑĮÑĥÐ»":1924,"Ð¸ÑĨÓıÐ³Ð¾":1925,"ĠÑĢÐ°Ñħ":1926,"Ð¸Ð»Ð°Ð±":1927,"ĠÐ³ÑĮÐ°Ð±Ð¸ÑıÐ»ÑĬÑĥÐ»":1928,"ĠÐľÐ¾ÑģÐºÐ²":1929,"Ð¾Ð´Ð°":1930,"ĠÐĲÐ³ÑĬ":1931,"ÑīÐ¸Ð½Ð°Ð±":1932,"Ð°ÑģÑĢÑĥ":1933,"ĠÐ±ÑĥÑħÓı":1934,"Ð±Ð°Ñģ":1935,"Ð°Ð»ÑĬÑĥÐ»Ð³Ð¸":1936,"Ð»ÑĬÐ°Ð±Ð¸":1937,"Ġ15":1938,"ÑĨÐ°Ð³Ð¾":1939,"ĠÑĢÐµÐ´Ð°Ðº":1940,"Ð¾Ð³ÑĢÐ°Ð¼":1941,"ÑĢÐ¾Ð¿":1942,"ĠÑĥÐ½ÐµÐ»":1943,"ĠÐ³ÓıÐ°ÑĤÓı":1944,"Ð¸Ð²Ð¸ÑıÐ±":1945,"ĠÐ´Ð°ÑĢÑģ":1946,"ĠÑħÓıÐ°Ð»ÑĤÓıÑĥÐ»ÐµÐ»":1947,"ÑģÐ¸ÑĢ":1948,"Ð¸Ð»Ð°ÑĢÐ¾":1949,"ÑĨÐ¸Ñı":1950,"ÐºÑĮÐµÑıÐ»ÑĬÑĥÐ»":1951,"ĠÐ±Ð¾ÑĨÓı":1952,"ĠÐ°Ð±ÑĥÐ»Ð°":1953,"ĠÑĩÓıÐ²Ð°Ð½":1954,"Ð²Ð°ÑĢÐ¸":1955,"ĠÐºÑĥÐ»ÑĮÑĤÑĥÑĢÐ°ÑıÐ»ÑĬÑĥÐ»":1956,"ĠÐ©Ð°Ð¹":1957,"ÐĵÑĮÐµÐ»":1958,"ĠÐĵÑĮÐµÐ´Ð¸Ð½Ð»ÑĬÐ¸Ð´Ð°Ð»":1959,"ÑĥÐ½Ð¸Ð±":1960,"Ð»ÑĮ":1961,"ĠÑıÑĩ":1962,"ĠÐºÐºÐ²":1963,"ĠÐ»ÑĬÐ°Ð·Ðµ":1964,"Ð°Ð·ÑĥÐ»ÑĬ":1965,"ÑĢÐ°ÑħÑĬ":1966,"ĠÐ³ÑĥÐ³":1967,"ĠÑģÐ°Ð¹Ð³ÑĬ":1968,"Ð¸Ð½Ð°Ð±Ð¸Ð·Ðµ":1969,"ĠÑħÐ°ÑĢÐ¶":1970,"ĠÐ¸Ð½ÑĦ":1971,"ĠÐ¼Ð°ÑĨÓĢ":1972,"ĠÐĺÑģ":1973,"Ð¸Ð½Ð¸ÑģÑĤÐµÑĢ":1974,"Ð³ÑĮÐ°Ð±":1975,"ĠÑħÐ°Ð»ÐºÑĬÐ°Ð»ÑĬÑĥÐ»":1976,"Ð°Ð±Ð°Ð·Ð´Ðµ":1977,"ĠÐºÐºÐ¾Ð»Ð¸Ð½":1978,"ĠÐĵÑĮÐ°Ð½Ð¶Ðµ":1979,"ÐµÐ³Óı":1980,"Ð±Ð¸":1981,"ĠÐ±Ð¸Ñĩ":1982,"ĠÐ³ÑĮÐ¸ÑĤÓıÐ¸Ð½Ð°Ð±":1983,"Ð°Ð½Ð°Ð»ÑĬÑĥÐ»":1984,"ĠÑĢÐ°ÑħÑĮ":1985,"ĠÐ³ÑĮÐ°Ð½Ð¸Ð±":1986,"Ð¸Ð½ÑĩÓı":1987,"Ð¸ÑıÐ·Ð´Ð°":1988,"ĠÑħÓıÐ¸Ð½ÐºÑĬÐ¸":1989,"ĠÐ¼Ð°Ð»ÑĬ":1990,"ĠÐ·Ð°ÑĢÐ°Ð»":1991,"ĠÑħÑĮÐ¸ÑħÑĮ":1992,"ĠÑħÓıÐ°Ð¶Ð°ÑĤ":1993,"ĠÐ½Ð°Ñģ":1994,"ĠÑħÐ°ÑģÐ³Ð¾":1995,"ĠÐ±Ð°ÐºÓıÐ°Ð»Ð´Ðµ":1996,"ĠÑĤÓıÐµÑħÑĮ":1997,"ĠÑĨÐ¾Ð¹Ð³Ð¸":1998,"ĠÑħÐ°Ð´ÑĥÑģ":1999,"ĠÐ¶Ð¸Ð²Ð³Ð¾":2000,"ÐµÐ´Ðµ":2001,"ÐµÐ´Ð°Ð»":2002,"ĠÐºÑĥÑĤÐ°Ðº":2003,"ĠÑĤÐ°Ð»Ð¸ÑħÓı":2004,"ĠÐĿÐ¸Ð»ÑĬÐµÑĢ":2005,"ÑģÑĤÐ¸ÑĤ":2006,"ĠÐ³ÓıÐ°ÑĢÑĨÑĥÐ»":2007,"ĠÑĤÐµÐ·Ðµ":2008,"ĠÐ³ÑĮÐµÐºÑĬ":2009,"ĠÐļÐ¸Ð½":2010,"ĠÐ½Ð¸Ð»ÑĬÐµÐµ":2011,"Ð°Ð³ÑĮÐ°Ð±":2012,"Ð°Ð¹Ð¿":2013,"ĠÐ³ÓıÐ°Ð³Ð°ÑĢÐ°Ð±":2014,"ÑĥÑĢÑĤ":2015,"ĠÑĪÐ°Ð³ÓıÐ¸ÑĢ":2016,"ÐļÓı":2017,"ĠÐ±Ð¸Ð¶":2018,"Ð°Ð¹Ð±":2019,"ĠÑħÐµÑĢ":2020,"ĠÑĢÐ°ÑĩÓıÐ°ÑĢÐ°Ð»":2021,"Ð°ÐºÐ¸Ð¼":2022,"ĠÑģÐ¾Ð½Ð°Ð·Ð´Ð°":2023,"Ð´Ð°Ð¹":2024,"ÐµÐ·Ð´Ð°":2025,"ĠÐļÑĬÑĥÑĢ":2026,"ĠÐ±Ð°ÐºÓıÐ°ÑĢ":2027,"ĠÐĵÓıÐµÐ¼ÐµÑĢ":2028,"ÑĥÐ¼ÐµÐ½ÑĤ":2029,"ĠÑıÑĢ":2030,"Ð±Ð¾Ð»":2031,"ĠÑħÓıÐ°Ð»ÑĤÓıÑĥÑħÑĬÐ°Ð±Ð¸":2032,"ĠÐºÐºÐ°Ð½Ð¸":2033,"ĠÐ·Ð°ÑħÓıÐ¼Ð°ÑĤÐ°Ð±":2034,"Ð°Ñİ":2035,"ĠÑĪÐ°Ð³ÑĮÐ°ÑĢÐ°Ð»ÑĬÑĥÐ»":2036,"Ð¸Ð½Ð°Ð»ÑĬÑĥÐ»":2037,"ĠÐ±ÑĥÐºÓıÐ°Ð½Ð¸Ð³Ð¸":2038,"ĠÐ³ÑĮÑĥÐ½Ð°ÑĢ":2039,"ĠÐľÑĥÑħÓıÐ°Ð¼Ð°Ð´Ð¸Ð»":2040,"ĠÐ¶Ð¸Ð½Ð´Ð¸Ðµ":2041,"ĠÑĪÐ°Ð³ÑĮÐ°ÑĢÐ°Ð»Ð´Ð°":2042,"ĠÐ¼Ð°Ð³ÓıÐ¸ÑĪÐ°ÑĤÐ°Ð»ÑĬÑĥÐ»":2043,"Ð°ÑĢÐ°Ð»Ð´Ð°":2044,"ĠÑħÐ°Ð½":2045,"ĠÐ¿ÑĢÐµÐ·Ð¸Ð´ÐµÐ½ÑĤ":2046,"Ð»ÑĬÐ°ÑĢÐ°Ð»":2047,"ĠÐ¸ÑĪÐ°Ð»":2048,"Ð»ÐµÐºÑĤ":2049,"ĠÐĲÑģ":2050,"ĠÑĢÐ¾ÑģÐ´":2051,"ĠÐ»ÑĬÐ°Ð»Ð°ÑĢÐ¾":2052,"Ð°Ð·Ð´Ð°Ð³Ð¸":2053,"ĠÑĤÐ°Ð¼":2054,"ĠÐ³ÓıÐ°Ð´Ð°Ð¼Ð°Ð·Ð´Ð°":2055,"ĠÐºÐºÐ°ÑĢÐ°Ð»":2056,"Ð¿ÑĢ":2057,"Ð¾Ð±ÑĢÐ°Ð½":2058,"ĠÑĩÓıÑĥÐ¶":2059,"ĠÑħÐµÑħ":2060,"ĠÐ¥ÓıÐ°Ð»":2061,"ĠÑĨÐ¾ÑıÐ±":2062,"Ð°ÑĢÐ¸":2063,"ĠÐ»ÑĬÐ¸Ð¼Ð°Ð»Ð°Ð·Ðµ":2064,"Ð°Ð»Ð³ÑĥÐ½":2065,"Ð°Ð»ÑĬÐ³Ð¾":2066,"ĠÐĵÑĮÐµ":2067,"ĠÐºÐ¸Ð³ÓıÐ°Ð½":2068,"Ð¸Ð½ÑĩÓıÐ¾":2069,"Ð¸ÑĨÐ°Ð³Ð¸":2070,"ĠÐ³Ð°Ð·ÐµÑĤÐ°Ð»ÑĬÑĥÐ»":2071,"ÑıÐ·ÑĥÐ»":2072,"ĠÐ±ÐµÑĢÑĨÐ¸Ð½":2073,"Ð°ÑĤÓıÐ¸Ð¿":2074,"ĠÐ³Ð°ÑĢÐ°":2075,"Ð°Ð·ÑĥÑħÑĬ":2076,"ĠÐ·Ð°Ð²":2077,"ĠÐ½ÑĥÐ¶ÐµÑĢ":2078,"ĠÐ¸Ð½ÑĤÐµÑĢ":2079,"Ð»Ð°":2080,"ÑĥÐ½Ð³Ð¸":2081,"ĠÐ¿Ð°Ð¹Ð´Ð°":2082,"ĠÐĳÐµÑĢ":2083,"ĠÐ°Ð²ÑĤ":2084,"ĠÑĢÐ°ÐºÓıÐ°Ð»Ð´Ð°":2085,"ÐµÐºÓı":2086,"ĠÑĨÓıÐ°Ð»ÑĥÐ»":2087,"ĠÐºÐ¾":2088,"ĠÐ±Ð¸ÑĨÐ¸Ð½Ðµ":2089,"Ð²Ð°Ð³ÑĮ":2090,"ÑĩÐ¸Ð»ÑĬ":2091,"ĠÐ±Ð°ÑĤÓıÐ¸ÑıÐ±":2092,"ĠÐ¶Ð°ÐºÑĬ":2093,"Ð¾Ð²Ð°Ð»ÑĬ":2094,"ĠÑĤÓıÐ°Ð±Ð¸Ð³Óı":2095,"ĠÐ¸ÑģÐ»Ð°Ð¼":2096,"ÐºÑĥÑĢÑģ":2097,"ĠÐ¼Ð¸Ð½Ð¸ÑģÑĤÐµÑĢ":2098,"ĠÐĵÑĮÐ°Ð»":2099,"ĠÐ±ÐµÑĤÓıÐµÑĢÐ°ÑģÑĥÐ»":2100,"ĠÐ¶Ð¸Ð½Ð´Ð°":2101,"Ð»ÑĬÐ°ÑĢÐ°Ð±":2102,"ÑıÑģ":2103,"Ð°Ð³ÓıÐ¸Ð»":2104,"Ð°ÑĢÐ°Ð»Ð´Ðµ":2105,"ÐĵÑĮÐ°Ð±":2106,"ĠÐºÐ¾Ð¼Ð¸ÑģÑģ":2107,"Ð°Ð³ÑĮÐ¸Ð¼":2108,"ĠÐ³ÑĥÑĢÐµÐ±Ð³Ð¸":2109,"Ð°Ð»Ð°Ð±Ð¸":2110,"ĠÐ½Ð¾Ð¼":2111,"Ð°ÐºÑĬÑģÐ¸ÑĢ":2112,"ĠÑħÑĬÐ²Ð°ÑĢÐ°Ð±":2113,"ĠÐ¥ÓıÐ°Ð¶Ð¸Ð¼ÑĥÑĢÐ°Ð´":2114,"ĠÑĢÑĥÑģÑģ":2115,"ĠÐºÐµÑĩÓı":2116,"ĠÑĤÑĢ":2117,"ĠÐ±Ð°ÑħÑĬÐ°ÑĢÐ°Ð±":2118,"ĠÑĢÐ°ÑĩÓıÑĥÐ½":2119,"Ð½Ñĭ":2120,"Ð¦Ð¾":2121,"ĠÑĨÐµÐ½ÑĤÑĢ":2122,"ÑĢÐ°Ð²Ð»ÐµÐ½":2123,"ĠÑħÐ°Ð´ÑĥÐ²":2124,"ÑĮÐ½Ð¸Ðº":2125,"ĠÐºÐ²ÐµÑĢÐ±Ð°ÐºÑĬ":2126,"ĠÑħÓıÐ°Ð»ÑĤÓıÑĥÑħÑĬÐ°Ð½":2127,"Ð»ÑĬÐ¸ÑıÐ»Ð´Ðµ":2128,"ĠÐ±Ð¾Ð»ÑĮÐ½Ð¸ÑĨ":2129,"ĠÑĤÐ¾Ðº":2130,"ĠÐ´Ð°Ð³ÑĬÐ¸ÑģÑĤÐ°Ð½":2131,"Ð¸ÑĨÐ¸ÑıÐ»ÑĬÑĥÐ»":2132,"Ð°ÑĩÐ°Ð½":2133,"ĠÑĤÓıÐ°Ð´ÐµÐ³ÓıÐ°Ð½Ð°Ð±":2134,"ĠÑĨÐ¾ÑħÓıÐ¾":2135,"ĠÑĩÓıÐ°Ð³Ð¾":2136,"ĠÐ½ÑĥÑħÐ¼Ð°Ð»ÑĬÐ¸":2137,"Ð°Ð·Ð´Ð°ÑģÐ°Ð½":2138,"ĠÐ²Ð¸ÑħÑĮ":2139,"ĠÐĺÐ±ÑĢ":2140,"Ð¸Ð³ÓıÐ¼Ð°ÑĤ":2141,"Ð¡Ð¡":2142,"Ð°ÑĤÓıÐ°":2143,"ĠÑĤÓıÐ¾Ð±Ð¸ÑĤÓıÐ°ÑĢÐ°Ð±":2144,"ĠÐłÐµÑģ":2145,"ÑĥÑĢÐ½Ð¸ÑĢ":2146,"ĠÑĨÐ¾Ð½Ð¸Ð³Ð¸":2147,"Ð°ÐºÑĬÐ¸ÐºÑĬ":2148,"ĠÐ¿ÑĢÐ¾Ð³ÑĢÐ°Ð¼":2149,"ĠÑįÐºÐ¾Ð½Ð¾Ð¼":2150,"Ð©":2151,"ĠÐºÑĬÐµÑĢ":2152,"ĠÐ·Ð°ÐºÐ¾Ð½":2153,"ÑĥÑħÓıÐº":2154,"Ð²Ð°ÑĢÐ°Ð²":2155,"ĠÐļÓıÑĥÐ´Ð¸ÑıÐ±":2156,"ÑģÐ°Ð½":2157,"ĠÐ³ÓıÐ¸ÑĨÓıÐ³Ð¾":2158,"ĠÐĵÓıÐ°Ð±Ð´ÑĥÐ»Ð°Ð³ÑĮ":2159,"Ð»Ð°Ð´":2160,"ĠÐ±Ð°Ð¹Ð±Ð¸ÑħÑĮÑĥÐ½":2161,"Ð°ÑĢÐµÐ²":2162,"ĠÐ³ÓıÐµÐ»Ð¼":2163,"Ð±Ð°Ð»Ð°Ð³ÑĮ":2164,"ĠÑīÐ¾Ð»ÐµÐ±":2165,"Ð°ÑħÐ°":2166,"Ġ12":2167,"ĠÐ¥ÓıÐ°Ð¶Ð¸ÐµÐ²":2168,"ĠÑģÐ¾Ð²ÐµÑĤ":2169,"ĠÑĤÓıÐ°ÑģÐ°Ð½":2170,"ĠÑĢÐ¾ÑħÑĮ":2171,"ĠÐ¾ÑĤÐ´ÐµÐ»Ð°Ð»ÑĬÑĥÐ»":2172,"ĠÑĨÐ¾Ð³Ð¸Ð´Ð°Ð±":2173,"Ð»ÑĬÑĥÐ½Ð¸":2174,"ÐµÐ´ÐµÑĢ":2175,"ÐĶÐ°Ð³ÑĬÐ¸ÑģÑĤÐ°Ð½":2176,"ĠÐºÑĬÐ²Ð°ÑĤÓıÐ¸Ð±Ðµ":2177,"Ð°Ð´Ð°ÑģÐ°":2178,"ĠÐ³ÓıÐ°ÑħÑĮÐ°Ð»ÑĩÐ°Ð³Óı":2179,"ĠÑĩÓıÑĥÑħÓı":2180,"Ð¾Ðµ":2181,"Ð¾ÐºÑĬ":2182,"ÐºÐ¾Ð¼":2183,"ĠÐ°Ð¿":2184,"Ð¸Ð·Ð°Ð±ÑĥÐ»ÐµÐ±":2185,"Ð¸ÑıÐ¹":2186,"Ð´Ð¶":2187,"Ð³ÑĥÑĢ":2188,"ĠÐ±Ð°Ñģ":2189,"ĠÑħÓıÐ°Ð»ÑĤÓıÐ°Ð½Ð°":2190,"Ð¸Ð·Ð°Ð±ÑĥÐ½Ð°":2191,"ĠÑĩÐ¸ÑıÑģÑĥÐ»":2192,"ĠÐ²Ð°Ñĩ":2193,"ĠÐ¼ÑĥÑħÓıÐº":2194,"Ð°ÑĩÓıÐ¾Ð³Ð¾":2195,"ĠÑĢÐ°ÑħÑĬÐ°Ð»Ð´Ð°ÑģÐ°Ð½":2196,"ĠÐºÑĮÐ¾Ð»ÐµÐ»":2197,"Ð³ÑĮÑĥÐ½":2198,"Ð¾ÑĢÐ´Ð¾":2199,"ĠÐ»ÑĬÑĥÐ³ÓıÑĥÐ½":2200,"Ð³Ð¸Ð½":2201,"ĠÑħÓĢÐ°Ð»":2202,"Ð°ÑĤÑĢ":2203,"ÐµÐ½Ñģ":2204,"Ð¸Ð´Ð°ÑģÐ°Ð½":2205,"ĠÐ±ÑĥÐ³Ð¾Ð½Ð¸":2206,"ĠÐĶÐ¸Ð´Ð°":2207,"ĠÐ±Ð¸ÑĨÐµÐ½":2208,"Ð¾Ð½ÑĤ":2209,"ĠÐ²Ð°ÑĩÓıÑĥÐ½":2210,"Ð¸ÑħÑħ":2211,"ÐµÑĢÑģ":2212,"ĠÐ¶Ð°Ð½Ð¸ÑĢ":2213,"ĠÑħÓıÐ°Ð»ÑĤÓıÐ°Ð±Ð¸":2214,"Ð°ÑħÓıÐ¼Ð°Ð½":2215,"ĠÑĨÓıÐ°ÑĢÐ°Ð»Ð´Ð°":2216,"Ð¦Óı":2217,"ĠÐºÐ³":2218,"ĠÐ½Ð¸Ð³ÓıÐ¼Ð°ÑĤ":2219,"Ð²Ð°Ð»Ð¸":2220,"Ð°Ð½ÑĤ":2221,"ĠÑħÓıÐ°ÐºÑĬÐ¸ÐºÑĬ":2222,"ĠÐ³Ð¾Ñĩ":2223,"ĠÐ³ÓıÐ¸":2224,"ĠÑĤÐ°ÐºÑĬÑģÐ¸ÑĢ":2225,"ĠÐ¥Ð°Ð»ÐºÑĬ":2226,"Ð¾ÑģÑĤ":2227,"ĠÐºÑĮÐ²Ð°Ð³ÑĮ":2228,"Ð°Ð±Ð»ÑĬÑĥÐ½":2229,"ĠÑĢÐ¸ÑĤÓıÑĥÑħÑĬ":2230,"ÑĢÐ°ÑĤ":2231,"ĠÐ¸Ð´Ð°ÑĢ":2232,"ĠÐ»ÑĬÐ°Ð±Ð°Ð±Ð¸Ð»ÐµÐ±":2233,"ĠÐ°Ð·":2234,"ÐĵÑĮÐµÐ½":2235,"Ð¸ÐºÐ°":2236,"ĠÐĲÐ»Ð»Ð°Ð³ÑĮÐ°ÑģÑĥÐ»":2237,"ĠÐ±Ð°Ð»ÐµÐ±":2238,"ÑħÐ°Ð»":2239,"ĠÐºÓıÐ°Ð»ÑĬÐ°Ð·Ðµ":2240,"ĠÐ±ÐµÑĢÐ±Ð°Ð»Ð°Ð³ÑĮ":2241,"ĠÐ³ÑĬÐ¾ÑĢÐ»ÑĬÐµ":2242,"ĠÐºÑĬÐ°Ð¹":2243,"ĠÐ±ÐµÐ³":2244,"Ð´ÐµÑħÑĥÐ½":2245,"ÑĨÐ¸ÑıÐ»ÑĬÑĥÐ»":2246,"ĠÐ½Ð°ÑĩÐ°Ð»":2247,"ĠÐĵÓıÐ°Ð±Ð´ÑĥÐ»Ð¼":2248,"Ð°Ð·Ð´Ð°Ð»ÑĬÑĥÐ½":2249,"ĠÐ²Ð¸ÑĤÓı":2250,"ĠÐºÑĬÐ°Ð³ÓıÐ¸Ð´Ð°ÑıÐ»ÑĬ":2251,"ĠÐ»ÑĬÐµÐ·Ðµ":2252,"ĠÐ³ÑĮÐµÐ±Ð³Ð¾":2253,"ĠÑħÑĥÐ½":2254,"Ð°Ð´Ð¸Ð¾":2255,"ĠÐºÐ¸Ð½Ð°Ð·":2256,"ĠÑĤÐµÑħ":2257,"ĠÑĪÐ°ÑĢÑĤ":2258,"ÐµÐ½ÐµÐº":2259,"ĠÑģÐ²ÐµÑĢÑĥÐ½":2260,"ĠÐ³ÑĮÐ°Ð±ÑģÐ°Ð³ÓıÐ°ÑĤ":2261,"ĠÐºÑĬÐ°Ñģ":2262,"Ð°Ð·ÑĥÐ»Ð³Ð¸":2263,"ĠÑħÐ²ÐµÐ·Ð°Ð±":2264,"Ð°ÑĤÐ°Ð»ÑĬ":2265,"ĠÐ¼Ð¸Ð½Ð¸ÑģÑĤÑĢ":2266,"ĠÐºÐºÐ¾Ð»Ð°Ð°Ð½":2267,"ĠÐĵÓıÐ°Ð±Ð´ÑĥÐ»Ð°ÑĤÓıÐ¸Ð¿":2268,"ĠÐ²ÐµÑĤÐµÑĢ":2269,"ĠÐ´Ð°Ð½Ð´ÐµÐ»ÑĬÐ¸":2270,"Ð¸Ð½Ð°Ð²":2271,"ÑĢÐ°Ð±Ð¸":2272,"ĠÐºÐ¼":2273,"ÐµÑĢÐµÐ½":2274,"ĠÑĤÑĥÑĪ":2275,"Ð¸Ð»Ð°Ð»":2276,"ĠÐĺÐ±ÑĢÐ°Ð³ÑĮÐ¸Ð¼":2277,"ĠÐ±Ð°ÑħÑĬÐ¸Ð·Ðµ":2278,"Ð°ÑĢÐ´":2279,"ĠÐ±Ð°ÑĤÐ°Ð½Ð¸":2280,"ĠÐ¶Ð°Ð»Ð³Ð¾":2281,"Ð°ÑģÐ°Ð»Ð°":2282,"ĠÐ¡ÑĥÐ³ÑĬÑĢÐ°Ð»ÑĬ":2283,"ĠÐ±Ð°Ð»":2284,"Ð°Ð¼Ð¼Ð°Ð±":2285,"ĠÐºÑĮÑĥÑĩÓı":2286,"Ð¸Ð»Ð°Ð°Ð½":2287,"ĠÐ½Ð°ÑĩÐ°Ð»ÑĮÐ½Ð¸Ðº":2288,"Ð°Ð±Ð¸Ð±":2289,"Ð°ÑħÓĢ":2290,"Ð¸ÑĨÐ¸Ð¿":2291,"ĠÐ³ÓıÐ°Ð´Ð°Ð±":2292,"ĠÑħÑĬÐ²Ð°Ð·Ðµ":2293,"ĠÐºÑĮÐµÑĢ":2294,"ĠÑĢÐ¾ÐºÑĮÐ¸":2295,"ĠÑĥÐ¼ÑĥÐ¼ÑĥÐ·ÑĥÐ»":2296,"ĠÑĥÐ½Ð°":2297,"ĠÐ·Ð°Ð¼Ð°Ð½Ð°ÑıÐ»ÑĬ":2298,"ÑĩÐ¸Ð»ÑĬÐ¸":2299,"ĠÐ±ÑĥÑħÑĮÐµÐ½":2300,"Ð°Ð½Ñģ":2301,"Ð»ÑĬÐ¸ÑıÐ»ÑĬÐµ":2302,"ĠÐ±ÑĥÑģÑĥÑĢÐ±":2303,"ĠÐ´Ð¸Ð²":2304,"Ð°Ð²ÑĥÐ»":2305,"Ġ11":2306,"Ð°Ð´Ð¼Ð¸Ð½Ð¸ÑģÑĤÑĢÐ°ÑĨ":2307,"ÑħÑĬÐµ":2308,"ÑĢÑĥÐ·":2309,"ÑģÑĥÐ¿":2310,"ĠÑĨÓıÐ°ÑĢÐ°Ð»":2311,"ĠÑħÑĬÐ²Ð°Ð»ÐµÐ±":2312,"ĠÐ´Ð¾ÐºÑĥÐ¼ÐµÐ½ÑĤ":2313,"ĠÐºÑĥÑĩÓıÐ´ÑĥÐ»":2314,"ĠÐ½ÑĥÑģ":2315,"ĠÑīÐ¸Ð±Ð³Ð¾":2316,"ĠÐ»ÑĬÐ°Ð·Ð°Ð±ÑĥÐ½Ð°":2317,"ĠÐ¾Ð¿ÐµÑĢ":2318,"ĠÐ¼ÐµÐºÑĬ":2319,"Ð°Ð·ÑĥÐ»Ð³ÑĥÐ½":2320,"ĠÑıÐ»ÑĬÑĥÐ½Ð¸":2321,"ĠÐºÐ¾Ð¼Ð¿":2322,"ĠÑħÑĥÑĤÓıÑĥÐ½":2323,"ĠÑħÓıÐ°Ð»ÑĤÓıÑĥÑħÑĬÐ°Ð±Ð°Ð·":2324,"Ð¿Ð¾ÑĢÑĤ":2325,"ÐºÓıÐ°Ð»":2326,"ĠÐľÐ°ÑĢ":2327,"ĠÐ³ÑĮÐ°ÑĢÑĥÐ»Ð°":2328,"ĠÑĤÓıÐ°Ð»ÑĬ":2329,"Ð¾Ð²Ð°ÑģÐµ":2330,"ĠÑĩÓıÐµÐ·Ðµ":2331,"ĠÐ³ÓıÐµÐ»Ð¼Ñĥ":2332,"ĠÐľÐ°ÑħÓıÐ°ÑĩÑħÑĬÐ°Ð»Ð°ÑıÐ»Ð´Ð°":2333,"ĠÐ¸Ð½ÑĦÐ¾ÑĢÐ¼":2334,"ĠÑīÑĥÐ³Ð¾":2335,"ĠÐ½ÑĥÑħÐ°Ð»Ð´Ð°":2336,"ĠÑĪÐ°ÑĢÑĤÓıÐ°Ð»":2337,"Ð°Ð¿Ð°ÐºÑĬ":2338,"ĠÑĢÐ°ÐºÓıÐ°ÑĢ":2339,"ĠÑĢÐµÐ³Ð¸":2340,"ĠÐºÓıÐ¾ÑĩÐ¾Ð½":2341,"ÑĨÐ¾ÑıÐ»":2342,"ĠÑĨÓıÐ°Ð»Ð´Ð¾ÑħÑĬÐ°Ð½":2343,"Ð°Ð½Ð¸Ð»Ð°Ð½":2344,"ĠÐ³ÓıÐ¸Ñģ":2345,"ÑģÑĤÑĢ":2346,"ĠÐ³ÓıÐ°ÑĢÐ·":2347,"Ð¸ÑıÐ»Ð´Ð°Ð»ÑĬÑĥÐ½":2348,"ÑĥÑģÐµÐ½":2349,"ĠÐ¸ÑģÐ°Ð½Ð°":2350,"ĠÐ³ÑĢ":2351,"ĠÐºÐ¸Ð»":2352,"ĠÐ¼Ð°ÑĨÓıÐ°Ð»Ð´Ð°":2353,"ĠÑģÐ°Ð¿":2354,"ÐµÑĢÑħ":2355,"ĠÐ±Ð¾ÑĢ":2356,"ĠÐ±Ð°ÑĤÐ¸Ð»Ð°":2357,"ĠÐ±Ð¸ÑĤÓıÐ°ÑĢÐ°Ð±":2358,"ĠÐ¸Ñİ":2359,"ĠÐĵÓıÐ°Ð´":2360,"ĠÑħÓıÐ°ÑģÐ¸Ð»Ð°Ð»Ð´Ð°":2361,"ĠÐ¹Ð¸ÐºÓıÐ°Ð½Ð°":2362,"ĠÐºÐ°Ð½":2363,"ÑĢÑĥÐ·ÑĥÐ»":2364,"Ð°Ð»Ð´ÐµÑħÑĥÐ½":2365,"ĠÑĢÐµÑģÐ¿ÑĥÐ±Ð»Ð¸ÐºÐ°ÑıÐ»Ð´Ð°":2366,"ĠÐ±Ð°Ð»Ð°Ð³ÑĮÑĥÐ½":2367,"ĠÑħÓıÐ°Ð»Ð±Ð¸ÑħÑĮ":2368,"ÐĵÑĬ":2369,"ĠÐ½ÑĥÑħÐ°Ð»":2370,"Ð°Ð´Ð°ÑĢÑĥÑħÑĬ":2371,"ĠÐ±Ð°ÑĩÓıÐ°Ð½Ð°":2372,"ĠÑĨÓıÑĥÐ½Ð¸ÑıÐ»ÑĬÑĥÐ»":2373,"ĠÐ²ÑĥÐ³Ð¸Ð½":2374,"ĠÑĤÐµÑĢÑĢÐ¾ÑĢ":2375,"ĠÐ¢ÓıÐ°Ð´Ðµ":2376,"ĠÑĤÐµ":2377,"ĠÑĢÐµÐ»ÑĬ":2378,"ĠÐ¶ÑĥÑĢÐ½Ð°Ð»Ð¸ÑģÑĤ":2379,"ÑĢÐ°Ð±":2380,"Ð°Ð·ÐµÐ³Ð¾":2381,"ĠÐ´ÑĥÐµ":2382,"ĠÐĵÑĮÐµÐ»ÑĬÐ¸Ðµ":2383,"Ġ14":2384,"ĠÐ½Ð¸Ð»ÑĬÐµÑĢÐ³Ð¾":2385,"ĠÑĤÐ°Ð´Ð±Ð¸ÑĢÐ°Ð»":2386,"ĠÑĢÐµÐºÓıÐµÐ»ÑĬ":2387,"ĠÐºÓıÑĥÐ´Ð¸ÑıÐ²":2388,"ĠÐ¨Ð°Ð¼":2389,"ĠÑħÑĬÐ¸Ð·Ð°Ð¼":2390,"Ð´Ð°Ð±":2391,"ĠÐ³ÑĢÐ°Ð¼":2392,"ĠÐ³ÓıÑĥÑĨÓıÑĥÐ½":2393,"ĠÑĤÓıÐ¾Ð»Ð°Ð±Ð³Ð¾":2394,"ĠÐ®ÑģÑĥÐ¿":2395,"Ð¼ÐµÐ´":2396,"ĠÑĪÐ°Ð¿Ð°ÐºÑĬ":2397,"ÑĥÑĨÓĢ":2398,"ĠÐ¿ÑĢÐ¾ÐµÐºÑĤ":2399,"ĠÐ£Ð½":2400,"ÑĢÐ°ÐºÓı":2401,"ĠÑħÓıÐ°ÐºÐ¸Ð¼":2402,"ĠÐ¿ÑĢÐ¾ÑĨ":2403,"ĠÑĪÐ°ÑĢ":2404,"ĠÐľÑĥÑħÓıÐ°Ð¼Ð°Ð´Ð¸ÑĨÐ°":2405,"ĠÐ¸ÑĪÐ°Ð·ÑĥÐ»":2406,"ÑĢÐ°Ð»":2407,"ĠÑĢÐµÑħÑĥÐ½":2408,"ĠÐ³ÑĮÐ°Ð½Ð¶":2409,"ĠÑĥÐ½Ð³Ð¾":2410,"ĠÐºÐ¾Ð½ÐºÑĥÑĢÑģ":2411,"Ð·Ðµ":2412,"ĠÐ±ÐµÐ³ÑĮÑĥÐ»Ð°ÑĢÐ¾":2413,"ĠÑģÐ¾ÑĢÐ´Ð¾":2414,"ĠÐ¼Ð°ÑĨÓıÐ°Ð»ÑĬÑĥÐ»":2415,"ĠÐ³ÑĮÐ°Ð±ÑĥÐ»":2416,"ĠÐĽÑĬÐ°ÑĢ":2417,"ĠÐºÑĬÑĥÐ²Ð°ÑĤ":2418,"Ð¸Ð¼Ð½":2419,"ÑĥÑħÓĢ":2420,"ĠÐĲÑħÐ¸ÑĢ":2421,"ÑĥÐºÑĮ":2422,"ĠÐļÐ¸Ð½Ð°Ð±":2423,"Ð¸Ð»Ð¾Ð²":2424,"Ð°ÑĢÐ°Ð±Ð³Ð¾":2425,"ĠÐºÐºÐµÐ·Ðµ":2426,"ĠÐ¶Ð¸Ð½ÑĨÐ°":2427,"ĠÐ³ÑĮÐ°Ð±ÑĥÐ»ÐµÐ²":2428,"Ð½Ð¸ÑıÐ±":2429,"ĠÐ´Ð¾Ð»":2430,"ĠÐºÐ¸Ð´Ð°Ð½Ð¸Ð³Ð¸":2431,"Ð²Ðµ":2432,"ĠÑĨÓıÑĥÐ½ÑĥÐ½":2433,"ÑĤÓĢÐµÑĢ":2434,"ĠÑĢÐ°ÐºÑĬ":2435,"ĠÐºÐºÐµÐ»":2436,"ĠÑĨÓıÐ°":2437,"ĠÐ±Ð¾ÐºÑĮÐ°ÑĢÐ°Ð±":2438,"ĠÑĩÓıÐ°ÑħÓıÐ¸ÑıÐ»":2439,"ĠÐ±Ð¸ÑħÑĮÐ¸Ð·Ð°Ð±ÑĥÐ½Ð°":2440,"Ð¾ÑĨÐµÐ±ÐµÑģÐµÐ±":2441,"ĠÐ±ÐµÑĢÑĨÐ¸Ð½Ð°Ð±":2442,"ĠÐ±Ñİ":2443,"ĠÑĢÑĥÐºÓıÑĥÐ½Ð°":2444,"ĠÐĵÑĬÑĥÐ½Ð¸Ð±":2445,"ĠÑħÓıÐ°Ð»ÑĤÓıÑĥÐ»ÐµÐ²":2446,"ĠÑħÓıÐ¸ÑģÐ°Ð±Ð°Ð»Ð´Ðµ":2447,"ĠÐ¿Ð¾Ñį":2448,"ĠÑĩÓıÐµÐ·Ð°ÑĢ":2449,"ÑĥÐ¿ÑĢÐ°Ð²Ð»ÐµÐ½":2450,"ÑĢÐ¾Ñģ":2451,"ĠÑĢÑĥÐ³ÑĮÑĥÐ½":2452,"ĠÐ³ÑĮÐµÑĩÓıÐ¾Ð»ÑĬÐ¸":2453,"Ð¼ÑĥÐ´":2454,"ĠÐ°ÑħÐ¸ÑĢÐ°Ð»Ð´Ð°":2455,"ĠÑħÓıÐ°ÑģÐ¸Ð»Ð°Ð»":2456,"ĠÐºÑĬÐ°Ð³ÓıÐ¸Ð´Ð°ÑıÐ»Ð´Ð°":2457,"Ð¸Ð´Ð°ÑģÐ°":2458,"ÐºÑĢ":2459,"ĠÐ¼Ð¸Ð½Ð°":2460,"ĠÑħÓıÐ°Ð¶Ð°ÑĤÐ°Ð±":2461,"ÐµÑģÑĥÐ»":2462,"ĠÐ³ÓıÐµÐ½ÐµÐº":2463,"ĠÑĤÓıÐ°Ð´ÐµÐ³Ð¸":2464,"ÑģÑĤÐ¸ÑĤÑĥÑĤ":2465,"ĠÑĤÓıÐ¸Ð±":2466,"ĠÑĢÐ¾ÐºÑĬÐ¾Ð±":2467,"ĠÑĢÐ°ÑħÑĮÐ´Ð°Ð»":2468,"ĠÑĢÐ°ÑħÓı":2469,"ĠÐ³ÓıÐ°Ð´Ð»Ñĥ":2470,"Ð°ÑĢÐ°Ð·":2471,"Ð°Ð¼Ð¼Ð°Ð´":2472,"ĠÐ»ÑĬÑĥÑĢÐ°Ð±":2473,"ĠÐºÐ²ÐµÐ½":2474,"ĠÐ±Ð¾ÑģÐ°Ð½Ð°":2475,"Ð°Ð¸Ð½":2476,"Ð¸Ð½Ð´Ð¸ÑĢ":2477,"ĠÑĢÐ°Ð·Ð¸":2478,"ĠÐļÑĮ":2479,"ĠÑħÓıÐ°Ð»ÑĤÓıÐ¸Ð·Ð°ÑĢ":2480,"ĠÑĢÐ°Ð³ÓıÐ°Ð±Ð¸":2481,"ĠÐ±ÑĥÑĤÓıÐ°":2482,"ĠÐłÐµÑģÐ¿ÑĥÐ±Ð»Ð¸Ðº":2483,"ÑĤÓıÐ°":2484,"ĠÐºÑĬÐ²Ð°ÑĤÓıÐ¸ÑĢÐµ":2485,"ÑħÓıÐ°Ð¶Ð¸":2486,"ĠÐ¼Ð°ÑĢ":2487,"ĠÑĢÑĥÐºÓĢ":2488,"ĠÐĵÑĮÐµÐ´Ð¸Ð½Ð°Ð±":2489,"ĠÐ³ÑĮÐ¾Ð±":2490,"ĠÐ³Ð°Ð·":2491,"ĠÐĵÑĮÐµÐ·Ð´Ð°":2492,"ÑĩÓıÑĥÐ½":2493,"Ð¸ÑģÐº":2494,"Ð°Ð·ÐµÐ³Ð¸":2495,"ĠÑħÑĮÑĥÐ»":2496,"ĠÐĵÓıÐ°ÑĢ":2497,"ĠÐ³Ð°Ð·ÐµÑĤÐ°":2498,"ĠÐ¥ÓĢ":2499,"ĠÐºÑĬÐ°Ð½ÑĥÐ½":2500,"ĠÐ»ÑĬÐµÐ»":2501,"ĠÑĢÐ°Ð¹Ð°Ð´Ð¼Ð¸Ð½Ð¸ÑģÑĤÑĢÐ°ÑĨ":2502,"ĠÑĢÐ¸Ð³ÑĮ":2503,"ĠÐ´ÑĥÐ´Ð°":2504,"ĠÐ·Ð°ÑħÓıÐ¼Ð°Ð»ÑĬ":2505,"ĠÐ»ÑĬÐ°Ð³ÓıÐ°Ð»":2506,"ĠÐ·Ð°Ð»Ð°Ð»Ð´Ð°":2507,"Ġ194":2508,"ĠÐ³ÓıÐ¾Ð»Ð¾ÑħÑĬÐ°Ð½":2509,"ĠÐ¥Ð°Ð´ÑĥÐ±":2510,"ĠÐ±Ð¸ÐºÑĮ":2511,"Ð¸Ð½Ð³":2512,"ĠÐºÑĮÐµÐ¹":2513,"ĠÐ¡Ð°Ð³ÓıÐ¸Ð´":2514,"Ð°ÑĪÐ¼Ð°Ð½":2515,"ĠÑĤÓıÐ¸Ð±Ð¸ÑĤÓı":2516,"ĠÐºÑĬÐ¸Ñģ":2517,"ĠÑĢÐ°Ð´Ð¸Ð¾":2518,"Ġ17":2519,"ĠÐ³Ð¸Ð¼Ð½":2520,"ĠÐ°ÑĢÐ¼":2521,"ĠÑĤÐ°Ð¹Ð¿":2522,"ĠÐ³ÑĮÐµÐ»Ð´Ð°ÑģÐ°":2523,"ÑĤÐ°":2524,"ÑģÐ¸ÑıÐ»ÑĬÑĥÐ»":2525,"ĠÑĢÐµÐ³Ð¸Ð¾Ð½":2526,"ĠÐľÐ°ÑģÐ°Ð»Ð°":2527,"Ð¸ÐºÓĢÐºÓĢ":2528,"Ð°ÑıÐ·":2529,"ĠÐ¥ÓıÐ°ÑģÐ°Ð½":2530,"ĠÐ±ÐµÐ³Ð°Ð²ÑĥÐ»":2531,"ĠÐ³ÓıÑĥÑĨÓıÐ¸ÑıÐ»ÑĬÑĥÐ»":2532,"ÑĢÐ°":2533,"ĠÑĢÐ°Ð»Ð°Ð³ÑĮ":2534,"ÐµÐºÑģ":2535,"Ġ199":2536,"ĠÐ±Ð°ÑĩÓıÐ°ÑĢÐ°Ð±":2537,"ĠÑĥÐ½ÐºÑĬ":2538,"Ð¾Ð³ÑĮ":2539,"Ð°ÑĤÐ°Ð·ÑĥÐ»":2540,"ĠÐ¼Ð°ÑĤ":2541,"ĠÐ½Ð°Ð»":2542,"ÑİÐ·":2543,"ĠÐ»ÑĬÐ°Ð¹ÐºÑĮÐµÑıÐ»ÑĬÑĥÐ»":2544,"Ð¸ÑĦ":2545,"Ð¸ÑĢÐ°":2546,"ĠÑĢÐ¸ÐºÓıÐºÓıÑĥÐ½ÐµÐ±":2547,"Ð°Ð¹Ð¸ÑĢ":2548,"ĠÑĨÓıÐ°Ð¹":2549,"ĠÐ³ÓĢÑĥÑĨÓĢ":2550,"ĠÑĤÑĥÑĢÐ½Ð¸ÑĢ":2551,"ĠÐ³ÑĮÐ°ÑĢÐ°ÐºÑĮ":2552,"Ð°Ð»Ð´Ð°Ð³Ð¾":2553,"ĠÐ½Ð¸Ð·Ð°Ð¼":2554,"Ð±Ð¸Ð»":2555,"ĠÐ³ÓıÐ°Ð½":2556,"ĠÐ¼ÑĥÐ½Ð¸ÑĨÐ¸Ð¿":2557,"ĠÐºÐ¾ÑĢ":2558,"Ð¸ÑĢÐ·":2559,"ÑĢÐ°ÑģÑĥÐ»":2560,"ĠÐ°Ð²Ð°ÑĢÐ°Ð³":2561,"ĠÐ²Ð°ÑħÑĬÐ°Ð½Ð°":2562,"Ð³ÑĥÑģÑĤ":2563,"ÐµÑģÐµÐ´":2564,"Ð¾Ð´Ð¾ÑĢ":2565,"ĠÐ½Ð¾Ð¼ÐµÑĢ":2566,"Ð¸Ð½Ñģ":2567,"Ð¸Ð´Ð°Ð±":2568,"ĠÑīÐ¾Ð»Ð°":2569,"ĠÐĵÓıÐ°Ð»Ð¸":2570,"ĠÐ¿ÑĢÐ¾ÑĦ":2571,"ÐµÑĢÑĤ":2572,"Ð´Ð¶ÐµÑĤ":2573,"ÐµÑĢÐµ":2574,"ĠÐºÑĬÐµÑĢÐºÑĮ":2575,"Ð¸ÑĢÐ¾Ð²":2576,"Ð°ÑĢÐ°Ð»ÑĬ":2577,"ĠÐĵÑĮÐµÐ»Ð´Ð°ÑģÐ°":2578,"Ð¾Ð¿":2579,"ĠÐ³ÑĮÐ°Ð´Ð¸Ð½Ð°Ð±":2580,"ĠÑħÓĢÐ°Ð»ÑĤÓĢ":2581,"ĠÑĢÑĥÐ³ÐµÐ±":2582,"ĠÑīÐ²ÐµÐ·Ð°Ð±":2583,"ĠÐ¨Ð°Ð³ÑĮ":2584,"ĠÐºÐ°Ð»Ð°Ð¼":2585,"ĠÑıÑħÓı":2586,"ĠÐ³ÑĮÐ¾ÑĢÐºÑĮÐ¾Ñģ":2587,"ĠÐ¼Ð°Ð³ÓıÐ½Ð°":2588,"ĠÐ³ÓıÐ¾ÑĢÑħÑĬ":2589,"ÐĵÑĮÐµÐ´Ð¸Ð½Ð³Ð¾":2590,"ĠÑģÐ¾ÑĨÐ¸Ð°Ð»Ð¸ÑıÐ±":2591,"Ð°Ð²ÑİÑĢÑĤ":2592,"Ð¶Ð°Ð½":2593,"ÑĩÐ¸ÑıÑģ":2594,"ÑĥÑħÑĬÐ°":2595,"ÑĥÐ´Ð°ÑģÐ°":2596,"ĠÑģÐ¾Ð½Ð°Ð»Ð´Ð°ÑģÐ°":2597,"Ð°Ð»ÑĬÑĥÐ»Ð°Ð»":2598,"Ð¸ÑıÐ±Ð³Ð¾":2599,"ĠÐ²Ð¸Ñī":2600,"ĠÐ½Ð°ÑħÑĬÐ°":2601,"Ð°Ð³ÓıÐ°ÑĢÑĥÐ»":2602,"ÑĥÐ³ÑĮÐ°Ð»":2603,"ĠÐ°Ð±Ð¸Ð»ÐµÐ±":2604,"ĠÐ¡ÑĥÐ»":2605,"ĠÑįÑħ":2606,"ĠÐ¼ÐµÐ´Ð°Ð»":2607,"ÑĥÑģÐ¼Ð°Ð½":2608,"ÑĪÐ°Ð³ÑĮ":2609,"ĠÐ¿Ð°ÑĪÐ¼Ð°Ð½":2610,"ĠÐ³ÓıÐ°ÐºÑĬÐ»Ñĥ":2611,"ĠÐŁÑĢ":2612,"ĠÐļÐ°Ð²ÐºÐ°Ð·Ð°Ð»ÑĬÑĥÐ»":2613,"Ð¾ÑİÐ·":2614,"Ð°ÑĢÐ¸Ñī":2615,"ĠÐĵÑĮÐ°ÑĢ":2616,"Ð°Ð´Ð¸Ð½":2617,"ĠÐ¸Ð·":2618,"ĠÐ³ÑĮÐµÐ±Ð³Ð¸":2619,"ĠÐ¶ÑĥÐ±":2620,"Ð¸Ð·ÐµÐ³ÓıÐ°Ð½":2621,"ĠÐ³ÓıÑĥÑĨÓıÐ°ÑĢÐ°Ð±":2622,"ĠÑīÑĥÐ»Ð¸ÑıÐ±":2623,"Ð°ÑĢÐ°Ð»ÑĬÑĥÐ»":2624,"ĠÑĨÓıÐ¸ÑıÐ»":2625,"ĠÐ´Ð°Ð³ÑĮÐ°Ð»":2626,"ĠÐ¼ÑĥÑĢÐ°Ð´Ð°Ð»Ð´Ð°":2627,"ĠÐĵÓıÐ°Ð±Ð´ÑĥÑĢÐ°ÑħÓıÐ¼Ð°Ð½":2628,"Ð±ÑĥÐ»":2629,"ĠÑīÐ²Ð°ÑĢÐ°Ð»":2630,"ĠÐ³ÓıÐ¾Ð»Ð¾ÑħÑĬÐ°Ð±Ð¸":2631,"ÑĤÐ½Ð¸Ðº":2632,"ĠÐ²ÑĥÑģÑģ":2633,"ĠÑĤÓıÐ°Ð´ÐºÑĬ":2634,"ĠÐ±Ð°ÑħÑĬÐ°Ð½Ð°":2635,"ĠÐ¼ÑĥÑħÑĬÐ°Ð»Ð´Ð°":2636,"ĠÐ¼Ð°Ð´Ð°Ð½":2637,"ĠÐĳÐµ":2638,"Ð±Ð°ÑħÑĬÐ¸Ð½":2639,"ĠÐĲÐ³ÑĬÐ²Ð°Ð»Ð¸":2640,"ĠÑĢÐ°ÑħÑĬÑĥÐ½":2641,"Ð³ÑĬÑĥÐ»":2642,"ĠÐ°ÑħÓıÑĥÐ½":2643,"ĠÑĥÑĢÐ³ÑĬÐµÐ»":2644,"ĠÐ»ÑĬÑĥÐ½Ð°":2645,"Ð°Ð³ÓıÐ±":2646,"ĠÑĩÐ¸ÑıÑģÐµ":2647,"ĠÐºÐ²ÐµÑĪÐ°Ð±":2648,"Ð½Ñĥ":2649,"ĠÑĥÐ¿ÑĢÐ°Ð²Ð»ÐµÐ½":2650,"Ð¸Ð´Ð°Ð³Ð¾":2651,"Ð°Ð»ÑĬÐµÐ³Ð¸":2652,"Ð³ÑĥÑĢÐµÐ»ÑĬÑĥÐ»":2653,"ĠÑĥÑģÑĤ":2654,"Ð°ÑĢÐ¸ÑıÐ»ÑĬÑĥÐ»":2655,"ÑıÐ±ÑĢ":2656,"ĠÐ°ÑģÐºÓıÐ¾Ð±":2657,"ĠÐĲÐ·":2658,"Ð¸Ð½Ð°Ð»Ð³Ð¾":2659,"ĠÐ¿ÑĢÐ¾ÑĨÐµÐ½ÑĤ":2660,"Ð½Ð°ÑħÑĬ":2661,"ÑĪÐ°Ð²":2662,"ĠÐ°ÑĢÐ°Ð»":2663,"ĠÐ¢ÑĥÑĢ":2664,"ĠÐ±ÐµÑĢÐ³ÑĮÐµÐ½Ð»ÑĬÐ¸":2665,"ĠÑģÐ°Ð¹Ð³ÑĬÐ°ÑĤ":2666,"ÐµÐºÑĬ":2667,"Ð¾Ð»Ð¾":2668,"ÑĥÐ¼Ð¾":2669,"ĠÐ³ÑĮÐµÐ½Ð¸Ð²":2670,"Ġ100":2671,"ÑĢÐºÐµÐ½Ð»ÑĬÐ¸":2672,"ĠÐºÑĬÐ²Ð°ÑĢÐ¸Ð³ÓıÑĥÐ½":2673,"ĠÐºÐ¾Ð»ÑħÐ¾Ð·Ð°Ð»ÑĬÑĥÐ»":2674,"ĠÐ¿Ð°Ð¹Ð´":2675,"ĠÑĥÐ½ÑĤÐ¸":2676,"ĠÐĵÑĮÐµÐ½Ð¸ÑĢ":2677,"ĠÐ³ÑĮÐ¾Ð±Ð¾Ð»":2678,"Ð¸ÑĤÐµÐ»":2679,"ĠÑĢÐ°ÑĩÓıÑĥÐ½ÐµÐ»":2680,"Ð¸Ð»Ð¸Ð¼":2681,"Ð¸ÑĤÓĢ":2682,"ĠÐºÑĥÑĤÐ°ÐºÐ°Ð»Ð´Ð°":2683,"Ð°Ð³ÓıÐ°Ð½":2684,"ĠÐ³ÑĮÐµÐ½Ð¸ÑĢÐµ":2685,"Ð°ÑĤÐ¸ÑĨÐ°":2686,"Ġ13":2687,"ĠÐµ":2688,"ĠÑĢÐ°Ð³ÓĢ":2689,"ĠÑĤÓıÐ°Ð´Ð°Ð±":2690,"Ð°Ð¹Ð½":2691,"ĠÐ³ÓıÐ¾Ð´Ð¾Ð±Ðµ":2692,"ÑĥÑħÑĬÐ°Ð½":2693,"Ð¸ÑĩÓıÐµÐ±":2694,"ĠÐ½Ð¸Ð¶ÐµÐ´Ð°":2695,"ĠÐ¿ÐµÐ´":2696,"Ð¸Ð¼Ð°Ð»Ð¸ÑıÐ±":2697,"ĠÐºÑĬÐ¾Ð¹":2698,"ĠÐ±ÑĥÐºÓıÐ¸Ð½ÑĩÓı":2699,"ÑĥÑĤÐ¸Ð½":2700,"ĠÐ±ÑİÐ´Ð¶ÐµÑĤ":2701,"ÐµÑĦ":2702,"ĠÐĿÑĥÑĢÐ¼":2703,"Ð»Ñı":2704,"Ð°ÑħÐ°Ð½":2705,"Ð°Ð¼ÑĥÑģ":2706,"ĠÑĢÐ°ÑħÑĬÐ°Ð½Ð°":2707,"ĠÑĤÓıÐ¾Ð±Ð¸ÑĤÓıÑĥÐ»ÐµÐ±":2708,"ÑĥÑĢÐ±Ð°Ð½":2709,"Ð¸Ð·Ð°Ð²":2710,"Ð»Ð¸Ñģ":2711,"Ð¸Ð»ÑĬÐ»ÑĬ":2712,"ĠÐ°Ð±ÑĥÑĢÐ°Ð»":2713,"Ð°Ð´ÑĥÐ»Ð°Ð±":2714,"Ð°ÑĤÐ¾ÑĢ":2715,"Ð³Ð¸ÑĨÐ¸Ð½":2716,"Ð¸Ð½Ð´Ð°Ð»":2717,"ĠÐ³ÑĮÐ°Ð±Ð¸ÑĩÓıÐ¾Ð³Ð¾":2718,"ÐµÑģÑĤÐ²Ð¾":2719,"Ð°Ð½Ð´Ð°":2720,"ĠÐĿÑĥÐ¶":2721,"ÐĿÐ¸Ð»ÑĬÐµÑĢ":2722,"Ð¡Ð¡Ðł":2723,"ĠÐ´Ð¸ÑĢÐ³Ð¾":2724,"ĠÐ°Ð²Ð³ÑĥÑģÑĤ":2725,"ĠÑĤÐ°Ð½Ð°":2726,"ĠÐ±Ð°ÑĩÓıÑĥÐ½":2727,"Ð´ÐµÑĢ":2728,"ĠÐ³ÑĮÐ°Ð²ÑĥÐ½Ð°":2729,"ĠÑģÐ²":2730,"ĠÑĢÐ°ÑħÑĬÐ°ÑĢÐ°Ð»":2731,"Ð¸Ð°Ð»Ð¸ÑģÑĤ":2732,"ÐµÐ³ÓıÐµÑĢ":2733,"ĠÑģÐµÐ½ÑĤ":2734,"ĠÐºÑĬÐ¾ÑıÐ»Ð´Ð°":2735,"ĠÐ±ÑĥÐºÓıÑĥÐ½ÐµÐ±":2736,"ĠÐ¥ÑĮ":2737,"ĠÐĶÐ¾Ð±":2738,"ĠÐ¥ÓıÑĥÑģÐµÐ½":2739,"Ð»Ð°Ð¼":2740,"ĠÐºÑĢ":2741,"Ð²Ð°Ñħ":2742,"ĠÐ¿ÑĢÐ¾Ð³ÑĢÐ°Ð¼Ð¼":2743,"ĠÑħÓıÐ°Ð»Ð°Ð»Ð´Ð°":2744,"ĠÐ±ÐµÐ³ÑĮÑĥÐ»ÐµÐ±":2745,"ĠÐ±Ð°ÐºÓĢ":2746,"ĠÑĨÓıÐ°Ð»Ð´Ð¾ÑħÑĬÐ°Ð±Ð¸":2747,"ĠÐ½Ð°Ð»Ð¾Ð³":2748,"ÐºÐ°Ð±Ð¸":2749,"ĠÐ³ÓıÐµÐ¼ÐµÑĢÐ¸ÑģÐµÐ»":2750,"ÐĲÐ»":2751,"ĠÐ±ÑĥÐºÓıÑĥÐ½Ð°ÑĢÐ¾":2752,"ĠÐºÑĬÐ¾ÑıÐ·Ð´Ð°":2753,"ĠÑĩÐ¾ÑĢÑħ":2754,"ĠÑħÓıÐ°Ð»ÑĤÓıÑĥÐ»ÑĬ":2755,"Ð°Ð¶Ð°Ð¸Ð±":2756,"Ð°Ð»ÑĮ":2757,"ĠÑĢÐ¾ÑħÐµÐ»":2758,"ĠÑıÑĨ":2759,"ÐĶÐ°Ð½Ð´Ðµ":2760,"ĠÐ±Ð°ÑħÑĬÑĥÐ»ÐµÐ±":2761,"Ð°ÑĤÐ¸Ð»":2762,"ĠÐ¼Ð°ÑĢÑĤ":2763,"ĠÐľÑĥÑĢÑĤ":2764,"ĠÐºÐºÐ¾Ð»Ð°ÑĢÐ¾":2765,"ĠÐ¼ÑĥÐ·":2766,"ĠI":2767,"Ð»ÑĬÑĥÐ»Ð°":2768,"ĠÐ»ÑĬÐ°Ð·Ð°Ð±ÑĥÐ½":2769,"ĠÐ±ÑĥÐºÓĢÐ°Ð½Ð°":2770,"ÐĵÑĮÐ°Ð»":2771,"ĠÐ´ÑĥÐ½ÑıÐ»Ð°Ð»ÑĬÑĥÐ»":2772,"18":2773,"ĠÑĦÐ¸Ð»":2774,"ĠÐ¿Ð¾Ð»Ð¸ÑĨÐ¸ÑıÐ»ÑĬÑĥÐ»":2775,"ĠÐ±ÑĥÐºÓıÐ¸Ð½Ð°":2776,"ĠÐºÓıÐ°Ð»ÑĬÐ°Ð¹":2777,"ĠÐ³ÑĬÑĥÑĤ":2778,"ĠÐ³ÑĬÐ²Ð°ÑĢ":2779,"Ġ25":2780,"ÐłÑıÐ»ÑĬÑĥÐ»":2781,"ĠÐºÓıÐ°Ð½ÑĨÓı":2782,"ĠÐľÑĥÑħÓıÐ°Ð¼Ð°Ð´Ð¾Ð²Ð°Ñģ":2783,"ĠÐľÑĥÐ½":2784,"Ð¸ÑıÐ»ÑĬÑĥÐ»ÑĬ":2785,"Ð¥ÓıÐ°ÐºÑĬÐ¸ÐºÑĬ":2786,"ĠÐķÐ²":2787,"Ð³ÑĮÐ°Ð»":2788,"ĠÐ²ÑĥÐ³Ð¸Ð»":2789,"ĠÑģÐµÐº":2790,"ĠÐ±Ð°ÑĨÓıÑĨÓıÐ°Ð´":2791,"ÐµÑģÐº":2792,"ĠÐ¶Ð¸Ð´ÐµÑĨÐ°":2793,"ĠÑĥÑĩÐ°ÑģÑĤ":2794,"Ð¸Ð¼ÑĥÑħÓıÐ°Ð¼Ð°Ð´":2795,"Ð¸ÑıÐ»ÑĬÑĥÑħÑĬ":2796,"Ð¾ÑĤÐµÐº":2797,"ĠÐºÐ¸ÑĢ":2798,"ĠÑĦÐ¾Ð½":2799,"ÐºÐ¾Ð²":2800,"ÐµÑĢÐ³":2801,"ĠÐ¼ÑĥÐ½Ð°Ð³ÑĮÐ°Ð»":2802,"Ð¸ÐºÐ°Ð»":2803,"ÑĥÐ³ÓıÐ°Ð´Ð°Ð½":2804,"ĠÐ³ÑĮÐ°ÑĢÐ¸":2805,"ĠÐ´Ð°Ð½Ð´ÐµÐ»ÑĬÐ¸ÑıÐ»Ð´Ð°":2806,"ĠÐ³ÑĮÐµÑĩÓıÐ¸Ð»Ð°Ð½":2807,"ÐĸÐ°ÐºÑĬÐ°":2808,"ĠÑħÑĥÑĤÓıÐ°Ð½Ð°":2809,"Ð°ÑĢÐ°Ð·Ð´Ð°":2810,"Ð°ÑģÐ°ÑĢ":2811,"ĠÐ¢ÓıÐ°Ð´":2812,"ĠÐ¥Ð°ÑģÐ°Ð²ÑİÑĢÑĤ":2813,"ĠÐ¡Ð¸ÑĢ":2814,"ÑĥÐºÑĥÐ¼":2815,"ĠÐļÑĬÑĥÑĢÑĬ":2816,"ĠÑħÓıÑĥÑħÑĮ":2817,"ĠÐ³ÑĥÑĢÐµÐ»":2818,"ĠÐ¼Ð°Ð´ÑĥÐ³ÑĮÐ°Ð»":2819,"ĠÐ±Ð¸Ñī":2820,"ĠÑĢÐ°Ð»ÑĬ":2821,"ÑĥÑħÑĥÐ¼":2822,"Ð¸Ð½Ð°Ð±ÑĥÐ½":2823,"ĠÐ±Ð¸ÑħÑĮÐ¸Ð·Ð°Ð±ÑĥÑĢÐ°Ð±":2824,"ĠÐºÐºÑĥÐ½Ð°":2825,"ÐµÐºÐºÑĥÐ½":2826,"ĠÐ³ÑĢÐ°Ð¼Ð¾ÑĤ":2827,"ÑħÓĢ":2828,"ĠÐ²ÑĥÐºÓĢ":2829,"ĠÑĤÓıÐ¾ÑĨÐµÐ±Ðµ":2830,"ĠÑħÓıÐ°Ð¹":2831,"ĠÑĢÐµÑĩÓı":2832,"ĠÐĳÐ°ÑĢÐº":2833,"ĠÑĢÐ°Ð³ÑĮÑĥÐ½":2834,"ĠÐ³ÑĮÑĥÐºÑĬ":2835,"ĠÑħÓıÐ°Ð»ÑĤÓıÐ¸Ð³Ð¸":2836,"âĢĵ":2837,"ÑĨÓĢ":2838,"ĠÑĥÐ»ÐºÐ°ÑıÐ»ÑĬÑĥÐ»":2839,"ĠÐ±Ð°Ð³ÑĬ":2840,"ĠÑĢÐ¾ÑģÑĥÐ½":2841,"ĠÐ±Ð°ÑĩÑĥÐ½":2842,"ĠÑĢÐ°Ð³ÓıÐ°Ð»Ð´Ðµ":2843,"ĠÐºÑĬÐ¸ÑģÐ¼Ð°ÑĤ":2844,"ĠÑĢÑĥÐ³Ð¸Ð»Ð°Ð½":2845,"Ð°ÑĢÐ±":2846,"ĠÐ³ÓıÐ°Ð¼Ð¼Ð°Ð±":2847,"ĠÑĤÐµÑħÐ½Ð¸Ðº":2848,"Ð»ÑĬÑĥÐ»ÐµÐ±":2849,"Ð°ÑĢÐ°Ð»Ð³Ð¸":2850,"ĠÐłÐ¾ÑģÑģÐ¸ÑıÐ»Ð´Ð°":2851,"Ð°ÑıÐ²":2852,"Ð¸ÐµÐ²Ð°Ñģ":2853,"ĠÐ¼Ð¸Ð»Ð»Ð¸Ð¾Ð½":2854,"ÑħÑĬÐ²Ð°Ð³Óı":2855,"ĠÐºÐ¸Ð½Ð°Ð·ÐµÐ³Ð¾":2856,"ĠÐ³ÑĮÑĥÐ¼":2857,"ĠÐ½Ð¸Ð¶ÐµÐµ":2858,"Ð¾Ð±ÑĢÐ°Ð½Ð¸ÑıÐ»ÑĬÑĥÐ»":2859,"Ð°Ð½Ð°Ð·ÑĥÐ»":2860,"ĠÐĲÐ´":2861,"ÐĲÐ¼":2862,"ĠÐ¼Ð°ÑĪÐ¸Ð½":2863,"ĠÑħÓıÑĥÐºÑĥÐ¼Ð°ÑĤÐ°Ð»ÑĬÑĥÐ»":2864,"ÑĤÓıÑĥÐ½":2865,"ÐµÐ´ÑĥÑħÑĬ":2866,"Ġ30":2867,"ÐĶÑĥÐ½":2868,"ĠÑģÐ¿Ð¾ÑĢÑĤÐ°Ð»ÑĬÑĥÐ»":2869,"ĠÐĴÐ°ÑĤÓıÐ°Ð½Ð¸ÑıÐ±":2870,"ĠÐ°ÑħÓıÐ¸":2871,"ĠÐ»Ð¸ÑĤ":2872,"ÑĥÑģÐ»Ð¸Ð¼":2873,"ĠÑĢÐ°ÐºÓıÐ±":2874,"Ð»ÐµÐºÑĤÐ¸Ð²":2875,"ĠÐ¼Ð°ÑħÓı":2876,"ÐµÐ½ÐµÑĢ":2877,"ĠÐ¾ÑĢÐ³":2878,"Ð¾ÐºÑĥÑĢ":2879,"ĠÑĨÐ¸Ð½":2880,"ĠÑĤÓıÐ¾Ð±Ð¸ÑĤÓıÐ¸Ð·Ðµ":2881,"ĠÐ½ÑĥÐ¶ÐµÐ´Ð°":2882,"ĠÐºÐ°Ð¿":2883,"Ð¸Ð±Ð»Ð¸":2884,"ĠÐ³ÑĮÐ¾ÑĢÐºÑĮÐ¾Ð²":2885,"ĠÐ¦Ð¾Ð³Ð¸":2886,"ĠÐ³ÓıÑĥÐ½Ð³ÑĥÑĤÓı":2887,"Ð°Ð³Ð¾Ð¼ÐµÐ´":2888,"ĠÐ¸Ð½ÑĤÐµÑĢÐ½":2889,"ĠÐ´ÐµÐº":2890,"ĠÐ°ÑħÓıÐ°Ð½Ð°":2891,"ĠÐºÑĬÐ°Ð´ÑĢÑĥ":2892,"Ð½ÑĭÐ¹":2893,"ĠÑħÐ°Ð»Ð°ÑĤ":2894,"ĠÑĤÑĥÑĪÐ¼Ð°Ð½":2895,"ĠÑħÐ¸ÑģÐ°":2896,"ÐµÐ¹Ð³Ð¸":2897,"ĠÐĿÑĥÑĢÐ¼ÑĥÑħÓıÐ°Ð¼Ð°Ð´":2898,"ĠÑĢÐ¸ÐºÑĮ":2899,"ĠÐĵÑĮÐ¸ÑĤÓı":2900,"ĠÐ±Ð°ÑĩÑĩ":2901,"Ð¸Ð±Ð»Ð¸Ð¾ÑĤÐµÐº":2902,"ĠÑĥÐ½ÐºÑĬÐ¾":2903,"ÑĥÐ»Ð°ÑĢÐµÐ±":2904,"Ð·Ð°Ð±Ð°Ð·Ðµ":2905,"ĠÑĨÐµÐ±ÐµÑģÐµÐ±":2906,"ĠÐ¼Ð¾ÑĨ":2907,"ÑĢÐ°Ð½Ñģ":2908,"ĠÐĵÑĮÐ°Ð±ÑģÐ°Ð³ÓıÐ°ÑĤ":2909,"ĠÐ³ÓıÐ°ÑģÑĢÑĥ":2910,"ĠÐ³ÓıÐ°Ð´Ð°Ð»":2911,"ĠÑĤÓıÐ¾ÑĢÐ¸ÑĤÓıÑĥÐ»ÐµÐ»":2912,"ĠÑħÑĥÑĢÑħÐ°ÑĢÐ°Ð»":2913,"Ð¸ÑĤÐµÑĤÐ°Ð»ÑĬÑĥÐ»":2914,"ÑħÑĬÐ°Ð½":2915,"ĠÐĵÑĮÐµÐ´Ð¸Ð½Ð°Ð»":2916,"ĠÐ±Ð°Ð½Ð°":2917,"ĠÐ±ÑĥÐ³Ð¾Ð°Ð½":2918,"Ð°ÐºÑĤ":2919,"ĠÐ¼Ð»":2920,"ĠÐ¹Ð¸Ð³":2921,"ĠÑħÐ¸Ð½":2922,"ĠÐĳÐ°Ð¹":2923,"ĠÐ¸Ð½ÑģÑĤÐ¸ÑĤÑĥÑĤ":2924,"ĠÐ»ÑĬÐ¸ÐºÓıÐ°Ð²":2925,"ĠÐ³ÑĮÐµÐ»Ð´Ðµ":2926,"ĠÑĢÐ°ÑĩÑĥÐ½":2927,"ĠÐ±Ð¸ÑħÑĮÑĥÐ½":2928,"ĠÐĵÑĬÐ¾ÑĢÐºÑĮ":2929,"ĠÐ³ÓıÑĥÑĢÐ°Ð±":2930,"Ð°Ð¼Ð°":2931,"ĠÐłÐ¾ÑģÐ´Ð°Ð»":2932,"ĠÑīÐ¸Ð±Ð½Ð¸Ð³Ð¸":2933,"ĠÐĵÑĥÑĢ":2934,"ĠÐ±Ð°ÐºÓıÐ°Ð·Ð´Ð°":2935,"ĠÐ±Ð°ÑĤÐ°Ð½Ð°":2936,"ĠÐ¶Ð°Ð¼Ð³ÓıÐ¸ÑıÐ±":2937,"ĠÐ³Ð¾ÑĢ":2938,"ĠÑĩÐ²Ð°Ñħ":2939,"Ð¸ÑĩÓıÐ¾Ð½Ð¸":2940,"Ð°Ð»Ð³Ð¾":2941,"ĠÐºÑĮÐ°Ð±":2942,"ĠÐ´ÑĥÐ½ÑıÐ»Ð°Ð»Ð´Ð°":2943,"Ð´Ð°Ð³ÑĮ":2944,"ĠÑĤÐ°Ñħ":2945,"ĠÐ¿Ð»Ð°Ð½":2946,"ĠÑħÑĬÐ²Ð°Ð´Ð°ÑĢÑĥÑħÑĬ":2947,"Ð²Ð¾ÑĢ":2948,"ĠÐ³ÑĮÐ°Ð±ÑĥÐ»Ð°Ð°Ð½":2949,"ĠÑģÑĥÐ³ÑĬÑĥÐ»":2950,"ĠÑīÐ°Ðº":2951,"ĠÑģÐ¾Ð½Ð°Ð»":2952,"ĠÑĤÓıÑĥÐ±Ð°Ð·Ð°Ð±":2953,"ĠÐľÐ°ÑħÓıÐ¼ÑĥÐ´":2954,"ĠÐ±Ð°Ð»ÑĬÐ³Ð¾":2955,"Ð²ÑĥÑģÑģ":2956,"ĠÑģÐ¾Ð½Ð°Ð»Ð´Ðµ":2957,"ĠÐ±Ð¸ÑĤÓıÑĥÐ½":2958,"ĠÐ¼Ð°ÑĢÐº":2959,"ĠÐ¾ÐºÑĤ":2960,"Ð»ÓĢ":2961,"ĠÐºÐ°ÑĢ":2962,"ÑĩÓıÐ²Ð°ÑĢ":2963,"ĠÐĵÓıÑĥÑģÐ¼Ð°Ð½":2964,"ĠÐ±Ð¸ÑħÑĮÐ¸Ð·Ð°Ð±ÑĥÐ½":2965,"ĠÐĳÐ°ÐºÑĬ":2966,"ĠÑĢÐ°ÐºÑĮÐ°Ð»Ð´Ð°":2967,"ÐĿÐ¸Ð¶":2968,"ĠÐ³ÓıÐ¾Ð»Ð¸Ð»Ð°Ð·ÑĥÐ»":2969,"ĠÐºÐ°Ð¼Ð¸Ð»":2970,"Ð°ÐµÐ²Ð°ÑģÑĥÐ»":2971,"ÑĢÐµÑĤ":2972,"ĠÑĩÐ¸Ð³Ð¸":2973,"ĠÐ¨Ð°Ð¼Ð¸Ð»Ð¸Ð»":2974,"ĠÑĢÐ°Ñģ":2975,"Ð¸ÑıÐ»Ð³Ð¸":2976,"ĠÐ¼ÐµÐ´Ð¸ÑĨÐ¸Ð½":2977,"ĠÐ±ÐµÑĤÓıÐµÑĢÐ³ÑĮÐ°Ð½":2978,"ĠÐ¸Ð½ÑģÑĥÐ»":2979,"ĠÑģÐ¸Ñı":2980,"ĠÐºÑĮÐ¾":2981,"ĠÐĵÓıÐ¸Ñģ":2982,"ĠÐ¿Ð°ÑĩÐ°Ð»Ð¸ÑħÑĬÐ°Ð»ÑĬÑĥÐ»":2983,"ĠÐ¼Ð¸Ð»Ð»Ð¸ÑıÐ±":2984,"ĠÐ²Ð°ÐºÐ¸Ð»Ð·Ð°Ð±Ð¸":2985,"ÐµÑĢÐ±ÐµÐ½ÑĤ":2986,"ĠÐºÐºÐ²ÐµÐ·Ðµ":2987,"ĠÐ½Ð¾":2988,"ĠÐŁÑĥÑĤÐ¸Ð½":2989,"Ð°ÐµÐ²Ð°":2990,"Ð°ÑĤÐ¸Ð²Ð¸ÑıÐ±":2991,"ĠÐ±ÑĥÐºÓıÐ°Ð½Ð¸Ð½":2992,"ĠÐ³ÑĮÐµÑĩÓıÐ¾Ð½Ð¸":2993,"ĠÑĤÓıÑĥÐ±Ð°Ð½Ð³Ð¾":2994,"ĠÐºÐ¾Ð»Ð»ÐµÐºÑĤÐ¸Ð²":2995,"Ð½ÑĥÑģ":2996,"ĠÑĩÐ°Ð½":2997,"ĠÐ¿Ð¸ÐºÑĢÑĥÑıÐ»Ð´Ð°":2998,"Ð»Ð°ÑģÑĤ":2999,"ĠÐ³ÑĮÐ°Ð´Ð¸Ð½":3000,"Ð¾ÑĦ":3001,"Ð·Ð°Ð¼":3002,"Ð°Ð´ÐµÑĢÐ¸Ð»":3003,"ĠÐ³ÑĮÐ°Ð±ÑĥÑĢÐ°Ð»":3004,"Ð±Ð¾ÑĨÓı":3005,"Ð°Ð»ÑĬÑĥÐ»Ð°":3006,"ĠÐ³ÑĮÐ¾ÑĢÐºÑĮÐ¾ÑģÐ°":3007,"ĠÑĩÐµÑĢÑħ":3008,"ÑģÐºÐ¸Ð¹":3009,"ĠÑħÓıÐ°Ð»ÑĤÓıÑĥÐ»ÐµÐ±":3010,"ĠÐ±Ð¸ÑħÑĮÐ¸Ð½":3011,"ĠÐ¼Ð°ÐºÑĬÐ°Ð»":3012,"Ð²ÐµÐ½":3013,"Ð°Ð¹ÑĪ":3014,"ĠÑĨÓıÐ¾ÑĢ":3015,"ĠÐĲÐ±Ð°ÐºÐ°ÑĢ":3016,"ĠÑĥÑģÑĤÐ°ÑĢ":3017,"ĠÑģÐ¿ÐµÑĨ":3018,"ĠÑĩÐ¸ÑıÑģÐ´Ð°":3019,"ĠÑĢÐµÐº":3020,"Ð°Ð»Ð´ÐµÐ³Ð¸":3021,"ĠÐºÐ²Ð°Ð»":3022,"ĠÐ³ÑĮÐ°Ð½Ð¸ÑĢ":3023,"ĠÐĿÐ¸Ð¶ÐµÑĢ":3024,"ĠÐ±ÐµÑĩÐµÐ´":3025,"ĠÐ³ÐµÐ½":3026,"ÐºÑĢÐ°Ð¸Ð½":3027,"Ð¸Ð»ÐµÐ»":3028,"ĠÐ¿ÐµÐ½Ñģ":3029,"ĠÐ½ÑĥÐ¶ÐµÐµ":3030,"ĠÐ°Ð½ÑĨÓıÐ³Ð¾":3031,"ĠÑįÑĢÐºÐµÐ½Ð°Ð±":3032,"Ð»ÑĬÑĥÐ»ÐµÐ»":3033,"ĠÐłÐ°Ð¹Ð¾Ð½Ð°Ð»ÑĬÑĥÐ»":3034,"ĠÐ¡Ð°Ð³Óı":3035,"ĠÐ³ÓıÐ¾Ð»ÐµÐ±":3036,"ĠÐĵÑĬÐ¸Ð·":3037,"ĠÑĨÐµÐ±ÐµÑĤÓıÐµÐ·Ð°Ð±":3038,"ĠÑĢÐ°Ð¹Ð°Ð´Ð¼Ð¸Ð½Ð¸ÑģÑĤÑĢÐ°ÑĨÐ¸ÑıÐ»ÑĬÑĥÐ»":3039,"ÓıÐ°Ð»Ð´Ð°":3040,"ĠÑĥÑĩÑĢ":3041,"ĠÑĢÐµÑħÑģÐ°ÑĢÐ°Ð±":3042,"Ð±ÐµÐº":3043,"ĠÐºÑĮÑĥÑĢÐ°Ð»":3044,"ÑĥÑģÐ½Ð°ÑħÑĬ":3045,"Ð°Ð´Ð¶":3046,"ĠÐ³ÑĬÑĥÐ½":3047,"ÐµÐ²Ð°Ñģ":3048,"ĠÐĶÐłÑıÐ»ÑĬÑĥÐ»":3049,"ĠÑĢÐ°Ð³ÓıÑĥÐ»Ð°":3050,"ĠÐ³ÑĮÐ°Ð»Ð¼Ð°Ð³ÑĬ":3051,"ĠÐ±ÐµÑĤÓıÐµÑĢÐ°Ñģ":3052,"ĠÑĤÑĥÑħÑĥÐ¼":3053,"ÑīÐ¸Ð½Ð°Ð»":3054,"ĠÑĤÓıÑĥÐ±Ð°ÑĢÐ°Ð±":3055,"ĠÐľÐ°ÑħÓıÐ°ÑĩÑħÑĬÐ°Ð»Ð°ÑıÐ»ÑĬÑĥÐ»":3056,"ÐŃÑĢÐºÐµÐ½Ð»ÑĬÐ¸":3057,"ĠÑİÐ±Ð¸Ð»":3058,"ÐľÑĥÑħÓıÐ°Ð¼Ð°Ð´":3059,"ĠÐ±Ð°ÑıÐ½Ð°Ð»":3060,"ĠÐ±Ð°ÑıÐ½Ð°Ð·Ð´Ð°":3061,"ĠÐ³ÑĮÑĥÐ¼ÐµÑĢ":3062,"ĠÐ¿ÑĢÐ¾ÐºÑĥÑĢ":3063,"ĠÑĢÐµÑħÑģÐ°ÑĢÐ°Ð»":3064,"ĠÐ³ÓıÐµÐ½ÐµÐºÐº":3065,"Ð¾Ð»ÐµÐ¹":3066,"ÑħÑĬÐ¸Ð½":3067,"ÐĶÐ¸ÑĢ":3068,"ĠÐ´Ð¸Ð²Ð°Ð½":3069,"ÑĤÐ°Ð½":3070,"Ð¸ÑģÐµÐ·ÑĥÐ»":3071,"ÐĵÑĮÐ°Ð½":3072,"Ð°Ð±Ð¸Ð»ÐµÐ»":3073,"ĠÑģÑĥÑĢÐ°ÑĤ":3074,"ĠÐļÐ°Ð¼Ð¸Ð»":3075,"ĠÐłÐ°Ð¶":3076,"ĠÐĽÐµÐ½":3077,"ĠÑĢÐ°Ð³ÑĮÐ°Ð½Ð°":3078,"ĠÐ³Ð¸Ð¼Ð½Ð°Ð·":3079,"ĠÐºÑĬÐ¾ÑĤÓıÐ¸":3080,"ĠÐ³ÓıÐ°Ð»Ð°Ð¼":3081,"ĠÑĤÐ°ÑĢÐ°Ð±":3082,"ĠÑĩÑĥ":3083,"ĠÐ±Ð¸Ð±Ð»Ð¸Ð¾ÑĤÐµÐº":3084,"ĠÐĲÐ¼Ð¸Ð½":3085,"ĠÑĩÓıÐ°ÑĢÐ°Ð»":3086,"ĠÐºÑĬÐ¾ÑıÐ»":3087,"ĠÐ±ÐµÑĤÓıÐµÑĢÐ°Ð²":3088,"ĠÐĲÐ²Ð°ÑĢÐ°Ð³":3089,"ĠÐ¼Ð°ÑĢÐºÐ°Ð·":3090,"Ð·Ð°Ð±":3091,"ĠÑĩÓıÑĥÐ¶ÑĥÐ³ÓıÐ°Ð´Ð°Ð½":3092,"ÑĢÑĥÑģÑģ":3093,"Ð±ÑĥÐ·":3094,"ĠÑĢÐ°ÑĩÓıÐ°Ð½Ð°":3095,"ĠÐ¿ÐµÑĢ":3096,"ĠÑĨÓıÑĥÐ½ÑĥÐ»":3097,"ĠÐ»ÑĬÐ°Ð·Ð°Ð±ÑĥÐ»ÐµÐ±":3098,"ÑĩÐ°Ð³ÓıÐ¸":3099,"Ð°Ð½ÑĩÓı":3100,"ĠÐ³ÓıÑĥÐ¼ÑĢÑĥÑıÐ»Ð´Ðµ":3101,"ĠÐ±ÐµÑĢÐ±Ð°Ð»Ð°Ð³ÑĮÐ¸":3102,"ĠÐºÓıÐ¸ÑıÐ±Ð³Ð¾":3103,"Ġ16":3104,"ĠÐ´ÑĥÐ½Ð³Ð¸":3105,"ĠÐ±Ð¸":3106,"ÐµÑĢÐ¼":3107,"ĠÐľÐ°Ð»":3108,"ĠÐºÑĥÐ¼ÐµÐºÐ°Ð»ÑĬÐµ":3109,"ĠÑĥÐ¼ÑĥÐ¼ÑĥÐ·":3110,"ĠÐ´Ð°Ð½Ð´ÐµÐ»ÑĬ":3111,"ĠÐ´Ð°Ð½Ð´ÐµÑĩÓı":3112,"ÐĲÑħ":3113,"ĠÐ¥Ð°Ð´Ð¸Ð¶":3114,"ĠÐ¸ÑĢ":3115,"ÐĵÑĮÐµÐ´Ð¸Ð½":3116,"ĠÐ³ÓıÐ¸Ð»Ð»Ð°":3117,"ĠÐºÐ»":3118,"ĠÐĽÑĬÐ¸ÐºÓı":3119,"ĠÐ±Ð¸ÑħÑħ":3120,"ĠÑĢÐµÑĨÑĨ":3121,"ĠÐļÐ°Ð·":3122,"ĠÑħÐ°ÑģÐ¸ÑıÑĤ":3123,"Ð°Ð»Ð¸ÑıÐ»":3124,"Ð°Ð´Ð°Ð±":3125,"ĠÐ±ÑĥÐºÓıÐ¸Ð½Ð°Ð»ÑĬ":3126,"ĠÐ¡Ð°Ð»":3127,"ĠÐ¸Ð½ÑģÐ°Ð½Ð°ÑģÑĥÐ»":3128,"ĠÐ°Ð²ÑĤÐ¾Ð¼":3129,"Ð°Ð»Ð»ÑĬÑĥÐ½":3130,"Ð°Ð½Ð·":3131,"ĠÐ¿Ð°Ñģ":3132,"ĠÐ¥ÓıÐ°Ð¶Ð¸":3133,"ĠÐ¶Ð¸Ð³Ð°ÑĢ":3134,"ĠÐ±Ð¾ÑĨÓıÐ¸":3135,"ÑĨÐ¸ÑıÐ»Ð´Ð°":3136,"ĠÐ±Ð°Ð¶Ð°ÑĢÑĥÐ»":3137,"ĠÐºÑĬÐ°Ð¹Ð¸":3138,"ĠÐĶÐ¸Ð±Ð¸ÑĢ":3139,"ĠÐ½ÑĥÑħÐ¼Ð°Ð»ÑĬÐ¸ÑıÐ»Ð´Ð°":3140,"Ð°Ð´ÐµÑĢ":3141,"ĠÐ³ÑĮÐµÑĩÓıÐµÐ²":3142,"ĠÑĦÐµÐ²":3143,"ĠÑĤÓıÐ°Ð¼ÑĥÐ½":3144,"ÐµÐ¶Ð´ÐµÐ½":3145,"Ð°Ð³ÓıÐµÐ»":3146,"ĠÐ¿Ð¾Ð´":3147,"ĠÐĳÑĥÐ¹":3148,"ĠÐľÑĥÑĢÑĤÐ°Ð·":3149,"ÑĢÐ°Ñĩ":3150,"ĠÐĳÐ¾ÐºÑĮ":3151,"ĠÐºÐ²Ð°ÑĤÓı":3152,"ĠÐ»ÑĬÐ°Ð»ÐµÐ»":3153,"ĠÑĢÐµÐ´Ð°ÐºÑĤÐ¾ÑĢ":3154,"ĠÐ¢ÓıÐ°Ð´ÐµÐ³ÓıÐ°Ð½":3155,"ĠÐ³ÑĥÑĢÐ¾Ð³Ð¾":3156,"ĠÑĢÐ°Ð³ÑĬÐ´Ð°":3157,"ĠÐ¿Ð°ÑĩÐ°Ð»Ð¸ÑħÑĬÐ¸ÑıÐ±":3158,"ÑĢÐ°ÑĦ":3159,"Ð°Ð³Ð°ÑĢ":3160,"ĠÑĤÐ°Ð²":3161,"ĠÐ³ÓıÑĥÐ¼ÑĢÑĥÐ´ÑĥÐ»":3162,"ĠÑıÑĢÐ°Ð³ÑĬ":3163,"Ġ50":3164,"Ð½Ð°Ðº":3165,"ĠÑĤÑĥÑģÐ½Ð°ÑħÑĬ":3166,"ĠÐ³ÓıÐ°Ð´Ð°Ð¼Ð°Ð»Ð³Ð¸":3167,"ĠÐ¿ÑĢÐ¸Ð·":3168,"ĠÑĢÐ°ÑħÑĬÐ°Ð»Ð´Ð°":3169,"ĠÐ²ÑĥÐºÓıÐ¸Ð½Ðµ":3170,"ĠÐ§Ð°ÑĩÐ°Ð½":3171,"ĠÐ±Ð°ÑĩÐ¸Ð½Ðµ":3172,"Ðķ":3173,"ÐµÐ¹Ð¸Ð½":3174,"ÐµÐ¹Ð¸Ð»Ð°Ð½":3175,"ĠÐºÑĥÑĨÐ°Ð»Ð´Ð°":3176,"ĠÐºÑĬÐ¾ÑıÐ»Ð´Ðµ":3177,"ÐºÐ¾Ð»Ð°":3178,"ĠÑĨÓĢÐ°ÑĢ":3179,"Ð±Ð°ÐºÐº":3180,"ĠÑĢÐ¸Ñĩ":3181,"Ð¾Ð»ÐµÐ²":3182,"ĠÐ¾ÑĢ":3183,"ĠÑıÑĩÓı":3184,"Ð¸Ð·Ð°Ð±Ð¸":3185,"ĠÑĢÑĥÐºÑĬÐ°Ð»ÑĬÑĥÐ»":3186,"ĠÐ¼Ð¾ÑĨÓıÐ°Ð»ÑĬ":3187,"ĠÐ¥ÓıÐ°Ð»ÑĤÓı":3188,"ÑĥÑĢÑĥÑģ":3189,"ĠÐ±ÐµÐºÑĮ":3190,"ÑĦÐ¸ÑĨ":3191,"ĠÐ»ÑĬÐ¸Ð¼Ð°Ð»Ð°Ð·Ð´Ð°":3192,"ĠÑģÐ¿ÐµÑĨÐ¸Ð°Ð»Ð¸ÑģÑĤ":3193,"ĠÐ³ÑĮÑĥ":3194,"Ð°ÑĢÑĮ":3195,"ÐµÑĢÐµÑģ":3196,"ĠÐľÐ°Ð³Ð¾Ð¼ÐµÐ´":3197,"ÐµÑıÐ»Ð´Ðµ":3198,"ĠÐ±ÑĥÐ³Ð¸Ñī":3199,"ĠÐ±Ð¾ÑģÐ°ÑĢÐ°Ð±":3200,"ĠÐ°Ð¿ÑĢ":3201,"Ð°ÑĢÐ¸Ð»Ð°Ð½":3202,"ĠÑĤÓıÐ°ÑĤ":3203,"Ð¸ÑĤÐ¾ÑĢ":3204,"ĠÑħÑĬÐ²Ð°ÑĢÐ°Ð»":3205,"ĠÐ³ÓıÐ¾Ð»Ð¸Ð»Ð°Ð»":3206,"ĠÐ±Ð°ÑħÓıÐ°ÑĢÑĩ":3207,"ĠÐ´ÐµÐºÐ°Ð±":3208,"Ð°ÑĤÑĤÐ°":3209,"ĠÑĨÐ¾ÑıÐ²":3210,"ĠÐłÐµÑģÐ¿ÑĥÐ±Ð»Ð¸ÐºÐ°ÑıÐ»ÑĬÑĥÐ»":3211,"Ð¸ÑıÐ»Ð´Ð°Ð³Ð¸":3212,"ĠÐ¸Ð¼Ð°Ð½":3213,"ĠÐ³Ð°Ð·ÐµÑĤÐ°Ð»Ð´Ð°":3214,"ĠÐ©Ð¸Ð±Ð°Ð±":3215,"ĠÐ³Ð¾":3216,"ĠÑħÓıÐ°Ð»ÑĤÓıÑĥÐ´Ðµ":3217,"ĠÐ±Ð¸ÑħÑĮÐ°Ð½Ð°":3218,"Ġ197":3219,"Ð¸Ð°Ð»Ð¸ÑıÐ»":3220,"ÑħÑĥÐ»":3221,"Ð°Ð»ÑĬÐ°":3222,"ĠÐ³ÓıÐ°Ð¶Ð°Ð¸Ð±":3223,"ĠÐ±ÑĥÐ³ÐµÐ±Ð°Ð»Ð¸":3224,"ĠÐ¥ÓıÐ°Ð±Ð¸Ð±":3225,"ĠÐ¸ÑĢÐ³Ð°Ð´ÑĥÐ»Ð°Ð±":3226,"ĠÑĢÐµÐºÓıÐµÐ»":3227,"ÐµÑĢÐ°ÑĤÑĥÑĢ":3228,"Ð°Ð¶Ð¸Ð´":3229,"ĠÐłÐ¾ÑģÑĥ":3230,"ĠÐ³ÓıÐ°Ð»":3231,"ĠÐ¿Ð¸ÑĪ":3232,"ĠÑħÓıÐ°ÑĢ":3233,"Ð°Ð±Ð°Ð·Ð´Ð°ÑģÐ°":3234,"ĠÐ±Ð¸ÑĩÑĩÐ°Ð½":3235,"ĠÐ£ÐºÑĢÐ°Ð¸Ð½":3236,"Ð°Ð³ÑĬÐ°Ð»":3237,"ĠÐ¦ÓıÐ¸ÑıÐ±":3238,"ĠÑħÐ¸ÑĢÐ¸ÑıÐ±":3239,"Ð·Ð°Ð±Ð°Ð·Ð´Ð°":3240,"ÑĢÐ°ÐºÑĮ":3241,"ĠÐĺÐ¼":3242,"ĠÐºÐ°Ð³ÑĬÐ°ÑĤ":3243,"ĠÑħÐµÑħÐ³Ð¾":3244,"Ð¸ÐºÐ¸ÑıÐ»":3245,"ÑĥÑĤÓĢ":3246,"ĠÑĥÑĩÑĢÐµÐ¶Ð´ÐµÐ½":3247,"ĠÐ¸Ð½ÐºÐ°ÑĢ":3248,"ĠÐºÓıÑĥÐ´Ð¸ÑıÐ»":3249,"ÑĥÐ»ÑĮÑĤ":3250,"ÐµÐ´ÐµÑĢÐ°Ð»Ð¸ÑıÐ±":3251,"ÐµÑĦÐ¾Ð½":3252,"Ð°Ð»Ð°Ð»":3253,"ĠÐ£Ð¼":3254,"Ð¸Ð»Ð³Ð¸":3255,"ĠÐ°ÑģÐºÐ°ÑĢ":3256,"Ð¸ÑģÑĤÐµÐ¼":3257,"ĠÐ»ÑĬÐ°Ð»ÐµÐ²":3258,"ĠÐ¼Ð°ÑģÑĬÐ°Ð»":3259,"ĠÐºÐ²Ð°ÑĢ":3260,"ÐµÑĢÐ½":3261,"ÐµÑģÐµÐ²":3262,"ĠÐ¼Ð¸Ð»Ð»Ð°ÑĤ":3263,"ĠÐķÐ²ÑĢÐ¾Ð¿":3264,"ĠÓı":3265,"Ð°Ð³ÓıÐ°ÑĢÐ°Ð±":3266,"ĠÑĢÐ°ÐºÑĮÐ°Ð»":3267,"ĠÐĵÓıÐ°Ð»Ð¸Ð±":3268,"10":3269,"Ð²Ð°":3270,"Ð»ÑĬÐ¸Ð¼Ð°Ð»":3271,"ĠÑĢÑĥÐºÓıÐ°":3272,"ĠÐ¼ÑĥÑģÑĤÐ°ÑħÓıÐ¸ÐºÑĬÐ»ÑĬÐ°Ð½Ð°":3273,"Ð¸Ð¼Ð¸ÑĢ":3274,"ĠÐĸÐ°Ð¼":3275,"ĠÐ¾ÑĢÐ³Ð°Ð½":3276,"Ð°ÑĢÐ³":3277,"ĠÐ½ÑĥÐ³Óı":3278,"ÑĢÑĥÐ´Ð¸Ð½":3279,"ĠÑĢÑĥÑħÓıÐ¸ÑıÐ±":3280,"ÑĥÐ»ÐµÐ¹Ð¼Ð°Ð½":3281,"ĠÐºÐ¸Ð½Ð°Ð·Ð´Ð°Ð³Ð¾":3282,"ÑĥÐ½Ð¸":3283,"ĠÐ³ÑĮÐ°Ñİ":3284,"ĠÐ³ÓıÐ°Ðº":3285,"Ð¸Ð»Ð¸Ñī":3286,"ĠÐ³ÑĮÐµÑĩÓĢ":3287,"Ð°ÑĤÓıÐ°Ð»ÑĬ":3288,"ĠÐłÐ°Ð³ÑĬ":3289,"ĠÐ¶Ð¸Ð´ÐµÐµ":3290,"ĠÐ³ÑĬÐ¾ÑĢÐ»ÓĢ":3291,"ĠÑįÐºÑģ":3292,"ĠÑıÑĩÑĥÐ½":3293,"ĠÐĸÐ¸Ð½Ð´Ð¸ÑĢ":3294,"Ð³ÓĢÐ°Ð½":3295,"Ð¸Ð±Ð³Ð¾":3296,"ĠÑĤÓıÐ°Ð´ÐµÑħÑĥÐ½":3297,"ĠÐ»ÑĬÑĥÐ³ÑĮÐ¸Ð½Ðµ":3298,"ĠÐ¼Ð°Ð³ÓĢ":3299,"ĠÐ³ÓıÐ°ÑħÑĮÐ°Ð»Ð»ÑĬ":3300,"ÑģÐ¼ÐµÐ½":3301,"ĠÐ²Ð°Ñħ":3302,"ĠÐ¸ÑĢÑģ":3303,"ÐµÑıÐ»":3304,"ĠÑħÐ°Ð»ÐºÑĬÐ°Ð»ÑĬÐµ":3305,"ĠÐ°Ð½Ð»ÑĬ":3306,"ĠÐ¸ÑħÑĤÐ¸ÑıÑĢÐ°Ð»":3307,"ÐºÐº":3308,"ĠÐ°Ð²ÑĤÐ¾ÑĢ":3309,"ĠÐĶÐµÑĢÐ±ÐµÐ½ÑĤ":3310,"ĠÐ³ÓıÑĥÑĨÓıÐ¸Ð·Ðµ":3311,"000":3312,"ĠÐ¾ÑĤÐ´ÐµÐ»ÐµÐ½":3313,"ĠÐŁÐ°ÑĩÐ°Ð»Ð¸ÑħÑĬ":3314,"ĠÑħÑĬÐ²Ð°Ð½Ð°":3315,"ĠÑħÐ°Ð»ÐºÑĬÐ°Ð»Ð´Ð°":3316,"Ð°Ð»ÑĬÑĥÐ»Ð³ÑĥÐ½":3317,"ÐµÐ·Ð°Ð²":3318,"ĠÑĤÓıÐ¾ÑĨÐµÐ²":3319,"ĠÐ¥ÓıÐ°Ð¼Ð·Ð°ÑĤÐ¾Ð²":3320,"ÑģÑĤÐ²Ð¾ÑıÐ»ÑĬÑĥÐ»":3321,"ĠÐĴÐ»Ð°Ð´":3322,"ĠÐ¿Ð¸ÐºÑĢÐ°Ð±Ð¸":3323,"ĠÑģÐ¸ÑģÑĤÐµÐ¼":3324,"ĠÐ³ÑĮÐ°ÑĢÑĥÐ»ÐµÐ±":3325,"ĠÐ¦Ð¸Ð½Ð³Ð¸":3326,"ĠÐ³ÓıÐ¾Ð´Ð¾ÑĢ":3327,"ĠÐ³ÑĮÐ°Ð»Ð±":3328,"Ð°Ð»Ð¸Ð½":3329,"Ð±ÐµÐ³":3330,"ĠÑĢÐ°ÑĨÓıÑĨÓı":3331,"ĠÑĢÐµÑī":3332,"ĠÐ¼Ð°Ð³ÓıÐ°ÑĢÑĥÐ»Ð°Ð·ÑĥÐ»":3333,"ĠÑĢÑĥÐ³Ð¸Ð»Ð°":3334,"ĠÐľÑĥÑĢÐ°Ð´":3335,"Ð¸Ð²ÐµÑĢÑģ":3336,"ÐºÐ²Ð°Ð»":3337,"ĠÐ²Ð°Ð»Ð°Ð³ÑĮ":3338,"ÐłÐ°Ð¹Ð¾Ð½Ð°Ð»ÑĬÑĥÐ»":3339,"ÑĢÐ°Ñģ":3340,"ĠÑĩÐ°Ð½Ð³Ð¸":3341,"ĠÐ¼Ð¸ÐºÑĮ":3342,"ÑĢÑĥÐ¿":3343,"ÑīÐ¸Ð½":3344,"ĠÐ¢ÓĢ":3345,"ĠÐ¸ÑĢÐ³Ð°ÑıÐ»Ð´Ð°":3346,"Ð³ÑĮÐ°Ðº":3347,"Ð³ÑĮÐµÐ½":3348,"ĠÑĨÐ¾Ð³Ð¾":3349,"Ġ196":3350,"ĠÐ½ÑĥÑħÐ¼Ð°Ð»ÑĬÑĥÐ»ÐµÐ»":3351,"ĠÐ³ÓıÐ°ÑĢÐ°ÑĨÐ³Ð¸":3352,"ÐµÐ»Ð°Ð»Ð´Ð°":3353,"ĠÐĶÐ¸Ð»Ð¸Ð¼":3354,"ĠÐĳÐ¸ÑīÑĥÐ½":3355,"ĠÐ³ÑĬÑĥÑĤÓı":3356,"ĠÐ²Ñĭ":3357,"ĠÑĩÐ°ÑĢÐ°":3358,"ĠÐ²Ð°ÑħÑĬÐ°ÑĢÐ°Ð²":3359,"ĠÐ½ÑĥÐ¶ÐµÑĨÐ°":3360,"ÑĥÐ»Ð°Ð»":3361,"ÐĶÑıÐ»ÑĬÑĥÐ»":3362,"ĠÑĢÐ°ÑĩÓıÐ¸Ð½Ðµ":3363,"ĠÑħÑĥÑĢÑħÐ°ÑĢÐ°Ð±":3364,"Ð¸Ð»ÑİÑĢÑĤ":3365,"ĠÑħÑĬÐ°Ð»":3366,"ĠÐĽÑĬÐ°ÑĢÐ°ÑĤÓıÐ°":3367,"ĠÑģÐµÐºÑĢÐµÑĤ":3368,"ĠÐĲÑģÐ»":3369,"ĠÐłÐ°ÐºÓıÐ°Ð»":3370,"ĠÐ³ÓıÑĥÐ¼ÑĢÑĥÑıÐ»Ð´Ð°":3371,"Ð²Ð¾ÑĢÑĩ":3372,"ĠÐºÓıÐ¸":3373,"Ġ202":3374,"ĠÐºÐ°Ð³ÑĬÑĤ":3375,"ĠÐĵÑĬÐ°Ð·Ð¸Ð¼ÑĥÑħÓıÐ°Ð¼Ð°Ð´":3376,"ĠÑĢÐ¸":3377,"Ð·Ð°Ð±Ð¸Ð³Ð¸":3378,"Ð¾ÑİÐ·Ð°Ð»ÑĬÑĥÐ»":3379,"ĠÑĢÐ°Ð´Ð°Ð»":3380,"ĠÐľÑĥÑħÓĢ":3381,"ÑħÓıÐ°Ð±":3382,"ĠÐ³ÑĥÑĢÑħÓı":3383,"ĠÑĢÐ°Ð³ÑĮÐ°ÑĢÐ°Ð±":3384,"30":3385,"ĠÑĤÑĥÐº":3386,"ĠÐĶÐ¸Ðµ":3387,"ĠÐ¡ÑĥÐ»ÐµÐ¹Ð¼Ð°Ð½":3388,"ĠÐľÑĥÑħÓıÐ°Ð¼Ð°Ð´ÑĢÐ°ÑģÑĥÐ»":3389,"ĠÐ¶Ð¸Ð½ÑĨÐ°Ð³Ð¾":3390,"ĠÐĵÓıÐ°Ð¹ÑĪ":3391,"ĠÐ²Ð°ÑħÑĬÑĥÐ½":3392,"Ð³ÑĥÑĤÓıÐ¸":3393,"Ð¸Ð½ÑĩÓıÐ¾Ð³Ð¾":3394,"ÐĶÐ°Ð³ÑĬÐ¸ÑģÑĤÐ°Ð½Ð°Ð»ÑĬÑĥÐ»":3395,"ÐºÑģ":3396,"ĠÐ³ÓıÐ°ÑħÑĮÐ°Ð»Ð»ÑĬÐ¸Ð·Ðµ":3397,"ĠÑĪÐºÐ¾Ð»Ð°Ð»Ð´Ðµ":3398,"ĠÐ³ÓĢÐµÐ¼ÐµÑĢ":3399,"ÑĢÐ¸":3400,"Ð°Ð·Ñĥ":3401,"ÑĤÓıÐ°Ð½":3402,"ĠÐ³ÑĬÐ°Ð»":3403,"Ð°Ð·Ð´ÐµÑħÑĥÐ½":3404,"ĠÑıÑģÐ»Ð¸":3405,"ĠÐ±Ð°Ðº":3406,"ĠÐĳÐ°ÑĤ":3407,"ĠÐ¢ÓıÐ¾Ð»":3408,"ĠÐ¼Ð°ÑĤÐµÑĢ":3409,"ĠÑĤÓıÑĥÑĢÐ°Ð·Ð°ÑĢ":3410,"ĠÐ¡Ð¡Ð¡Ðł":3411,"ĠÐ»ÑĬÑĥÐºÑĬ":3412,"ĠÐĵÑĮÐµÐ±Ð³Ð¾":3413,"ĠÐ±ÐµÑĢÑĨÐ¸Ð½Ð³Ð¾":3414,"ĠÐ¿ÐµÐ´Ð°Ð³Ð¾":3415,"Ð°ÑĢÐ¾Ð²":3416,"ĠÐ¥ÑĥÑĪ":3417,"ĠÐºÐ²Ð°Ð½Ð¸Ð»":3418,"Ð»Ð¸Ð¼Ð¿":3419,"ĠÐ¡Ð¾Ð²ÐµÑĤÐ°Ð»ÑĬÑĥÐ»":3420,"ÐĲÐ¼Ð¼Ð°":3421,"Ð½Ð°ÐºÑģÐº":3422,"ĠÐĶÐ¶":3423,"ĠÐĺÑģÐ»Ð°Ð¼":3424,"ĠÑħÓıÐ°Ð»ÑĤÓıÑĥÑħÑĬÐ°Ð±Ð°Ð·ÑĥÐ»":3425,"ĠÐĳÐµÑĤÓıÐµÑĢ":3426,"ĠÐ¼Ð»Ð½":3427,"ĠÐ»ÑĬÐ°ÑĢ":3428,"ĠÐĳÐ¾Ð»ÑĬ":3429,"ĠÐ±Ð¸ÑħÑĮÐ¸Ð·Ðµ":3430,"ĠÐ³ÓĢÐ°Ð´":3431,"ĠÑħÑĥÑĤÓıÐ°ÑĢÐ°Ð»":3432,"ĠÐºÐ»Ð°ÑģÑģÐ°Ð»ÑĬÑĥÐ»":3433,"ĠÐ´Ð°ÑĢÑģÐ°Ð»":3434,"ĠÑĢÐ°ÑħÓıÐ°ÑĤ":3435,"Ð¹Ð¸Ñī":3436,"ĠÐ¿Ð°Ñĩ":3437,"ĠÑĨÐµÑĢÐµÑĤÓı":3438,"ĠÐľÑĥÑħÓıÐ°Ð¼Ð¼Ð°Ð´":3439,"ÑĮÑı":3440,"Ð°Ð²Ð°ÑĤ":3441,"Ð°Ð½Ð´Ð¸Ð´":3442,"Ð¸Ð³ÑĥÐ½":3443,"ĠÐ¦ÓıÐ°Ð»":3444,"ĠÐ¸Ð·Ð½Ñĥ":3445,"Ð°ÑĢÐ°ÑĤ":3446,"ĠÐ³ÓıÑĥÐ¶":3447,"ĠÐ»ÑĬÑĥÐ»":3448,"ĠÐ·Ð°Ð¼Ð°Ð½Ð°Ð»ÑĬ":3449,"Ð¾Ð»ÐµÐ¹Ð±Ð¾Ð»":3450,"ĠÐ³ÑĬÑĥÑĢÑī":3451,"ĠÑĢÐ°Ð·Ð¸Ð»ÑĬ":3452,"ĠÑĤÐµÐ»ÐµÑĦÐ¾Ð½":3453,"Ð¯":3454,"Ð¾ÐºÐ¾Ð»":3455,"ĠÐ¼Ð¸ÑģÐº":3456,"ĠÑĩÐ»ÐµÐ½":3457,"ĠÐ¶Ð¾Ð³Ð¸":3458,"ÑģÑĤÑĢÐµÐ¼":3459,"ÐĲÑħÐ¸ÑĢ":3460,"Ð°ÑĢÐ¾Ð°Ð½":3461,"ĠÐ³ÑĥÑĢÐµÐ»ÑĬÑĥÐ»":3462,"ÑĥÑĨÐ°Ð»":3463,"Ð¸Ð½Ð°ÑĥÐ»":3464,"ĠÐ²Ð°ÑĩÓıÐ°Ð½Ð°":3465,"Ð°Ð±Ð°Ð·Ð´Ð°Ð»ÑĬÑĥÐ½":3466,"ĠÑĢÑĥÐºÓıÐ¸Ð½ÑĩÓıÐ¾":3467,"ĠÑĦÐ¾Ð½Ð´":3468,"Ð°Ð±Ð´ÑĥÐ»":3469,"Ð¸Ð½Ð¸Ð»":3470,"ÑĥÐ³Ðµ":3471,"ĠÐ³ÓıÐ¾Ð»Ð¸Ð»Ð°Ð·Ð´Ð°":3472,"15":3473,"Ð°Ð¼Ð¸ÑĢ":3474,"ĠÐ¼Ð¾Ð½":3475,"Ð°ÑĪÐ¸Ð´":3476,"ĠÐ´Ð°Ð½Ð´ÑĩÓı":3477,"ĠÐ»ÑĬÐ°Ð³ÓıÐµÐ»":3478,"ĠÐºÓıÐ¾Ð»Ð°ÑĢÐ¾":3479,"Ð°ÑĨÐ¸ÑıÐ»Ð´Ð°":3480,"ĠÐºÐºÐ¾Ð»ÐµÐ²":3481,"ĠÐ¶Ð¸Ð³Ð°ÑĢÐ°Ð±":3482,"ĠÑĤÐ²Ð¾ÑĢÑĩ":3483,"Ð¾Ð»Ð´":3484,"Ð¾Ð»Ð°ÑĢÐµÐ±":3485,"ĠÐºÐºÐµÐ»Ð°":3486,"Ġ198":3487,"ĠÐ¼Ð°Ð³ÓıÐ°ÑĢÑĥÐ»Ð°Ð»":3488,"ÐĲÐ»Ð»Ð°Ð³ÑĮ":3489,"ĠÑĢÐ¸ÐºÓĢÐºÓĢ":3490,"Ð¸ÑĤÓıÐ°Ð±":3491,"ĠÑıÑħÑĬ":3492,"ĠÑĢÐµÐºÓıÐµÐµ":3493,"12":3494,"ĠÐºÐ°Ð½Ð´Ð¸Ð´":3495,"ĠÐ»ÑĬÑĥÑĢÐ°Ð»":3496,"ĠÑĨÓıÐ¸Ð´Ð°ÑģÐ°Ð½":3497,"ĠÑĤÓıÑĥÐ±Ð°Ð½":3498,"ĠÐĺÑģÐ¼":3499,"ĠÐºÑĬÐ²Ð°ÑĢÐ¸Ð»ÑĬÐ¸":3500,"ĠÑĢÑĥÑĩÑĩÐ°Ð±Ð°Ð·ÑĥÐ»":3501,"ĠÐ»Ð¸ÑĤÐµÑĢÐ°ÑĤÑĥÑĢ":3502,"ÑĩÓıÐ²Ð°ÑĢÐ¸":3503,"Ð°Ð³ÓıÐ¸Ð´Ð°":3504,"ĠÑĤÓıÑĥÐ±Ð°Ð·Ðµ":3505,"ĠÑĢÐ¸ÐºÓıÐºÓıÑĥÐ½Ð°":3506,"ĠÐ¶Ð¸Ð±Ð³Ð¾":3507,"ĠÐºÑĥÐ¼ÐµÐºÐ°Ð»Ð´Ð°Ð»ÑĬÑĥÐ½":3508,"ĠÐ±ÑĥÑģÑģÐ¸Ð½Ð°Ð±":3509,"ÐºÐ°ÑıÐ»ÑĬÑĥÐ»":3510,"Ð°ÑģÑĢ":3511,"Ð¸ÑģÑĤÐ°Ð·ÑĥÐ»":3512,"ĠÑĢÐ°ÐºÑĮÑĥÐ»":3513,"ĠÐ¼Ð°ÑģÑĬÐ°Ð»Ð°":3514,"Ð°ÑģÐ¿":3515,"ĠÑĨÓıÐ°Ð´":3516,"ĠÐ³ÑĮÐ°ÑĢÐºÑĮ":3517,"Ð²Ð°Ð»ÐµÐ»":3518,"ĠÑħÐ²Ð°Ð½Ð°":3519,"ÑįÐ¼ÐµÐ½":3520,"ÑĩÐ°Ð³ÓıÐ°Ð·":3521,"ĠÑħÓıÑĥÑħÑĮÐ±Ð°ÑħÑĬ":3522,"Ð»ÑĥÐ»":3523,"Ð²Ð°ÑĤÓı":3524,"ĠÑĤÐµÐ¼":3525,"Ð¿Ð¾Ð»":3526,"Ð°ÐºÓıÐºÓı":3527,"ĠÑħÐ°Ð´ÑĥÐ±ÐºÐºÑĥÐ½":3528,"ĠÐ±Ð¸ÑħÑĮÐ¸Ð·Ð°Ð±ÑĥÐ»ÐµÐ±":3529,"ĠÑģÐ°Ð´":3530,"ĠÐĺÑģÐ°Ð½Ð°":3531,"ĠÐ³ÑĮÐµÐ½Ð¸ÑģÐ°":3532,"ÐµÐ³Ð¾Ð²":3533,"ÑĬÐµÐºÑĤ":3534,"Ð°ÑģÑĥÑħÑĬÐµ":3535,"ĠÑģÑĥÐ±":3536,"Ð¾ÑĨÐµÐ±Ðµ":3537,"ĠÐ£Ð·":3538,"Ð°ÑĢÑĥÑħÑĬÐ°Ð½":3539,"ĠÑĪÐ°Ð¿Ð°ÐºÑĬÐ°ÑĤ":3540,"ĠÐ¼ÑĥÐ½Ð¸ÑĨÐ¸Ð¿Ð°Ð»Ð¸ÑıÐ±":3541,"ĠÑĥÐ¿ÑĢÐ°Ð²Ð»ÐµÐ½Ð¸ÑıÐ»ÑĬÑĥÐ»":3542,"ĠÐ¼ÐµÑģÐµÐ´":3543,"ĠÑģÐ°Ð»Ð°Ð¼":3544,"ĠÑīÐ²ÐµÐ·Ð°ÑĢ":3545,"ĠÑĨÓıÐ°Ð»Ð´Ð¾ÑħÑĬÐ°Ð±Ð°Ð·":3546,"ĠÑģÐ¿Ð¾ÑĢÑĤÑģÐ¼ÐµÐ½":3547,"Ð¸Ð½Ð°Ð»Ð´Ð°":3548,"ĠÑĢÐ¾ÑģÐ°Ð±Ð¸":3549,"ĠÑĩÓıÐ°Ð½Ð°":3550,"ĠÐ¼ÑĥÐ³ÓıÑĢÑĥÐ·ÑĥÐ»":3551,"ĠÑħÐ¾Ð±":3552,"ĠÐ³ÑĮÐ°Ð±ÑĥÑĢÐ°Ð²":3553,"ĠÐ°Ð³":3554,"ĠÑħÓıÐ°Ð»ÑĤÓıÑĥÐ´Ð°":3555,"ÐµÑĤÐ°Ð»Ð´Ð°":3556,"ĠÐ¥ÓıÐ°Ð¼Ð·Ð°ÑĤÐ¾Ð²Ð°ÑģÑĥÐ»":3557,"Ð°ÑģÐ´":3558,"ĠÑĤÓıÑĥÑĢÐ°Ð»":3559,"ĠÑĤÓıÐ°ÑħÑĮÐ°Ð»":3560,"ĠÐ¿ÑĥÐ»":3561,"ĠÑĦÐ¸Ð·":3562,"ĠÐŃÐ±ÐµÐ»":3563,"ĠÑģÑĤÐ°ÑĤ":3564,"ĠÐºÑĬÐ°Ð³ÓıÐ¸Ð´Ð°":3565,"ĠÑħÓıÐ°Ð»ÑĤÓıÐ¸Ð·Ð°Ð±":3566,"ĠÑĢÐµÐºÑĬÐ°ÑĢÐ°Ð±":3567,"Ġ195":3568,"ĠÐ½ÑĥÑħÐ¼Ð°Ð»ÑĬÐ¸ÑıÐ»ÑĬ":3569,"ĠÐ¸ÑİÐ½":3570,"ĠÐ³ÑĮÐ¾ÑĢÐºÑĮÐ¾ÑģÐµÐ±":3571,"ĠÐ¾ÑĦÐ¸ÑĨ":3572,"ĠÐ²Ð°ÑģÐ°ÑģÑĥÐ»":3573,"ĠÐ±Ð°ÑĢÐºÐ°Ð»":3574,"ĠÑĤÓıÐ¾ÑĢÐ¸ÑĤÓıÐ°Ð½Ð°":3575,"ĠÑĥÐ»ÐºÐ°ÑıÐ»Ð´Ð°":3576,"ĠÐ¾ÑĢÐ´ÐµÐ½":3577,"ĠÐ¿ÑĢÐ¾ÑĦÐµÑģÑģ":3578,"ĠÐ¼Ð°Ð½Ð·":3579,"ĠÐ¼Ð°Ð³ÓıÐ°ÑĢ":3580,"ÑĨÐ¾ÑıÐ²":3581,"ĠÐ¶Ð¸Ð´ÐµÐ´Ð°":3582,"ÐŀÑıÐ»ÑĬÑĥÐ»":3583,"ĠÑĨÐµÐ±ÐµÑħÑĥÐ½":3584,"Ð¼ÑĥÐ½":3585,"ÐµÐ»Ð°Ð»":3586,"ÑĥÐ¼Ð°Ð´Ð°":3587,"Ð¸Ð´Ð°Ð³Ð¸":3588,"ĠÐºÐ¸Ð½Ð°Ð±Ð³ÓıÐ°Ð³Ð¸":3589,"ĠÑĨÐµÑĢÐµÑģÐµÐ»":3590,"ĠÑħÐ²Ð°ÑģÐ°ÑĢ":3591,"ĠÐ¸Ð´Ð°ÑĢÐ°Ð±Ð°Ð·ÑĥÐ»":3592,"ĠÐ½Ð°ÑĢÐº":3593,"ĠÐ¿Ð¸ÑħÑĬ":3594,"ĠÐ°Ð±ÑĥÑħÑĬÐµ":3595,"Ð°Ð»Ð¸Ð»Ð°Ð±":3596,"ĠÑĨÐ¸Ð½Ð³Ð¸":3597,"ĠÐ·Ð°ÑħÓıÐ¼Ð°ÑĤÐ°Ð»ÑĬÑĥÐ»":3598,"ĠÐ³ÑĥÐ³Ð°ÑĢÐ¸ÑıÐ»ÑĬÑĥÐ»":3599,"Ð´Ð°ÑģÐ°Ð³Ð¾":3600,"ĠÐĲÐ¹":3601,"ĠÐ±Ð°Ð³ÑĮÐ°":3602,"ĠÐĴÐ»Ð°Ð´Ð¸Ð¼Ð¸ÑĢ":3603,"ĠÑĤÓıÐ°Ð´Ð²ÑĥÑģÑģ":3604,"ĠÐ±Ð¾ÑģÑĥÐ»ÐµÐ±":3605,"ĠÑĢÐ°Ð³ÓıÐ°Ð±Ð°Ð·Ð´Ð°":3606,"Ð¼Ð¸Ð½Ð¸ÑģÑĤÑĢÐ°ÑĤÐ¸Ð²Ð¸ÑıÐ±":3607,"ĠÐ¶Ð°Ð¼Ð°Ð³ÓıÐ°ÑĤÐ°Ð»ÑĬÑĥÐ»":3608,"ĠÐ¼Ð°ÑĪÐ³ÑĮÑĥÑĢÐ°Ð²":3609,"ĠÐºÐ¾ÑĩÓıÐ¾":3610,"ĠÐ²Ð¾Ð»ÐµÐ¹Ð±Ð¾Ð»":3611,"ĠÐ±ÑĥÐ³ÐµÐ»ÑĬÑĥÐ»":3612,"ĠÑĢÐ°Ð¹Ð¾Ð½Ð°Ð»Ð´Ð°ÑģÐ°":3613,"ĠÐłÐ¾ÑģÑĥÐ»ÑĬ":3614,"ĠÐ´Ð°Ð½Ð´ÑĩÓıÐ²Ð°Ð¹":3615,"ĠÑĢÐµÑĩÓıÑĩÓı":3616,"ĠÑĢÐ°ÐºÓıÐ±Ð°ÑĨÓıÑĨÓıÐ°Ð´":3617,"ĠÑĤÐµÑĩÓıÐ¾Ð³Ð¾":3618,"ĠÐļÐ¸Ð½Ð°Ð»Ð³Ð¾":3619,"ĠÐ°ÑģÐ°ÑĢÐ°Ð»":3620,"ĠÐĴÐ°":3621,"ĠÐºÐ¸ÑģÐ°":3622,"ĠÑĤÑĢÐ°Ð½Ñģ":3623,"Ð¾Ð½Ð¾":3624,"Ð°ÑħÓıÐ¼Ð°ÑĤ":3625,"ĠÐ±Ð¸ÑĨÑĥÐ½Ð°":3626,"\",-":3627,"ĠÐļÐ°ÑĢ":3628,"ĠÑĢÐ¾ÑĢÑħ":3629,"ĠÐ¼Ð°Ð³ÓıÐ½":3630,"ĠÑģÑĥÐ°Ð»Ð°Ð»Ð´Ð°":3631,"ĠÐĲÐ»Ð»Ð°Ð³ÑĮÐ°ÑģÐµ":3632,"ĠÐ³ÑĮÐµÐ´Ð¸Ð½Ð»ÑĬÐ¸Ð´Ð°Ð»":3633,"ÑĤÓĢÐµÑĢÑħÑĮ":3634,"Ð³ÑĮÐ°Ð»Ð¼Ð°Ð³ÑĬ":3635,"Ð°Ð»ÑĬÑĥÐ»ÐµÐ±":3636,"ĠÑĤÓıÐ¾ÑĢÐ¸ÑĤÓıÐ¸Ð·Ðµ":3637,"ĠÐºÑĬÐµÑĨÐ°Ð»":3638,"17":3639,"ĠÐ³ÑĮÐ°Ð²ÑĥÐ½":3640,"ĠÐ²Ð°ÑĩÓıÐ°ÑĢÐ°Ð²":3641,"Ð¸Ð·Ð¼Ð°Ð»ÑĬÑĥÐ»":3642,"Ð¥ÓıÐ°ÐºÑĬÐ¸ÐºÑĬÐ°ÑĤ":3643,"ĠÑĤÓıÐ°Ñģ":3644,"ĠÑĢÐ°Ð³ÑĬÑĥÑħÑĬ":3645,"ÐµÑĩÓıÐµÐ±":3646,"ĠÑĢÑĥÑĩÑĩÐ°Ð±Ð¸":3647,"Ð´ÑĥÐ·":3648,"ÑģÐ°Ð»":3649,"ĠÐ³ÓıÑĥÐ¼ÑĢÑĥÑıÐ»Ð´Ð°ÑģÐ°":3650,"ĠÐ¶Ð°Ð½Ð¸Ð²":3651,"ĠÐ¶Ð¸Ð´ÐµÐµÐ³Ð¾":3652,"ĠÐĳÑĥÐ¹Ð½Ð°ÐºÑģÐº":3653,"ĠÑĦÐ¾ÑĢ":3654,"ĠÐºÑĬÐ¾ÑĤÓıÑĥÐ½":3655,"ĠÐ¼Ð°ÑĪÐ¸Ð½Ð°":3656,"ĠÐ³ÓıÐ°ÑĢÐ°Ð±":3657,"Ð¸ÑıÐ±Ð°Ð·ÑĥÐ»":3658,"ĠÑĢÐµÐ¼":3659,"ĠÑĢÐ°Ð¹Ð¾Ð½Ð°Ð»Ð´Ðµ":3660,"ĠÐ¼ÑĥÑģÑĤÐ°ÑħÓıÐ¸ÐºÑĬÐ°Ð²":3661,"ĠÐ±Ð°ÐºÐº":3662,"ĠÑĢÐ°Ðº":3663,"ĠÐ³ÑĮÐ°Ð±ÑĥÑĢ":3664,"ĠÐ¨Ð¸Ð¼Ð°Ð»Ð¸ÑıÐ±":3665,"ĠÐ²ÑĥÐ³ÐµÐ±":3666,"ĠÐ´Ð°ÑĢÐ°Ð¶Ð°ÑıÐ»Ð´Ð°":3667,"ĠÐ²ÑĥÐ³Ð¸Ð»Ð°Ð½":3668,"ĠÐ±Ð¸ÐºÑĬ":3669,"Ð°ÑģÐ´Ðµ":3670,"Ð³ÑĮÐ°Ð¹":3671,"ÑĥÑħÑĬÐ´Ð°":3672,"ĠÑĪÐºÐ¾Ð»Ð°Ð·Ð´Ð°":3673,"ĠÐļÑĬÑĥÑĢÐ±Ð°Ð½":3674,"ĠÑĤÓıÐ°Ð¼ÑĥÐ½Ð°":3675,"ÐŁÐļ":3676,"ĠÑĤÓıÐ¾ÐºÓıÐ°Ð±":3677,"ÑĥÐ³Ð¸":3678,"ĠÐ±ÑĢ":3679,"ÑĨÓıÑĨÓı":3680,"ĠÐ³ÑĬÐ¸ÑĢÐ°":3681,"ĠÐ°Ð½Ð¸Ñī":3682,"ĠÑĢÐ¸ÐºÓıÐºÓıÑĥÐ½":3683,"ĠÑĢÐ°ÑħÑĬÐ°Ð»":3684,"ĠÐ³ÑĮÐ°Ð±ÑĥÐ½Ð¸":3685,"ĠÐ»ÑĬÑĥÐ³ÑĮÑĥÐ½Ð°":3686,"ĠÑħÓıÐ°Ð¶Ð°ÑĤÐ°Ð»":3687,"ĠÐłÐ°Ð¶Ð°Ð±":3688,"ĠÑħÐ°Ð»Ð³ÑĮÐ°Ð±":3689,"ĠÑĨÐ°Ð´Ð°ÑħÑĬÐ³Ð¾":3690,"Ð¸Ð·Ð°ÑĢÐ¸Ð·Ðµ":3691,"ĠÑģÐ°Ð±Ð°Ð±Ð»ÑĬÑĥÐ½":3692,"ĠÐ¥Ð°Ð»ÐºÑĬÐ¸ÑıÐ±":3693,"ĠÐ¥Ð°ÑĢ":3694,"ĠÑĢÐµÑĤÓıÐµÐ»":3695,"Ð´ÑĥÑĢ":3696,"Ð¹Ð¸Ð»Ð°Ð½":3697,"ĠÑįÐºÑģÑĤÑĢÐµÐ¼":3698,"ĠÐ¿Ð¾ÑįÑĤ":3699,"ĠÐ±Ð°ÑĢ":3700,"ĠÐ±Ð°ÐºÑĮ":3701,"ĠÐ´Ð¾Ð²":3702,"ĠÑħÓıÐ°Ð»Ð°Ð»ÑĬ":3703,"ĠÐĶÐ°Ð½Ð´Ðµ":3704,"ĠÐ¼Ð°Ð½Ð·Ð¸Ð»":3705,"II":3706,"ĠÐ³ÑĮÐµÑĢÐµÑģ":3707,"ĠÑħÑĥÑĤÓıÐ°ÑĢÐ°Ð±":3708,"ĠÑĤÓıÐ°ÑħÑĮ":3709,"ĠÐ½ÑĥÑħÐ¼Ð°Ð»ÑĬÑĥÐ»ÐµÐ·":3710,"ĠÐ±ÐµÑĢÐ³ÑĮÐµÐ½Ð»ÑĬÐ°Ð±Ð¸":3711,"ĠÑĤÓıÐ¾Ð»Ð³Ð¾":3712,".),":3713,"ĠÐĽÑĬÐ¸Ð¼Ð°Ð»":3714,"ĠÐ³ÑĮÐ°Ð»Ð±Ð°Ð»":3715,"ĠÑıÐ½Ð²Ð°ÑĢ":3716,"ĠÑĨÓıÐ°Ð¹Ð¸ÑıÐ»Ð´Ð°":3717,"\"-":3718,"Ð¾ÑĤÓı":3719,"ĠÐ°Ð±ÑĥÐ»Ð°Ð°Ð½":3720,"ÑħÐ°Ð½Ð¾Ð²":3721,"ĠÐ¶Ð°Ð¼Ð³ÓıÐ¸ÑıÐ»":3722,"ĠÐ³ÑĬÐ¾ÑĢÐ»ÓĢÐµ":3723,"ĠÐĳÐ¾Ð»ÑĬÐ¸ÑħÑĬ":3724,"ĠÐ¼ÐµÑĤÑĢ":3725,"Ġ22":3726,"ĠÐ±Ð°ÑĤÓĢ":3727,"ĠÑĢÐ¾ÑģÐ´Ð°Ðµ":3728,"ĠÐ°":3729,"Ð³Ð¾Ð³Ð¸":3730,"Ð¾ÑĢÐ¾Ðº":3731,"ĠÐ¿Ð¾Ñģ":3732,"Ð°Ð½Ð°Ð½Ð¸":3733,"Ð°Ð·ÑĥÑħÑĬÐµ":3734,"ĠÐ¥Ð¸Ð·":3735,"Ð°Ð¼Ð¸Ð´":3736,"ĠÐ¿Ð°ÑĢÑĤÐ¸ÑıÐ»ÑĬÑĥÐ»":3737,"Ð°Ð¹Ð¸Ð»":3738,"ĠÑħÓıÐµÑħÑĮ":3739,"Ð°Ð¶Ð´":3740,"ĠÐ¼ÑĥÐ³ÑĬ":3741,"ĠÑħÐ°Ð»ÐºÑĬÐ°Ð»ÑĬ":3742,"ĠÐ±Ð°ÑīÐ´Ð°Ð±":3743,"Ð¹Ð¸Ð½":3744,"ÑħÑĬÐ°Ð»Ð°":3745,"ĠÐ¦ÓıÐ°ÐºÑĬ":3746,"ĠÑĩÓıÐ²Ð°Ð·Ðµ":3747,"ĠÐ¼ÐµÐ´Ð¸ÑĨÐ¸Ð½Ð°ÑıÐ»ÑĬÑĥÐ»":3748,"ÑħÑĬÐ²Ð°Ð¹":3749,"ĠÐ±ÐµÑĩÐµ":3750,"ĠÐ²Ð¸ÑĩÑĩ":3751,"ĠÑħÐ°Ð»Ð°ÑĤÐ°Ð±":3752,"ĠÐ±Ð°ÑĤÐ°Ð½Ð¸Ð³Ð¸":3753,"ÑİÑĢ":3754,"Ġ192":3755,"ĠÐºÑĬÑĥÐ»":3756,"ĠÐºÑĮÑĥÑĢÐ´":3757,"ÐµÐ³ÑĮ":3758,"Ð°Ð¼Ñı":3759,"ĠÐ³ÑĮÐ°Ð±Ðµ":3760,"ĠÐļÐ¾Ð½":3761,"ĠÐ¶Ð°ÐºÑĬÐ°ÑģÐµÐ±":3762,"ÐºÐ¾Ð¼Ð°Ð»ÑĬÑĥÐ»":3763,"ĠÐ³ÓıÐ¸ÑģÐ¸Ð½Ð°Ð»":3764,"ĠÐ²Ð¸Ð´Ðµ":3765,"ĠÐ½Ð°Ð¸Ð±":3766,"Ð¿ÑĥÑģ":3767,"ĠÑıÑĪÐ°Ð²":3768,"Ð»Ð¾":3769,"ĠÑħÐ¸ÑĤÓıÐ°Ð±":3770,"ĠÐĶÑĥÑĢ":3771,"ĠÐ¾Ðº":3772,"ĠÐ³ÑĮÐ°Ð±Ð¸Ð·ÐµÐ³Ð¸":3773,"Ð°ÑĤÐ°Ð»Ð´Ð°Ð³Ð¸":3774,"ĠÐ³ÓıÐ°ÑĤÓıÐ¸Ð´":3775,"ĠÐĵÓıÐ°Ð±Ð´ÑĥÐ»Ð°ÑĤÓıÐ¸Ð¿Ð¾Ð²Ð°Ñģ":3776,"ĠÐ¼Ð°Ð³ÓıÐ°ÑĢÑĥÑħÑĬ":3777,"ĠÐ±ÑĥÐºÓıÐ¸Ð½Ð°Ð»Ð´Ð°":3778,"ĠÐ´Ð°Ð½Ð´ÑĩÓıÐ²Ð°Ð½Ð°":3779,"Ð³ÓıÐ¸ÑıÐ±":3780,"ÑĥÐ¼Ð±":3781,"Ð¾Ð±Ð¸Ð»":3782,"ĠÐ³ÓıÐ¾Ð´Ð¾Ð²":3783,"ĠÑīÐ¸Ð²Ð°Ð²":3784,"ĠÐ¼Ð°Ð¹Ð´":3785,"Ð¸ÑĩÐµÑģÐº":3786,"ĠÐĵÓıÑĥÐ¼Ð°ÑĢÐ¾Ð²":3787,"ĠÐľÐ¾ÑģÐºÐ²Ð°ÑıÐ»Ð´Ð°":3788,"Ð©Ð¸Ð±":3789,"ÑĤÑĢ":3790,"ÐµÑĢÐ°ÑħÑĬ":3791,"ĠÐ³ÑĮÐ°Ð±Ð¸ÑıÐ»ÑĬÐµ":3792,"ĠÐĵÑĮÐµÐ¹":3793,"ĠÐ°ÑĢÐ°Ð²":3794,"ÑĩÐµÐ½":3795,"Ð°ÑıÐ»Ð´Ð°Ð³Ð¸":3796,"ÐµÑĤÐ°Ð»ÑĬÑĥÐ»":3797,"ĠÐ±Ð¸ÑħÑĮÑĥÐ»Ð°":3798,"ÐĶÐ¸ÑĨÐ°":3799,"ĠÑĨÓıÐ°ÑĢÐ³Ð¸":3800,"ĠÐ±ÑĥÑĤÓıÑĢÑĥÐ»":3801,"ĠÐ¥Ð°Ð´Ð¸Ð¶Ð°ÑĤ":3802,"ĠÑĢÐ°Ð½":3803,"ĠÐºÐºÐ¾Ð»Ð¸Ð»Ð°Ð½":3804,"ĠÐļÑĬÐ°Ð´":3805,"Ð°ÑħÓıÐ°Ð±":3806,"ĠÑĥÐ½Ð¸Ð²ÐµÑĢÑģ":3807,"ĠÐºÑĬÐµÑĨÐ°Ð·Ð´Ð°":3808,"ÐµÑĢÐµÑģÐµÐ»":3809,"Ð°Ð·ÑĥÐ»Ð³Ð¾":3810,"200":3811,"ĠÑħÓıÐ°Ð»ÑĥÑĨ":3812,"ĠÑĢÐ¾ÑģÐ°ÑĢÐ°Ð»":3813,"ĠÐĳÐ¸ÑĨ":3814,"ĠÐ±Ð°Ð¶Ð°ÑĢÐ¸":3815,"ĠÐľÑĥÑģÐ°ÐµÐ²":3816,"ĠÑģÐµÐ½ÑĤÑıÐ±ÑĢÐ°Ð»Ð´Ð°":3817,"ĠÑĤÐ°ÑħÑĪÐ°Ð³ÑĮ":3818,"ĠÐ³ÑĮÐ°Ð±ÑĥÐ»Ð°Ð³Ð¾":3819,"ĠÑĢÐµÑģÐ°Ð»":3820,"Ð°ÑĪÐ°":3821,"ĠÐĵÑĮÐ°Ð»Ðµ":3822,"Ð¸Ð½Ð°Ð»ÑĬÐµ":3823,"ĠÐ³ÓıÑĥÐ½ÑĤÓı":3824,"ĠÐ°Ð½ÑĨÓıÐ¸Ð»Ð°":3825,"ĠÑĤÓıÐ°Ð±Ð¸Ð³ÓıÐ°ÑĤ":3826,"ĠÐĵÓıÐ°Ð±Ð´ÑĥÐ»Ð¼ÑĥÑģÐ»Ð¸Ð¼":3827,"ĠÑģÐ°Ð±ÑĢÑĥ":3828,"ĠÐ¶Ð¸Ð¹":3829,"ĠÑĢÐ°ÑħÑĬÐ¸Ð½Ð°ÑĢ":3830,"ĠÑĥÐ½ÐµÐ²":3831,"ĠÐ±Ð¸ÑĨÐ°ÑĢÐ°Ð±":3832,"ĠÐ³ÑĬÐ¾ÑĢÐºÑĮÐµ":3833,"ÑĥÐ´ÐµÐ½ÑĤ":3834,"ĠÐºÑĬÐ°Ð½Ð°Ð³ÓıÐ°ÑĤ":3835,"Ð¾Ð³ÑĢÐ°ÑĦ":3836,"ĠÐ³ÓıÐ¾Ð´Ð¾Ð±":3837,"Ð°Ð¹Ð³Ð¸Ð´":3838,"Ð»ÑĬÐ¸ÑıÐ»Ð´Ð°ÑģÐ°":3839,"Ð¸ÑıÐ»Ð´Ð°ÑģÐ°Ð½":3840,"ĠÑĨÓıÐ¾Ð´Ð¾ÑĢ":3841,"ĠÐ¡ÑĥÑĢ":3842,"Ġ193":3843,"ĠÑĩÑĥÑĢÐ°ÑıÐ²":3844,"ĠÐ±Ð°ÑħÑĩ":3845,"Ð°Ð»Ð´":3846,"Ð²Ð°ÑĤ":3847,"ĠÐºÐºÐµÑĩÓıÐ¾":3848,"Ð¸ÑģÑĤÐ°Ð»":3849,"ĠÐ¡Ð¾Ð±ÑĢÐ°Ð½Ð¸ÑıÐ»ÑĬÑĥÐ»":3850,"ĠÐ·Ð°Ð¼Ð°Ð½Ð°ÑıÐ»Ð´Ð°":3851,"ÑĨÐ¾ÑıÐ·ÑĥÐ»":3852,"Ð¿ÐµÑĢÑĤ":3853,"ĠÑĢÐ°ÐºÐº":3854,"ĠÐ³ÑĮÐ°ÑĢÐ°Ð½Ð°":3855,"ĠÐ³ÑĮÐµÑĩÓıÐ¸Ð»Ð°":3856,"ĠÐºÐ¸Ð½Ð°Ð»Ð½Ð¸Ð³Ð¸":3857,"ĠÐ°ÑģÐºÓıÐ¾ÑĢ":3858,"ĠÐºÐ¾Ð´Ð¾Ð±":3859,"ĠÐĵÐµÑĢ":3860,"ĠÐľÑĥ":3861,"ĠÑĤÓĢÐ°Ð´":3862,"ĠÐ±Ð°Ð´":3863,"ĠÐ±Ð¾Ð»":3864,"ĠÐ½ÐµÐºÓı":3865,"ĠÑĨÓıÐ¸Ð³ÑĮ":3866,"ĠÐºÓıÐ¾Ð»ÐµÐ±":3867,"ĠÐ»ÑĬÐ¸Ð¼Ð°Ð»Ð³Ð¸":3868,"ĠÐĹÐ°Ð³ÑĮ":3869,"ĠÐ³ÓıÐµÐ»Ð°Ð»ÑĬÐµ":3870,"ĠÐ´Ð°ÑĢÑĥ":3871,"Ð¼ÑĥÑħÓıÐ°Ð¼Ð°Ð´":3872,"ĠÐľÐ°Ñħ":3873,"ĠÑĨÓıÐ°Ð»ÑĥÐ»ÐµÐ»":3874,"Ð¡ÑĥÐ³ÑĬÑĢÐ°Ð»ÑĬ":3875,"ĠÐ¼Ð°Ð¶Ð»Ð¸Ñģ":3876,"ÑħÐ°Ñģ":3877,"ÐºÑĬÐ°Ð´":3878,"ĠÐ°ÑħÐ¸ÑĢÐ¸ÑģÐµÐ±":3879,"ĠÐ½Ð¸Ð³ÓıÐ¼Ð°ÑĤÐ°Ð»":3880,"Ð°Ð½ÐºÓı":3881,"ĠÑĢÐ¸Ð¶":3882,"ĠÐ¼Ð¸Ð»":3883,"ĠÑīÐ²Ð°ÑĢÐ°Ð²":3884,"ĠÑĢÐ¾ÑģÐ¸Ð·Ðµ":3885,"ĠÐ³ÓıÐ°Ð³Ð°":3886,"ÑĢÐ°Ð´":3887,"Ð°Ð·Ð´":3888,"ĠÑħÓıÐ°ÑĤÑĤÐ°":3889,"Ð¸Ð´ÑĥÐ»":3890,"ĠÐ²Ð°ÑģÐ°Ð»":3891,"ĠÐ¼Ð¸Ð½Ð°Ð±Ð¸":3892,"ĠÐ´Ð°Ð³ÓıÐ±":3893,"ĠÐ¦ÓĢ":3894,"ĠÐ°ÑĢÑħ":3895,"ĠÐ¼Ð°ÑģÑĬÐ°Ð»Ð°Ð±Ð¸":3896,"ĠÐºÑĬÐ°ÑģÐ¸":3897,"ĠÐ°Ð²Ð³ÑĥÑģÑĤÐ°Ð»Ð´Ð°":3898,"ĠÐĺÐ¼Ð°Ð¼":3899,"ÑĥÐ´Ð¾Ð¶":3900,"ĠÐľÐ°Ð³ÓıÐ°ÑĢÑĥÐ»":3901,"ĠÑĨÐ¾ÑıÐ»":3902,"ĠÐ¥ÓıÑĥÐºÑĥÐ¼":3903,"ĠÑıÑĢÐ³ÑĬ":3904,"ĠÐĺÑģÐ¼Ð°Ð³ÓıÐ¸Ð»":3905,"Ð½Ð°Ð»":3906,"ĠÐ·ÑĥÐ»":3907,"ĠÑĩÓıÐµÐ³ÓıÐµÑĢ":3908,"ĠÐ³ÑĮÐ°ÑĢÐ¸ÑıÐ»ÑĬÑĥÐ»":3909,"ĠÐ°ÑħÐ¸ÑĢÐ°Ð±":3910,"ĠÐºÑĮÐµÐ³Ð¸":3911,"ĠÐ±ÐµÑĤÓıÐµÑĢÐ³ÑĮ":3912,"ĠÐ¶Ð¸Ð´ÐµÑĨÐ°Ð³Ð¾":3913,"Ġ70":3914,"ÑĥÐ»Ð¸Ð½":3915,"ĠÑħÐ°Ð¹Ð¸ÑĢ":3916,"Ð°Ð´Ð°ÑĤ":3917,"Ð°ÑĤÐ°Ð»Ð´Ð°Ð»ÑĬÑĥÐ½":3918,"ĠÐ±Ð¸ÑĩÑĩÐ°ÑĢÐ°Ð±":3919,"ĠÑħÐ¸ÑĢÐ¸ÑıÐ»":3920,"Ð´ÑĢ":3921,"ÑģÐ°Ð»Ð°Ð¼":3922,"ÐµÑħÐ°":3923,"ĠÑĤÓıÐ°Ð´ÑĢÑĥÑģÑģ":3924,"ĠÑħÓıÐ°Ð´Ð¸Ñģ":3925,"ÐĵÑĮÐµÑģ":3926,"ĠÐŁÐ°ÑĤ":3927,"ĠÐŃÐł":3928,"ĠÐ¼Ñį":3929,"Ð¸Ð·Ð°ÑĨ":3930,"ĠÑĨÓıÐ°Ð»Ð´Ð¾ÑħÑĬÐ°Ð±Ð°Ð·ÑĥÐ»":3931,"Ð°Ð¼ÑıÑĤÐ½Ð¸Ðº":3932,"ĠÐ¼ÑĥÑħÑĮ":3933,"Ð´ÐµÐ³Ð¸":3934,"ĠÑĨÓıÐ°Ð»Ð°Ð½Ð°":3935,"ĠÐ»ÑĬÑĥÐ³ÓıÐ¸Ð·Ð°Ð±ÑĥÐ½":3936,"ĠÐĲÑħÓıÐ¼Ð°Ð´Ð¸Ð»":3937,"ĠÑĤÐµÐ»ÐµÐ²":3938,"ĠÐ°Ð½ÐºÑĮÐ³Ð¾":3939,"ÑĤÐ°ÑĢ":3940,"Ð¸ÑīÑħÐ°":3941,"ĠÐ±Ð°Ð»Ð°Ð³ÑĮÐ¸Ð·Ðµ":3942,"ÐĵÓıÐµÐ¼ÐµÑĢ":3943,"Ð¸ÑģÐ°Ð»Ð°Ð»ÑĬÐµ":3944,"ĠÐĿÐ¸Ð¶ÐµÑĨÐ°":3945,"ĠÑģÑĥÑĢÐ°ÑĤÐ°Ð»":3946,"ĠÐ¼Ð°ÑĪÐ³ÑĮÑĥÑĢÐ°Ð»":3947,"ĠÑĤÐµÑĢÑĢÐ¸ÑĤÐ¾ÑĢ":3948,"ĠÑģÐ°Ð¿Ð°ÑĢ":3949,"ĠÑĢÐµÑīÑĤÓı":3950,"ÑĨÐ¸ÑıÐ»Ð´Ðµ":3951,"ĠÐĵÑĮÐµÐ±Ð³Ð¸":3952,"ĠÐ°ÑģÐ»Ð¸ÑıÐ»":3953,"Ð¸ÑıÐ³Ð¸":3954,"ĠÑĩÓıÐµÐ·Ð°Ð±ÑĥÐ½":3955,"ĠÑĢÐ°Ð»ÐµÐ»":3956,"ÑĤÑĥÐ½":3957,"ĠÐĹÐ°Ð¹Ð½":3958,"ĠÐºÓıÐ¾ÑĩÐµÐ½":3959,"ĠÑģÑĥÐ½Ð´":3960,"ĠÐ¸Ð´Ð°ÑĢÐ°ÑıÐ»ÑĬÑĥÐ»":3961,"Ð»Ð¾Ð²":3962,"Ð»Ð¾Ð¼":3963,"Ð°Ð±Ð¸Ð·Ðµ":3964,"ÐµÐ²ÐµÑĢ":3965,"ĠÑĥÐ½ÑĤÑĥÐ½":3966,"ĠÑĢÐµÐ¼Ð¾Ð½ÑĤ":3967,"ĠÐ³ÓıÐµÐ·Ð°ÑĢ":3968,"Ġ24":3969,"ĠÐ³ÑĮÐµÑĩÓıÐ¾Ð½Ð¸Ð³Ð¸":3970,"ĠÐĵÓıÐ°Ð´Ð°Ð¼":3971,"ĠÐĵÑĮÐ¸Ð³ÑĮ":3972,"Ð³ÓıÐµÑĢ":3973,"ĠÐ³Ð°Ð¼":3974,"ĠÑĤÓıÐ¸ÑĢ":3975,"ĠÐ¸ÐºÑĬ":3976,"ĠÐ±ÐµÑĨÓı":3977,"ĠÑīÐ²ÐµÐ»":3978,"ĠÑĨÓıÐ°Ð»ÑĥÐ½":3979,"ĠÐ´ÐµÐ¿ÑĥÑĤÐ°ÑĤÐ°Ð·ÑĥÐ»":3980,"ĠÐ°ÑĢÑĤ":3981,"ĠÑĦÐµÐ´ÐµÑĢÐ°Ð»Ð¸ÑıÐ±":3982,"Ð¥Ð°Ð´":3983,"ĠÐ¨Ð°Ð¼ÑħÐ°Ð»":3984,"Ð°Ð´ÐµÐ¼":3985,"ĠÑĩÓıÐ°ÑĢÐ°Ð±":3986,"Ð¸ÑĩÓıÐµÐ»":3987,"Ġ23":3988,"ÑĥÐ¶Ñĥ":3989,"ĠÐ¼ÑĥÑħÓıÐºÐ°Ð½Ð³Ð¾":3990,"ĠÐºÐ¸Ð±":3991,"ĠÑĨÓıÐ¸":3992,"ĠÐĳÐ°Ð³ÑĮ":3993,"ĠÑģÑĤÑĥÐ´ÐµÐ½ÑĤ":3994,"Ġ90":3995,"ĠÐ°Ð´Ð°Ð±Ð¸ÑıÑĤ":3996,"ĠÑĪÐ°ÑĢÑĤÓı":3997,"Ð¾ÑıÐ»Ð´Ð°":3998,"ĠÑĢÐ°Ð·Ðµ":3999,"ĠÑħÐ²Ð°Ð»":4000,"ĠÐ±Ð¸ÑĩÓıÑĩÓıÑĥÐ»ÐµÐ±":4001,"ĠÐ²ÐµÑĤÐµÑĢÐ°Ð½":4002,"Ð½ÐµÑģ":4003,"ĠÑħÐ°Ð´ÑĥÑģÐµÐ±":4004,"ĠÑĤÐ°ÑĢÐ°Ð»":4005,"ĠÑĩÑĩ":4006,"Ð¸ÐµÐ³Ð¸":4007,"Ġ40":4008,"ĠÐĳÐµÑĢÐ³ÑĮÐµÐ½":4009,"ĠÐ¢ÓıÐ°Ð´ÐµÐ³ÓıÐ°Ð½Ð°Ð²":4010,"16":4011,"ĠÐ¢ÓıÐ°Ð»":4012,"ĠÑģÑĤÐ¾Ð»":4013,"ĠÐľÑĥÑģÐ°":4014,"Ð»ÐµÐ±":4015,"ÑĥÐ»Ð³Ð¾":4016,"ÑĩÐ¸ÑıÑģÑĥÐ»":4017,"ĠÐ³ÓıÑĥÑĨÓıÐ¸":4018,"ĠÑĩÓıÑĥÐ¶Ñĥ":4019,"ĠÐºÐ»ÑĥÐ±":4020,"Ð¸Ð±Ð¸Ð»":4021,"ÐµÐ¼Ð¸ÑĢ":4022,"ĠÐ¡ÐŁÐļ":4023,"ĠÐ±Ð°Ð¹ÑĢÐ°ÑħÑĬ":4024,"ĠÐ´Ð¸Ð½Ð°Ð»ÑĬÑĥÐ»":4025,"ĠÐºÐºÐµÐ·Ð°Ð±":4026,"ĠÐ½ÑĥÑħÐ»ÑĥÐ»":4027,"ĠÐºÑĬÐ²Ð°ÑĤÓıÐ¸ÑĢ":4028,"ÐºÑĬÐ¾ÑĤÓı":4029,"ĠÐ±Ð°ÑħÑĥÐ½":4030,"ĠÑħÓıÑĥÐ¶Ð°Ð±Ð¸":4031,"ĠÐ³ÑĮÐ°Ð±ÑģÐ°Ð³ÓıÐ°ÑĤÐ°Ð»Ð´Ð°":4032,"ĠÑĤÐµÐ°ÑĤÑĢ":4033,"ĠÐ½Ð¾ÑıÐ±ÑĢÐ°Ð»Ð´Ð°":4034,"Ð´Ð°ÑĢ":4035,"Ð°ÐºÑĢ":4036,"Ð¾ÑĨÐ°":4037,"ÐĲÐ±":4038,"ĠÐ±Ð°ÑĤÐ¸Ð·Ðµ":4039,"Ð¥ÑĬ":4040,"ĠÐ¢ÓıÐ¸Ð½Ð´":4041,"ĠÑħÐ°ÑĢÐ±Ð°Ð»":4042,"ĠÐºÐ²Ð°Ð½Ð°Ð·Ðµ":4043,"Ð¼Ð¸Ð½":4044,"ĠÐļÐ°ÑģÐ¿":4045,"ÑīÐµÐ»":4046,"ĠÐĶÐ°Ð³ÑĬÐ¸ÑģÑĤÐ°Ð½Ð°Ð»Ð´Ðµ":4047,"Ð¾Ð²Ð°ÑģÐ´Ð°":4048,"ĠÑĩÐ°Ð³ÓıÐ°Ð·":4049,"ĠÐ¼Ð°ÑĢÑĤÐ°Ð»Ð´Ð°":4050,"Ð¾ÐºÓı":4051,"ĠÐ»ÑĬÐµ":4052,"ĠÐ¢ÓıÐ¾ÑĨÐµÐ±ÐµÑģÐµÐ±":4053,"ĠÐ½ÑĥÑħÐ¼Ð°Ð»ÑĬÑĥÐ»ÐµÐ¹":4054,"ĠÑĤÐ°Ð´Ð±Ð¸ÑĢÐ°Ð»Ð´Ð°":4055,"ĠÑĨÐµÑĢÐµÑħÑĬ":4056,"ĠÐ¥Ð°ÑģÐ³Ð¾":4057,"ĠÐ¼Ð°ÑĪÐ³ÑĮÑĥÑĢ":4058,"Ð¸Ð»Ð°Ð²":4059,"ĠÑĦÐ°Ðº":4060,"ĠÐ¶Ð°Ð½Ð¸ÑģÐµÐ»":4061,"ĠÑįÐ±ÐµÐ»Ð°Ð»ÑĬÑĥÐ»":4062,"ĠÑīÐ°Ð¹Ð³ÑĥÑĢÐµÐ»ÑĬÑĥÐ»":4063,"Ð»ÑĬÑĥÑħÑĬ":4064,"ĠÐ³ÓıÐµÐ·Ð°Ð±":4065,"ĠÐĵÑĮÐ¾ÑĨÓı":4066,"ĠÐ³ÓıÐµÐ¼ÐµÑĢÐ³Ð¾":4067,"ĠÑĤÓıÐ¾ÑĨÐµÐ²ÐµÑģÐµÐ²":4068,"ÐºÐ°Ð»ÑĬÑĥÐ»":4069,"Ð°Ð±Ð¸Ð½":4070,"ĠÐ³ÑĮÑĥÑĢÐ¼":4071,"ĠÐ»ÑĬÐ°Ð½":4072,"ĠÑģÑĥÑĢÑģ":4073,"ĠÐ±Ð¾ÐºÑĮÑĥÐ»ÐµÐ±":4074,"ĠÐ³ÑĮÐ¸ÑĤÓıÐ¸Ð½Ð°Ð±Ð³Ð¾":4075,"ĠÐ¼ÐµÐºÑĬÐ¸":4076,"ĠÐ°Ð½Ð»ÑĬÐ³Ð¾":4077,"Ð¾Ð³Ð¸":4078,"ĠÑħÓıÐ°Ð»ÑĤÓıÑĥÑħÑĬÐ°Ð±Ð°Ð·Ðµ":4079,"ĠÑĤÐ¾ÐºÐ°Ð»ÑĬÑĥÐ»":4080,"Ð°ÑĤÐ¸Ð²":4081,"Ð¸ÑĤÐ°Ð»":4082,"ĠÑħÓıÐ°Ð»ÑĤÓıÑĥÐµ":4083,"ÑĢÑĥÐ³":4084,"ĠÑīÐ²ÐµÐ´Ð°Ð»":4085,"ĠÐ¶Ð°Ð½Ð¸ÑĢÐµ":4086,"ĠÐ³ÓĢÑĥÐ¼ÑĢÑĥ":4087,"ĠÐĹÐ°Ðº":4088,"ĠÑħÓıÑĥÐºÑĥÐ¼Ð°ÑĤÐ°Ð»ÑĬ":4089,"ĠÐ¾Ð±ÑĬÐµÐºÑĤ":4090,"Ð¸ÑıÐ»ÑĬÐ³Ð¸":4091,"Ġ27":4092,"ĠÑģÐ¾ÑĨÐ¸Ð°Ð»Ð¸ÑıÐ»":4093,"ĠÐ¶Ð¸Ð½Ð´Ð¸ÐµÐ³Ð¾":4094,"ĠÑĢÐ°ÐºÑĬÐ»":4095,"ĠÐ¾ÐºÑĤÑıÐ±ÑĢÐ°Ð»Ð´Ð°":4096,"ĠÐĵÓıÐ°Ð¹ÑĪÐ°ÑĤ":4097,"ĠÐ±ÑĥÑĤÓĢ":4098,"ĠÐ±ÑĥÐºÓıÐ¸Ð½Ð°Ð»ÑĬÑĥÐ»":4099,"ÐµÐ½ÑĤÑĢÐ°Ð»Ð´Ð°":4100,"ĠÑģÑĥÐ³ÑĬÑĥÐ»Ð´ÐµÑĢÐ¸Ð»":4101,"ĠÐ»ÑĬÐ¸ÐºÓıÐ»ÑĬ":4102,"ĠÑĥÐ¼ÑĥÐ¼ÑĥÐ»":4103,"ÐºÑĬÐ°Ð¹":4104,"ĠÐĳÑĥÐºÓı":4105,"ĠÐ³ÑĥÑĢÐ¶":4106,"ÐľÐ°ÑħÓı":4107,"ĠÐºÐ¾Ð¼Ð°Ð½Ð´Ð°":4108,"Ð°Ð¸Ð¼":4109,"Ð°Ð·Ð°ÑĢÐ³Ð¾":4110,"ĠÐ¼Ð°ÑħÑģ":4111,"ĠÐ±Ð°ÑģÐ¼":4112,"13":4113,"âĦ":4114,"Ð±Ð°ÐºÓı":4115,"ĠÑĢÑĥÐ³ÑĬ":4116,"ĠÐºÐºÐµÑıÐ»ÑĬÑĥÐ»":4117,"ÑħÓıÐ°ÑĤ":4118,"Ð°Ð»Ð°Ð°Ð½":4119,"ĠÐ´Ð¾ÐºÑĥÐ¼ÐµÐ½ÑĤÐ°Ð»":4120,"Ð°ÑģÐ´Ð¸ÐºÑĬ":4121,"âĦĸ":4122,"Ð³ÓıÐ°":4123,"ĠÑĩÐ¾ÑĢÐ¾Ðº":4124,"ĠÐ±ÐµÑĤÓĢÐµÑĢ":4125,"ĠÐ»ÑĬÑĥÐ³ÑĮÐ°ÑĢÐ°Ð±":4126,"ĠÑīÐ°ÐºÐ»ÑĬÐ¸":4127,"ĠÑıÑĩÑĥÐ½ÐµÐ¹":4128,"Ñĳ":4129,"Ð°Ð±Ð°ÑĢ":4130,"ĠÑģÑĥÐ´":4131,"Ð¸ÑħÓıÐ°Ð»":4132,"ĠÐľÐµÐ»":4133,"Ġ60":4134,"ĠÑįÐºÐ¾Ð½Ð¾Ð¼Ð¸ÐºÐ¸ÑıÐ±":4135,"Ð»ÐµÐºÑģ":4136,"Ð°Ð³Ð°Ð³ÑĮ":4137,"Ð°ÑģÐ³Ð¸":4138,"ĠÐ³ÓıÐ¸ÑıÐ»":4139,"ĠÐ°Ð±ÑĥÐ»ÐµÐ»":4140,"ĠÐ¨ÐºÐ¾Ð»":4141,"ĠÑĦÐµÑĢÐ¼":4142,"ĠÐ±Ð°ÑĩÓıÐ¸Ð½":4143,"ĠÐ£Ð»":4144,"ÐĺÐ½":4145,"ĠÑģÐµÐºÑĢÐµÑĤÐ°ÑĢÑĮ":4146,"50":4147,"ĠÑĢÐ¸ÑĪ":4148,"ÑģÐ¾ÐºÐ¾Ð»":4149,"ĠÐ²Ð¾Ñģ":4150,"Ð¸ÑĢÑĥÑģ":4151,"ĠÐ¿Ð°Ð¼ÑıÑĤÐ½Ð¸Ðº":4152,"ĠÐļÐ¸Ð³ÓıÐ°Ð½":4153,"Ð¸ÑĤÓıÑĥÐ½":4154,"ĠÑĨÐµÐ±ÐµÐ³Ð¾":4155,"Ð¸Ð¿Ð°ÑĤ":4156,"ĠÑĢÐ¸ÐºÓıÐºÓıÐ°Ð´":4157,"ĠÐĲÑĢÐ°Ð±":4158,"ÐµÑĢÐ³Ð¾":4159,"ĠÐŁÐ°ÑĢ":4160,"ĠÐºÑĬÐ²Ð°ÑĤÓıÐ¸Ð²Ðµ":4161,"Ð¸ÑıÐ·Ðµ":4162,"ÑĥÑĢÐ³":4163,"ÐµÐ½Ð´":4164,"ĠÐłÐ°Ð¹Ð¾Ð½":4165,"Ð°Ð¶Ð¸":4166,"ĠÐºÑĬÐ¾ÑıÐ»ÑĬÑĥÐ»":4167,"ĠÐ±Ð°ÑĩÐ°Ð½Ð°":4168,"ÐłÐ¾ÑģÐ´Ð°Ð»":4169,"ĠÑħÓıÐ°Ð»Ð±Ð¸ÑħÑĮÐ¸":4170,"14":4171,"ĠÐ³ÑĮÐ°Ð¹Ð±":4172,"ÑģÐ¸ÑıÐ±":4173,"ĠÐ»ÑĬÐ°ÑĩÓıÐ¾Ð³Ð¾":4174,"ĠÐ½Ð°Ñħ":4175,"Ð¾ÑĢÐ°Ð»ÑĬÑĥÐ»":4176,"ĠÐļÓĢ":4177,"ĠÐĿÐ°ÑħÑĬ":4178,"ĠÑĪÐºÐ¾Ð»Ð°Ð·ÑĥÐ»":4179,"ĠÐºÑĬÐ°ÑĩÓıÐ°Ð·Ðµ":4180,"?!":4181,"ÑĢÐ°Ð»Ð°Ð»Ð´Ð°":4182,"ĠÐ³Ð²Ð°Ð½":4183,"Ð¸Ð½Ð¾Ð²":4184,"Ð¸Ð·Ð½ÐµÑģ":4185,"ÑĦÑĤ":4186,"ĠÐĵÑĮÐµÑģÐ´Ð°":4187,"Ð±Ð°ÑĤÓıÐ¸ÑıÐ±":4188,"ÑĢÐ°ÐºÓıÐ°Ð»ÑĬÑĥÐ»Ð°Ð±":4189,"ÑĥÐ¼Ð±ÐµÑĤ":4190,"Ð¸Ð³ÑĬ":4191,"Ð°Ð½ÑĥÑģ":4192,"ĠÐ¡Ð°Ð¹Ð³Ð¸Ð´":4193,"ĠÑĨÓıÑĥÐ½Ð¸":4194,"ĠÐ²Ð°ÑĩÑĥÐ½":4195,"ĠÑĢÐ°Ð´Ð¸Ð¾ÑıÐ»ÑĬÐµ":4196,"ĠÐ¿Ð°Ð¹Ð´Ð°ÑıÐ±":4197,"Ð±Ð°Ð½":4198,"ÑĩÓıÐµÐ¹":4199,"ĠÐ±Ð¸ÑĨÐ°Ð½Ð¸":4200,"ĠÐ¿ÑĢÐµÐ¼":4201,"ĠÐ±Ð¸Ð³ÑĮÐ°ÑıÐ±":4202,"ĠÐ·Ð°Ð²Ð¾Ð´":4203,"ĠÐĵÓıÐ°Ð±Ð´ÑĥÐ»Ð°Ð³ÑĮÐ¸Ð»":4204,"ĠÐ³ÓıÐµÐ»Ð¼Ð°Ð±Ð°Ð·ÑĥÐ»":4205,"ÐµÑĤÓı":4206,"ĠÑĢÐ¸ÑĨ":4207,"ĠÑĩÐ°ÑĩÐ°Ð½":4208,"ÐµÑģÐ´Ð°Ð»":4209,"ĠÐ·Ð°Ð¼Ð°Ð½Ð°Ð»ÑĬÑĥÐ»":4210,"ĠÑĢÐ¾ÐºÑĬÐ¾Ð²Ðµ":4211,"ÑĥÐ´ÐµÑħÑĥÐ½":4212,".-":4213,"ÑĥÑİ":4214,"ĠÐ²Ð°ÑĤÓıÐ°Ð½":4215,"ĠÑĤÐ°ÑģÐ´Ð¸ÐºÑĬ":4216,"ĠÐĲÐ²":4217,"Ð¸Ð¿Ð»Ð¾Ð¼":4218,"ĠÐ¸Ð½ÑģÑĥÑĨÐ°":4219,"ĠÐ¼ÐµÑĤ":4220,"ĠÐ³ÑĮÐ°Ð±Ð¸Ð»ÐµÐ±":4221,"Ð¸ÑıÐ»ÑĬÑĥÐ»Ð°Ð±":4222,"ĠÐ³ÓıÑĥÑĨÓıÐ°Ð½Ð°":4223,"ĠÑĤÑĢÐµÐ½ÐµÑĢ":4224,"ĠÐ±ÐµÑĩÐµÐ´Ð°Ð±":4225,"ĠÑĤÐ¾Ð»ÐµÐ±":4226,"ĠÐĵÓıÐ°Ð¼Ð¸ÑĢ":4227,"ĠÐ¶Ð°Ð½Ð¸Ð±Ðµ":4228,"ĠÑĨÓıÐ°Ð»Ð´Ð¾ÑħÑĬÐ°Ð±Ð°Ð·Ðµ":4229,"ÐĴÐĶÑıÐ»ÑĬÑĥÐ»":4230,"ĠÐ³Ð¸Ð¼Ð½Ð°Ð·Ð¸ÑıÐ»ÑĬÑĥÐ»":4231,"Ð¾Ð²Ð³Ð¸":4232,"ĠÑħÓıÐ°Ð»ÑĤÓıÑĥÐ½":4233,"ĠÑĢÐ°Ð¹Ð¾Ð½Ð°Ð·ÑĥÐ»":4234,"ĠÐ±Ð¾ÐºÑĮÐ¸Ð»Ð°Ð°Ð½":4235,"ĠÑĨÓıÑĥÐ½Ð¸ÑıÐ»ÑĬÐµ":4236,"ĠÑħÐ¸ÑģÑĥÐ½":4237,"Ð¸ÑĨÐ°Ð³Ð¾":4238,"ĠÑĨÓıÐ¸ÐºÓı":4239,"ĠÑħÓıÐ°Ð»ÑħÑĮ":4240,"ĠÐ³ÓıÑĥÑĨÓıÐ°Ð±Ð°Ð·ÑĥÐ»":4241,"Ð¸ÐµÐ²Ð°":4242,"ĠÑħÑĥÐ´Ð¾Ð¶":4243,"ĠÐ¼Ð°ÑıÐ»Ð´Ð°":4244,"ĠÐ»ÑĬÐ°Ð»Ð°ÑĢÐµÐ±":4245,"Ð°Ð»Ð°ÑĢÐ¾":4246,"Ð°Ð±ÑĢ":4247,"ĠÑĤÐ¾Ð½":4248,"Ð¸ÑģÐµÐ·":4249,"Ð°ÑĩÓıÐ¾":4250,"ĠÐ²ÑĥÐºÓıÐ¸Ð½ÑĩÓıÐ¾":4251,"ĠÐ°Ð¿ÑĢÐµÐ»Ð°Ð»Ð´Ð°":4252,"ĠâĦĸ":4253,"ĠÐ³ÑĮÐ°Ð¹":4254,"ĠÑĢÐ°ÑħÑĬÐ°Ð»Ð´Ðµ":4255,"ĠÐ´Ð°Ð½Ð´ÐµÐºÐºÑĥÐ½":4256,"ÑģÑĤÐ²":4257,"ĠÑĨÐ¾ÑıÐ±Ð»ÑĬÑĥÐ½":4258,"Ð¾ÑħÑĮ":4259,"ĠÐ³ÐµÐºÑĤ":4260,"ĠÐ¸ÑĨÑĨ":4261,"ĠÐ±Ð°ÐºÓıÐ°Ð»ÑĬÑĥÐ»":4262,"ÑĭÐº":4263,"ĠÑĢÐ°Ð³ÑĮÐ¸Ð·Ðµ":4264,"ĠÐ³ÓıÐ°ÑĢÐ·Ð°":4265,"ĠÐľÑĥÑĢÑĤÐ°Ð·Ð°Ð³ÓıÐ°Ð»":4266,"Ð½Ð¸Ð·Ð°Ð¼":4267,"ĠÐ¥ÓıÑĥÑĢÐ¼Ð°ÑĤ":4268,"ĠÐľÑĥÑħÓıÐ°Ð¼Ð°Ð´Ð¾Ð²Ð°":4269,"ÐĲÑĢÐ°Ð±":4270,"ĠÑģÐ¿Ð¾ÑĢÑĤÐ¸Ð²Ð¸ÑıÐ±":4271,"ĠÐ¼Ð°ÐºÑĬÐ°Ð»Ð°":4272,"Ð»Ð°Ð¼ÐµÐ½ÑĤ":4273,"ĠÐļÑĬÑĥÑĢÑĬÐ°Ð½":4274,"Ð°Ð»ÑĬÐ°Ð±Ð¸":4275,"Ð°ÑħÓıÐ°Ð»":4276,"ĠÐ³ÑĮÐµÐ»Ð³Ð¸":4277,"ĠÐ¸Ð½Ð¶":4278,"ĠÐ½Ð°ÑħÑĬÐµÐ³Ð¸":4279,"ĠÐ³ÑĢÐ°Ð¶Ð´":4280,"ÑĥÑĢÐ¸":4281,"ĠÐºÐºÐµÑĩÓıÐ¾Ð³Ð¾":4282,"ĠÐĲÑĦ":4283,"ĠÐ¶Ð¸Ð½Ð´Ð°Ð³Ð¾":4284,"ĠÐ³ÓĢÐ°ÑģÑĢÑĥ":4285,"ÑĩÐ°Ð³ÓıÐ°Ð·ÑĥÐ»":4286,"ĠÐ³ÐµÐ½ÐµÑĢÐ°Ð»":4287,"ĠÐ³ÑĥÑĢÐ¸Ñī":4288,"Ð¸Ð³ÓĢ":4289,"ĠÐ±Ð°ÐºÑĬÐ±Ð°ÐºÐº":4290,"Ð°Ð»Ð¸Ð´Ð°":4291,"ĠÐ²Ð°ÑħÓı":4292,"Ð°Ð¼Ð°Ð½":4293,"ĠÐ»ÑĬÐ¸Ð¼Ð°Ð»Ð°Ð·":4294,"ĠÑĨÓıÐ¸ÐºÓıÐºÓıÐ°ÑĢÐ°Ð»":4295,"ĠÑħÓıÑĥÐ¶Ð°":4296,"ĠÐ¶Ð°ÐºÑĬÐ°Ð³Ð¸":4297,"ĠÐ´ÐµÐºÐ°Ð±ÑĢÐ°Ð»Ð´Ð°":4298,"Ð¼Ð°ÑħÑĬ":4299,"ĠÐĳÐ°ÐºÑĮ":4300,"ĠÐĿÐ°Ð¶":4301,"ĠÐ±Ð°ÑħÑĬÑĥÐ»Ð°":4302,"ĠÑħÐ²ÐµÐ»":4303,"ĠÑģÐ°Ð¹Ð³ÑĬÐ°ÑĤÐ°Ð»":4304,"ĠÐºÐ¾Ð¼Ð¸ÑģÑģÐ¸ÑıÐ»ÑĬÑĥÐ»":4305,"ĠÐºÐ¸Ð»Ð¾Ð¼":4306,"ĠÐ°ÑĤ":4307,"ĠÐ³ÑĮÐ¸Ð¼":4308,"Ð¼Ð°Ð»":4309,"ĠÐľÐ°Ð´":4310,"ĠÐºÑĮÐµÐ»":4311,"ÑĥÑĤÐ±Ð¾Ð»":4312,"Ð°Ð½Ð´Ð¸":4313,"ĠÐ±Ð¸ÑħÑĮÐ¸Ð·Ð°Ð±Ð¸Ð·Ðµ":4314,"ĠÑĢÑĥÐºÑĬÐ·Ð°Ð»":4315,"ĠÐ¿Ð°ÑĢÐ°Ñħ":4316,"ĠÑħÓıÑĥÑĢÐ¼Ð°ÑĤÐ°Ð»Ð´Ð°":4317,"ĠÑĢÐ¾ÑģÐ´Ð°Ð´Ð°":4318,"ĠÐºÐ°Ð½Ð»ÑĬÐ¸":4319,"11":4320,"Ð°Ð¸Ð´":4321,"ĠÐ³ÓıÐ°Ð»Ð¸Ð¼ÑĩÐ¸":4322,"ĠÐ¼Ð¾ÑĨÓıÐ°Ð»Ð´Ð°":4323,"ĠÑĦÐµÐ²ÑĢÐ°Ð»Ð°Ð»Ð´Ð°":4324,"ÐµÑıÐ»ÑĬ":4325,"Ð±Ð°ÑĢ":4326,"ĠÐºÐ°Ð½Ð°Ð»":4327,"ĠÑģÐ°Ð»":4328,"ĠÑħÓıÐ°ÑĢÐ°Ðº":4329,"ĠÑĢÐ¾ÐºÑĬÐ¾ÑĢÐµ":4330,"ĠÐ´Ð¸Ð½Ð¸ÑıÐ»":4331,"ÑģÐµÐ±":4332,"Ð¾Ð»Ð¾ÑħÑĬ":4333,"ĠÑĪÑĤ":4334,"ĠÐ¸ÑİÐ»":4335,"?\"":4336,"Ð¸Ð½Ð°Ð»ÑĬ":4337,"ĠÐ²ÐµÑħÑĮ":4338,"ĠÐ²ÑĢÐ°Ñĩ":4339,"ĠÑģÐ°Ð¼":4340,"ĠÑĨÓıÑĥÐ¼":4341,"ĠÐĶÐ°Ð²":4342,"ĠÐ¦ÐµÐ±Ðµ":4343,"ĠÐºÓıÐ°Ð»ÑĬÐ°ÑıÐ»":4344,"ĠÐºÓıÐ²Ð°ÑĢÐ°Ð±":4345,"ĠÐºÑĬÑĥÐ²Ð°ÑĤÐ°Ð»ÑĬÑĥÐ»":4346,"ĠÐ³ÑĬÐ²Ð°ÑĢÐ¸Ð´Ð°Ð±":4347,"ĠÐ¼Ð°Ð»":4348,"Ð°Ð¹Ð¸Ñħ":4349,"ĠÑĤÐ°ÑĢÐ¸ÑħÐ°Ð»ÑĬÑĥÐ»":4350,"ĠÐ³ÓıÐ°ÑĢÑĨÑĥÐ»Ð°Ð»":4351,"ĠÑħÓıÐ°Ð¹Ð²Ð°Ð½":4352,"ĠÐ±ÑĢÐ¸Ð³":4353,"ĠÐºÐ°ÑĢÑĤ":4354,"ĠÐºÑĥÑĢÑģ":4355,"ĠÑĢÐ°ÑĢÐ°Ð»":4356,"ĠÐ»Ð°ÑħÓı":4357,"Ð°ÑıÐ·ÑĥÐ»":4358,"ĠÐłÐ°ÐºÓı":4359,"ĠÐ¶Ð°Ð²Ð°Ð±Ð¸ÑıÐ»":4360,"ĠÑĩÓıÐµÐ·Ð°Ð±Ð¸Ð·Ðµ":4361,"ĠÐĲÑģÐ»Ð¸ÑıÐ±":4362,"ĠÑĢÐ¸Ð¸Ð´Ð°Ð»":4363,"ĠÐ¼Ð°ÑĤÐµÑĢÐ¸Ð°Ð»":4364,"ĠÐ²Ð°Ð³ÑĬ":4365,"Ð¸ÐºÐ°ÑıÐ»Ð´Ð°":4366,"ĠÐ¼Ð¸Ð»Ð»Ð°ÑĤÐ°Ð»ÑĬÑĥÐ»":4367,"ĠÐĵÑĬÐ¸Ð·Ð¸Ð»ÑİÑĢÑĤ":4368,"ĠÑĦÐ°ÐºÑĥÐ»ÑĮÑĤ":4369,"ĠÐºÑĮÐ²Ð°ÑĢ":4370,"ĠÐĸÐ°Ð½":4371,"ĠÐ½ÑĥÑħÐ¼Ð°Ð»ÑĬÑĥÐ»ÐµÑģÑĥÐ»":4372,"ĠÐ±Ð°ÑģÑĢ":4373,"Ð°Ð½Ð¸Ñī":4374,"ĠÐ´Ð¸Ð¿Ð»Ð¾Ð¼":4375,"ĠÐ½ÑĥÑĨÓı":4376,"ĠÑħÓıÐ°Ð»ÑĤÓıÐ¸Ð·Ð°Ð±Ð¸Ð·Ðµ":4377,"ĠÐĶÐ°Ð³ÑĬ":4378,"ĠÑĢÐ¾ÑģÑĥÑĨÐ¾ÑıÐ·":4379,"ĠÐ³ÓıÐ°Ð´Ð°ÑĤÐ¸ÑıÐ»":4380,"Ð§Óı":4381,"ÑĥÐ»Ð°ÑĢÐµÐ»":4382,"Ð¸Ð·Ð°Ð±ÑĥÐ»Ð°":4383,"ÐĶÐ¸Ð´Ð°":4384,"ĠÑĦÑĢ":4385,"ĠÐ°ÑħÓıÑĥÐ»ÐµÐ»":4386,"ĠÑĢÐ¾ÐºÑĬÐ¾ÑĢ":4387,"ĠÑĤÐ°ÑĢÐ¸ÑħÐ°Ð»Ð´Ð°":4388,"ĠÐ±Ð¸ÑĩÑĩÐ°Ð·Ðµ":4389,"ÐµÑĢÐ³ÐµÐ¹":4390,"ĠÐ¼ÐµÑĤÐµÑĢ":4391,"ĠÐľÐ¸ÑģÐ°Ð»Ð°Ð»ÑĬÐµ":4392,"ĠÐĳÐ¸ÑħÑĮ":4393,"ĠÐ±Ð¸ÑħÑĮÐ°ÑĢÐ°Ð±":4394,"Ð¸ÑħÓıÐ°ÑĤ":4395,"Ð°ÑıÐ·Ð´Ð°":4396,"ĠÐ¢ÑĥÑĢÐº":4397,"ÑĥÐµÐ²":4398,"Ð¾ÑĩÓı":4399,"ĠÐ»ÑĬÐ°Ð´Ð¸":4400,"ĠÐĸÐ¸Ð²":4401,"ĠÑĢÐ¾ÑħÐ°Ð»Ð¸Ð»Ð°Ð±":4402,"ĠÐ±Ð¸Ð·Ð½ÐµÑģ":4403,"Ð²Ð°ÑĢÐ°Ð±":4404,"Ð²Ð¾Ðº":4405,"Ð¸Ð½ÑģÑĥÐ»":4406,"ĠÐ³ÓıÐ°Ð´Ð°ÑĤÐ°Ð»":4407,"ĠÑħÓıÐ°Ð´ÑĥÑĢÑĥÐ½":4408,"ĠÐºÑĬÐ¾ÐºÑĬÐ°":4409,"ĠÐ²Ð°ÑĨÐ°Ð»":4410,"ĠÑįÑħÐµÐ´Ðµ":4411,"ĠÐľÑĥÑħÓĢÐ°Ð¼Ð°Ð´":4412,"ÑĥÑİÑī":4413,"Ð°Ð½Ñĩ":4414,"Ð°Ð¼ÑĥÑħÓıÐ°Ð¼Ð°Ð´":4415,"ĠÐļÑĬÐ¾":4416,"ĠÑĨÐµÑĢÐµÑĢÐ°ÑħÑĬ":4417,"Ð¸Ð·Ð°ÑĢÑĥÐ½":4418,"ĠÑĨÐµÑĢÐµÐ³ÓıÐ°Ð½":4419,"ĠÑĤÐµÑĢÑĢÐ¾ÑĢÐ¸Ð·Ð¼":4420,"ĠÐ±ÑĥÐºÓıÐ°Ð½Ð¸Ð»Ð°":4421,"ĠÐ³ÑĥÑĢÐµÐ»Ð³Ð¸":4422,"ĠÑĢÐ°ÑħÑĬÐ°Ð»ÑĬÐ°Ð½":4423,"ÐĵÑĮÐµÐ½Ð¸Ð±":4424,"Ð¸Ð°Ð´":4425,"ĠÑħÑĬÑĥÑĤ":4426,"ĠÐ³ÑĬÑĥÑĤÓıÐ±Ð¸":4427,"ÑģÐ°":4428,"ĠÐ»ÑĬÐ¾Ð»ÐµÐ±":4429,"ĠÑīÑĥ":4430,"ĠÑĢÑĥÐ³Ð¾Ð½Ð¸":4431,"ĠÐ¿ÑĢÐµÑģÑģ":4432,"ĠÐ§ÓĢ":4433,"ĠÐ±Ð°ÑĩÓıÑĥÐ½Ð°":4434,"ĠÐ¼Ð°ÑĨÓıÐ³Ð¸":4435,"ÑĥÐ»ÑĮÑĤÑĥÑĢÐ°ÑıÐ»ÑĬÑĥÐ»":4436,"ÐºÑĬÑĥÐ»":4437,"ĠÐºÑĮÐ¸Ð¶":4438,"Ð°Ð³ÑĬÐ°Ð·":4439,"ĠÐ°ÑħÓıÐ¸Ð·Ðµ":4440,"ÐłÐ¾ÑģÑģÐ¸ÑıÐ»ÑĬÑĥÐ»":4441,"Ð³ÑĮÐ°ÐºÐ²Ð°ÑĢÐ¸":4442,"ĠÐ£Ð½ÑģÐ¾ÐºÐ¾Ð»":4443,"ĠÑħÓıÐ¾ÑĢ":4444,"ĠÐ¥ÓıÐ°Ð¹Ð±":4445,"ĠÐ±Ð¸ÑĩÓıÑĩÓıÐ°Ð½Ð°":4446,"ĠÑĢÐ°ÑĩÐ¸Ð½Ðµ":4447,"ĠÐĲÐ½Ð²Ð°ÑĢ":4448,"ĠÐ³ÑĬÑĥÐ½Ðº":4449,"ĠÐ¼Ð¸ÐºÑĮÐ³Ð¾":4450,"ÐµÑıÐ»Ð´Ð°ÑģÐ°":4451,"Ð°Ð¹Ð¸Ð½":4452,"ĠÑīÐ²ÐµÐ¹":4453,"Ġ26":4454,"ĠÐĵÓıÐ°Ð±Ð´ÑĥÐ»Ð°ÐµÐ²":4455,"ĠÐ¼ÑĥÐ³ÓıÑĢÑĥÐ»":4456,"ĠÐ½Ð¾Ð¼ÐµÑĢÐ°Ð»Ð´Ð°":4457,"Ð°Ð»ÐµÐ²":4458,"ĠÐ´Ð°ÑĢÐ°Ð±":4459,"ĠÑıÑĤ":4460,"ĠÐ½ÑĥÑħÐ´Ðµ":4461,"ÑģÐ¾Ð½":4462,"ĠÑĢÐ¸ÑĩÓıÑĩÓı":4463,"ĠÐ½Ð°Ð¼ÑĥÑģ":4464,"ĠÑĤÓıÑĥÐ½":4465,"ĠÐºÑĬÑĥÐ½":4466,"ĠÐ±Ð¾ÑģÐ°Ð½Ð¸":4467,"ĠÐ¼ÑĥÑħÑĬÐ°Ð»":4468,"ĠÐ±Ð¾Ð¶Ð¸Ð»ÑĬÐ¸":4469,"Ð±Ð°ÑģÐ¸ÑıÐ»":4470,"ĠÐĵÑĥÑĢÐ¶":4471,"Ð°Ð´ÑĥÑĢ":4472,"ĠÐ¡ÑĤÐ°Ð»":4473,"ÑĥÐ´Ð¸ÑıÐ²":4474,"ĠÐ±Ð°ÑĤÐ°Ð³Ð¸":4475,"ĠÑħÐ°Ð»ÐºÑĬÐ°Ð·Ð´Ð°":4476,"ĠÑįÐ±ÐµÐ»Ð°Ð»ÑĬ":4477,"ĠÑĥÐ»ÐºÐ°":4478,"ĠÐ¥ÑĬÐ²":4479,"ĠÐºÐ¸Ð½Ð°Ð·Ð³Ð¾":4480,"ĠÐ±Ð°ÐºÑĮÑĥÐ»ÑĬ":4481,"ĠÐ±Ð°Ð³Óı":4482,"Ð°Ð´Ð°ÑĢ":4483,"ĠÐ»ÑĬÐ°Ð·Ð°ÑĢ":4484,"Ð°Ð¶ÑĥÐ´Ð¸Ð½":4485,"ĠÐ³ÓıÐ¾Ð»Ð°ÑĢÐ¾":4486,"ĠÑĩÓıÐ²Ð°Ð½Ð°":4487,"Ġ80":4488,"ĠÐºÓĢÑĥÐ´Ð¸ÑıÐ±":4489,"ĠÐºÑĬÐ¾Ð¹Ð¸Ð»":4490,"Ġ%":4491,"ĠÑĤÑĥÐ¼":4492,"ĠÐºÑĬÐ°Ð·Ðµ":4493,"ÐµÑĩÐµÐ´":4494,"ĠÑħÓıÑĥÐºÑĥÐ¼Ð°ÑĤ":4495,"ĠÐºÐ°Ð³ÑĬÑĤÐ°Ð»":4496,"ĠÐļÐ°Ð²ÐºÐ°Ð·Ð°Ð»Ð´Ð°":4497,"ĠÑħÓıÐ°ÐºÑĬÐ¸ÐºÑĬÐ°ÑĤ":4498,"ĠÑįÐºÑģÐ¿ÐµÑĢÑĤ":4499,"ĠÐ¾ÐºÑĢÑĥÐ³":4500,"ÑĥÐ´Ð°Ð»":4501,"Ð°Ð½ÑħÑĬ":4502,"ÑĩÐ¸Ðº":4503,"ĠÑħÓıÐ¸Ðº":4504,"ĠÑĢÐ°Ð³ÑĬÑĥÐ»ÑĬ":4505,"ĠÐºÑĬÐ²Ð°ÐºÓı":4506,"ĠÑģÐ°Ð¹ÑĤ":4507,"ĠÐºÑĮÐ¾Ð»Ð°Ð°Ð½":4508,"ĠÑıÑĩÐ°Ð½Ð°":4509,"ĠÐ¿ÑĢÐ¾ÐºÑĥÑĢÐ°ÑĤÑĥÑĢ":4510,"ÑĮÐµÑĢ":4511,"ÐµÑĢÐº":4512,"ĠÐĵÐµÐ½":4513,"ĠÐ³ÑĬÐ¸ÑĢ":4514,"ĠÐ»ÑĬÐ°Ð»Ð°ÑĢÐµÐ»":4515,"ĠÐ»ÑĬÑĥÐ³ÓıÐ¸Ð·Ð°Ð±ÑĥÐ½Ð°":4516,"ĠÐ³ÓıÐ°Ð´Ð°ÑĤÐ¸ÑıÐ±":4517,"ĠÐ¼ÑĥÐ³ÓıÑĢÑĥÐ·":4518,"ĠÐ±Ð°ÑĢÐ°ÐºÐ°ÑĤ":4519,"ĠÑģÐ¾Ð»Ð´":4520,"ĠÑĢÐµÐºÑĮ":4521,"ĠÐĳÐ°ÑħÓıÐ°ÑĢ":4522,"ĠÑħÐ°Ð´ÑĥÐ±Ð³Ð¸":4523,"ĠÑħÐ²ÐµÐ·Ð°ÑĢ":4524,"ĠÐ³ÓıÐ¾Ð»Ð¾ÑħÑĬÐ°Ð±Ð°Ð·":4525,"ÑĢÐ°ÐºÓıÐ°Ð»ÑĬ":4526,"Ð·Ð°Ð¼ÐµÐ½":4527,"Ð¸Ð»Ð¸Ð»Ð°Ð½":4528,"ÑĨÐµÐ½":4529,"ĠÑħÐ°Ð»ÐºÑĬÐ¸ÑıÐ±":4530,"ĠÐ»ÑĬÐ°Ð·Ð°Ð±Ð¸Ð·Ðµ":4531,"ĠÑĤÓıÐ°Ð¼Ð¸Ð·Ðµ":4532,"ĠÐ»ÑĬÐ°Ð»Ð°Ð°Ð½":4533,"ĠÑĢÐ¸ÑħÑĮÐ¸Ð·Ð°ÑĢÑĥÑĢÐ°Ð»":4534,"ĠÐļÐ°ÑģÐ¿Ð¸Ð¹":4535,"ÐºÐºÐ²":4536,"ĠÐ»Ð°Ð³ÑĬ":4537,"Ð°Ð¹Ð¸Ð»Ð°Ð½":4538,"ĠÐ´Ð°Ð¸Ð¼":4539,"Ð¸ÑĩÓıÐ¾Ð½Ð¸Ð³Ð¸":4540,"ĠÐ³ÑĮÐµÐ½Ð¸Ð²Ðµ":4541,"ĠÐ°ÑħÐ¸ÑĢÐ°Ð»Ð´Ðµ":4542,"ĠÐ¸ÑħÐ´Ð°Ð»":4543,"ÐĵÑĮÐ°Ð½Ð¶Ðµ":4544,"Ð°ÑĢÐ°Ñģ":4545,"ĠÐºÐºÑĥÑĢÐ°Ð»":4546,"ÐµÐ¼ÑĨ":4547,"ĠÐ¡ÐµÑĢÐ³ÐµÐ¹":4548,"ĠÑıÑģÐ°Ð»":4549,"ĠÑĥÐ½ÑĤÐ°ÑĢÐ°Ð»":4550,"ÑħÓıÐ°Ð»Ð°Ð»ÑĬÑĥÐ»":4551,"ĠÐĺÐ½Ñħ":4552,"ĠÑĢÑĥÐ³Ð¾Ð½Ð¸Ð³Ð¸":4553,"ĠÐĶÐ°Ð³ÑĬÐ¸ÑģÑĤÐ°Ð½Ð°Ð»Ð´Ð°ÑģÐ°":4554,"ÐĲÐ½":4555,"ĠÑħÑĬÑĥÐ»ÑĥÑħÑĬÐ°Ð»Ð´Ð°":4556,"ÑĥÐ»Ð°ÑĢÐ¾Ð°Ð½":4557,"ĠÑĤÓıÐ¾ÑĢÐ¸ÑĤÓıÐ°ÑĢÐ°Ð»":4558,"ĠÐĲÐ¼Ð¸Ð½Ð°ÑĤ":4559,"Ð±ÑĥÐ·ÑĥÐ»":4560,"ĠÐ±Ð°ÑĨÓıÑĨÓıÐ°Ð´Ð°Ð±":4561,"ÐºÐ¾":4562,"ĠÐĸÐµÐ³Ð¸":4563,"ĠÐ²ÑĥÐ³Ð¾Ð½Ð¸Ð³Ð¸":4564,"ĠÐ©Ð¸Ð²":4565,"ĠÐ¿ÑĢÐµÐ´Ð¿ÑĢ":4566,"ĠÐ½Ð°ÑĢÐºÐ¾ÑĤ":4567,"ĠÑĢÐ¾ÑĢÑĩÓı":4568,"ĠÑģÐ¾Ð½Ð°Ð·ÑĥÐ»":4569,"ĠÐ±ÐµÑĢÑĤÐ¸Ð½":4570,"ÑĦÐµÑĢÐµÐ½":4571,"ĠÐ³ÓıÐ°ÑħÑĮÐ°Ð»Ð»ÑĬÐ°ÑĢÐ°Ð»":4572,"ĠÐ»ÑĬÐ°Ð»Ð°ÑĢÐµÐ²":4573,"ĠÐ»ÑĬÐ°Ð¹Ð³Ð¸":4574,"ĠÐ¨Ð°Ð¼Ð¸Ð»Ð¸ÑĨÐ°":4575,"ĠÐ±Ð°Ð¶Ð°ÑĢÐ°ÑĢÐ°Ð±":4576,"ĠÐºÐ»Ð°ÑģÑģÐ°Ð·ÑĥÐ»":4577,"ĠÐ¸Ð½ÑĦÐ¾ÑĢÐ¼Ð°ÑĨÐ¸Ñı":4578,"ĠÑĩÐ¾ÑĢÑħÐ¾Ð»ÑĬ":4579,"ÑħÑĬÐ²Ð°Ð³ÓıÐ°Ð¹":4580,"ÐºÐ°ÑıÐ»Ð´Ð°":4581,"Ð¸ÑħÑĬÐ°Ð½":4582,"ĠÐłÐ¾ÑģÑģÐ¸Ñı":4583,"ĠÐ¶Ð°Ð¼Ð³ÓıÐ¸ÑıÑĤ":4584,"Ð¾Ð²Ð½Ð°":4585,"Ð¸Ð·Ð°Ð±ÑĥÑĢÐ°Ð±":4586,"ÐĿÑĥÐ¶":4587,"ĠÐ¼ÑĥÐ³ÓıÐ°Ð»Ð¸Ð¼Ð·Ð°Ð±Ð¸":4588,"ĠÑĨÐµÐ±ÐµÐºÐºÑĥÐ½":4589,"ĠÐ³ÓıÐµÐ»Ð¼Ð¸ÑıÐ±":4590,"ĠÐºÐ°Ð±Ð¸Ð½":4591,"ĠÐ¿Ð°Ð»Ð°ÑĤ":4592,"ÐµÐ·Ð°Ð±Ð¸":4593,"ĠÐ°Ð±ÑĥÐ»ÐµÐ²":4594,"ÑģÑĤÐ°Ð½":4595,"ĠÑħÐ²ÐµÐ·Ðµ":4596,"ÑħÓıÐ°Ð»Ð°Ð»Ð´Ð°":4597,"ĠÑħÑĮÐ²Ð°Ð´Ð°":4598,"ĠÐ±Ð°ÑĢÐ°Ð²":4599,"ÑıÐ¹":4600,"Ð¾ÑĢÐ°":4601,"Ð³ÑĬÐ°Ð½":4602,"ĠÐ·Ð°ÑħÓıÐ¼Ð°ÑĤÐ°Ð»":4603,"ĠÐ¨Ð°Ð¼Ð¸Ð»ÑĮ":4604,"ĠÐ¿ÑĢÐµÐ´ÑģÐµÐ´Ð°ÑĤÐµÐ»":4605,"ĠÑĨÐµÐ²ÐµÑħÑĬÐ°Ð½":4606,"ĠÐ³Ð²Ð°Ð½Ð³ÑĬ":4607,"ÑħÐµÑĢ":4608,"ĠÐ²Ð¾ÐºÑĮ":4609,"ĠÐ»ÓĢ":4610,"ĠÐļÐºÐ¾Ð»Ð°":4611,"Ð¸ÑģÑĤÐ°Ð½Ð°Ð»ÑĬÑĥÐ»":4612,"ĠÑĢÐ°Ð³ÑĬÑĥÐ»Ð°Ð»":4613,"ĠÐ³ÑĮÐ°Ð´Ð¸Ð½Ð°Ð»":4614,"ĠÑĢÐ¾ÑģÐ°Ð±Ð°Ð»ÑĬÐµ":4615,"ĠÐºÐ¾Ð´Ð¾Ð±Ðµ":4616,"Ð¸Ð¾ÑĤ":4617,"ĠÐ²Ð¾Ñħ":4618,"ĠÑīÑĥÑī":4619,"ÐĵÑĮÐµÐ½Ð¸ÑĢ":4620,"ĠÐ½ÑĥÑģÐ³Ð¾":4621,"ĠÐŁÐ°ÑĩÐ°Ð»Ð¸ÑħÑĬÐ¸ÑıÐ±":4622,"ĠÐ¥Ð°ÑĢÐ°ÑħÑĮ":4623,"Ð´ÑĥÐ·ÑĥÐ»":4624,"Ð°Ð»ÑĬÐ°Ð·Ðµ":4625,"Ð¸Ð»Ð°Ð»Ð´Ðµ":4626,"ĠÐ³ÑĮÐ°Ð±Ð¸ÑıÐ»Ð´Ð°":4627,"ĠÐ³ÑĮÐ°Ð±Ð¸Ð»Ð°":4628,"Ð³ÓıÐ°Ð»Ð¸ÐµÐ²":4629,"ĠÑģÐ¾Ð²ÐµÑĤÐ°Ð»ÑĬÑĥÐ»":4630,"ĠÐ¼Ð¸ÑģÐºÐ¸Ð½":4631,"Ð¾Ð½Ð°Ð²":4632,"ĠÐºÐºÐ°Ð½Ð¸Ð³Ð¸":4633,"ĠÐ¿Ð°ÑĤÑĢ":4634,"Ð¸ÑıÐ»ÑĬÑĥÐ»Ð³Ð¸":4635,"Ð¥Ð°Ð»":4636,"Ð¤ÑıÐ»ÑĬÑĥÐ»":4637,"ĠÑħÐ°Ð´ÑĥÑģÐµÐ»":4638,"ĠÐ³ÑĥÑĢÐ¸Ð½":4639,"ĠÐĸÐ¸Ð½":4640,"Ð½Ð°Ð¼ÑĥÑģ":4641,"Ð°Ð´Ð°Ð¹":4642,"ĠÐ³ÓıÐ¸Ð½":4643,"ĠÐ³ÑĮÐ°Ð±ÐµÑıÐ½":4644,"ĠÐ¡ÐĴ":4645,"ĠÑĢÑĥÐºÓıÐ°Ð½Ð¸Ð³Ð¸":4646,"Ð¾ÑĪ":4647,"Ð³ÓıÑĥÐ½":4648,"ĠÐºÑĮÐµÑĩÓıÐ¾Ð³Ð¾":4649,"ĠÐłÑĥÐºÑĬ":4650,"ĠÐłÑĥÐ³Ð¾":4651,"ĠÑĢÐ°Ð¹Ð¾Ð½Ð°Ð»ÑĬÐµ":4652,"Ð¸ÑıÐ·Ð´Ðµ":4653,"ĠÐ´Ð°ÑĢÐ°Ð¶Ð°":4654,"ĠÑĤÐ²Ð¾ÑĢÑĩÐµÑģÑĤÐ²Ð¾":4655,"Ð½Ð°Ð»ÑĬÑĥÐ»":4656,"ĠÐ¡ÑĥÐ³ÑĬ":4657,"ĠÑįÐ½":4658,"ÑĥÐ¶ÑĥÐ¼":4659,"ĠÐ°Ð´Ð¼Ð¸Ð½Ð¸ÑģÑĤÑĢÐ°ÑĨÐ¸ÑıÐ»ÑĬ":4660,"ĠÑħÐ¸ÑģÐ¸Ð·Ðµ":4661,"ÑĢÐµÑħÐ°Ð»ÑĬÑĥÐ»":4662,"ĠÐ¼ÐµÐºÑĬÐ°Ð±":4663,"ĠÐ³ÓıÐ°ÑģÑĢÑĥÑıÐ»ÑĬÑĥÐ»":4664,"ĠÐĸÐ¸Ð½Ð´Ð¸ÑĢÐ³Ð¾":4665,"Ð°ÐºÑĢÐ°ÑĢ":4666,"Ð»ÐµÐ¼":4667,"ÐºÐºÐ¾Ð»":4668,"ĠÑĨÐ¾Ð»ÑĬ":4669,"Ð¾Ð±Ð¾Ð³Ð¾":4670,"ĠÑĢÑĥÐ³Ð¾Ð°Ð½":4671,"Ð¸Ð½ÐµÐ³ÓıÐ°Ð½":4672,"Ð¥ÓıÐ°Ð»":4673,"ĠÑħÐ°ÑĢÐ±":4674,"ĠÐ¿ÐµÐ´Ð°Ð³Ð¾Ð³":4675,"ĠÑĥÐ½Ð°Ð°Ð½":4676,"Ð¸Ð·Ð°ÑĨÐ¸Ñı":4677,"Ð°Ð²Ð»":4678,"ĠÐ·Ð¸Ð³":4679,"ĠÐĵÑĮÐ°Ð½Ð¶":4680,"ĠÐ¼ÑĥÑģÑĤÐ°ÑħÓıÐ¸ÐºÑĬÐ°Ð±":4681,"ĠÐ³ÓıÐ¸Ð»Ð»Ð°Ð»ÑĬÑĥÐ½":4682,"ĠÐ±ÑĥÐºÓıÐ¸Ð½ÑĩÓıÐµÐ±":4683,"ĠÐĸÐ°Ð¼Ð³ÓıÐ¸ÑıÐ±":4684,"ĠÐľÐµÐ»Ð¸Ðº":4685,"ĠÐ±Ð°ÑĨÓı":4686,"ĠÐºÑĥÐ»":4687,"ĠÑīÑĥÐ»Ð°":4688,"Ð°Ð±Ð¸Ð³ÑĥÐ½":4689,"ĠÐĳÑĥÐ³Ð¾":4690,"ĠÐ°Ð²Ð°Ð»":4691,"ĠÐ°Ð´Ð¼Ð¸Ð½Ð¸ÑģÑĤÑĢÐ°ÑĤÐ¸Ð²Ð¸ÑıÐ±":4692,"ĠÐ»ÑĬÑĥÐ³ÓıÐ°Ð½Ð°":4693,"ĠÐ±Ð°ÑĩÑĥÐ½ÐµÐ±":4694,"ĠÐ³ÑĮÐ¸ÑĤÓıÐ¸Ð½Ð°Ð²":4695,"ĠÑģÐ°Ð½Ð°Ð³ÓıÐ°ÑĤ":4696,"ĠÐ±Ð°ÑĢÐºÑĥÐ»Ð°":4697,"ĠÐ¿Ð¾Ð»Ð¸ÑĨ":4698,"ĠÐ¿Ð°ÑĢÐ»Ð°Ð¼ÐµÐ½ÑĤ":4699,"ĠÐ©Ð°Ð¹Ð³ÑĥÑĢÐµÐ»ÑĬÑĥÐ»":4700,"Ð°Ð³Ð°ÑĢÐ³Ð¾":4701,"ĠÐ´Ð¾":4702,"ĠÐ³ÑĮÐ°Ð±Ð¸ÑĩÓıÐ¾":4703,"ĠÑĢÑĥÐ·":4704,"ĠÑħÓıÐµÐ¶":4705,"ĠÐºÑĮÐ°Ð»":4706,"Ġ28":4707,"ĠÑħÐ°Ð»ÐºÑĬÐ°Ð·ÑĥÐ»":4708,"ĠÐĵÑĮÐ°Ð½Ð¸Ð±":4709,"ĠÑĤÑĥÑĢÐº":4710,"ĠÐ¥ÑĥÑĪÑĤ":4711,"ĠÐ±ÐµÑģÐ´Ð°Ð»":4712,"ĠÑħÑħ":4713,"ĠÐ¿Ð¸ÑĢ":4714,"ĠÐľÑĥÑħ":4715,"ĠÑĩÐ¸ÑıÑĢ":4716,"ĠÐĲÑĤ":4717,"ÑĥÐ±Ð°ÐºÐ°ÑĢ":4718,"Ð¸ÑĩÓıÐµÐ²":4719,"ĠÐ°Ð¼ÑĢÑĥ":4720,"ĠÐ±Ð¸ÑĩÑĩÐ°Ð»ÐµÐ±":4721,"ĠÐ¶Ð°Ð¼Ð°Ð³ÓıÐ°ÑĤÐ°Ð»ÑĬ":4722,"ĠÑĢÐ¸ÑĤÓıÑĥÐ½":4723,"ĠÐ°Ð´Ð°Ð±Ð¸ÑıÑĤÐ°Ð»ÑĬÑĥÐ»":4724,"ĠÐĵÑĮÐ°Ð±ÑģÐ°Ð³ÓıÐ°ÑĤÐ°Ð»Ð´Ð°":4725,"ĠÑıÑĢÐ³ÑĬÐ¸Ð´":4726,"ĠÐ³ÓıÐ°Ð´Ð¸Ð½Ð°Ð±":4727,"ĠÐºÑĬÐ°Ð´Ð°ÑĢÐ°Ð»Ð´Ðµ":4728,"ĠÑĥÑĩÐ¸ÑĤÐµÐ»":4729,"ĠÐ±Ð°ÐºÑĬÑĤÓĢÐµÑĢÑħÑĮ":4730,"Ð°Ñį":4731,"Ð´Ð¸":4732,"ĠÐ¥Ð°Ð»Ð¸Ð»":4733,"ĠÐĳÐ°Ñħ":4734,"âĢĶ":4735,"ĠÑĢÐ¾ÑģÑĥÐ»ÑĬÑĥÐ½":4736,"ĠÑĢÐ°ÐºÓıÐ°Ð»Ð´ÐµÑī":4737,"ĠÐ½ÑĥÐ³ÓıÐ»ÑĬÐ¸":4738,"Ð°Ð·Ð°Ð±Ð¸":4739,"Ð°Ð´Ð³Ð¾":4740,"Ð°Ð³ÓıÐ¸Ð¿":4741,"ĠÑĢÐ°Ð¹ÑĨ":4742,"Ð¸Ð²Ð¸ÑıÐ»":4743,"ĠÐ¢ÐµÐ¼Ð¸ÑĢ":4744,"ÐĳÐ°ÑĢÐº":4745,"ÑĭÑĪ":4746,"ĠÑĩÐ°Ð³ÓıÐ°Ð·ÑĥÐ»":4747,"ĠÑĨÐ¾Ð³Ð¸Ð´Ð°Ð·Ð³Ð¸":4748,"ĠÐ°ÑĢÐ¼Ð¸ÑıÐ»Ð´Ðµ":4749,"ÑıÐ±ÑĢÑĮ":4750,"ĠÐ³ÑĮÑĥÐ¶ÑĥÐ¼":4751,"Ð°Ð³ÑĮÐµÑĩÓı":4752,"ĠÑĦÐ¸Ð½":4753,"ĠÐºÑĬÐ²Ð°ÑĤÓıÐ¸Ð±":4754,"ĠÑıÑģÐ°Ð»ÑĬÑĥÐ»":4755,"ĠÐºÓıÐ²Ð°ÑĢÐ°Ð»ÑĬÑĥÐ»":4756,"ĠÑĢÐ°Ð³ÓıÐ°Ð»Ð´Ð°":4757,"ĠÑĨÐµÐ½ÑĤÑĢÐ°Ð»ÑĬÑĥÐ»":4758,"ĠÐ²Ð¸ÑħÑĮÐ¸Ð·Ð°Ð²":4759,"Ð°ÑıÑĤ":4760,"ĠÐ³ÑĮÐµÐ·Ð´Ð°ÑģÐ°":4761,"ĠÐĺÐ»ÑĮ":4762,"ĠÑĢÐ°Ð³ÑĬÐ´Ðµ":4763,"ĠÑĦÑĥÑĤÐ±Ð¾Ð»":4764,"ÐĺÑģÐ°Ð½Ð°":4765,"ÑĮÑİ":4766,"Ð²ÐµÐ»":4767,"Ð¿Ð°Ð½":4768,"ĠÐ³ÑĮÐµÑĩÓıÐ¾Ð»ÑĬÐ¸ÑıÐ»ÑĬ":4769,"ĠÐĵÑĮÐµÐ½Ð¸Ð²":4770,"ĠÐ±ÐµÑĩÐµÐ»ÑĬÐ¸":4771,"Ð¿ÑĥÑģÐº":4772,"ĠÐĵÓıÐ°Ð·":4773,"ĠÐ±ÑĥÐºÓıÐ°ÑĢÐ°Ð±Ð°Ð½Ð¸":4774,"ĠÐķÐ²ÑĢÐ¾Ð¿Ð°ÑıÐ»ÑĬÑĥÐ»":4775,"ĠÐºÓıÐ¾Ð»Ð°":4776,"ĠÑħÓıÐ°Ð»ÑĤÓıÑĥÐ´Ð°ÑģÐ°":4777,"ĠÑįÐ»ÐµÐºÑĤ":4778,"ĠÐ±Ð°Ð¹Ð±Ð¸ÑħÑĮÑĥÐ»":4779,"ĠÐºÐ¸Ð½Ð°Ð·ÑĥÐ»Ð³Ð¾":4780,"ÑĤÐ½Ð¸ÐºÐ¸ÑıÐ±":4781,"Ð±ÐµÑĢ":4782,"Ð¼Ð¸Ð»":4783,"ĠÑĨÑĨ":4784,"ĠÐ»ÑĬÐ¸Ð»":4785,"ÐµÐ½Ð¸Ð³Ð¸":4786,"Ð¿Ð¸Ñģ":4787,"ĠÑħÓıÐ°Ð»ÑĤÓıÐ¸Ð·Ð°Ð±ÑĥÐ»ÐµÐ±":4788,"Ð¸Ð´Ð°Ð½Ð¸Ð³Ð¸":4789,"ĠÐ±Ð¾Ñħ":4790,"ĠÑħÓıÐ°Ð¶Ð°Ð»ÑĬÐ¸":4791,"ĠÐ¿Ð°ÑĩÐ°Ð»Ð¸ÑħÑĬÐ°Ð»ÑĬ":4792,"ĠÑĪÐ°Ð¿Ð°ÐºÑĬÐ°ÑĤÐ°Ð»":4793,"ĠÑıÐ½Ð²Ð°ÑĢÐ°Ð»Ð´Ð°":4794,"ĠÑĦÑĢÐ¾Ð½ÑĤ":4795,".,":4796,"ĠÐ°Ð³ÑĮ":4797,"ĠÐºÐºÑĥÑĢÐ°Ð±":4798,"ĠÐ³ÓıÐ°ÑħÑĮÐ°Ð»ÑĩÐ¸":4799,"ĠÐ±Ð°Ð¹Ð±Ð¸ÑħÑĮÑĥÐ´Ð°":4800,"ĠÐ½Ð¸Ð¶ÐµÑħÑĬÐµ":4801,"ĠÐĵÓıÑĥÐ¼Ð°ÑĢÐ¾Ð²Ð°Ñģ":4802,"ĠÑģÐ°Ð½Ð°Ð³Óı":4803,"ĠÐ´Ð°ÑĢÐ°Ð¶Ð°ÑıÐ»ÑĬÑĥÐ»":4804,"ĠÐ¿Ð¾Ð»Ð¸ÑĤÐ¸ÐºÐ¸ÑıÐ±":4805,"Ð»Ð¸Ð½":4806,"ĠÑģÐ°ÑĢÐ´":4807,"ĠÑĢÐ°Ð¹Ð¾Ð½Ð°Ð·Ð´Ð°":4808,"Ð¸ÑĩÓĢ":4809,"ĠÐ°Ð´Ð²Ð¾Ðº":4810,"ĠÐ½ÑĥÑħÐ¼Ð°Ð»ÑĬÑĥÐ»ÐµÑģ":4811,"ĠÑĤÓıÑĥÑĢÐ°Ð·Ðµ":4812,"ĠÐºÐ²Ð°Ð»ÐºÐ²Ð°Ð»":4813,"ĠÑĤÑĢÐ°Ð½ÑģÐ¿Ð¾ÑĢÑĤ":4814,"Ð°Ð·ÑĥÐ»Ð°Ð±":4815,"ÑĥÐ¼Ð°ÑĢ":4816,"ĠÐĶÑĥÑĨÐ°":4817,"ĠÑĨÓıÐ°Ð»Ð¸":4818,"ĠÐ±Ð°ÐºÓıÐ°Ð»ÑĬÐµ":4819,"ÐĲÐ²Ð°ÑĢ":4820,"ĠÐ±Ð°ÑĤÑĥÐ½":4821,"ĠÐĵÓıÑĥÐ¼Ð°ÑħÐ°Ð½":4822,"ĠÐ°Ð»Ð°ÑĤ":4823,"ĠÐ³ÑĮÐ¸ÐºÑĬÐ°Ð½Ð°":4824,"ĠÐ·Ð°Ð²ÐµÐ´":4825,"ĠÐļÐ¸Ð½Ð°Ð±Ð³Ð¾":4826,"ĠÐ³ÓıÑĥÐ½Ð³ÑĥÑĤÓıÐ°Ð±Ð¸":4827,"ĠÐºÐºÐ¾Ð»Ð¸Ð»Ð°":4828,"ÐµÐ¹Ð½":4829,"ÐļÐ¸Ð½":4830,"ĠÐĵÓıÐ°Ð»Ð¸Ð»":4831,"ĠÐ¿Ð¸ÐºÑĢ":4832,"ĠÐ±ÐµÐ³ÑĮÑĥÐ»Ð°ÑĢÐµÐ±":4833,"ĠÐ¼Ð°Ð´Ð°Ð½Ð¸ÑıÑĤ":4834,"ĠÐ´ÐµÐ»":4835,"ĠÑĨÓıÑĥÑĢÐ°Ð±":4836,"ĠÐļÐ°Ð¼Ð°Ð»":4837,"ÑĢÑĥÐº":4838,"ĠÐ²ÑĥÐºÓıÑĥÐ½Ð°":4839,"ĠÐ±Ð°ÐºÓıÐ³Ð¸":4840,"ĠÐ±Ð°ÑĤÓıÐ¸ÑıÐ»":4841,"ĠÐ¼ÑĥÐ½Ð°Ð³ÑĮ":4842,"ĠÑħÐ¸ÑĢÐ¸ÑıÐ²":4843,"ĠÐ¼ÐµÑģÐµÐ´Ð¸Ð»":4844,"Ð°ÑĢÐ¸Ð»Ð°":4845,"ĠÑīÐ¾Ð»ÐµÐ»":4846,"ĠÐ·Ð¾Ð½":4847,"Ð¸Ð½Ð°Ð»Ð´Ð°ÑģÐ°":4848,"ĠÐ±Ð°ÑĢÐºÐ°Ð½Ð°":4849,"ĠÑįÐºÐ·Ð°Ð¼ÐµÐ½":4850,"ĠÐľÑĥÑģÐ°Ð»":4851,"ĠÐ¼Ð¸Ð½ÑĥÑĤ":4852,"ĠÐ±Ð¾Ð»ÑĮÐ½Ð¸ÑĨÐ°ÑıÐ»Ð´Ð°":4853,"ĠÐ²ÑĥÐºÓĢÐ°Ð½Ð°":4854,"ĠÑģÐ¸ÑıÑħÓı":4855,"ĠÐ¼ÑĥÑħ":4856,"ĠÑħÓıÐµÑĢÐµÐ½":4857,"ĠÐ¸ÑģÐ°Ð½":4858,"ĠÐ¡ÑĤ":4859,"ĠÐľÑĥÑħÓıÐ°Ð¼Ð°Ð´Ð¸Ðµ":4860,"ĠÐ¦Ð°Ð´Ð°ÑħÑĬ":4861,"ĠÐ±Ð°ÑĤÓıÐ°":4862,"ĠÑĨÐµÑĢÐµÑħÑĥÐ½":4863,"ĠÑĢÐµÑħÑģÐµÐ·Ðµ":4864,"ĠÐ²Ð°ÐºÐ¸Ð»Ð·Ð°Ð±Ð°Ð·":4865,"ĠÐ¾Ð±Ñī":4866,"ĠÐ¸Ð´Ð°ÑĢÐ°Ð±Ð°Ð·":4867,"ĠÐ°ÐºÐ°Ð´ÐµÐ¼":4868,"ĠÐ¹Ð¸Ð³ÐµÐ¹":4869,"ĠÐ³ÑĮÐ¾ÑĢ":4870,"Ð¶Ð¸Ð´ÐµÑĢ":4871,"ÑħÑĬÐ¸":4872,"ÐĵÐŃ":4873,"ĠÐ³ÑĮÐ°ÑĢÐ·":4874,"ĠÐ¥ÓıÐ°Ð¼Ð·Ð°ÑĤÐ¸Ð»":4875,"ĠÐĵÓıÐ°Ð±Ð´ÑĥÐ»Ð°":4876,"ĠÐºÐ²ÐµÑĢÐ±Ð°ÐºÑĬÐ¸":4877,"ĠÐºÐ¾Ð¼Ð¿Ð»ÐµÐºÑģ":4878,"ĠÑįÑħÐµÑĤ":4879,"ÑĥÐ±Ð°":4880,"ĠÐ°ÑģÐ¸ÑĢ":4881,"ĠÐ²Ð°ÑģÐ³Ð¸":4882,"Ð¸Ð·Ð°ÑĢÑĥÐ»ÐµÐ»":4883,"ĠÑĢÐ°ÑĤÐ¸Ð»Ð°":4884,"ĠÐºÐ¾Ð¼Ð°Ð½Ð´Ð¸ÑĢ":4885,"ĠÐ¼ÑĥÑħÓıÐºÐ°Ð½":4886,"ĠÐĵÑĮÐ°ÑĢÑĥÐ»Ð°":4887,"ĠÐĲÐ·ÐµÑĢÐ±":4888,"ĠÐ¾ÑĢÐ³Ð°Ð½Ð¸Ð·Ð°ÑĨ":4889,"ĠÐ³ÑĮÐµÑĢÐµÑģÐ¸":4890,"ĠÐ¢ÓıÐ°Ð»ÑħÓıÐ°ÑĤ":4891,"Ð¾Ð´Ðµ":4892,"ÑĩÓıÑĥÐ¶Ñĥ":4893,"Ð¸Ð½Ð°Ð±ÑĥÐ»ÐµÐ±":4894,"ĠÐ¸Ð½ÑĩÓıÐ¾":4895,"Ð¡Ð°Ð»ÑĬÑĥÐ»":4896,"Ð¸Ð¾Ð½ÐµÑĢ":4897,"ĠÑĢÐµÐºÓıÑĥÐ½":4898,"ĠÑĢÐ°ÑĤÐ°Ð½Ð°":4899,"ĠÐ±Ð¾ÑĢÑħÐ°Ð»ÑĬ":4900,"ĠÐ±Ð°Ð³ÑĬÐ°ÑĢ":4901,"ĠÐ·ÑĥÐ»Ð¼Ñĥ":4902,"ĠÐ³Ð°Ð½ÑĩÓı":4903,"Ð°ÑĢÐ°Ð´Ð°":4904,"ĠÑĤÐµÑĩÓıÐ¾":4905,"ĠÐ´Ð¾Ñģ":4906,"ĠÐ¸Ð´Ðµ":4907,"ĠÐ¢Ð°ÑĢ":4908,"ĠÐĿÑĥÑĢ":4909,"ĠÑĨÓıÐ°Ð»ÑĥÐ»ÐµÐ±":4910,"ĠÐ¢ÓıÐ¾ÑĨÐµÐ±Ðµ":4911,"ĠÐ³ÓıÐ°Ð³Ð°ÑĢÐ°Ð»":4912,"ĠÑĩÐ°Ð³ÓıÐ¸Ð³Ð¸":4913,"Ð³ÓıÐ°Ð»Ð¸":4914,"ĠÑĢÑĥÐºÓıÐ¸Ð½Ð°Ð»ÑĬ":4915,"ĠÐĵÑĮÐµÐ·Ð¸Ðµ":4916,"ĠÐºÑĬÐ°Ð³ÓıÐ¸Ð´Ð°Ð±Ð¸":4917,"ĠÐ¸Ð¼Ð°Ð¼Ð°ÑģÑĥÐ»":4918,"ĠÐ³ÑĮÐ°Ð½Ð¶ÐµÑģÐµÐ±":4919,"ĠÐºÐ°Ð½Ð´Ð¸Ð´Ð°ÑĤ":4920,"Ð°Ð´Ð¸Ñģ":4921,"ĠÑĤÐ¸ÑĢ":4922,"ĠÑĤÐ°ÐºÑĢÐ°ÑĢ":4923,"ÑĢÑĥÐºÑĬ":4924,"ÐĵÓıÐ°Ð»":4925,"ĠÑįÐ±":4926,"ĠÐ¦ÐµÐ½ÑĤÑĢ":4927,"Ġ21":4928,"ĠÑħÑĬÑĥÐ»ÑĥÑħÑĬÐ°Ð»Ð´Ðµ":4929,"ĠÐºÑĬÐ²Ð°ÑĢÐ¸Ð»ÑĬ":4930,"ĠÐºÑĬÐ¾ÑĤÓıÐ½":4931,"ĠÐºÑĬÐ¾ÑĤÓıÐ¸Ð·Ðµ":4932,"ĠÐ´Ð°Ð³ÓıÐ±Ð°":4933,"ĠÐ»Ð°ÑħÓıÐ·":4934,"ĠÑĢÑĥÐ·Ð¼Ð°Ð½":4935,"ĠÑĤÐ¾Ð»Ð°ÑĢÐ¾":4936,"ĠÐ»ÑĬÐ¸":4937,"ĠÐ¸Ð»Ð°Ð½":4938,"ĠÐ±Ð°ÑĩÓĢ":4939,"ĠÐ±Ð°Ð¶Ð°ÑĢÑĥÐ»ÐµÐ±":4940,"ĠÑīÑĥÐ»Ð°Ð»ÑĬ":4941,"Ð²ÐµÑĤÓı":4942,"ĠÐ¿Ð°ÑĩÐ°Ñı":4943,"ĠÐ²Ð°ÑħÓıÑĪ":4944,"ÐºÐ»":4945,"ĠÐ±Ð°Ð·Ð°ÑĢ":4946,"ĠÑĤÓıÑĥÐ³ÑĮ":4947,"ĠÐ·Ð°Ð»":4948,"ĠÐ³ÑĬÐ¾Ð±":4949,"ĠÑĨÓıÑĥÐ½ÑĥÐ»ÐµÐ»":4950,"Ġ190":4951,"ÐľÐ°Ð³ÓıÐ°ÑĢÑĥÐ»":4952,"ĠÐºÐ¾Ð¼Ð¼ÑĥÐ½":4953,"ÑģÐºÑĥÑģ":4954,"ĠÐ¥ÑĥÐ½Ð·Ð°ÑħÑĬÐ°":4955,"ĠÑħÑĮÐ²Ð°Ð´Ð¸Ð·Ðµ":4956,"ĠÑģÐ¾ÑĢÐ´Ð¾ÑıÐ»ÑĬ":4957,"ĠÑĨÓıÑĥÐ½ÑĥÐ»ÐµÐ·":4958,"ĠÑĢÐ¸Ñħ":4959,"Ð»ÑĬÑĥÐ´Ð°":4960,"ĠÐ·Ð¸ÑıÑĢ":4961,"ĠÐ·Ð°Ð³ÓıÐ¸Ð¿":4962,"âĢ¦":4963,"ĠÐ±ÑĥÐºÓıÐ¸Ð½ÐµÐ±":4964,"ĠÐºÑĬÐ²Ð°ÑĤÓıÐ¸ÑģÐµÐ»":4965,"ĠÐĲÑĢÐ¼":4966,"ĠÑĨÐ¾Ð³Ð¸Ð´Ð°Ð±Ð³Ð¸":4967,"ĠÐ·Ð°Ð²ÐµÐ´ÑĥÑİÑī":4968,"ĠÐ´Ð¸ÑħÑĬÐµ":4969,"ÐµÐ½Ð¸Ðµ":4970,"ĠÐ±ÑĥÐºÓıÐ°":4971,"ĠÐ¸ÑĩÓı":4972,"ĠÐ±Ð°Ð¹Ð±Ð¸ÑħÑĮÐ°ÑĢÐ°Ð±":4973,"ĠÐłÐ°ÑģÑĥÐ»Ð¸Ð»":4974,"ĠÑĨÐµÐ±ÐµÑĤÓıÐµÑıÐ»ÑĬÐµ":4975,"ĠÐ¡Ð¡Ð¡ÐłÐ°Ð»ÑĬÑĥÐ»":4976,"Ð»Ð¸Ð¼Ð¿Ð¸Ð°Ð´":4977,"Ð°ÑĢÐ°Ð»ÑĬÑĥÑħÑĬ":4978,"ĠÐ¶Ð°Ð½ÑĥÐ±":4979,"ĠÐĲÐ±ÑĥÐ±Ð°ÐºÐ°ÑĢ":4980,"ĠÐľÑĥÑģÐ»Ð¸Ð¼":4981,"ĠÑĤÓıÐ°Ð´ÐµÐ³ÓıÐ°Ð½Ð°Ð»":4982,"Ð¸ÑĤÐ¸Ð½Ð³":4983,"ĠÐĵÓıÐ¾Ð±":4984,"ĠÐĳÐ°ÑĤÓı":4985,"ÑħÓıÑĥÑĢÐ¼Ð°ÑĤ":4986,"ĠÐĿÑĥÑħ":4987,"Ð¸Ð´ÐµÐ½":4988,"ĠÐĲÐ»ÐµÐºÑģ":4989,"ĠÑħÐ²Ð°ÑĢÐ°Ð±":4990,"ÑıÐ·Ð´Ð°":4991,"ĠÐ´Ð¸Ð½Ð¸ÑıÐ±":4992,"ĠÑİÑĢ":4993,"ĠÐ¡Ð¾Ð²ÐµÑĤÐ¸ÑıÐ±":4994,"Ð¾ÑįÑĤÐ½Ð¸ÐºÐ¸ÑıÐ±":4995,"ĠÐ¼Ð¾Ð½Ð¾ÑįÑĤÐ½Ð¸ÐºÐ¸ÑıÐ±":4996,"ĠÑħÐ°ÑĢÐ°Ð±":4997,"ĠÑĤÐ¾Ð»Ð°":4998,"ĠÐ¼Ð°ÐºÑĮ":4999,"ĠÑħÓıÐ°Ð¼":5000,"ÐµÐ¼Ð°ÑĤ":5001,"ĠÐ±Ð¾ÑĤÓı":5002,"ÐĵÑĮÐµÐ²":5003,"ĠÑĢÐ°ÑĩÓıÑĥÐ½Ð°":5004,"ĠÐ¶Ð°Ð²Ð°Ð±ÑĩÐ¸Ð»ÑĬÐ¸":5005,"ĠÑħÐ¸ÑģÐ°Ð½Ð°":5006,"ĠÐ°Ð²Ð°ÑĢÐ°Ð·ÑĥÐ»":5007,"ĠÐºÑĬÐ²Ð°ÑĢÐ¸Ð³ÓıÐ°ÑĢÐ°Ð±":5008,"ĠÑĢÐ¸ÑīÐ¸ÑıÐ»":5009,"ĠÐ¿Ð¾Ð»Ð¸ÑĤÐ¸Ðº":5010,"ĠÑħÑĮÐ¸ÑħÑĮÐ¸Ð·Ðµ":5011,"ĠÐ£Ð½ÑģÐ¾ÐºÐ¾Ð»Ð¾":5012,"ÑĥÐ»Ð°Ð±":5013,"ĠÐ¶ÑĥÑĢ":5014,"Ð°ÑĨÐ¸Ð½":5015,"ĠÐłÐ°ÐºÑĮ":5016,"ÐµÑĤÐ°Ð»":5017,"Ð¥Ð°Ñģ":5018,"ĠÐ³ÑĮÐµÐ½Ð¸Ð±Ðµ":5019,"ĠÐ¼Ð°Ð´Ð°Ð½Ð¸ÑıÑĤÐ°Ð»ÑĬÑĥÐ»":5020,"ĠÐºÑĥÐ½":5021,"Ð¿Ð°ÑĢ":5022,"ĠÐ³ÓıÑĥÐ¼ÑĢÑĥÑıÐ»ÑĬ":5023,"ĠÑĢÐ¸ÐºÓıÐºÓıÐ¸Ð½Ðµ":5024,"ĠÐ³ÑĮÑĥÐ´ÑĥÐ»Ð»ÑĬÐ¸":5025,"ĠÐ¥ÓıÐ°Ð¶Ð¸Ð¼ÑĥÑħÓıÐ°Ð¼Ð°Ð´":5026,"ĠÐ½Ð°ÑģÐ»":5027,"ĠÑĢÐ°Ð»ÑĬÐ´Ð°Ð»":5028,"Ð°ÑĤÓıÐ°Ð»":5029,"ĠÐ½Ð°Ð»ÑĬÐ¸":5030,"ĠÐ³ÑĮÐ°Ð±Ð¸ÑıÐ»Ð´Ðµ":5031,"ĠÐļÐ¾Ð¼":5032,"ĠÑĥÐ½Ð°Ð³Ð¾":5033,"ĠÑįÑĤ":5034,"ĠÐ°ÑħÓıÑĥÐ»ÐµÐ±":5035,"ĠÑĢÐ¸ÐºÓıÐºÓıÐ°Ð½Ð°":5036,"ÐµÑĩÓıÐµÐ»":5037,"ĠÐ±Ð°ÑħÓıÐ°ÑĢÑĩÐ¸Ð»ÑĬ":5038,"ĠÐ¥ÓıÑĥÐºÑĥÐ¼Ð°ÑĤÐ°Ð»ÑĬÑĥÐ»":5039,"23":5040,"ĠÐ±Ð°Ð·":5041,"Ð¸ÑıÐ±Ð¸":5042,"ĠÐ¥Ð°Ð½":5043,"ÑĥÑĢÐ°Ð»Ð´Ð°ÑģÐ°":5044,"ĠÐ¼ÑĥÑĦÑĤ":5045,"ĠÐºÑĬÐ°ÑĩÓıÐ°Ð½":5046,"ĠÐ±Ð¾Ð»ÑĮÐ½Ð¸ÑĨÐ°ÑıÐ»ÑĬÑĥÐ»":5047,"ĠÑħÑĬÐ²Ð°Ð´Ð°ÑĢÑĥÑħÑĬÐ°Ð½":5048,"ĠÐ¼ÑįÑĢ":5049,"Ð¸Ð½Ð°Ð»Ð´Ðµ":5050,"ĠÐļÑĢ":5051,"ĠÐ¥ÓıÐ°Ð¼Ð¸Ð´":5052,"ĠÐ³ÓıÐµÐ»Ð°Ð»Ð´Ð°":5053,"ĠÐ±Ð°Ð»Ð°Ð³ÑĮÐ¸ÑĩÓıÐ¾Ð³Ð¾":5054,"Ð¾Ð»Ð¾Ð³Ð¸ÑıÐ»ÑĬÑĥÐ»":5055,"ĠÐ±Ð¸ÑĩÑĥÐ½":5056,"ĠÐĵÑĮÐ¾ÑĨÓıÐ°Ð»ÑĬ":5057,"Ð¸Ð»ÑĮ":5058,"ĠÐ±Ð°ÑĤÐ°ÑĢÐ°Ð±":5059,"ĠÐĵÑĮÐµÐ»Ðµ":5060,"ĠÐ°Ð´Ð¼Ð¸Ð½Ð¸ÑģÑĤÑĢÐ°ÑĨÐ¸ÑıÐ»Ð´Ð°":5061,"Ð¥ÓıÐ°Ð¶":5062,"25":5063,"Ð°Ð±Ð°ÑħÑĬ":5064,"ĠÐ»ÑĬÐµÐ±":5065,"ĠÐĵÑĮÐ°Ð²":5066,"ĠÐºÓıÐºÓıÐ°Ð»":5067,"ĠÐ²ÑĥÐºÑĬ":5068,"ĠÑĩÓıÐ¾ÑĢ":5069,"ĠÐ³ÓĢÐµÐ»":5070,"ĠÐ³ÑĮÐ°Ð»Ð±Ð°Ð´ÐµÑĢ":5071,"ĠÐ»Ð¸ÑĨ":5072,"ĠÐ»ÑĬÐ¸ÐºÓĢ":5073,"Ð°ÑĢÐ°Ð²ÑĥÐ»":5074,"ĠÐ¢ÓıÐ°Ð³ÑĮÐ¸ÑĢ":5075,"ĠÐºÐ¾Ð½ÑĨ":5076,"ĠÐĿÐ¸Ð»ÑĬÐµÐ´Ð°":5077,"ĠÐ¼Ð°ÐºÑĬÐ°Ð»Ð°ÑıÐ»Ð´Ð°":5078,"Ð°ÑĥÑĢ":5079,"Ð°Ð½Ð¸ÑıÐ»":5080,"Ð¼ÐµÑħ":5081,"ĠÐ²Ðµ":5082,"Ð°Ð¹Ðº":5083,"Ð¾ÑģÐµÐ±":5084,"ĠÐ¸ÑģÐºÑĥÑģ":5085,"ĠÑĩÓıÐ¾Ð±Ð¾Ð³Ð¾":5086,"Ð¸ÑĤÓıÐ°ÑĢÐ°Ð±":5087,"ĠÐĲÐ¼ÐµÑĢ":5088,"Ð°Ð¸ÑĢ":5089,"ĠÐĲÑħÓıÐ¼Ð°Ð´Ð¸ÑĨÐ°":5090,"ĠÐĵÓıÑĥÐ¼Ð°ÑĢÐ¸Ð»":5091,"ĠÑħÑĮÐ²Ð°Ð´ÑĥÐ»ÐµÐ»":5092,"ĠÐ³ÓıÐ¾Ð»Ð¾ÑħÑĬÐ°Ð½ÑĩÐ¸":5093,"Ð°Ð»Ð°Ð±":5094,"ĠÐ³ÑĮÐ±":5095,"Ð°Ð³Ð°ÑĢÐ°Ð±":5096,"ĠÐ»ÑĬÐ¾Ð»Ð°":5097,"ĠÐĿÐ°Ð´Ð¸ÑĢ":5098,"ĠÑħÓıÐ°Ð¶Ð°Ð»ÑĬ":5099,"ĠÐ¦ÓıÑĥÐ¼Ð°Ð´Ð°":5100,"Ð»ÑıÑĢ":5101,"ÑĢÑĥÐ¿Ð¿":5102,"ĠÐ¸ÑİÐ½Ð°Ð»Ð´Ð°":5103,"Ð°Ð»Ð¸Ð´Ðµ":5104,"ĠÐ±Ð¾ÑĢÑĤ":5105,"ÐµÐ²Ð°ÑģÑĥÐ»":5106,"ĠÑĢÐ¾Ð³ÑĮ":5107,"Ð¸ÑıÐ²Ð³Ð¾":5108,"ĠÐ£Ð½Ð°":5109,"ĠÐ¹Ð¸ÐºÓıÐ°ÑĢÐ°Ð¹":5110,"ĠÑĤÓıÐ°Ð»Ð°Ð±Ð°Ð»":5111,"ĠÐ¿ÑĢÐ¾Ð³ÑĢÐ°Ð¼Ð¼Ð°":5112,"ĠÐĳÐ°ÐºÑĮÐ°Ð³ÑĮÐµÑĩÓı":5113,"Ð±Ð°Ñĩ":5114,"ĠÑĤÓıÐ¾Ñħ":5115,"Ð¿Ð°ÑĪÐ°":5116,"ĠÐºÓıÐ¾Ð»":5117,"ĠÐłÐ°Ð¸":5118,"ÑĪÐ°Ð³Ð°ÑĢÐ³Ð¾":5119,"ĠÐ±Ð¾ÐºÑĮÐ°ÑĢÐ°Ð»":5120,"ĠÑħÑĥÑĤÓıÐ¸Ð·Ðµ":5121,"ĠÐºÑĬÐ¾ÐºÑĬÐ°Ð±":5122,"ĠÐ±ÑĥÐºÓĢÐ°ÑĢÐ°Ð±":5123,"ĠÐ¸Ð½ÑĦÐ¾ÑĢÐ¼Ð°ÑĨÐ¸ÑıÐ»ÑĬÑĥÐ»":5124,"Ð½Ð¾":5125,"ĠÐ³ÓıÐ¸Ð±":5126,"ĠÐĵÑĢ":5127,"ĠÐĵÑĮÐ¾ÑĢÐºÑĮ":5128,"ĠÐĽÑĬÐ°Ð±":5129,"ĠÐ³ÓıÑĥÐ¼ÑĢÑĥÑıÐ»ÑĬÑĥÐ»ÑĬ":5130,"ĠÐ¸Ð½ÑĤÐµÑĢÐµÑģ":5131,"ĠÐ¸ÑģÐ»Ð°Ð¼Ð¸ÑıÐ±":5132,"ĠÐĵÐµÑĢÐ¼Ð°Ð½":5133,"Ð®":5134,"ĠÑĨÓıÐ°Ð·Ðµ":5135,"ĠÐ°Ð±Ð¸Ð»Ð°":5136,"ÑıÐ»Ð´Ð°ÑģÐ°Ð³Ð¸":5137,"Ġ29":5138,"ĠÐ½Ð°ÑģÐ»Ñĥ":5139,"ĠÐºÐ°ÑĤ":5140,"Ð¸Ð½Ð°Ð±Ð¸":5141,"Ð°Ð·Ð°ÐºÑĬ":5142,"ĠÐ²Ð°ÑĤÓıÐ°Ð»ÑĬ":5143,"ÑĥÐ´Ð°Ð»ÑĬÑĥÐ½":5144,"Ð¸Ð³ÑĮÐµÑĩÓıÐ¾":5145,"ĠÐ¶Ð¸Ð´ÐµÐ´Ð°Ð³Ð¾":5146,"ĠÑĢÐ°ÑĤÐ°Ð½Ð¸":5147,"ÑĥÐ½Ð³Ð¾ÑıÐ±":5148,"ĠÐºÐ¸Ð»Ð¾Ð¼ÐµÑĤÑĢ":5149,"ÑģÐ°Ð»Ð´Ð°":5150,"Ð¶Ð¸Ð±":5151,"ÐµÐ²Ð°":5152,"Ð¸Ð½Ð°Ð±ÑĥÐ½Ð°":5153,"ĠÑĨÐ°Ð´Ð°ÑħÑĬÐ°Ð±":5154,"ĠÐ³ÓıÐ¾Ð»Ð¾ÑħÑĬÐ°Ð½Ð°Ð±":5155,"ÑĥÑĢÑĤÑĥÐ½":5156,"ĠÐ¼ÑĥÑħÐ±Ð¸ÑĢ":5157,"ÐµÑĪ":5158,"ÑĥÐ»Ð°ÐµÐ²":5159,"ĠÑĩÐµÐ´":5160,"Ð°ÑıÐ»Ð´Ð°ÑģÐ°Ð½":5161,"Ð°ÑıÐ»Ð´Ð°Ð»ÑĬÑĥÐ½":5162,"ĠÑĩÓıÐ²Ð°Ð»":5163,"ĠÐļÑĬÐ°Ñģ":5164,"ĠÐĹÑĥÐ±":5165,"ĠÐºÐ¾Ð¼Ð¸ÑĤÐµÑĤÐ°Ð»ÑĬÑĥÐ»":5166,"ÐµÑģÑĤÐ¸Ð²":5167,"ĠÐľÑĥÑħÓıÐ°Ð¼Ð°Ð´Ð¾Ð²Ð¸Ñĩ":5168,"ĠÐºÐ¾Ð¼Ð°Ð½Ð´Ð°ÑıÐ»ÑĬ":5169,"Ð¦Ð¾Ð³Ð¸":5170,"ĠÑĢÐ¸ÑĤÓıÑĥÑħÑĬÐ»ÑĬÐ¸":5171,"ĠÑģÑģ":5172,"ÑĥÑģÐ»Ð°Ð½":5173,"ĠÐĵÑĬÑĥÐ½":5174,"ĠÐ±Ð°Ð¹Ð±Ð¸ÑħÑĮÐ¸Ð·Ðµ":5175,"Ð°Ð·Ð´ÐµÐ³Ð¸":5176,"ĠÐ³ÑĮÐ°Ð²Ð°":5177,"ĠÐ¼Ð°ÐºÑĬÐ°Ð»Ð°Ð±Ð¸":5178,"ÑģÑĤÐ¸ÑĤÑĥÑĨ":5179,"ĠÐºÐ¾Ð½ÐºÑĥÑĢÑģÐ°Ð»Ð´Ð°":5180,"ĠÐ¢ÓıÐ¾Ð»Ð³Ð¾":5181,"ÐµÐ²ÐµÑĢÐ¸ÑıÐ±":5182,"Ðª":5183,"ĠÑģÐ¾Ð½Ð¸Ð»":5184,"Ġ(\"":5185,"ĠÑĢÐ°ÑħÑĬÐ¸Ð½Ðµ":5186,"ĠÐ·Ð°Ð¼Ð°Ð½Ð³Ð¸":5187,"ĠÑģÑĤÐ°Ð½":5188,"ĠÐ°Ð²ÑĤÐ¾Ð¼Ð¾Ð±Ð¸Ð»":5189,".).":5190,"ĠÐºÑĥÑĢ":5191,"ÑĥÑģÐ°":5192,"ĠÑĢÑĥÐºÓıÑĥÐ½ÐµÐ»":5193,"ĠÑĪÐ°Ð³ÑĮÐ°ÑĢÐ°Ð»Ð´Ðµ":5194,"Ġ35":5195,"ĠÐ±Ð¸ÑĩÓıÑĩÓıÑĥÐ½":5196,"ĠÐ³ÓıÐ°Ð³Ð°ÑĢÐ»ÑĬÐ¸":5197,"ĠÑĨÐ¾ÑĨÐ°Ð·Ð´Ð°":5198,"ĠÐ³Ð°Ð»Ð¸":5199,"ĠÐ±ÑĥÐºÓıÑĥÐ½Ð°Ð°Ð½":5200,"ĠÑīÐ°Ð»":5201,"ĠÐ¸Ð½Ð²Ð°Ð»":5202,"ÐĵÑĮÐµÐ·":5203,"ĠÐĺÑĢÐ°Ð½":5204,"ĠÐ³ÓıÑĥÐ¼ÑĢÑĥÐ³Ð¸":5205,"ĠÑĢÐ°Ð³ÓıÑĥÐ»":5206,"ĠÐĶÑĥÐ½ÑıÐ»":5207,"ĠÐ³ÓıÐ°Ð»Ð¸Ð¼Ð·Ð°Ð±Ð¸":5208,"ĠÐ¼Ð¸Ð½Ð¸ÑģÑĤÐµÑĢÑģÑĤÐ²Ð¾":5209,"ÑĢÐ¾ÑģÑģÐ¸ÑıÐ»ÑĬÑĥÐ»":5210,"ĠÑĦÐ¾ÑĢÑĥÐ¼":5211,"ÑĢÐ¾Ð»":5212,"Ð²Ð°Ð½Ð°":5213,"ÑıÐ´":5214,"ĠÐĵÓıÑĥÐ¼ÑĢÑĥ":5215,"ĠÐĵÓıÐ°Ð±Ð°ÑĪ":5216,"ĠÐ¶Ð¾ÑıÐ»ÑĬÑĥÐ»":5217,"ĠÐ³ÓıÐ¾Ð»Ð¾ÑħÑĬÐ°Ð±Ð°Ð·ÑĥÐ»":5218,"ĠÐºÑĬÐ°Ð´Ð°ÑĢÐ°Ð»Ð´Ð°":5219,"ÐĶÐ°Ð½Ð´ÐµÐ»ÑĬÐ¸ÑıÐ»ÑĬÑĥÐ»":5220,"Ð´Ð¾ÑħÑĬ":5221,"Ð±Ð¾ÑĤ":5222,"ĠÐ³ÓıÑĥÐ·":5223,"ĠÐ¿Ð¾Ñĩ":5224,"ĠÑĩÐ°Ð±":5225,"ĠÐłÑĥÐºÓı":5226,"ÐµÐ·ÐµÐ³Ð¸":5227,"ĠÐĲÐ»Ð»Ð°Ð³ÑĮÐ°ÑģÐ´Ð°":5228,"Ð°Ð¸Ð»":5229,"ĠÐ¼Ð°ÑħÑħÑĥÐ»":5230,"ĠÑĩÓıÐ²Ð°Ð¹":5231,"ĠÐ´ÐµÐ¿ÑĥÑĤÐ°ÑĤÐ°Ð»":5232,"ĠÐ¼Ð°Ð¶Ð³Ð¸ÑĤÐ°Ð»ÑĬÑĥÐ»":5233,"ĠÑĨÐ¾Ð¹Ð³Ð¸Ð´Ð°Ð»":5234,"Ð³Ð¸Ð¿":5235,"Ð¶Ð°ÑĢ":5236,"ÑıÐ»Ð´Ð°Ð»ÑĬÑĥÐ½":5237,"ĠÑīÐ²ÐµÑĩÓıÐ¾":5238,"ĠÐ±Ð¾ÐºÑĮÑĥÐ»Ð°":5239,"ĠÐ¦ÓıÐ°Ð´Ð°ÑģÐ°":5240,"Ð°Ð³ÓĢÐ¸Ð´":5241,"ĠÑĤÓıÐ¾Ð³ÑĮ":5242,"ĠÐ±ÑĥÐºÓıÐ¸Ð½Ð°Ð°Ð½":5243,"Ð´Ð°Ð³ÑĮÐºÐºÑĥÐ½":5244,"ĠÐłÐ°ÐºÓıÐ°Ð»Ð´Ðµ":5245,"ĠÑģÑĤÐ°ÑĤÑĥÑģ":5246,"Ð°Ð±ÑĥÐ½":5247,"Ð°Ð½Ð°Ð»Ð´Ðµ":5248,"ÐµÐ»Ð»":5249,"Ð¸Ð»Ð°Ð·ÑĥÐ»":5250,"ÑıÑĤ":5251,"ĠÐºÑĬÑĥÑĢ":5252,"ĠÐĶÑĥÐ¼":5253,"ĠÐ´ÑĥÐ½Ð³Ð¾":5254,"ĠÐºÑĬÐ²Ð°ÑĢÐ¸Ð³ÓıÐµÐ»":5255,"ĠÑĩÐµÐ¼Ð¿Ð¸Ð¾Ð½Ð»ÑĬÑĥÐ½":5256,"ĠÐ¿ÑĢÐ¾Ð³ÑĢÐ°Ð¼Ð¼Ð°ÑıÐ»Ð´Ð°":5257,"ĠÐ¢ÓıÐ¸Ð½Ð´Ð¸":5258,"ĠÐĶÐ°Ð²ÑĥÐ´":5259,"ÑĥÐ½ÐºÑĤ":5260,"ĠÐ²Ð°Ð³Óı":5261,"ĠÑĩÐ°Ð¹":5262,"Ð°ÐºÑĬÐ°ÑĤ":5263,"ĠÐ¡Ð°Ð½":5264,"ĠÐ³ÑĬÐ²ÐµÑĤÓı":5265,"ĠÑĦÐ°ÑĪ":5266,"ĠÐºÑĥÐ¼ÐµÐºÐ³Ð¸":5267,"ÑĢÐ¾ÑĦ":5268,"ĠÐ½ÑĥÑħÐ¼Ð°Ð»ÑĬÐ¸ÑıÐ»ÑĬÑĥÐ»":5269,"ĠÑĥÑĩÐ¸ÑĤÐµÐ»ÑĮÐ½":5270,"ĠÐ¾Ð¿ÐµÑĢÐ°ÑĨÐ¸Ñı":5271,"ĠÐ´Ð°Ð½Ð´ÑĩÓıÐ²Ð°Ð»ÐµÐ»":5272,"Ð¾Ð½Ð°Ð²Ð¸ÑĢÑĥÑģ":5273,"ĠÐ±ÑĥÑħ":5274,"ĠÐºÑĬÐ°ÑĢ":5275,"ĠÑĨÐ¾Ð»ÑĬÐ¸":5276,"Ð°ÑıÐ»Ð´Ð°Ð³Ð¾":5277,"ĠÑĢÐ°ÑħÑĬÐ¸Ð·Ðµ":5278,"ĠÑħÓıÐ°ÑĢÐ°ÐºÐ°ÑĤÑĩÐ¸":5279,"ĠÑĤÓıÐ¾Ð»Ð°Ð»Ð³Ð¾":5280,"ĠÐŁÑĢÐµÐ·Ð¸Ð´ÐµÐ½ÑĤ":5281,"ĠÐ±Ð°ÑħÓı":5282,"ĠÐ½ÐµÐ¼ÑĨ":5283,"ĠÑħÓıÐ°Ð»ÑĤÓıÐ°Ð±Ð°Ð·ÑĥÐ»":5284,"ĠÐ·Ð¾Ð±":5285,"ĠÑħÐ²Ð°ÑĢÐ°Ð»":5286,"ĠÐ´Ð°Ð³ÑĮÐ°Ð±Ð³Ð¸":5287,"ĠÑĢÐ¸ÑħÑĮÐ¸Ð·Ð°ÑĢÑĥÐ½Ð°":5288,"Ð¾Ð´Ð°Ð»":5289,"ĠÑħÐ²Ð°ÑĢ":5290,"ĠÐľÐ¸ÑĢÐ·":5291,"ĠÐºÐºÐ¾Ð»Ð°ÑĢÐµÐ±":5292,"ĠÐ±Ð¾ÑıÐ»Ð´Ðµ":5293,"ĠÐ³ÑĥÑĢÐµÐ²":5294,"ĠÐ»ÑĬÐ¸ÐºÓıÐ»ÑĬÐ¸":5295,"ĠÐ°Ð±ÑĥÐ½Ð¸Ð»Ð°":5296,"ĠÐ±Ð¾ÐºÑĮÐ°ÑĢÐ°Ð²":5297,"ĠÐ³ÑĮÐµÐ»ÑĬÑĥÑħÑĬ":5298,"ĠÐ´Ð¾Ð±Ð°":5299,"Ð¾Ð¹Ð³Ð¸":5300,"ĠÐ¾Ð±Ð»Ð°ÑģÑĤ":5301,"ĠÑģÑĥÐ½Ð½":5302,"ĠÐĵÓıÐµÐ¼ÐµÑĢÐ°Ð»":5303,"ĠÐ±ÑĥÑģÑĥÑĢÐ±Ð°Ð±Ð°Ð·ÑĥÐ»":5304,"ĠÑĢÐµÐºÐµÑĢ":5305,"ĠÑİÐ±Ð¸Ð»ÐµÐ¹":5306,"Ð¾Ð»Ñİ":5307,"ĠÑģÐ¸Ð¿Ð°ÑĤ":5308,"ĠÐľÐ¾":5309,"ĠÑħÑĬÐ°ÑĢÐ°Ð²ÑĥÐ»":5310,"ĠÐ¢ÓıÐ°Ð½ÑĥÑģ":5311,"ĠÐĹÐ°Ð»":5312,"ĠÑĤÓĢÐ°Ð´Ðµ":5313,"Ð´ÑĢÐ¸Ñģ":5314,"ĠÐºÐ¸Ð½Ð³Ð¾":5315,"ĠÑĢÐ¾ÑĢ":5316,"Ð¼Ð°ÑĢ":5317,"Ð°Ð¼Ð¸":5318,"ĠÐ³ÑĮÐµÐ½Ð¸ÑģÐ°Ð½":5319,"Ð°ÑıÐ»ÑĬÑĥÑħÑĬ":5320,"ĠÐļÓıÐ¸Ð³Ð¾":5321,"ĠÐ°ÑħÐ¸ÑĢÐ°Ð»":5322,"ĠÐ³ÑĮÐµÑĩÓıÐµÐ±Ð»ÑĬÐ¸":5323,"ÐµÐ³ÓĢ":5324,"Ġ2015":5325,"ĠÑĤÐ°Ð¼Ð¸ÑħÓı":5326,"ÐĨ":5327,"Ð»Ð°ÑĤ":5328,"Ð¾ÑıÐ»ÑĬÑĥÐ»":5329,"ĠÐ³ÑĥÑĩ":5330,"ÐµÑĢÐ²":5331,"ĠÑħÓıÑĥÑĢ":5332,"Ð³ÑĮÐµÐ±":5333,"ĠÑīÐ¾Ð»":5334,"Ð°ÑıÐ»ÑĬÑĥÐ»ÑĬ":5335,"ĠÐ¨Ð°Ð¿":5336,"ÐĵÓıÐ°Ð±Ð´ÑĥÐ»":5337,"ĠÐ±ÐµÑĢÑĨÐ¸Ð½Ð°Ð»":5338,"ĠÐĳÐµÑĤÓıÐµÑĢÐ³ÑĮÐ°Ð½":5339,"ĠÐ³ÑĥÐ»":5340,"ĠÐºÐµÐ¿":5341,"ĠÐĵÑĥÐ¼Ð±ÐµÑĤ":5342,"ĠÐ»ÑĬÐ°Ð´":5343,"ĠÐ»ÑĬÐ¸ÑĨ":5344,"ĠÑħÓıÑĥÐ±":5345,"ĠÐºÑĬÐ¾Ð³Ð¾":5346,"ĠÑĢÐ°Ð³ÓıÐ°Ð½Ð°":5347,"ĠÐĵÑĮÐµÐ»Ð´Ðµ":5348,"ĠÐĳÐ°ÑĢÐºÐ°Ð»Ð°":5349,"ÑĥÐ»ÐµÐ·":5350,"Ð°ÑģÐ´Ð°ÑģÐ°":5351,"ĠÐ»Ð°Ð³":5352,"ĠÐľÐ°Ð³Óı":5353,"ĠÐºÑĬÐ¾ÑıÐ»Ð´Ð°ÑģÐ°":5354,"ÐĵÑĮÐµÐ»ÑĬÑĥÐ»":5355,"ĠÐºÐ¸Ð½Ð°Ð±Ð½Ð¸Ð³Ð¸":5356,"ĠÐ¹Ð¸ÐºÓıÑĥÐ½":5357,"ĠÐ³ÓıÐ°Ð»Ð¸Ð¼Ð·Ð°Ð±Ð°Ð·":5358,"ĠÐĹÐ°Ð³ÑĮÐ¸Ð´":5359,"Ð»Ð°ÑħÑĬ":5360,"Ð±Ð¾Ð¶":5361,"Ð°ÑĢÐ°ÑģÑĥÐ»":5362,"ÐµÑĢÑħÑĮ":5363,"ĠÑĢÑĥÐºÓıÐ°Ð½Ð¸Ð½":5364,"ÐľÑĥÐ½":5365,"ĠÑħÑĮÐµÐ·Ð°ÑĢ":5366,"Ð¸Ð³Ð°ÑĤ":5367,"ĠÐ³ÓıÐµÐ»Ð°Ð»ÑĬÑĥÐ»":5368,"ĠÐ³ÑĮÐ°Ð²Ð¸Ð·Ðµ":5369,"ĠÐĲÑħÓıÐ¼Ð°Ð´Ð¾Ð²":5370,"ĠÑĨÓıÐ¾Ð³ÑĮ":5371,"ĠÐ¡Ð°Ñħ":5372,"ĠÑĢÐ°ÐºÑĮÑĨÐ¾ÑıÐ²":5373,"ĠÐ¼Ð¾ÑĨÓıÐ°Ð»ÑĬÑĥÐ»":5374,"ĠÐºÐ¾Ð¼Ð¿Ð°Ð½":5375,"ĠÐ¿ÑĢÐ¾ÐºÑĥÑĢÐ¾ÑĢ":5376,"ĠÑĦÐ°ÐºÑĥÐ»ÑĮÑĤÐµÑĤ":5377,"Ġ,":5378,"Ð°ÑĢÐ¸Ð·Ðµ":5379,"ĠÑĢÐ°ÑĤÓı":5380,"ĠÑĤÐ°ÑĢÐ°Ð²":5381,"ĠÑģÐ¾Ð±ÑĢÐ°Ð½":5382,"ĠÐĶÐ°Ð³ÑĮ":5383,"ĠÐ¼Ð¸Ð»Ð»Ð¸ÑıÐ»":5384,"ĠÑĢÑĥÐºÓıÐ¸Ð½ÑĩÓı":5385,"ĠÑĢÐ¸ÑīÐ¸ÑıÐ·Ð´Ð°":5386,"ĠÐĲÑģÐ¸ÑıÑĤ":5387,"ĠÐ±Ð°Ð»Ð°":5388,"ĠÐºÑĬÐ¾Ñģ":5389,"ĠÐºÐºÐ°ÑĢÐ°Ð²":5390,"ĠÐłÐ¤ÑıÐ»ÑĬÑĥÐ»":5391,"ĠÐ¥ÓıÐ°Ð¹Ð´":5392,"ĠÑĢÐ°ÑħÑĬÐ°Ð»Ð´ÐµÑħÑĥÐ½":5393,"ÐµÐ±ÐµÐ´Ðµ":5394,"ĠÑħÓıÐ°Ð»ÑĤÓıÑĥÐ»ÐµÐ¹":5395,"ĠÐ½Ð°Ð»Ð¾Ð³Ð°Ð»":5396,"ĠÑħÑĬÐ°Ð»Ð¸ÑıÐ½":5397,"ĠÐ³Ð°Ð¼Ð°ÑĩÓı":5398,"Ð³Ð°Ð»":5399,"Ð°Ð»ÑĬÑĥÐ±":5400,"ĠÐ±Ð°ÑĤÑĥÐ»Ð°":5401,"ĠÐ±ÑĥÑĤÓıÑĢÑĥÐ·":5402,"ĠÐºÐ°Ð¼ÑĥÐ½":5403,"Ð¸ÑħÐ°":5404,"Ð°ÑĩÑħÑĬÐ°Ð»":5405,"ĠÐ±ÐµÑĨÑĨ":5406,"ÑĪÐ°Ð»":5407,"ĠÐ±Ð¾ÐºÑĮÑĥÐ»ÐµÐ»":5408,"Ð½Ð¸ÐºÐ°Ð»":5409,"Ð¸Ð½Ð°ÑĢÐ¸Ð·Ðµ":5410,"ĠÐ¼ÐµÐ³ÓıÐµÑĢ":5411,"ĠÐ¿ÑĢÐ¾ÑĨÐµÐ½ÑĤÐ°Ð»ÑĬ":5412,"ĠÐºÓıÐ¾ÑĩÐµÐ½Ðµ":5413,"ĠÐ³ÑĢÑĥÐ¿Ð¿":5414,"Ð°Ð½Ð¸Ðµ":5415,"ĠÐºÑĥÐ±":5416,"Ð¼ÑĥÐ´Ð¸Ð½":5417,"ĠÐ°Ð±Ð¸":5418,"ĠÐ³ÓıÐ°Ð´Ð°Ð´Ð°":5419,"ĠÑĤÓıÐ°Ð´ÑĩÓıÐµÐ¹":5420,"ĠÐĴÐµÑĩÐµÐ´":5421,"ĠÐºÐ¸Ð½Ð°Ð²":5422,"ĠÑĥÑĩÐ¸ÑĤÐµÐ»ÑĮÐ·Ð°Ð±Ð¸":5423,"ĠÑĢÐ°ÐºÓıÐ°ÑĢÑĥÐ½":5424,"ĠÑĢÐ°ÐºÑĬÐ»Ð¸Ð»Ð°Ð±":5425,"Ð¼Ð°ÐºÑĬ":5426,"ĠÐºÐºÐµÐ¹":5427,"ĠÑĩÓıÐ°Ð»":5428,"ÐĳÐ°Ð¹":5429,"ĠÑĤÐ°ÑĢÐ¸ÑħÐ¸ÑıÐ±":5430,"Ð±Ð°ÑħÑĬÐ¸Ð½Ð°Ð»":5431,"ĠÑĨÐ¾ÑĨÐ°Ð´Ð°":5432,"ĠÐ±Ð°ÐºÓıÐ°ÑĢÑĥÐ½":5433,"ĠÐ°Ð·Ð±":5434,"ĠÐĵÓıÐ°Ð±Ð´ÑĥÐ»Ð¼Ð°Ð¶Ð¸Ð´":5435,"ĠÐ³ÓıÐ°Ð»Ð°Ð¼Ð°ÑĤ":5436,"Ð¸ÑĩÐµÑģÐºÐ¸ÑıÐ±":5437,"Ð¾ÑĢÐ¾Ð»":5438,"ĠÐ³ÑĮÐ°Ð±ÑĥÐ»Ð°ÑĢÐ¾":5439,"ÑĩÑĥÐ½":5440,"ĠÐ³ÑĮÐµÑģÑĥÑħÑĬÐµ":5441,"ĠÑĨÓıÑĥÐ½ÑĥÐ»ÐµÐ±":5442,"ĠÐļÑĬÐ°Ð´Ð¸ÑĢ":5443,"ĠÑĢÐ°ÐºÑĮÐ°Ð»Ð´Ðµ":5444,"ÐĺÑģÐ»Ð°Ð¼":5445,"ĠÐ°ÑģÐºÓıÐ¾Ð²":5446,"ÐĿÐ¸Ð»ÑĬÐµÐ´Ð°":5447,"ĠÐ±ÑĥÑħÓıÐ°ÑĢÐ°Ð±":5448,"Ð²Ð°ÑħÑĬ":5449,"ĠÐ¼Ð¸ÑĤÐ¸Ð½Ð³":5450,"ĠÐłÑĥÑģÐ»Ð°Ð½":5451,"ĠÐ±Ð°ÑĤÐ¸Ð»Ð°ÑĢÐ¾":5452,"ĠÐ±Ð°ÑĢÐºÐ¸Ð·Ðµ":5453,"ĠÑĢÐ¸ÑĩÑĩÐ°Ð½":5454,"ĠÐ²ÑĥÑģÑģÑĥÐ½":5455,"ĠÑģÐ²Ð°Ðº":5456,"ĠÐĵÓıÐ¸ÑģÐ°ÐµÐ²":5457,"ĠÐ³ÑĮÐµÑĩÓĢÐ¾":5458,"ĠÐ²ÐµÐº":5459,"Ð¸Ð·Ð°Ð½":5460,"ÐµÐ½Ð°Ð»":5461,"ĠÐļÐ¸Ð´Ð°Ð³Ð¾":5462,"ÑħÓıÐ°Ð±Ð¸Ð±":5463,"ĠÐ¾ÑĨ":5464,"ĠÑħÑĬÑĥÐ»ÑĥÑħÑĬÐ°Ð»Ð´Ð°ÑģÐ°":5465,"ĠÐ¿Ð°ÑĩÐ°Ð»Ð¸ÑħÑĬÐ¸ÑıÐ»":5466,"ĠÐ¿ÑĢÐµÐ·Ð¸Ð´ÐµÐ½ÑĤÐ°ÑģÑĥÐ»":5467,"ĠÑħÐ²ÐµÐ·Ð°Ð±ÑĥÐ½":5468,"ĠÐ·Ð°ÑħÓıÐ¼Ð°Ð»ÑĬÐ°Ð±Ð¸":5469,"ĠÐ»ÑĬÐ°ÑĢÐ°Ð³Óı":5470,"Ð°Ð½Ðº":5471,"ĠÐ°Ð±ÑĥÑĢÐ°Ð²":5472,"ĠÐĵÓıÐ°ÑħÑĮÐ°Ð»":5473,"ĠÑĢÐµÑģÐ³Ð¸":5474,"ĠÐĺÐ´ÑĢÐ¸Ñģ":5475,"ĠÐ³ÑĮÐ°Ð½Ð¸Ð²":5476,"ĠÑĨÓĢÐ¸ÐºÓĢÐºÓĢ":5477,"ĠÐĵÑĮÐ¸Ð³ÑĮÐ°Ð»ÑĬ":5478,"ÑģÐ¸ÑıÐ»":5479,"ĠÑģÑĨÐµÐ½":5480,"ĠÐ±ÑĥÐºÓıÐ°ÑħÑĬÐµ":5481,"ĠÐ¡ÑĥÐ½":5482,"ĠÑĢÐ°ÑħÑĬÐ°Ð»Ð´Ð°ÑģÐ°":5483,"ĠÑĢÐ°ÐºÓıÑĩÓı":5484,"ĠÑĤÓıÑĥÐ±Ð°ÑıÐ»ÑĬÑĥÐ»":5485,"ĠÐ³ÑĮÐ°Ð²ÑĥÑĢÐ°Ð±":5486,"ĠÑħÑĬÐ¸Ð·Ð°Ð½Ð°Ð»Ð´Ð°":5487,"ĠÐ±Ð°ÑħÓıÐ°ÑĢÑĩÐ¸":5488,"ĠÐ±ÐµÑĢÐ³ÑĮÐµÐ½Ð»ÑĬ":5489,"ĠÐ³ÑĥÐ³Ð°ÑĢÑĥÑħÑĬ":5490,"ĠÑĩÓıÐµÐ·Ð°ÑĢÑĥÐ½":5491,"ĠÐ¥ÑĮÐ°ÑĢÐ³":5492,"ĠÐĵÓıÐ°Ð»Ð¸Ð±ÐµÐ³":5493,"ĠÐ±Ð¾Ð»Ð¶":5494,"ĠÐºÐ°Ð²":5495,"ĠÑĨÓıÐ°Ð½":5496,"ĠÑĨÐ¾Ð³":5497,"ĠÑĢÑĥÐºÓıÑĥÐ½Ð°Ð°Ð½":5498,"ĠÐ½ÑĥÑħÐ°Ð·ÑĥÐ»":5499,"ÐºÐ¾Ð»Ð¾Ð³":5500,"ĠÐ±ÑĥÐºÓıÐ¸Ð½Ð°Ð»ÑĬÐµ":5501,"ĠÐĺÐ·":5502,"ĠÐ±ÐµÑĤÓıÐµÑĢÐ»ÑĬÑĥÐ½":5503,"ĠÑħÐ°Ð»ÐºÑĬÐ¸ÑıÐ²":5504,"ĠÑĨÓıÐ¸ÐºÓıÐºÓıÑĥÐ½ÐµÐ±":5505,"ĠÐ±Ð°Ð¹Ð±Ð¸ÑħÑĮÑĥÐ»Ð°":5506,"ĠÑĤÓıÑĥÐ±Ð°Ð¹":5507,"Ġ300":5508,"ĠÐ±Ð¸ÑĩÓıÑĩÓıÐ¸Ð·Ðµ":5509,"ĠÐ¼Ð°ÑģÑĤÐµÑĢ":5510,"ĠÐĵÓıÐ°Ð±Ð´ÑĥÑģ":5511,"ĠÐ¼Ð°Ð´ÑĢÐ°Ñģ":5512,"ĠÑĢÐ¾ÑģÐ°Ð±Ð°Ð»ÑĬÐ°":5513,"Ð¸Ð½ÑģÑĥÑĨÐ°":5514,"ĠÐ¼Ð°ÑģÑĬÐ°Ð»Ð°Ð±Ð°Ð·ÑĥÐ»":5515,"ĠÐĳÐ¸ÑīÑĥÐ½Ð³Ð¾":5516,"ĠÑĦÐ¾Ð½Ð´Ð°Ð»ÑĬÑĥÐ»":5517,"ĠÐļÐ°ÑģÐ¿Ð¸Ð¹ÑģÐº":5518,"ĠÐ¿Ð°ÑĤÑĢÐ¸Ð¾ÑĤ":5519,"Ð±ÑĥÑģÑģ":5520,"ĠÑĢÐ¸ÑħÑħ":5521,"Ð¼Ð°Ð±Ð¸":5522,"Ð°ÑĤÐ³Ð¾":5523,"ĠÐ¼Ð¸Ð½Ð°Ð±":5524,"ĠÑĨÐ¾ÑıÑģ":5525,"Ð°ÑĨÐ¸Ð¾Ð½":5526,"ÑħÓıÑĥÑĢ":5527,"ÐĶÐ°Ð³ÑĮÐ°Ð»":5528,"ĠÐ»ÑĬÐ°Ð»ÐºÓı":5529,"ĠÐºÑĬÐ²Ð°ÑĤÓĢ":5530,"ÑĢÐ°Ð½ÑĥÑħ":5531,"ĠÑĢÐ¾ÐºÑĬÐ¾Ð²":5532,"ĠÐ»ÑĬÐ°Ð³ÓıÐ°Ð»Ð¸Ð»":5533,"ĠÐĽÑĬÐ¸ÐºÓıÐ°Ð±":5534,"ĠÑĢÐ¸ÑĪÐ²Ð°ÑĤ":5535,"Ð°Ð±ÑĥÑĢ":5536,"ĠÐ³ÓıÐ¸Ñı":5537,"ĠÐºÓıÐºÓı":5538,"ĠÑĤÓıÐ¾ÑĨÐµÑĢÐµÑģÐµÐ»":5539,"ĠÐ¼Ð°ÑĨÓıÐ°Ð»ÑĬ":5540,"ĠÐ¼ÑĥÑĢÐ°Ð´Ð°Ð»":5541,"190":5542,"ĠÐ¼Ð°Ð¶Ð³Ð¸ÑĤÐ°Ð»Ð´Ð°":5543,"ĠÐ°ÐºÑĤ":5544,"ÑĨÐ¾ÑıÐ·Ð´Ð°":5545,"ĠÐ³ÑĮÑĥÐ¸Ð½":5546,"ÑĥÐ»ÐµÐ»ÑĬÑĥÐ»":5547,"ĠÐ±Ð¸Ð»ÑĬÐ»ÑĬ":5548,"ÐºÓıÐ¸Ð³Ð¾":5549,"Ð¾ÑĢÐ¼Ð°ÑĤ":5550,"Ð¸Ð¼Ð¾Ð²":5551,"ĠÐ¸Ð¼Ð¿ÐµÑĢ":5552,"ĠÐ´Ð°Ð½Ð´ÑĩÓıÐ²Ð°Ð·Ðµ":5553,"ĠÐ´ÑĥÑĢÐ³Ð¾":5554,"ĠÐ³ÓıÐµÐ·ÐµÐ³ÓıÐ°Ð½Ð³Ð¾":5555,"ĠÐ´Ð¾ÐºÑĤÐ¾ÑĢ":5556,"Ð±Ð¾ÑĨÓıÐ¸":5557,"ĠÑĦÐ¸Ð·Ðº":5558,"ÑĥÐ»ÐµÐ·ÑĥÐ»":5559,"Ð°Ð»ÑĬÐ¸Ð³Ð¸":5560,"ÑıÑģÑĥÐ»":5561,"ĠÑĩÓıÐµÑĩÓıÐ¾Ð³Ð¾":5562,"ĠÐ¿ÑĢÐ¾Ð´":5563,"ĠÐ§Ð°Ð½Ð³Ð¾":5564,"ĠÑģÑĥÐ°Ð»Ð°Ð·Ðµ":5565,"Ġ500":5566,"ĠÐºÓıÐ²ÐµÑĩÓıÐ¾":5567,"ĠÐºÐ²ÐµÑĪÐ°Ð»":5568,"ĠÑīÐ¸Ð²Ð°ÑģÑĥÐ»":5569,"ĠÐ³ÓıÐ¾ÑĢÑħÑĬÐ¸":5570,"ĠÐ³ÑĮÐ°ÑİÐ½Ð°":5571,"ĠÐ¼Ð°Ð³ÓĢÐ°ÑĢÑĥÐ»":5572,"ĠÑĤÐ¾Ð½Ð½Ð°":5573,"ĠÐ°Ñį":5574,"ÑĢÐ¾Ð½":5575,"ĠÐ±Ð¸Ð´":5576,"Ð°Ð·Ð´Ð°Ð³Ð¾":5577,"ĠÐ»ÐµÐ±":5578,"ĠÑĪÐºÐ¾Ð»Ð°Ð»ÑĬÐµ":5579,"ĠÑĢÐµÐºÑĬÐµÐ»":5580,"ĠÐĸÐ°Ð¼Ð°Ð»":5581,"ĠÐ°Ð²Ð°Ð´Ð°Ð½":5582,"ĠÑģÑĥÐ°Ð»Ð°Ð·ÑĥÐ»":5583,"Ð¸Ð·Ð°ÑĢÑĥÐ½Ð°":5584,"ÑĥÐ³ÓĢ":5585,"ĠÑħÓıÐ¸Ð½ÐºÑĬÑĥÐ½":5586,"ÑħÓıÐ°Ð¶Ð¸ÑıÑģÑĥÐ»":5587,"ĠÐĵÓıÐ°Ð±Ð´ÑĥÑĢÐ°Ð·Ð°ÐºÑĬ":5588,"ĠÐ°Ð²Ð°ÑĢÐ°Ð³Ð°ÑģÑĥÐ»":5589,"Ð´ÑĥÐ½":5590,"ĠÐ²Ð»Ð°ÑģÑĤ":5591,"ĠÐ»ÑĬÐ°Ð½Ð°":5592,"Ð¾ÑĢÐ°Ð±":5593,"Ð³ÑĮÑĥÑĢ":5594,"ÐµÐ·Ð°Ð±ÑĥÐ½":5595,"ĠÑģÑĥÐ°Ð»Ð°Ð»ÑĬÐµ":5596,"ĠÐ±Ð°ÑĤÓıÐ°Ð³Ð¾":5597,"ĠÐ·Ð°ÑħÓıÐ¼Ð°ÑĤÐ³Ð¾":5598,"ĠÐ·Ð°Ð¼ÐµÑģÑĤÐ¸ÑĤÐµÐ»":5599,"Ð¢ÓıÐ¾ÑĨÐµÐ±ÐµÑģÐµÐ±":5600,"ĠÑħÓıÑĥÑĢÐ¼Ð°ÑĤÐ¸ÑıÐ»":5601,"ÐĵÑĮÐ°Ð±ÑģÐ°Ð³ÓıÐ°ÑĤ":5602,"ĠÑĤÐµÑħÐ½":5603,"ĠÐºÑĬÐ°ÑģÐ´":5604,"ĠÐ³ÑĢÐ°Ð¼Ð¾ÑĤÐ°Ð±Ð¸":5605,"ĠÐĿÐ°Ð¶Ð¼ÑĥÐ´Ð¸Ð½":5606,"ĠÑħÓıÐ°ÑĢÐ°ÐºÐ°ÑĤÐ°Ð»Ð´Ð°Ð»ÑĬÑĥÐ½":5607,"ĠÑĢÐ¸Ð»ÑĬÐ»ÑĬ":5608,"ÑģÐµÐ½":5609,"Ð°Ð»ÑĬÑĥÐ»Ð³Ð¾":5610,"Ð°Ð²Ð³Ð¸":5611,"ĠÐ¿ÐµÑĩ":5612,"ĠÐĳÑĥÐ»":5613,"ĠÐ»ÑĬÑĥÐ³ÑĮÑĥÐ½ÐµÐ±":5614,"ĠÐĴÐ°Ñģ":5615,"ÐĵÓıÐ°Ð´":5616,"ĠÐŃÐ»ÑĮ":5617,"ĠÑĢÐµÑħÑģÐ¾Ð½":5618,"ĠÐ°Ð»Ð°ÑĤÐ°Ð»":5619,"ĠÐ»ÓĢÑĥÐ³ÑĮ":5620,"ĠÑħÑĬÐ¸Ð»":5621,"ĠÐ¢Ð¸Ð¼":5622,"ĠÐ³ÓĢÐ°ÑĤÓĢ":5623,"ĠÐ°Ð²Ð»Ð°ÑħÑĬ":5624,"ĠÐ¶Ð°Ð²Ð°Ð±Ð°Ð»":5625,"ĠÑħÓıÐ°Ð´ÑĥÑĢÐ»ÑĬÐ¸":5626,"ĠÐ¶Ð°Ð¼Ð°Ð³ÓıÐ°ÑĤÐ°Ð»Ð´Ð°":5627,"ĠÐ³ÓıÐ°ÑĤÓıÐ¸Ð´Ð°Ð±":5628,"Ð°Ð»Ð¸Ð½Ð¸Ð½Ð°ÑĥÐ»":5629,"ĠÑħÐ°Ð´ÑĥÐ±ÐºÐºÑĥÐ½Ð³Ð¸":5630,"ÑħÐ°ÑģÐ¸ÑıÑĤ":5631,"ĠÐ³Ð¾Ñģ":5632,"ĠÐ±Ð¸Ñħ":5633,"ĠÑĢÐµÐ²":5634,"ĠÑģÐ¸ÑıÑģ":5635,"ĠÑħÓıÐ°ÑĤÓı":5636,"ĠÐ¨Ð°ÑĢ":5637,"ÐłÐ°ÐºÓı":5638,"ĠÐĸÐ°ÐºÑĬ":5639,"ĠÐºÐ²ÐµÑĢÐ°Ð»":5640,"Ð¾Ð»ÑĮÑĪ":5641,"ĠÐ¼Ð¸Ð½Ð°ÑıÐ»Ð´Ð°":5642,"ĠÐ±Ð¸Ð³ÑĮÐ°Ð³Ð¾":5643,"ÑĩÓıÐ²Ð°ÑĢÐ¸ÑıÐ»Ð´Ð°":5644,"ĠÐ¿Ð¾Ð´Ð¿Ð¸Ñģ":5645,"ĠÐ¸ÐºÑĬÐ±Ð°Ð»":5646,"ĠÐ¥Ð°ÑĢÐ°ÑħÑĮÐ¸":5647,"ÑĢÐ°Ð·":5648,"Ð±Ð°ÑĨÓı":5649,"ĠÐ³ÑĮÐ°":5650,"Ð°ÑĤÐ°Ð»Ð´Ðµ":5651,"Ð¾Ð²Ð¸ÑıÐ±":5652,"ĠÐłÐ¸Ð·":5653,"ÑĥÑĤÓıÐ°Ð»":5654,"ĠÐ¶Ð°Ð¼Ð°Ð³ÓıÐ°ÑĤÐ°Ð»ÑĬÐµ":5655,"ĠÐ³ÑĮÐ¸ÑĤÓıÐ¸Ñĩ":5656,"ĠÐ²Ð°ÑĩÓıÑĥÐ½ÐµÐ²":5657,"ĠÐ®ÑģÑĥÐ¿Ð¾Ð²":5658,"ĠÐ¼Ð°ÑĢÑħÑĮ":5659,"ĠÑĢÑĥÐºÓĢÐ°Ð½Ð°":5660,"Ð±ÑĥÐ»Ð°ÑĤ":5661,"ĠÐºÐ°Ð¿Ð¸ÑĤ":5662,"ĠÐ³ÑĮÐ°ÑĢÐºÑĮÐ°Ð»":5663,"ĠÐ¿Ð¾ÑģÐµÐ»":5664,"ĠÐ°Ð³ÑĮÐ»Ñĥ":5665,"ÑĢÑĥÐ¼":5666,"Ð°Ð½Ð°Ð²":5667,"Ð°ÑĢÐ¸ÑıÐ±":5668,"ĠÐ¼Ð°Ð¹":5669,"ĠÐ´Ð¸Ð±Ð¸ÑĢ":5670,"Ð°Ð³ÑĮÐ¼Ñĥ":5671,"ĠÐ¡Ð°Ð¹":5672,"ĠÑĨÓıÐ°Ð»ÑĥÐ»ÐµÐ²":5673,"ĠÐ²Ð°ÑĩÓıÐ¸Ð½Ðµ":5674,"ĠÐ³ÓıÐ¾Ð»Ð¾ÑħÑĬÐ°Ð½Ð°Ð»":5675,"ĠÑħÐµÑħÐ°Ð±":5676,"ÐĵÑĬÑĥÐ½Ð¸Ð±":5677,"ĠÐļÐ°Ð·Ð±ÐµÐº":5678,"ĠÐ»ÑĬÐµÑıÐ²":5679,"ÑĢÐµÑģ":5680,"ĠÐºÐ¸Ð´Ð°":5681,"Ð°ÑģÐ¸ÑĢ":5682,"ĠÐ³ÓıÐ°Ð´Ð¸Ð½Ð°Ð»":5683,"ĠÐ²ÑĥÐºÓıÐ°Ð½Ð¸Ð½":5684,"ĠÐ¼Ð°Ð³ÓıÑĥ":5685,"Ð¾Ð²Ð°ÑģÐ³Ð¸":5686,"ĠÐ¼ÑĥÐºÓı":5687,"ĠÑĩÐ°Ð³ÓıÐ°Ð·Ðµ":5688,"ĠÐ³ÑĮÐ¸ÑĤÓıÐ¸Ð½":5689,"ĠÐºÓıÐ²Ð°ÑħÓı":5690,"Ð£Ð½":5691,"ĠÐ¿ÑĢÐµÐ´ÑģÐµÐ´Ð°ÑĤÐµÐ»ÑĮÐ»ÑĬÑĥÐ½":5692,"ĠÐ¸Ð´Ð°ÑĢÐ°ÑıÐ»ÑĬ":5693,"ĠÐ²ÐµÑĤÐµÑĢÐ°Ð½Ð°Ð·ÑĥÐ»":5694,"ĠÑĥÐ½ÐºÑĬÐ³Ð¾":5695,"ĠÐ¼Ð°Ð´ÑĥÐ³ÑĮÐ°Ð»Ð¸ÑħÑĬ":5696,"ĠÐ±Ð¾ÑĢÑĩÓı":5697,"Ð°Ð½Ð¸Ð»":5698,"ÑģÐ°Ð±":5699,"Ð°Ð»ÑĬÐ¸ÑıÐ»ÑĬÑĥÐ»":5700,"ĠÑĨÑĨÐ¸Ð½":5701,"Ð¾ÑĢÐ°Ð»":5702,"ĠÐĶÐ¾Ð»":5703,"ĠÐ¡Ð°Ð¹Ð¿":5704,"ĠÐ°Ð¼Ð¾":5705,"ĠÑħÑĬÑĥÐ»ÑĥÑħÑĬÐ°Ð»ÑĬÑĥÐ»":5706,"ĠÐ´ÑĥÐ³ÓıÐ°":5707,"ĠÐºÓıÐ°Ð»ÑĬÐ°Ð½Ð°":5708,"ĠÐļÓıÐ¸Ð°Ð±Ð¸Ð»ÐµÐ±":5709,"ĠÑĤÐ°Ð´Ð±Ð¸ÑĢÐ°Ð·ÑĥÐ»":5710,"ĠÑĩÓıÐ²Ð°ÑĢÐ°Ð»":5711,"ÑħÑĬÐ²Ð°Ð³ÓĢ":5712,"ĠÐ´Ð¾ÐºÐ»Ð°Ð´":5713,"ĠÐºÑĥÑĤÐ°ÐºÐ°Ð±":5714,"ĠÐĲÐ½Ð²Ð°ÑĢÑħÓıÐ°Ð¶Ð¸":5715,"ĠÐĺÐ»ÑĮÑıÑģ":5716,"ĠÐłÐ°Ð¸Ñģ":5717,"ĠÐĵÑĮÐ°Ð¹":5718,"ĠÐ¥ÑĥÑĢ":5719,"ĠÐļÐ¾Ð»":5720,"ĠÐ»ÑĬÑĥÐ³ÑĮÐ¸Ð½":5721,"ĠÐ±Ð°ÑĢÐºÑĥÐ½":5722,"ĠÐ³ÑĮÐ¾ÑĢÐºÑĮÐ¾ÑĢÐµ":5723,"ĠÑĥÑĩÑĢÐµÐ¶Ð´ÐµÐ½Ð¸ÑıÐ±":5724,"ĠÑĥÐ½Ð¸Ð²ÐµÑĢÑģÐ¸ÑĤÐµÑĤ":5725,"ĠÐ¼Ð°ÑħÑģÐ°ÑĢÐ¾":5726,"Ð»ÑĬÑĥÐ´Ðµ":5727,"ĠÐ³ÓıÐµÐ´Ðµ":5728,"ÑĩÐ¸Ð»ÑĬÑĥÐ½":5729,"ÑĩÓıÐ²Ð°Ð´":5730,"ĠÑĢÐ°Ð·Ð¸ÑıÐ±":5731,"ĠÐ¼Ð°ÑħÑīÐ°Ð»Ð¸Ð»":5732,"Ġ2014":5733,"Ð¢ÓıÐ°Ð´Ðµ":5734,"Ð¸Ð½ÑĩÓıÐµÐ»":5735,"ĠÐ±ÐµÑĢÑĨÐ¸Ð½Ð»ÑĬÐ¸":5736,"ĠÐ¸ÑģÐ»Ð°Ð¼Ð°Ð»ÑĬÑĥÐ»":5737,"ĠÐ¾ÑĦÐ¸ÑĨÐ¸Ð°Ð»Ð¸ÑıÐ±":5738,"ÎĻ":5739,"Ð¾ÑģÐ°Ð½":5740,"ĠÑĪÐ¸Ð³Óı":5741,"ĠÐĳÐ°Ð»Ð°Ð³ÑĮ":5742,"ĠÐĲÐ¼Ð¸ÑĢ":5743,"ĠÐ³ÓıÐ¾Ð´Ð¾ÑĢÐµ":5744,"ĠÐ¼ÑĥÑģÑĤÐ°ÑħÓıÐ¸ÐºÑĬÐ°Ð»":5745,"ĠÑĨÐ¾ÑĨÐ°Ð»ÑĬ":5746,"ĠÐ¼Ð°Ð»ÑĬÐ°":5747,"ĠÑĤÓıÐ°Ð»ÑĬÐ¸ÑıÐ»ÑĬ":5748,"ĠÑĨÐµÐµ":5749,"ĠÐ´Ð¸ÑĨÐ°Ð³Ð¸":5750,"ĠÑĪÐ¸Ð¼Ð°Ð»Ð¸ÑıÐ±":5751,"ĠÐ³ÓıÐµÐ¼ÐµÑĢÐ¸ÑģÐµÐ±":5752,"ÐłÐ°Ð³ÑĬ":5753,"ĠÑīÐ¸Ð±ÑħÐ°":5754,"ĠÐ¼ÑĥÐºÑĬ":5755,"ĠÑĪÐ°Ð³ÑĮÑĢÐ°Ð½ÑĥÑħ":5756,"ĠÐ´Ð°Ð½Ð´Ð±":5757,"ĠÑĢÐ¸ÑīÐ¸ÑıÐ·ÑĥÐ»":5758,"ĠÐĳÐ°Ð¹Ð±Ð¸ÑħÑĮ":5759,"ĠÐ°ÑĢÑĤÐ¸ÑģÑĤ":5760,"ĠÐ°Ð´Ð²Ð¾ÐºÐ°ÑĤ":5761,"22":5762,"ĠÐĵÐŃ":5763,"ĠÐĶÐĵ":5764,"ĠÑĦÐ¾ÑĢÐ¼":5765,"ĠÐĵÑĮÐµÑģÐ¸Ðµ":5766,"ĠÐ¦ÓıÑĥÐ½":5767,"ĠÑĤÐ°Ð¼Ð¸ÑħÓıÐ°Ð»":5768,"ĠÑĦÐ¸Ð½Ð°Ð½Ñģ":5769,"Ð°Ð¼Ð±":5770,"ĠÐ¼Ð°Ð³ÑĬ":5771,"Ð¸Ð´Ð³Ð¾":5772,"ÐłÐ°Ð¹Ð¾Ð½":5773,"ĠÑĢÐ°Ð³ÓıÑĥÐ½":5774,"ĠÑħÑĬÐ¸Ð·Ð°Ð½Ð°Ð»ÑĬÑĥÐ»":5775,"ĠÐ¼Ð°ÑĤÐµÐ¼Ð°ÑĤ":5776,"Ð½Ð¾ÑģÑĤ":5777,"Ð´Ð¸Ð±Ð¸ÑĢ":5778,"ÐºÐ³":5779,"ĠÑĢÐ°ÑĤÓıÐ°Ð»ÑĬ":5780,"ĠÐ±ÑĥÑİÑĢ":5781,"ĠÐ¼ÑĥÑĤÓı":5782,"ĠÐĶÐ°Ð³ÑĮÐ°Ð±":5783,"ĠÑıÐ»":5784,"ĠÐ¥ÓıÐ°ÐºÑĬÐ¸ÐºÑĬ":5785,"ĠÑĨÓıÐ°Ð»Ð´Ð¾ÑħÑĬÐ°Ð±Ð°Ð·Ð´Ð°":5786,"ĠÐºÓıÐ²Ð°Ð½Ð°":5787,"ĠÐĵÓıÐ°ÑĢÐ°Ð½Ð¸":5788,"ĠÐ¸Ð½ÑĤÐµÑĢÐ½ÐµÑĤ":5789,"ĠÑĤÐ°ÑħÑĪÐ°Ð³ÑĮÐ°ÑĢ":5790,"Ð»ÑĬÐ°Ð¹":5791,"Ð¼Ð°Ñģ":5792,"ĠÑħÑĥÑĤÓĢ":5793,"Ð°ÑģÐ¸ÐºÑĮ":5794,"Ð¸Ð»Ð³ÑĥÐ½":5795,"ĠÐ¸Ð»":5796,"ĠÐ¡Ð¾ÑİÐ·Ð°Ð»ÑĬÑĥÐ»":5797,"ĠÐºÑĬÐ¾Ð³Ð¸":5798,"Ð¾Ð´ÑĥÐ»":5799,"ĠÐĴÐ°Ð»":5800,"ĠÐĹÐ°ÑħÓıÐ¼Ð°ÑĤ":5801,"ĠÑıÑģÐ³Ð¸":5802,"ĠÑĢÐ¾ÑģÑĥÐ³Ð¸":5803,"ĠÐ±ÑĥÑĤÓıÐ°ÑıÐ»Ð´Ð°":5804,"ĠÑĢÐ°Ð·Ð¸Ð»ÑĬÐ¸":5805,"ĠÐĳÐµÑĢÑĤÐ¸Ð½":5806,"ĠÑĤÐµÑħÐ½Ð¸ÐºÐ°":5807,"Ð¸Ð³ÑĮÐµÑĩÓıÐ¾Ð»ÑĬÐ¸":5808,"ÑĥÑĢÐ°":5809,"ĠÐºÑĮÑĥÑĢÐ°Ð²":5810,"ĠÐ³ÑĬÑĥÐ»":5811,"ĠÐ³ÑĮÐµÑģÐ´Ðµ":5812,"ĠÐ¥ÓıÐ°ÑĢ":5813,"ĠÐ±Ð°Ð»ÑĬÐ³Ð¾Ð»ÑĬÐ¸":5814,"ĠÐ³ÑĥÑĢÑħÓıÐµÐ»":5815,"ĠÑĤÓıÐ¸ÑĢÐ¸ÑĤÓı":5816,"ĠÐ¿ÑĢÐ¾Ð´ÑĥÐº":5817,",-":5818,"ĠÐ²Ð¾":5819,"ĠÐºÑĬÐ°Ð²":5820,"Ð³ÓıÐ°Ð±":5821,"ĠÐĿÑĥÑĨÐ°Ð»":5822,"ĠÐ±ÑĥÐºÓıÐ¸Ð½Ð³Ð¸":5823,"ĠÐ´ÑĥÐ½ÑıÐ»Ð°Ð»Ð´Ð°Ð³Ð¾":5824,"ĠÐ°ÑģÐºÓıÐ¾Ð²Ðµ":5825,"ĠÐ³ÓıÐ°ÑħÑĮÐ°Ð»ÑĩÐ°Ð³ÓıÐ¸":5826,"Ð°Ð¹ÐºÑĥÐ¼":5827,"ÑĥÐ´Ð°ÑģÐ°Ð½":5828,"ĠÐ±Ð¸Ð»":5829,"ĠÑħÐ¸Ð½Ð°Ð±":5830,"ĠÐ³ÓıÐ°Ñģ":5831,"Ð°Ð¼Ð°Ð±":5832,"ĠÐ´Ð¸":5833,"ĠÐ½ÑĥÑħÐ°Ð·Ð´Ð°":5834,"ĠÐ³ÑĮÐµÐ·Ð´Ðµ":5835,"ĠÐ´ÑĥÐ½Ð¸ÑıÐ»":5836,"ĠÐ±Ð°ÑħÑĬÐ¸Ð½Ð°Ð±Ð¸Ð·Ðµ":5837,"ÐµÑģÑĤÐ²":5838,"ĠÐ³ÑĬÑĥÑĢÑīÐ¸Ð´Ðµ":5839,"ĠÐ¼Ð°Ð½Ð·Ð¸Ð»Ð°Ð»Ð´Ð°":5840,"ĠÑĤÐµÐ»ÐµÐ²Ð¸Ð´ÐµÐ½":5841,"ĠÐºÐ°Ð·":5842,"ÐµÑĢÐ°Ð·ÑĥÐ»":5843,"Ð¾Ð²Ð°Ð»ÑĬÑĥÐ»":5844,"ĠÑĥÐ½ÑĤÐ°Ð±Ð¸":5845,"ĠÑĢÐ¾ÑģÑĥÑĨÐ¾ÑıÐ»":5846,"ĠÐ¼Ð°ÑģÐ°Ð»Ð°":5847,"ĠÑĢÐ°Ð»Ð°Ð³ÑĮÑĥÐ½":5848,"ĠÐ£ÐºÑĢÐ°Ð¸Ð½Ð°Ð»Ð´Ð°":5849,"ĠÐĳÐ°Ð³ÑĮÐ°Ð²":5850,"Ð°Ð»Ð¸Ðº":5851,"ĠÐºÐ°ÑĦ":5852,"Ð°Ð·Ð°":5853,"ĠÑģÐ¸ÑħÓı":5854,"Ð¸ÑĢÐ¼":5855,"Ð°Ð³ÓıÐ¸":5856,"ĠÐ¿ÑĢÐ¾Ð±":5857,"ĠÑĪÐºÐ¾Ð»Ð°Ð³Ð¸":5858,"ĠÐ³ÑĮÐµÐ´Ð¸Ð³ÓıÐ°Ð½":5859,"ĠÐ¸Ð½ÑģÐ¿":5860,"ĠÐ²Ð¸ÑĤÓıÐ°Ð½Ð°":5861,"ĠÑĤÐ°Ð¹Ð¿Ð°ÑıÐ»ÑĬÑĥÐ»":5862,"ĠÐ±Ð¾ÑĤÓıÑĢÐ¾":5863,"Ð°Ð»Ð°Ð³Ð¾":5864,"ÑģÑĥ":5865,"Ð¾Ð½Ð°Ð»ÑĬÑĥÐ»":5866,"ĠÐ»ÑĬÐ¸ÑĨÐ°":5867,"ĠÑĤÓıÐµÐ³ÑĮ":5868,"ÑĩÓıÐ¾Ð»":5869,"ĠÐľÐ°Ð³ÑĮ":5870,"ĠÐ¥ÓıÐ°Ð¼Ð·":5871,"Ð¸ÑħÑĬÐ°":5872,"ĠÐ±ÐµÑĢÑĤ":5873,"Ð¾ÐºÑĢÐ°ÑĤ":5874,"ĠÐ¢ÓıÐ¸ÑģÑģ":5875,"ĠÐ½Ð¸Ð»ÑĬÐµÐ´Ð°ÑģÐ°":5876,"ĠÐ»ÑĬÑĥÐ³ÓıÐ¸Ð·Ðµ":5877,"ĠÐ³ÑĮÐ°Ð²ÑĥÑĢÐ°Ð²":5878,"ĠÐŃÑĩ":5879,"ĠÑĨÓĢÐ°Ð»":5880,"ĠÐ¥ÓıÐ°Ð¼Ð·Ð°ÑĤÐ¾Ð²Ð°Ñģ":5881,"ĠÐ³ÓıÐ°ÑħÑĮÐ°Ð»ÑĩÐ°Ð³ÓıÐ°Ð·Ðµ":5882,"ĠÑĤÑĥÑĪÐ±":5883,"ĠÑĤÓıÑĥÑĢÐ°Ð»ÐµÐ²":5884,"Ð³ÑĢ":5885,"Ð°ÑĢÐµÐ»ÑĬÑĥÐ»":5886,"ĠÐ±ÑĥÐºÓıÐ¸Ð½Ð°Ð±":5887,"ĠÑīÐ²Ð°ÑĢ":5888,"ĠÐºÓıÐ¸ÑıÐ²Ð³Ð¾":5889,"ĠÐ¼ÑĥÐ³ÓĢ":5890,"ĠÐĵÑĬÐ°Ð»":5891,"Ð¾Ð½Ð¸Ð³":5892,"ĠÑĢÐµÐ»ÑĬÐ»ÑĬ":5893,"ĠÑħÓıÐ°Ð»ÑĤÓıÐ¸Ð·Ð°ÑĢÑĥÐ»ÐµÐ»":5894,"Ð½Ð°Ñı":5895,"ĠÐ³ÑĮÐ¸Ð½":5896,"Ð°Ð·Ð°Ð²":5897,"Ð´ÐµÐ³Ð¾":5898,"ĠÐĳÐµÐ»":5899,"ĠÐĳÑĥÑĢÑĤÑĥÐ½":5900,"ĠÑīÐ²ÐµÐ·Ð°Ð²":5901,"ÑĥÐ»ÑĬÐµ":5902,"ÐļÐ¸Ð½Ð°Ð±":5903,"ĠÐ¸ÑĪÐ°Ð»ÑĬÑĥÐ»ÑĬ":5904,"Ð¥ÑĥÐ½Ð·Ð°ÑħÑĬ":5905,"ĠÐ°Ð²Ð°Ð»Ð°Ð»Ð´Ð°":5906,"ĠÐĲÐ±Ñĥ":5907,"ĠÑĥÑĢÐ³ÑĬÑĥÐ½":5908,"21":5909,"Ð°Ð¾":5910,"Ð±Ð°ÑĤÓĢ":5911,"Ð°Ð¹Ñģ":5912,"ÑĩÐµÑĤ":5913,"ĠÐĳÐ°Ð´":5914,"ĠÐŁÐ¾Ð»":5915,"ĠÐ¸ÑĪÐ°Ð»Ð´Ð°":5916,"ĠÐ³ÓĢÐ¾ÑĢ":5917,"Ð³Ð¸Ð»Ð¸Ñģ":5918,"ĠÐ¦Ð¾ÑħÓıÐ¾":5919,"ĠÐĲÐ±Ð´ÑĥÐ»":5920,"ĠÐ¼Ð°ÑĨÓĢÐ°Ð»Ð´Ð°":5921,"ĠÐľÐ°Ð´Ð¸Ð½Ð°":5922,"Ð°Ð»Ð°Ð²":5923,"ĠÐ³ÑĮÑĥÐ½":5924,"ĠÑĢÑĥÑħ":5925,"ÑģÐµÐ»":5926,"Ð¼ÐµÑĤ":5927,"ÑıÑĢ":5928,"ÐĳÐµÑĢ":5929,"ĠÐ±Ð°ÑĤÓıÐ°Ð»ÑĬÐ¸":5930,"ĠÑĤÓıÐ¾ÑĢÐ¸ÑĤÓıÑĥÐ»Ð°":5931,"ĠÐĿÐ¸Ð»ÑĬÐµÑĨÐ°":5932,"ĠÐłÐ°ÑģÑĥÐ»Ð¸ÑĨÐ°":5933,"ĠÐ±ÑĥÐºÓĢÑĥÐ½":5934,"ĠÑĤÓıÐµÑħÑĮÐ°Ð»Ð´Ð°":5935,"ĠÐ¡ÑĥÐ³ÑĬÑĢÐ°Ð»ÑĬÐ°":5936,"ĠÐ±Ð¾ÑĢÑĨ":5937,"ĠÐ»ÑĬÐ°Ð³ÓıÐ°Ð»Ð¸Ð´Ð°":5938,"ĠÐ³ÓĢÐ°Ð´Ð°Ð¼":5939,"Ð°Ð½Ð¸ÑıÐ±":5940,"Ð°ÑĤÐµÐ»ÑĮ":5941,"ĠÐ½Ð°ÐºÑĬ":5942,"ÑĩÓıÐ¸":5943,"ĠÐľÐ°Ð¶":5944,"ĠÑĤÓıÐ°Ð´Ð³Ð¸":5945,"ĠÑĥÐ½ÑĤÐ°ÑĢÐ°Ð±":5946,"ĠÐķÐĵÐŃ":5947,"Ð·Ð°Ð±Ð°ÑħÑĬ":5948,"ĠÐ±Ð°ÑĢÐºÐ°Ð»Ð°Ð³Ð¸":5949,"ĠÐ¿ÑĢÐ¾ÑĦÐµÑģÑģÐ¸Ð¾Ð½":5950,"ĠÑĢÐ°ÐºÓıÐ±Ð°ÑĨÓıÑĨÓıÐ°Ð´Ð³Ð¾":5951,"Ð¸ÑģÐ°ÑĤ":5952,"ĠÐºÓıÐ¸ÐºÑĬ":5953,"ĠÐ¡ÐµÐ²ÐµÑĢÐ¸ÑıÐ±":5954,"ĠÐ±ÐµÑĢÐ°Ð»":5955,"ĠÐĴÐ°ÑĢ":5956,"ĠÐĸÐ¸Ð´ÐµÑĢ":5957,"ĠÐ¤Ð°Ð·Ñĥ":5958,"ĠÐ¥Ð°Ð´ÑĥÑģ":5959,"ĠÐºÓĢÐ¸Ð³Ð¾":5960,"Ð¨Ð°Ð¼Ð¸Ð»":5961,"ÑĢÐ°ÑħÑĬÐ¸Ð½":5962,"ĠÐºÑĮÐµÑĢÐ´Ð°":5963,"ĠÐ¶ÑĥÐ±Ð°Ð½Ð°":5964,"ĠÐ°ÑįÑĢÐ¾Ð¿":5965,"Ġ.":5966,"ĠÐ³ÑĢÐ°Ð½":5967,"ĠÐ¿Ð°ÑĢÐº":5968,"ĠÐ±ÑĥÐ³ÐµÐ¹":5969,"ÑĥÐ±Ð°ÑĢÐ°Ð±":5970,"ÐµÐºÓĢ":5971,"ÐĶÐ°Ð³ÑĮÐ°Ð±":5972,"ÐĲÑħÓı":5973,"ĠÐ±Ð°ÑĤÐ¸Ð»":5974,"ĠÐ£Ð½ÑĤ":5975,"ĠÐºÑĬÐ°ÑĩÓıÐ°Ð½Ð°":5976,"ÐĽÑĬÐ¸ÐºÓı":5977,"ĠÑħÓıÐ°ÐºÑĬÐ¸ÐºÑĬÐ¸ÑıÐ±":5978,"ĠÐ³ÓıÐµÐ»Ð¼ÑĥÑıÐ»ÑĬÑĥÐ»":5979,"ĠÐ¡Ð°Ð»Ð¼Ð°Ð½":5980,"ĠÐ³ÑĬÐ°Ð»Ð°ÑĤÓı":5981,"ĠÐ¿ÑĢÐ¾ÑĦÐµÑģÑģÐ¾ÑĢ":5982,"ĠÐ¶Ð°Ð½ÑĥÐ±Ð¸ÑıÐ±":5983,"Ð»Ð°Ð²":5984,"ÐºÐµÐ½ÑĤ":5985,"Ð¸ÑĢÐ°Ð»":5986,"Ð¾Ð²Ð½":5987,"ÐĵÓĢ":5988,"ĠÐĳÐ°Ð±":5989,"ĠÐ³ÓıÑĥÑĨÓıÐ°ÑĢÐ°Ð»":5990,"Ð¾ÑĤÑĢ":5991,"ÑĭÐ»":5992,"ĠÐ³ÓıÑĥÐ½ÑĤÓıÑĥÐ½":5993,"ĠÑħÐ°ÑĢÐ¶Ð°Ð»":5994,"ĠÑĢÑĥÑģÑģÑĥÐ½":5995,"ĠÑĥ":5996,"ĠÐ³ÓıÐ°ÐºÓı":5997,"ĠÐ¿Ð°Ð³ÑĮÐ¼Ñĥ":5998,"ĠÐľÐ°ÑħÓĢ":5999,"ĠÑĢÐµÐ³":6000,"ĠÑĨÐ¾ÑħÓı":6001,"Ð¸Ð»ÑĬÐµ":6002,"ĠÑħÑĬÐ°ÑĢ":6003,"ĠÑĪÐ°Ð¹Ð¸Ñħ":6004,"ĠÐ¦ÐµÐ±":6005,"ĠÐ±Ð°ÐºÓıÐ°Ð·Ð´Ðµ":6006,"ĠÐ¹Ð¸ÑħÑĮ":6007,"ĠÐ³ÓĢÐ°Ð»Ð¸Ð¼":6008,"ĠÐļÑĬÐ¾ÐºÑĬ":6009,"ĠÐ²Ð°ÑģÐ°Ñģ":6010,"Ð¾Ð·Ð¸ÑĨ":6011,"Ð½ÑĤÐµÑĢÐ½":6012,"ÐĵÑĮÐµÐ´Ð¸Ð½Ð°Ð±":6013,"ĠÑħÐ°Ð´ÑĥÑģÐ°Ð½":6014,"ĠÐ³ÑĮÐµÐºÑĬÐµÐ·Ðµ":6015,"ĠÐ¼ÐµÐ´Ð°Ð»ÑĮ":6016,"ĠÐ¸ÑİÐ»Ð°Ð»Ð´Ð°":6017,"ĠÑħÐ°Ð·":6018,"Ð³ÑĮÐµÐ»":6019,"ÑĥÑħÑĬÐ³Ð¸":6020,"ĠÐłÐ°ÑĩÓı":6021,"ĠÐ½ÑĥÑħÐ´Ð°ÑģÐ°Ð½":6022,"ĠÑīÐ²ÐµÑĩÓıÐ¾Ð³Ð¾":6023,"ÑīÐ°Ð´":6024,"ĠÐ¨Ð°Ð³ÓıÐ±":6025,"ĠÑĦÐµÑģÑĤÐ¸Ð²":6026,"ĠÑĨÓıÐ°Ð»Ð´Ð¾Ð»":6027,"ĠÑħÓĢÐ¸ÑģÐ°Ð±":6028,"ĠÐľÐ°ÑħÓıÐ°ÑĩÑħÑĬÐ°Ð»Ð°":6029,"ĠÑĨÐµÐ±ÐµÑĤÓıÐµÑıÐ»ÑĬÑĥÐ»":6030,"ĠÐºÐ¾ÑĩÓıÐ¾Ð»":6031,"ĠÐ¿Ð¾ÑįÐ·":6032,"ĠÐ²Ð¸ÑīÐ°Ð½Ð°":6033,"ĠÐ¡ÑĥÐ»ÑĤÐ°Ð½":6034,"ÐºÐ¾Ð²Ð½Ð¸Ðº":6035,"ÐĿÐ¸Ð¶ÐµÑĢ":6036,"ĠÐłÐ°Ð¹Ð¾Ð½Ð°Ð»Ð´Ð°":6037,"ĠÐ¢Ð¸Ð¼ÑĥÑĢ":6038,"ĠÐºÐ°Ð»":6039,"ÑģÐ²ÐµÑĢ":6040,"ĠÑģÐµÑģÑģ":6041,"ĠÑīÐ¾Ð»Ð°ÑĢÐ¾":6042,"Ð¸Ð»ÑĬÐ»ÑĬÑĥÐ½":6043,"ĠÑĩÓıÐ¾Ð»Ð°":6044,"ĠÑĤÓıÑĥÐ±Ð°Ð½Ð°":6045,"ĠÑĢÐµÑģÐ¿ÑĥÐ±Ð»Ð¸ÐºÐ°":6046,"ĠÐºÐºÐ¾Ð»ÐµÐ±Ð»ÑĬÐ¸":6047,"ÐµÑĩÓıÐ¾Ð½Ð¸":6048,"ĠÐĲÐ±Ð´ÑĥÑĢ":6049,"ĠÐ±Ð°Ð½Ðº":6050,"ĠÐºÓıÐ°Ð»Ð´":6051,"ĠÐķÐ³Ð¸Ð¿":6052,"ĠÐ²Ð¸ÑĤÓıÑĥÐ½":6053,"ĠÐ¡ÑĥÐ»ÑĤÓıÐ°Ð½":6054,"ĠÐ¥ÓıÑĥÑĢÐ¼Ð°ÑĤÐ°Ð»ÑĬÑĥÐ»":6055,"Ð°ÑħÑĮÐ´Ð°Ð»":6056,"ĠÐ´Ð°Ð³ÑĮÐ°Ð±Ð³Ð¾":6057,"ĠÑĢÐ°ÑĤÐ¸Ð·Ðµ":6058,"ĠÐľÐ¾ÑģÐºÐ²Ð°ÑıÐ»ÑĬÑĥÐ»":6059,"Ð³ÑĮÐ°Ð±ÑĥÐ½":6060,"ĠÑīÐ¾Ð»Ð°Ð°Ð½":6061,"ĠÑģÐ¸ÑıÑħÓıÐ°Ð»":6062,"ĠÐ¿ÑĢÐµÐ´ÑģÐµÐ´Ð°ÑĤÐµÐ»Ð°ÑģÑĥÐ»":6063,"ĠÐ¥ÑĥÑĪÑĤÐ°Ð´Ð°":6064,"40":6065,"ĠÐ°Ð½Ð¸Ð³Ð¸":6066,"ĠÐºÑĬÑĥÐºÑĬ":6067,"ÑĥÐ¼Ð³ÑĮÑĥÑĢ":6068,"ĠÐ¥Ð°Ð±Ð°ÑĢ":6069,"ĠÑħÓıÐ°Ð»ÑĤÓıÐ°ÑĢÐ°Ð²":6070,"ĠÐ±Ð¸ÑĨÐ¸Ð½":6071,"Ð°ÑħÑĮÐ²Ð°ÑħÑĬ":6072,"ĠÐ±ÑĥÐºÓıÐ¸Ð½ÐµÑģÐµÐ±":6073,"ĠÑĥÐ»Ð±ÑĥÐ·":6074,"ĠÑīÐ²ÐµÐ·ÐµÐ³ÓĢÐ°Ð½":6075,"ĠÑĦÐµÐ²ÑĢÐ°Ð»":6076,"ĠÐ³Ð¾Ð´Ðµ":6077,"ĠÐ³Ð°ÑĢÐ³":6078,"Ð¾Ð½Ð°Ð»":6079,"ĠÐĵÑĮÐ°Ð´":6080,"ĠÐºÑĮÐµÐ»Ð°":6081,"ĠÐ³ÑĮÐµÐ»Ð´Ð°Ð»ÑĬÑĥÐ½":6082,"ÑĥÐ»ÐµÐ»Ð³Ð¸":6083,"ĠÐ»ÑĬÐ¸ÐºÓıÐ³Ð¾":6084,"ĠÐ¾Ð»Ð¸Ð¼Ð¿Ð¸Ð°Ð´":6085,"ĠÐĵÓıÐ°Ð±Ð°ÑģÐ¸Ð»":6086,"ÐľÑĥÑģ":6087,"ĠÐ±Ð°ÑĩÓıÐ¸Ð½Ðµ":6088,"ĠÑģÐ¿Ð¾ÑĢÑĤÐ¸Ð²Ð¸ÑıÐ»":6089,"ĠÑĢÐ¾ÑħÑħ":6090,"ĠÐ¼Ð°Ð³ÓıÐ¸ÑĪÐ°ÑĤÐ°Ð»Ð´Ð°":6091,"ĠÐľÑĥÑħÓıÑĥ":6092,"ĠÐ´ÐµÐ¿ÑĥÑĤÐ°ÑĤÐ°Ð·":6093,"Ð°Ð±Ð¸Ð»ÐµÐ²":6094,"ĠÐ¼Ð¸Ð½Ð¸ÑģÑĤÐµÑĢÑģÑĤÐ²Ð¾ÑıÐ»ÑĬÑĥÐ»":6095,"ĠÐ²ÑĥÐ³Ð¸Ð»Ð°":6096,"ĠÐ¼ÑĥÑĤÓıÐ¸Ð³Óı":6097,"Ð°Ð»Ð¸Ð³Ð¾":6098,"ĠÑĩÑĥÑĩ":6099,"ĠÐłÐ°ÑĪÐ¸Ð´":6100,"ÐµÐ·Ð°Ð±Ð¸Ð·Ðµ":6101,"ĠÐºÐ²ÐµÑĢÑīÐµÐ»":6102,"ĠÐ¼Ð¸Ð»Ð»Ð°ÑĤÐ°Ð·ÑĥÐ»":6103,"ÑģÑģÐ°Ð»Ð°Ð¼":6104,"ĠÐ¿Ð¾Ð»Ð¸ÑĤÐ¸ÐºÐ°ÑıÐ»ÑĬÑĥÐ»":6105,"ĠÑĤÐ°Ð¹Ð¿Ð°":6106,"ĠÐĵÑĮÐ¸ÑĤÓıÐ¸Ð½":6107,"ĠÑģÑĥÐ±Ð±Ð¾ÑĤ":6108,"ĠÐ¡ÑĥÑĢÑħ":6109,"ĠÐ»ÑĬÐ¸ÑĨÐ°Ð½Ð¸Ð³Ð¸":6110,"28":6111,"Ð³Ð¸Ðº":6112,"Ð°ÑĤÑĮ":6113,"ĠÐ»ÑĬÐ°ÑıÐ»ÑĬÑĥÐ»":6114,"ĠÐ½ÐµÑĩ":6115,"ĠÑĩÐ°ÑħÑĬ":6116,"ĠÐĲÐº":6117,"Ð´Ð°Ð»Ð°":6118,"ÑĥÑģÐ³Ð¾":6119,"ĠÐ³ÑĮÐµÐ»Ð´Ð°Ð³Ð¾":6120,"Ð¸ÑıÐ»ÑĬÐµÐ³Ð¸":6121,"ĠÐĸÐ¸Ð´Ðµ":6122,"ÐĳÐ¾ÐºÑĮ":6123,"ĠÑħÑĬÑĥÐ»ÑĥÑħÑĬÐ°Ð·Ð´Ð°":6124,"ĠÐºÓıÐ°Ð»ÑĬÐ°ÑıÐ»Ð´Ð°":6125,"ĠÐ¼Ð°ÑĪÐ³ÑĮÑĥÑĢÐ°Ð±":6126,"Ð´ÐµÑĢÐ¸ÑĨÐ°":6127,"ĠÐ·Ð¸Ð³Ð°ÑĢÐ°":6128,"99":6129,"Ð½Ð¸ÑıÐ»":6130,"Ð±ÐµÐ³Ð¾Ð²":6131,"ĠÐ³ÑĮÐ°Ñģ":6132,"Ð°Ð»ÑĬÐ¸ÑıÐ»Ð´Ð°":6133,"Ð°ÐºÑĤÐ¾ÑĢ":6134,"Ð´ÐµÐ·Ðµ":6135,"ĠÐ»ÑĬÐ¸Ðµ":6136,"ĠÑģÐº":6137,"ĠÑħÑĬÐ°ÑĤ":6138,"ĠÐ±Ð°ÑĤÐ¸Ð»Ð¸Ð½":6139,"ĠÐĵÑĮÐµÐ½Ð¸ÑĢÐµ":6140,"ĠÑħÐ°ÑĢÐ¸Ð»":6141,"ĠÐ³ÓıÐ°Ð´Ð°Ð½Ð»ÑĬÐ¸":6142,"ĠÑħÐ°ÑģÐ°Ð»Ð¾":6143,"ĠÐºÑĬÐµÑĢÐºÑĮÐµÑıÐ»ÑĬÑĥÐ»":6144,"ĠÐ·Ð°ÐºÐ¾Ð½Ð°Ð»Ð´Ð°":6145,"ÐµÐ´ÐµÑĢÐ°ÑĨÐ¸ÑıÐ»ÑĬÑĥÐ»":6146,"ĠÑĢÐµÐºÓıÐµÐ»ÑĬÐµ":6147,"ĠÑħÓıÐ¸ÐºÐ¼Ð°ÑĤ":6148,"Ð±ÑĥÑĢÐ³":6149,"ĠÐľÐµÐ´":6150,"ĠÑĨÓıÑĥÐ»":6151,"Ð°ÑĩÐ¸":6152,"ĠÐ±Ð¸ÑĨÑĥÐ½ÐµÐ»":6153,"ĠÐ±ÐµÐ³ÑĮÐ¸Ð»Ð°":6154,"ĠÑħÓıÐ°Ð´ÑĥÑĢÐ°Ð»":6155,"ĠÑģÐ°ÑħÐ»ÑĬÐ¸Ð³Ð¸":6156,"ĠÑħÑĮÐ¸ÑħÑĮÑĥÐ½":6157,"ĠÐ²Ð¾Ð»ÐµÐ¹Ð±Ð¾Ð»Ð°Ð»ÑĬÑĥÐ»":6158,"ĠÐłÐ¸Ð·Ð²Ð°Ð½":6159,"Ð°ÑĢÑĥÐ½":6160,"ĠÐ³ÓıÐµÐ±ÐµÐ´Ðµ":6161,"ĠÐĵÑĮÐ¸Ð¼Ð°ÑĤ":6162,"Ð°ÑħÑĬÐµÐ³Ð¾":6163,"ÐµÐ´Ð°Ð³Ð¾":6164,"ĠÐĵÓıÑĥÑĢÑĥÑģ":6165,"ĠÐ±Ð¸ÑĨÑĥÐ½Ð°Ð°Ð½":6166,"ĠÐ³ÑĮÐµÑĩÓıÐµÐ»ÑĬÑĥÐ»":6167,"Ð°Ð½Ð´ÑĢ":6168,"ÑĭÑĢ":6169,"ĠÐ½ÑĥÑħÐ¼Ð°Ð»ÑĬÑĥÐ»ÐµÐ²Ð»ÑĬÑĥÐ½":6170,"ĠÐºÑĥÐ»ÑĮÑĤÑĥÑĢÐ°":6171,"ĠÐ±Ð°ÑħÓıÐ°ÑĢÑĩÐ¸Ð»ÑĬÐ¸":6172,"ĠÐ±Ð¸ÑĨÑĥÐ½Ð°Ð³Ð¾":6173,"ĠÐ±Ð°Ð³ÑĬÐ°":6174,"ĠÐ¼Ð°ÑħÓıÑĢÑĥÐ¼":6175,"ĠÐŁÑĥÑĤÐ¸Ð½Ð¸ÑĨÐ°":6176,"ĠÐºÐ²Ð°ÑĤÓıÐ¸ÑĩÓıÐ¾Ð³Ð¾":6177,"ĠÐ³ÓıÐ°Ð»Ð°Ð¹ÐºÑĥÐ¼":6178,"ĠÐ¿ÑĢÐ¾Ð±Ð»ÐµÐ¼":6179,"Ġ000":6180,"ÑģÐ¾Ð¼":6181,"ĠÑħÐ²Ð°ÑĢÐ°Ð²":6182,"ÑĨÐ°Ð³Ð¸":6183,"ĠÐľÑĥÐ³Óı":6184,"Ð³ÑĮÐ°Ð±Ð¸":6185,"ĠÑħÓıÐ°Ð»Ð°Ðµ":6186,"ĠÑĨÐ¾Ð»ÑĬÐ¸ÑıÐ»ÑĬÑĥÐ»":6187,"ĠÐĵÓıÐ¾ÑĢ":6188,"ĠÐĵÓıÐ°ÑĪ":6189,"ÑĨÓıÑĥÐ»":6190,"ÑĥÐ»ÑĬÐ³Ð¾":6191,"ĠÐĿÐ°ÐºÓıÐºÓı":6192,"ĠÑĪÐºÐ¾Ð»Ð°Ð»":6193,"ĠÑĢÐ°Ð³ÓıÐ¸Ð³Ð¸":6194,"ĠÐºÐ¾Ð½ÑĤÑĢ":6195,"ĠÐľÐ°ÑĢÑĮÑı":6196,"ĠÐ¿Ð¾Ð´Ð¿Ð¸ÑģÐºÐ°":6197,"ĠÐľÐ¸Ð»Ð»":6198,"ÑĥÐ¼Ð°Ð»ÑĬÑĥÐ»":6199,"ĠÐºÐ¾Ð¼Ð¸ÑĤÐµÑĤ":6200,"ĠÐĽÑĬÐ°Ð¹":6201,"ĠÑĢÐ°ÑĩÓĢ":6202,"ĠÑĥÑĩÐ°ÑģÑĤÐ¾Ðº":6203,"ĠÐ¼ÑĥÐºÓıÑĥÑĢ":6204,"Ð´Ð°Ð³ÑĥÐ½":6205,"ÑĥÐ»Ð¸Ð»Ð°":6206,"ĠÐ³Ð°ÑĢ":6207,"ĠÑĤÓıÐ°ÑĢ":6208,"ĠÐ»ÑĬÑĥÑĤ":6209,"ĠÐ¸Ð½Ð²":6210,"Ð¸Ð»Ð°Ð½Ð³Ð¸":6211,"ĠÐ±Ð¾ÑģÑĥÐ»Ð°":6212,"ĠÐ±ÐµÐ³ÑĮÑĥÐ»ÐµÐ»":6213,"Ð¥ÓĢ":6214,"ĠÑĤÓıÐ°Ð´ÐµÑĨ":6215,"ĠÐ³ÑĮÐ°Ð½Ð¸ÑĢÐµ":6216,"ĠÑħÓıÐ°ÐºÑĬÐ°Ð±":6217,"ÑĭÐ¹":6218,"ĠÐŁÐ°ÑĤÓıÐ¸Ð¼Ð°ÑĤÐ¸ÑĨÐ°":6219,"ĠÐ±Ð¸Ð³ÑĮÐ°Ð»ÑĬ":6220,"ĠÐ³ÓıÐ¸ÑģÐ¸Ð½":6221,"ĠÐĸÐ¸Ð²Ð³Ð¾":6222,"70":6223,"Ð¼Ð¾Ñģ":6224,"Ð·Ð°":6225,"Ð¸Ð½Ð¸ÑĨÐ°":6226,"Ð¸Ð½Ð¸Ð¼Ð°ÑĤ":6227,"ĠÐ¼Ð°Ð³ÑĬÐ°Ð»":6228,"ĠÑģÐµÐ¼":6229,"ĠÐĵÑĮÐ°Ð¼":6230,"ĠÐ¿Ð»":6231,"Ð¿Ð¾Ð½":6232,"ĠÑħÑĬÐ°ÑħÓı":6233,"ĠÐ¡Ð°Ð¸Ð´":6234,"ĠÑīÐ²ÐµÑıÐ»ÑĬÐµ":6235,"Ð¾Ð¼Ð¾":6236,"ÐĶÐ¾Ð±":6237,"ĠÐ³ÓıÑĥÑĨÓıÐ¸ÑıÐ»Ð´Ð°":6238,"ÑģÐºÐ°Ñı":6239,"ĠÑĨÐ¾ÑĨÐ°Ð·Ðµ":6240,"ĠÐ¼Ð°ÑĨÓıÐ°Ð»Ð´Ðµ":6241,"ĠÐ¼Ð¸ÑģÐ°Ð»Ð°Ð»ÑĬÐµ":6242,"Ð¾Ð²Ð¸ÑĩÐ°Ñģ":6243,"ĠÐ¼Ð°Ð»ÑĬÐ¸Ð·Ðµ":6244,"ĠÑĤÓıÐ°Ð»ÑĬÐ¸ÑıÐ»ÑĬÑĥÐ»":6245,"ĠÐ³ÑĮÐ°Ð½Ð¶ÐµÐ³Ð¸":6246,"Ð¸Ð½Ð³ÑĢÐ°Ð´":6247,"ĠÐºÓıÐ°Ð½ÑĨÓıÑĥÐ½":6248,"ĠÑħÐ°Ð»Ð°ÑĤÐ±Ð°ÑħÑĬ":6249,"ĠÐľÐ°Ð»Ð¸Ðº":6250,"Ð»Ð¾ÑīÐ°Ð´":6251,"ĠÑģÐ¾Ð»Ð´Ð°ÑĤ":6252,"ĠÐ¿Ð°ÑĩÐ°ÑıÑģÑĥÐ»":6253,"24":6254,"ĠÐ²Ð¾ÑĢÑĩÓı":6255,"ÑĥÑĢÐ°Ð¹":6256,"ĠÑĨÓıÐ²":6257,"ĠÐ°Ð±Ð°Ð´":6258,"ĠÐ³ÑĮÐµÑĩÓıÐ¾Ð»ÑĬÐ¸ÑıÐ»ÑĬÑĥÐ»":6259,"Ð¸Ð·Ð°Ð±Ð¸ÑıÐ»ÑĬÐµ":6260,"ĠÐ³ÓıÑĥÐ¼ÑĢÑĥÑıÐ»ÑĬÐµ":6261,"ĠÐ³ÑĮÐµÐ²Ð³Ð¸":6262,"ĠÐ±Ð°ÐºÓıÐ°Ð»Ð´Ð°ÑģÐ°":6263,"ĠÑĨÐµÐ±ÐµÑĤÓıÐµÐ¹":6264,"ĠÐ³ÓıÐ°ÐºÑĬÐ¸Ð»":6265,"ĠÐ¼Ð¸ÑģÐ°Ð»Ð»ÑĬÑĥÐ½":6266,"Ð©Ð°Ð¹":6267,"ĠÐĵÓıÐ°Ð±Ð´ÑĥÐ»Ð¼Ð°Ð»Ð¸Ðº":6268,"ĠÐ±ÑĥÑģÑĥÑĢÐ±Ð°Ð±Ð¸":6269,"ĠÐºÐ°Ð¿ÑĥÑĢ":6270,"ĠÑģÐ°Ð´Ð°ÐºÑĬÐ°":6271,"ĠÑĤÐµÑĢÑĢÐ¸ÑĤÐ¾ÑĢÐ¸Ð°Ð»Ð¸ÑıÐ±":6272,"ĠÑĢÐ°ÐºÓĢ":6273,"Ð¾Ð»Ð³Ð¾":6274,"Ð¸ÑģÑĥÐ»":6275,"Ð°Ð²ÑĤ":6276,"ĠÐ¸ÑģÑĤ":6277,"ĠÑĨÐ¾ÑıÐ·":6278,"ĠÑĪÐ¾ÑĦ":6279,"Ð¸ÑīÐ°Ð»Ð¸":6280,"Ð°Ð±Ð°Ð·Ð´Ð°ÑģÐ°Ð½":6281,"ĠÐŁÐ¸ÑĢ":6282,"ÑįÐ½":6283,"ÐĴÐ°ÑĤÓıÐ°Ð½":6284,"ĠÐ³ÓıÐ°Ð³Ð°ÑĢÐ»ÑĬÐ¸ÑıÐ»ÑĬ":6285,"ĠÐ¯ÑĢ":6286,"ĠÑĪÐ°Ð³ÓıÐ¸ÑĢÐ°ÑģÑĥÐ»":6287,"ÐĵÑĮÐ°Ð»Ðµ":6288,"ĠÐ¼Ð°ÑĪÐ¸Ð½Ð°Ð±Ð¸":6289,"ĠÐ²ÑĭÑģÑĤ":6290,"ĠÐ²ÑĭÐ¿ÑĥÑģÐº":6291,"ĠÑĤÓıÐ°ÑģÐ¸ÑıÐ±":6292,"ĠÐĳÐµÑĢÐ³ÑĮÐµÐ½Ð»ÑĬÐ¸ÑıÐ»ÑĬÑĥÐ»":6293,"ĠÐºÐ¾Ð½ÑĨÐµÑĢÑĤ":6294,"ĠÐ¥ÑĮÐ°ÑĢÐ³Ð°Ð±Ð¸":6295,"ĠÐ³Ð¾Ð´ÐµÐºÓı":6296,"!\"":6297,"ĠÐ³ÓıÑĥÑħÑĮ":6298,"ĠÐ¼ÑĥÑĢ":6299,"ĠÐºÓıÐ¾Ð»Ð°ÑĢÐµÐ±":6300,"ĠÐĳÐ°Ð³ÓıÐ°ÑĢÐ°Ð±":6301,"ÐĵÑĮÐµÐ»ÑĬ":6302,"Ð°Ð±Ð°Ð·Ð³Ð¸":6303,"ÑĥÑĩÓĢ":6304,"ĠÑĪÐ°Ð³ÑĮÐ°ÑĢÐ°Ð·Ð´Ð°":6305,"ĠÑĤÑĥÐ½ÐºÐ°":6306,"ĠÑĤÐ°ÑĢÐ¸ÑħÐ¸ÑıÐ»":6307,"ĠÐ²Ð°ÑħÑĬÐ¸Ð½Ðµ":6308,"ĠÐĽÑĬÐ°ÑĢÐ°ÑĤÓĢ":6309,"ĠÐĵÑĬÐ¸Ð·Ð»ÑıÑĢ":6310,"Ð©Ð¸Ð±Ð°Ð±":6311,"ÑĢÐ°Ð±Ð°Ð·ÑĥÐ»":6312,"ÑĢÐ¸Ð¹":6313,"Ð¾Ð´Ð°ÑģÐ°":6314,"ĠÐºÑĬÐ¸Ð¼":6315,"Ð¸Ð´Ð°Ð»ÑĬÑĥÐ»":6316,"Ð°ÑıÐ»Ð³Ð¸":6317,"ĠÑĢÑĥÐºÓıÐ°Ð»Ð¸Ð´Ðµ":6318,"ĠÐ¿ÑĢÐ°Ð²":6319,"ÐłÐ°Ð»ÑĬÑĥÐ»":6320,"Ð¸ÐµÐ²Ð°ÑģÑĥÐ»":6321,"Ð°ÑıÐ»Ð´ÐµÐ³Ð¸":6322,"ÑĥÐ´Ð¸Ð½Ð¾Ð²":6323,"Ġ2016":6324,"ÐļÓıÑĥÐ´Ð¸ÑıÐ±":6325,"ĠÐ¨Ð°Ð³ÑĮÑĢÑĥÐ´Ð¸Ð½":6326,"ĠÐ±Ð°ÑĤÓĢÐ¸":6327,"ĠÐľÑĥÑħÑĤÐ°ÑĢ":6328,"ĠÑĤÐ°Ð¼Ð¸ÑħÓıÐ°Ð»Ð´Ðµ":6329,"ÑĢÐ°Ð¿":6330,"ĠÐ±Ð°ÑĨÓıÑĨÓı":6331,"Ð°Ð½Ð°Ð³ÓıÐ°Ð½":6332,"ĠÐºÐ¸Ñģ":6333,"ĠÐ´Ð¸Ð´Ðµ":6334,"ÐµÑħÑģ":6335,"ĠÐ¸Ð½Ð°Ð»Ð´Ðµ":6336,"ĠÐºÑĮÐ¾Ð»Ð°Ð³Ð¾":6337,"ĠÐ»ÑĬÐ¸ÐºÓıÐ°Ð±Ð»ÑĬÑĥÐ½":6338,"ÐµÑĨÑĨ":6339,"ĠÑĥÑĢÐ³ÑĬÐ¸Ð·Ðµ":6340,"ĠÐ¶Ð°Ð¼Ð³ÓıÐ¸ÑıÐ²":6341,"ĠÐ´Ð°Ð³ÑĬÐ¸ÑģÑĤÐ°Ð½Ð¸ÑıÐ·ÑĥÐ»":6342,"ĠÐ±Ð¸ÑīÐ°ÑĢÐ°Ð±":6343,"Ð¥Ð°Ð»ÐºÑĬ":6344,"ĠÐ³Ð°Ð»":6345,"Ð°Ð´Ð¸Ð»":6346,"ĠÐ³ÓıÐ°ÑģÑĢ":6347,"ÐµÐ»Ð°Ð»ÑĬÑĥÐ»":6348,"ÑĪÐºÐ¾Ð»":6349,"ÐµÑĤÓĢ":6350,"Ð°Ð±Ð°Ð·Ð´Ð°Ð³Ð¸":6351,"Ð¸Ð»Ð»Ð°":6352,"ĠÑħÓıÐ°Ð»ÑĤÓıÑĥÑħÑĬÐ°Ð±Ð°Ð·Ð´Ð°":6353,"ÐµÑĩÓĢ":6354,"ĠÐ²Ð°ÑĤÐ°Ð½Ð°":6355,"ĠÐ±ÐµÐ³ÑĮÑĥÐ»Ð¸Ð½":6356,"ÐĵÑĮÐµÐ»Ð´Ð°":6357,"ĠÐ³ÓıÐµÐ½ÐµÐºÐºÑĥÐ½":6358,"ĠÐ»ÑĬÐ°Ð³ÓıÐ°Ð»Ð¸Ðµ":6359,"ĠÐ¸Ð½ÑģÑĤÐ¸ÑĤÑĥÑĤÐ°Ð»ÑĬÑĥÐ»":6360,"ĠÐ£Ð·ÑĥÑħÑĬÐ´Ð°":6361,"ĠÑįÐºÑģÑĤÑĢÐµÐ¼Ð¸Ð·Ð¼":6362,"ĠÐ±Ð°ÑĢÐ°Ðº":6363,"Ð°ÑĢÐ°ÑħÑĬ":6364,"ÑĥÐ½Ð³ÑĥÑĤÓı":6365,"Ð¼Ð¸ÑĢÐ·":6366,"Ð°Ð»ÑĬÑĥÑħÑĬÐµ":6367,"ĠÐ¿Ð¸ÑĤ":6368,"ĠÐ·Ð°ÑĢ":6369,"ĠÐļÐ¸Ð½Ð°Ð»":6370,"ÑħÑĬÑĥÐ½":6371,"ÑıÐ»Ð´Ð°ÑģÐ°Ð½":6372,"Ð¸ÑĩÓıÐ¸Ð½":6373,"Ð°Ð»ÑĬÐµÐ³Ð¾":6374,"ĠÑįÐ»":6375,"ĠÑĢÑĥÐ³ÐµÐ·Ðµ":6376,"ĠÐ±Ð°ÑħÑĬÐ¸Ð½Ð°Ð±":6377,"ÐľÐ¸Ð»Ð»":6378,"ĠÐ°ÑħÐ°Ð»":6379,"ĠÑĢÐ°ÐºÑĮÐ°Ð»ÑĬÑĥÐ»":6380,"ĠÑĩÐ°Ð³ÓıÐ°Ð·Ð´Ð°":6381,"ĠÐ¼ÑĥÐ³ÓıÐ°Ð»Ð¸Ð¼Ð·Ð°Ð±Ð°Ð·ÑĥÐ»":6382,"ĠÐ³ÓıÐ°Ð³Ð°ÑĢÑĥÐ½":6383,"ĠÑģÐ¾ÑĨÐ¸Ð°Ð»Ð¸ÑıÐ±Ð³ÑĥÐ½":6384,"ĠÐľÐ°ÑĢÑĮÑıÐ¼":6385,"ÑĥÑıÐ»Ð´Ð°":6386,"Ð°Ð»ÑħÓı":6387,"ĠÐľÐ°ÑĪ":6388,"ĠÑĨÓıÑĥÐ»Ð°Ð»":6389,"ÑĥÐ¼Ð°Ð´":6390,"ĠÐºÑĮÐµÑıÐ»Ð´Ð°":6391,"Ð°ÑĨÓĢ":6392,"ĠÑĢÐ¾ÑģÐ°Ð½Ð°":6393,"ĠÐ³ÓĢÑĥÑĢÑĥÑģ":6394,"ĠÑģÑĥÐ°Ð»Ð°Ð·Ð´Ð°":6395,"Ð¸Ð½Ð°ÑĢÑĥÐ½":6396,"ĠÐ´Ð°Ð³ÑĬÐ¸ÑģÑĤÐ°Ð½Ð¸ÑıÐ»":6397,"Ð´Ð°Ð³ÑĮÐ¾ÑĢÐºÑĮ":6398,"ĠÐ¸Ð½ÑĩÓıÐ¾Ð³Ð¾":6399,"Ð±Ð°":6400,"ĠÑĢÐ¾ÑĨ":6401,"Ð¸ÑĢÐ°ÑħÑĬ":6402,"ĠÐºÐºÐµÐ´Ð°Ð»":6403,"ĠÑħÓıÐ°Ð»ÑĤÓıÐ°ÑĢÐ°Ð»":6404,"ÑīÐ¸Ðº":6405,"Ð³ÓıÐ°Ð½Ð°ÑģÐµÐ±":6406,"ÐĵÑĮÐµÐ·ÑĥÐ»":6407,"ÑĥÐ»ÑĬÑĥÐ½":6408,"ĠÐ´Ð°Ð½Ð´ÐµÐ»ÑĬÐ°Ð±Ð¸":6409,"ĠÐ³ÓĢÐ°ÑĢÐ°Ð±":6410,"ÐĸÐ¸Ð½Ð´Ð¸ÑĢ":6411,"ĠÑģÐ°Ð¼Ð¾Ð»":6412,"60":6413,"ĠÐ±Ð»":6414,"ĠÐĵÐ°Ð´Ð¶":6415,"ÑĨÐ¸ÑıÐ»":6416,"Ð¶Ð¾":6417,"Ð³ÓıÑĥÑģ":6418,"ĠÐĶÐ°Ð½Ð¸ÑıÐ»":6419,"Ð´Ð°Ð»Ð´Ðµ":6420,"ÐµÑģÐ°":6421,"ÐĵÑĮÐµÑģÑĥÐ»":6422,"ĠÐ°ÑģÐº":6423,"ĠÐ¶Ð¾ÑıÐ»Ð´Ð°":6424,"Ð°ÐµÐ²Ð°Ð»ÑĬ":6425,"ĠÑĤÐ°ÑĢÐ¶":6426,"ĠÐĽÑĬÐ¸Ð¼":6427,"ÑĩÓıÐ²Ð°Ð¹":6428,"ĠÑĨÓĢÑĥÐ½":6429,"ĠÐ´Ð¾Ð±Ð³Ð¾":6430,"ĠÐ°Ð½ÐºÑĮÐ°Ð»ÑĬ":6431,"ĠÑĢÐµÐ´Ð°ÐºÑĨÐ¸ÑıÐ»Ð´Ðµ":6432,"ĠÑĤÐ°Ð»Ð¸ÑħÓıÐ°Ð±":6433,"ĠÐ±Ð¸Ð¶Ð°ÑĢÐ°Ð±":6434,"ĠÐ°Ð²Ð°ÑĢÐ°Ð³Ð°Ñģ":6435,"ĠÑģÐ°ÑĢÐ´Ð¸Ð»ÑĬ":6436,"Â²":6437,"ĠÑĥÐ·":6438,"Ð°Ð±Ð°Ð»":6439,"Ð°Ð±Ð³Ð¸":6440,"Ð°ÑģÑħÓıÐ°Ð±":6441,"ĠÐĵÐ°Ð·ÐµÑĤ":6442,"ĠÐ»ÑĬÐ°Ð·Ð°Ð±Ð¸":6443,"ÐµÐ´Ð¸":6444,"ĠÐ¡Ð°Ð³":6445,"ĠÑıÐºÑĬ":6446,"ĠÐ³ÑĬÐ¾Ð»":6447,"ÑĥÐ»ÑĬÐ°":6448,"ĠÐ¨Ð¸Ñħ":6449,"ĠÐĵÓıÐ°Ð±Ð´ÑĥÐ»ÑħÓı":6450,"ĠÐ³ÑĮÑĥÐ´ÑĥÐ»Ð·Ð°Ð±Ð¸":6451,"ĠÐĺÐ±ÑĢÐ°Ð³ÑĮÐ¸Ð¼Ð¾Ð²":6452,"ĠÐłÐ°ÐºÓıÐ°Ð»Ð´Ð°":6453,"ÐĲÐ»Ð»Ð°Ð³ÑĮÐ°Ñģ":6454,"ĠÐ¼ÐµÑĤÐ¾Ð´":6455,"ĠÐºÑĥÐ±Ð¾Ðº":6456,"ĠÐ³ÑĮÐ¾ÑĨÓı":6457,"Ð·Ð°Ð·ÑĥÐ»":6458,"Ð°ÑħÐ°Ð½Ð¾Ð²":6459,"ĠÐ±ÑĥÐ³Ð¾Ð»ÑĬÐ¸":6460,"ĠÐ¥Ð¸ÑĢ":6461,"Ð°ÑıÐ»Ð¸Ð³Ð¾":6462,"ÐĲÐ³ÑĬ":6463,"ĠÑĢÐ°ÐºÓıÐ°Ð·ÑĥÐ»ÑĬ":6464,"ÐĳÐ¸ÑīÑĥÐ½":6465,"ÐµÑģÑĤÐ²ÐµÐ½":6466,"ĠÐ³ÑĮÐ¾ÑĢÐºÑĮÐ¾Ð±Ð»ÑĬÐ¸":6467,"ÐĵÓıÐ°Ð±":6468,"ĠÐ½Ð°ÑģÐ¸ÑħÓıÐ°ÑĤ":6469,"ÐĶÐ°Ð½Ð´ÐµÐ»ÑĬÐ¸ÑıÐ»Ð´Ð°":6470,"ĠÑĦÐ¸Ð»ÑĮ":6471,"ĠÐ±Ð°ÑħÓıÐ°ÑĢÑĩÐ¸ÑıÐ»":6472,"ĠÐ¸Ð½Ð²Ð°Ð»Ð¸Ð´":6473,"ĠÐ³ÑĬÑĥÐ»Ð±Ð°Ñģ":6474,"ÑĥÐ½ÑĤ":6475,"ĠÐ³ÓıÑĥÐ½Ð°":6476,"ĠÐ³ÑĮÐ°Ð±Ð¸Ð´Ð°Ð»":6477,"ĠÐļÐ°Ð»Ð¸Ð½Ð¸Ð½Ð°ÑĥÐ»":6478,"ĠÐ±ÐµÐº":6479,"ÐļÑĮ":6480,"ĠÐ¼ÑĥÐ³ÑĮ":6481,"ĠÐ§Ð°Ð½":6482,"ĠÐĵÓıÐ°Ð»Ð¸ÑħÓı":6483,"ĠÐ¼Ð¸Ð»Ð»Ð¸":6484,"ĠÑħÓıÐ°Ð»ÑĤÓıÑĥÐ»Ð°Ð³Ð¾":6485,"ĠÑħÑĥÑĢÑħÐµÐ½":6486,"ÐłÐ¾ÑģÑģ":6487,"ĠÐļÑĬÑĥÑĢÐ°Ð¼ÑĥÑħÓıÐ°Ð¼Ð°Ð´":6488,"ĠÐ±Ð°ÐºÓıÐ°ÑĢÐ¸Ð·Ðµ":6489,"ĠÐ³ÓıÐ°ÐºÑģÐ°Ð»Ð´Ð°":6490,"ĠÐºÐ°Ð±Ð¸Ð½ÐµÑĤ":6491,"ĠÐ¸Ð´ÐµÐ¾Ð»Ð¾Ð³":6492,"ÑĢÐ¾ÑĢ":6493,"ÐºÐ¾Ð½":6494,"Ð°Ð½Ð´Ð°Ð»":6495,"ĠÑĢÐ°":6496,"ÑħÐ²":6497,"Ð¾Ð»Ð±":6498,"ÑĤÓıÐ°Ð¼":6499,"ĠÑĢÐ°Ð¹ÐºÐ¾Ð¼Ð°Ð»ÑĬÑĥÐ»":6500,"ĠÑĢÐ°ÑħÑĬÑĥÐ»ÐµÐ»":6501,"Ð¾Ð´Ð¾Ð±":6502,"ĠÑħÑĬÐ²Ð°Ð»Ð°":6503,"ĠÐ¸ÑĪÐ°Ð»ÑĬÐµ":6504,"ÐŁÑĢ":6505,"ĠÐ³ÑĮÐµÐ´Ð¸Ð½Ð°Ð±Ð³Ð¾":6506,"Ð°ÑİÑĢÑĤ":6507,"ĠÐ¼ÑĥÑħÓıÐºÐ°Ð½Ð°Ð±":6508,"Ð°Ð½ÑĤÐµ":6509,"ĠÐĵÓıÐ°Ð±Ð´ÑĥÐ»Ð°ÑĤÓıÐ¸Ð¿Ð¾Ð²":6510,"ĠÑĢÐ°Ð»ÑĬÐ´":6511,"ĠÑĩÑĩÑĥÐ³Óı":6512,"ĠÐ²ÐµÐºÐµÑĢ":6513,"Ð²Ð°Ñģ":6514,"ÑĨÐ¸ÑıÐ»ÑĬ":6515,"ĠÐºÑĬÐµÐ´":6516,"Ð¶Ð°Ð½Ð°Ð»ÑĬÑĥÐ»":6517,"Ð¸Ð»ÑĬÐ°":6518,"ĠÑĢÑĥÐºÓıÐ°ÑĢÐ°Ð±":6519,"ĠÐĿÐ°Ð±Ð¸":6520,"ĠÑĨÐµÐ±ÐµÐ³ÓıÐ°Ð½":6521,"ĠÑĥÑĩÑĥÐ·":6522,"ÑįÐ±ÐµÐ»":6523,"ĠÐ°ÑģÐºÓıÐ¾ÑĢÐµ":6524,"ĠÐ±ÑĥÐºÓĢÑĥÐ½Ð°":6525,"ĠÐºÓıÐ°Ð»Ð³Óı":6526,"ĠÐ¼ÐµÐ´Ð°Ð»Ð°Ð»":6527,"ĠÐ³ÑĮÐ¾Ð±Ð¾Ð»Ð»ÑĬÑĥÑħÑĬ":6528,"ĠÑģÐ¸ÑģÑĤÐµÐ¼Ð°":6529,"ÐµÑħÑĬÐµ":6530,"Ð°Ð»Ð°ÑıÐ»ÑĬÑĥÐ»":6531,"ÑĥÐ»Ð´ÐµÑĢÐ¸Ð»":6532,"ĠÐ³Ðµ":6533,"ÐºÓıÑĥÐ½":6534,"ĠÐ»ÑĬÐ¸Ð´Ð°Ð½Ð¸Ð³Ð¸":6535,"Ð°Ð²Ð»ÑĬÑĥÐ½":6536,"ĠÑĢÐµÑħÑĬ":6537,"ÐµÐ¼Ð¾ÑĢ":6538,"ĠÑĤÓıÐ°Ð´Ð°Ð»":6539,"ĠÑĢÐ°Ð¹Ð¾Ð½Ð°Ð»Ð´Ð°Ð³Ð¸":6540,"ĠÐ³ÓıÑĥÑĨÓıÐ°ÑĢÑĥÑħÑĬÐ°Ð½":6541,"ĠÐ°Ð·Ð°ÑĢÑħÐ°Ð½":6542,"ÑĥÐºÑĮÐ°":6543,"ĠÐĲÐ±Ð°ÐºÐ°ÑĢÐ¾Ð²":6544,"ĠÐĲÐ²Ð°ÑĢÐ°Ð³Ð°Ñģ":6545,"ĠÐĲÑĦÐ³ÑĬÐ°Ð½":6546,"ĠÐĵÐŃÐ¡":6547,"80":6548,"Ð°Ð»Ð¸Ð³Ð¸":6549,"Ð²Ð°Ð¹":6550,"ĠÐ³ÓıÐµÐ¹":6551,"ÑĤÓıÐµÑħ":6552,"ĠÐ¸Ñģ":6553,"ÑĢÑĥÑĤ":6554,"ĠÐ¸ÑĪÐ°Ð·ÑĥÐ»ÑĬ":6555,"ĠÐ°ÑħÓıÑĥÐ»Ð°":6556,"ĠÐ±Ð°Ð¹Ð±Ð¸ÑħÑĮÐ¸":6557,"ĠÐĽÑĬÐ°Ð±Ð³Ð¾":6558,"ĠÐ³ÓıÐ¾Ð»Ð¾ÑħÑĬÐ°Ð±Ð°Ð·Ðµ":6559,"ĠÑĢÐ°ÑĩÐ°Ð½Ð°":6560,"ĠÐ¤Ð°ÑĤ":6561,"ĠÐ±Ð¾ÑĢÑħÐ°ÑĤÐ°Ð±":6562,"ĠÐ±Ð°ÑīÐ°Ð´Ð°Ð±":6563,"ĠÑĨÐµÐ½ÑĤÑĢÐ°Ð»Ð¸ÑıÐ±":6564,"ĠÐºÐ¾ÑĢÑĢÑĥÐ¿":6565,"ĠÐ³ÓıÐ°ÑĤÓıÐ¸Ð´Ð³Ð¾":6566,"ĠÐ¿ÑĢÐµÐ´Ð¿ÑĢÐ¸Ð½Ð¸Ð¼Ð°ÑĤ":6567,"Ð°Ð½ÐºÑĬ":6568,"Ð°ÑģÐµÐ»":6569,"ĠÐ¼Ð°Ð·":6570,"ĠÐ½Ð°":6571,"ĠÐºÐºÐ¾Ð»Ð°ÑĢÐµÐ»":6572,"ĠÐ¡Ð°Ð¿":6573,"ĠÐ¥ÓıÐ¸ÑģÐ°Ð±":6574,"Ð¾Ð¼ÑĭÑĪ":6575,"ÐłÐµÑģ":6576,"Ð°ÑıÐ»ÑĬÐ³Ð¸":6577,"ĠÑĢÐµÑħÑħ":6578,"ĠÐ±Ð¸ÑĩÓıÑĩÓıÐ¸":6579,"ĠÐ¡Ð°Ð³ÓıÐ¸ÑĤ":6580,"Ð»ÐµÑĤ":6581,"Ð°Ð»Ð´Ð°ÑģÐ°Ð³Ð¸":6582,"ĠÐ³ÐµÑĢ":6583,"Ð°ÑĢÐ¸ÑıÐ»":6584,"ÑħÐ¸Ñģ":6585,"ĠÐ³ÓıÐ°Ð·Ñĥ":6586,"Ð¾Ð½Ð´Ð¾":6587,"ĠÑĩÐµÑħÑĮ":6588,"ĠÐ½ÑĥÑħÐ³Ð¸":6589,"ĠÐ³ÑĮÐ°ÑĢÑĥÐ»Ð°Ð°Ð½":6590,"ĠÐ¥ÓıÐ°ÑģÐ¸Ð»":6591,"Ð¾Ð³Ðµ":6592,"ĠÑħÑĥÑĤÓıÐ¸ÑĩÓıÐ¾":6593,"ÐºÑĬÐ¾ÑıÐ»Ð´Ð°":6594,"ĠÑĢÐ¾ÐºÑĮÐ¸Ð³Ð¸":6595,"ĠÑįÑĢÐºÐµÐ½Ð»ÑĬÐ¸":6596,"ĠÐ¸ÑĩÓıÐ³Ð¾":6597,"Ð»Ð°ÑĢ":6598,"Ð°Ð»Ð¸Ðµ":6599,"ĠÑĨÐµÐ½ÑĤ":6600,"ĠÐ»ÑĬÐ¾Ð»ÐµÐ»":6601,"Ð¸ÑģÐ¾":6602,"Ð¸ÑĤÐ»":6603,"Ð´Ð°Ð»Ð°Ð±":6604,"ĠÐ¡Ð°ÑĢ":6605,"ĠÐľÑĥÑħÓıÐ°Ð¼Ð°Ð´ÑħÓıÐ°Ð±Ð¸Ð±":6606,"ĠÐ¢Ð°Ð´Ð±Ð¸ÑĢ":6607,"ÐĲÑģÑģÐ°Ð»Ð°Ð¼":6608,"ĠÑĨÓıÑĥÐ½Ð¸ÑıÐ»Ð´Ð°":6609,"ÑĥÑĨÐ°Ð³Ð¸":6610,"ĠÑħÐ°Ð±Ð°Ð»":6611,"ĠÑĢÐ¸ÑĤÓıÐ¸Ð·Ðµ":6612,"Ġ2010":6613,"ĠÐ±ÑĥÑģÑģÐ¸Ð½Ð°Ð±Ð¸Ð·Ðµ":6614,"ĠÐ®ÑģÑĥÐ¿Ð¾Ð²Ð°Ñģ":6615,"ĠÐ¼Ð°ÑĢÑĪ":6616,"ĠÐ²Ð°Ð»Ð°Ð³ÑĮÑĥÐ½":6617,"ĠÐºÑĬÐ¸Ð¼Ð°ÑĤÐ°Ð»":6618,"ĠÐ¼ÑĥÑģ":6619,"ĠÐ´ÐµÐ¼":6620,"ĠÐ³ÑĮÐµÐ·Ð´Ð°ÑģÐ°Ð½":6621,"ĠÐŃÐ½":6622,"ĠÐ½Ð¸Ð¶ÐµÑĢÐ³Ð¾":6623,"ĠÐľÑĥÑģÐ°ÐµÐ²Ð°Ñģ":6624,"ĠÐºÑĬÐ¸Ð¼Ð°ÑĤÐ³Ð¸":6625,"ĠÐ±Ð°ÑħÑĥÐ½Ð°":6626,"ĠÐ³ÓıÐ°ÐºÑĬÑĥÐ±Ð°":6627,"ĠÑĢÐ¸ÑħÑĮÐ¸Ð·Ð°ÑĢÑĥÐ½":6628,"ĠÐ³ÑĮÐµÐºÑĬÐ¾Ð»ÐµÐ±":6629,"ÑĩÐ¸Ð»ÑĬÐ¸ÑıÐ»Ð´Ð°":6630,"ĠÐºÐ¾ÑĢÐ¾Ð½Ð°Ð²Ð¸ÑĢÑĥÑģ":6631,"ĠÐ¼ÑĥÐ·ÑĭÐº":6632,"ĠÐ¿ÑĥÐ»Ð°Ð½Ð°Ð±":6633,"ĠÐ³ÓıÐ¸Ð±Ð°Ð´Ð°ÑĤ":6634,"ÑĢÐ°ÑħÓı":6635,"Ð±Ð½":6636,"Ð±Ð°ÐºÓĢ":6637,"ÑĥÑĢÐ¼Ð°Ð½":6638,"Ð°ÑģÑĥÐ»Ð³Ð¸":6639,"ĠÐ³ÓıÐµÐ¼ÐµÑĢÐ°Ð²":6640,"ĠÐ±ÐµÑĤÓıÐµÑĢÐ°Ð»Ð´Ðµ":6641,"ĠÐ±Ð¾ÐºÑĮÑĥÐ»ÐµÐ²":6642,"ĠÐĵÑĬÐ°Ð¹Ð¸ÑĢ":6643,"ĠÐĹÐ°ÐºÐ°ÑĢ":6644,"ĠÑħÑĥÑĤÓıÑĥÐ»Ð°":6645,"ĠÐ£ÑĢ":6646,"ĠÐ½ÑĥÑħÐ¼Ð°Ð»ÑĬÑĥÐ»ÐµÐ·ÑĥÐ»":6647,"ĠÐ¿Ð°ÑĩÐ°Ð»Ð¸ÑħÑĬÐ°Ð»Ð´Ð°":6648,"ĠÐ±ÐµÑĢÐ³ÑĮÐ°Ð½Ð°":6649,"ĠÑĢÐ¸ÑħÑĮÐ¸Ð·Ðµ":6650,"ĠÐĴÐ°ÑĤÓıÐ°Ð½Ð°Ð»Ð´Ðµ":6651,"ĠÑģÐ°Ð¹Ð¸Ð³ÑĬ":6652,"ĠÐ¥Ð°Ð»Ð¸Ð´":6653,"ĠÑĩÓıÑĥÑħÓıÐ¸":6654,"ĠÑĩÐ¾ÑĢÑħÐ¾Ð»":6655,"ĠÐ¿Ð°ÑģÐ¿Ð¾ÑĢÑĤ":6656,"ĠÐ³ÓıÐ°Ð¶Ð°Ð¸Ð±Ð°Ð±":6657,"ĠÐĶÐµÑĢÐ±ÐµÐ½ÑĤÐ°Ð»ÑĬÑĥÐ»":6658,"ĠÐ±ÑĥÑİÑĢÑĥÑħÑĬ":6659,"Ð¾Ð¼ÑĭÑĪÐ»ÐµÐ½":6660,"ÐµÐºÑĮ":6661,"Ð¾ÐµÐ²":6662,"ĠÐ±ÑĥÐºÑĬ":6663,"ĠÐ´Ð¾Ð·":6664,"ĠÐºÐºÑĥÑĢÐ°Ð²":6665,"ĠÐĵÓıÐ¾Ð»Ð¾ÑħÑĬ":6666,"ĠÐ±Ð¾ÐºÑĮÐ°Ð½Ð¸":6667,"ĠÐ¶Ð°Ð½Ð¸Ð²Ðµ":6668,"Ð°ÐµÐ²Ð¸Ñĩ":6669,"ĠÐ³ÓıÐ°ÑħÑĮÐ°Ð»Ð»ÑĬÑĥÐ»":6670,"ĠÐ¼Ð°ÑĨÓıÐ°Ð·ÑĥÐ»":6671,"ĠÑĢÐ¸ÑĩÑĩÐ°Ð»ÐµÐ»":6672,"ÑĩÐ¸Ð»ÑĬÐ¸ÑıÐ»ÑĬÑĥÐ»":6673,"ĠÐ¾Ð¿ÐµÑĢÐ°ÑĨÐ¸ÑıÐ»Ð´Ð°":6674,"ĠÐ¦ÓıÐ°ÐºÑĬÐ³Ð¾":6675,"ĠÐ´Ð°ÑĢÐ°Ð±Ð¸":6676,"VII":6677,"ÑĤÐµ":6678,"ĠÑĨÐ¾Ð½Ð¸Ð³":6679,"Ð°Ð»ÑĬÑĥÐ»ÐµÐ»":6680,"ĠÐ¾Ð¿":6681,"ĠÑĢÐ¾ÑĨÓıÑĨÓı":6682,"Ð¼ÑĥÑıÐ»ÑĬÑĥÐ»":6683,"ĠÑĢÐ¾ÐºÑĬÐ¾Ð±Ðµ":6684,"ÐµÐ³Ð¾ÑĢ":6685,"ĠÐ³ÓıÐ¾Ð»Ð¸Ð»Ð°Ð·Ðµ":6686,"ĠÑĤÓıÐ°Ð³ÓıÑĥÐ½":6687,"ÑĥÐ»Ð°ÑĢÐµÐ²":6688,"ĠÑĢÐ°ÑıÐ»ÑĬÑĥÐ»":6689,"Ð¸Ð±ÐµÐ³Ð¾":6690,"ĠÑĢÐµÐ³Óı":6691,"ĠÐĶÐ°Ð´":6692,"Ð³ÑĥÐ½Ð³Ð¸":6693,"ĠÐ¦Ð¸Ð½":6694,"Ð°Ð±Ð°Ð·ÑĥÐ»Ð³Ð¸":6695,"ÐĶÐ¸Ð»Ð¸Ð¼":6696,"ÐĲÐĽ":6697,"ĠÐ³ÓıÐ°ÑħÑĮÐ°Ð»Ð»ÑĬÑĥÐ»ÐµÐ»":6698,"ĠÐĵÑĮÐµÐ»Ð´Ð°Ð³Ð¾":6699,"ĠÐľÐ°ÑħÓıÐ°Ð¼Ð°Ð´":6700,"ĠÐºÑĥÐ»ÑĮÑĤÑĥÑĢÐ¸ÑıÐ±":6701,"ĠÐľÐ¾ÑģÐºÐ²Ð°ÑıÐ»Ð´Ðµ":6702,"ĠÐ³ÓıÐ°ÑħÑĮÐ°Ð»ÑĩÐ°Ð³ÓıÐ°Ð·ÑĥÐ»":6703,"ĠÐºÐ¸ÑĢÐ¸":6704,"ĠÑħÐ¾Ð±Ð°Ð»":6705,"ĠÐŁÐ°ÑĤÐ°ÑħÓı":6706,"ĠÐ´Ð¾ÑĢÐ°":6707,"ĠÑĨÓıÐ¸ÑıÐ²":6708,"ÐµÐ²Ðµ":6709,"ĠÑĢÐ¾ÑģÑĥÐ»ÐµÐ»":6710,"ÑĥÐ´Ð°Ð³Ð¸":6711,"ĠÑħÐ°Ð»ÐºÐºÐ²":6712,"ĠÑħÐ°ÑģÐ»":6713,"ĠÐ´Ð°Ð½Ð´ÐµÑĢ":6714,"194":6715,"Ð£Ð·":6716,"ĠÐºÐ¾Ð¼Ð°Ð½Ð´Ð°Ð±Ð¸":6717,"ĠÐ²ÑĥÐºÓıÐ¸Ð½ÑĩÓı":6718,"ĠÑįÐ¼ÐµÐ½Ð³Ð¸":6719,"ĠÐ³ÑĮÐ¸ÐºÑĬÑĥÐ½":6720,"Ð´Ð°Ð¹Ð¸Ð½":6721,"ĠÑĥÐ½Ð¸Ð²ÐµÑĢÑģÐ¸ÑĤÐµÑĤÐ°Ð»ÑĬÑĥÐ»":6722,"ÐĺÑģÐ»Ð°Ð¼Ð¸ÑıÐ±":6723,"ĠÑĤÓıÐ°Ð´ÐµÑĨÑĥÐ¹":6724,"ÐµÑĢÐ°Ð»Ð´Ð°":6725,"ÑĨÓıÐ°Ð»":6726,"ĠÑĢÐµÐ¹":6727,"ĠÐ¡Ð°Ð¼":6728,"ĠÐ¡Ð°ÑģÐ¸ÐºÑĮ":6729,"ĠÐ³ÑĬÐ¾ÑĤÓı":6730,"ĠÐ¸Ð½ÑĤ":6731,"ĠÐ¸Ð½Ð³Ð¸Ð»Ð¸Ñģ":6732,"ĠÐĶÐ°Ð³ÑĬÐ¸ÑģÑĤÐ°Ð½Ð°Ð»ÑĬÐµ":6733,"Ð°Ð³ÓıÐ°Ð»Ð¸Ð»":6734,"ĠÐ³ÓıÑĥÑĢÑĩÑĩ":6735,"ĠÑĢÐµÑĤÓıÑĥÐ½":6736,"ĠÐ´Ð¸Ð²Ð°Ð½Ð°Ð»ÑĬ":6737,"ĠÑıÑĩÓıÐ°Ð½Ð°":6738,"Ð¥Ð°Ð´ÑĥÐ±":6739,"ĠÐ³ÑĬÐ¸ÑĢÐ°ÑıÐ»Ð´Ð°":6740,"ĠÐ½Ð°ÑĢÐºÐ¾ÑĤÐ¸ÐºÐ°Ð»":6741,"ÑĢÐ°Ñħ":6742,"ÑĬÐ¼Ð¸Ð½":6743,"Ð°Ð½Ð°ÑĤ":6744,"Ð°ÑģÐµÐ²":6745,"Ð°ÑħÑī":6746,"Ð°Ð¹ÑĤ":6747,"ĠÑģÐ¾ÑİÐ·Ð°Ð»ÑĬÑĥÐ»":6748,"ÐµÐ·Ð´":6749,"ĠÐ±Ð¾ÐºÑģ":6750,"ĠÑģÑĥÐ°Ð»Ð³Ð¸":6751,"ĠÐ³ÓĢÐ°Ð´Ð¸Ð½":6752,"ĠÑĢÐ¸ÑħÑĮÑĥÐ»ÐµÐ»":6753,"Ð¥ÓıÑĥÑĢÐ¼Ð°ÑĤ":6754,"Ð£ÑıÐ»ÑĬÑĥÐ»":6755,"ĠÐ½Ð¸Ð³ÓıÐ¼Ð°ÑĤÐ°Ð·ÑĥÐ»":6756,"ĠÑħÐ¸Ð½Ð»ÑĬÐ¸":6757,"ĠÐ¾ÑĤÐ´ÐµÐ»ÐµÐ½Ð¸ÑıÐ»ÑĬÑĥÐ»":6758,"ĠÑĩÓıÐµÐ³ÓıÐµÑĢÐ°Ð±":6759,"ĠÐ·Ð¸ÑıÑĢÐ°ÑĤ":6760,"ĠÐ±Ð°Ð»ÐµÐ»":6761,"Ð¶Ð¸Ð²":6762,"ĠÐºÑĮÐµ":6763,"ĠÐļÐ¾ÑĢ":6764,"ÑĢÑĥÐ¶":6765,"ĠÑħÑĬÐ²Ð°Ð»ÐµÐ»":6766,"ĠÐ³ÑĮÐµÑĩÓıÐ¸Ñī":6767,"ĠÑĢÐ°Ð³ÓıÐ°ÑĢÐ°Ð²":6768,"ĠÐ¸ÑĪÐ³Ð¸":6769,"ĠÐ¹Ð¾ÐºÑĮ":6770,"Ð¸ÐµÐ²Ð¸Ñĩ":6771,"Ġ31":6772,"ĠÐ¦Ð¾Ð¹Ð³Ð¸":6773,"ĠÐ±ÐµÑĢÐ³ÑĮÑĥÐ½":6774,"ĠÑħÓıÑĥÐºÐ¼ÑĥÑıÐ»Ð´Ð°":6775,"ĠÐ±ÑĥÑħÓıÑĥÐ½":6776,"ĠÐ³ÓıÑĥÑĢÐ°Ð»":6777,"ĠÑĤÐ¾Ð»":6778,"ĠÐ¥Ð²":6779,"ĠÑįÐºÐ¾Ð»Ð¾Ð³":6780,"ĠÐ³ÑĮÐ°Ð±ÑĥÐ½Ð¸Ð½":6781,"ĠÐĵÓıÐ°Ð»Ð¸Ð¼":6782,"ĠÐ´Ð°ÑĢÐ°Ð½":6783,"ĠÑĢÐ°ÑĤÑĥÐ»Ð°":6784,"ĠÐĵÓıÐ°Ð»Ð¸ÐµÐ²Ð°Ñģ":6785,"ĠÐĽÐµÐ½Ð¸Ð½Ð°ÑĥÐ»":6786,"ĠÐ±ÑĥÑģÑģÐ¸Ð½Ð°Ð±ÑĥÐ½Ð°":6787,"Ġ0":6788,"Ð»ÑĬÐµ":6789,"Ð°Ð³Ð°":6790,"ĠÑĩÐ¸Ð»ÑĬÑĥÐ½":6791,"ĠÐĶÐ¸Ð½":6792,"ĠÐłÐ¾ÐºÑĬ":6793,"ĠÐ±Ð¸ÑħÑĮÐ¸Ð½Ð°Ð»":6794,"ĠÑĢÑĥÐ³ÐµÐ·":6795,"ĠÑħÐ°ÑģÐ»ÑĬÐ¸":6796,"ĠÐ³ÑĮÐ¾ÑĢÐºÑĮÐ¾Ð±Ðµ":6797,"ĠÐ»ÑĬÑĥÐ³ÓıÐ¸Ð·ÐµÐ³ÓıÐ°Ð½":6798,"ĠÐºÐ²ÐµÑĢÐ´Ðµ":6799,"ĠÐ³ÓıÐ¾Ð´Ð¾ÑĢÑĩÓı":6800,"ÐĺÐ¼":6801,"ĠÑħÓĢÐ°ÐºÑĬ":6802,"ĠÐ³ÑĮÐ¸ÑĤÓıÐ¸Ð½Ð³Ð¾":6803,"ĠÐ²Ð°ÑĤÐ¸Ð»Ð°ÑĢÐ¾":6804,"ĠÑĤÑĥÑĢÐ½Ð¸ÑĢÐ°Ð»Ð´Ð°":6805,"ĠÑĩÑĥÑıÐ»":6806,"ĠÐĲÐ²Ð°ÑĢÐ°Ð³Ð°ÑģÑĥÐ»":6807,"ĠÐ¿Ð¸ÑĪÐ°":6808,"ĠÑģÐ°Ð´Ð°ÐºÑĬ":6809,"ĠÑīÐ²ÐµÐ»Ð°Ð»Ð´Ðµ":6810,"ĠÐ³ÑĮÐ°Ð¹Ð±Ð°ÑĤÐ°Ð±":6811,"ĠÐ¿Ð°Ð»Ð°ÑĤÐ°ÑıÐ»ÑĬÑĥÐ»":6812,"ĠÑĥÑĩÐ¸ÑĤÐµÐ»ÑĮÐ½Ð¸ÑĨÐ°":6813,"Ð½Ð°Ð±Ð¸":6814,"ÐºÐ¸":6815,"ĠÐ±ÑĥÑĢÑĤ":6816,"ĠÐ³ÓıÐ°Ð·Ð°Ð±":6817,"ĠÐ¼Ð¸Ñģ":6818,"ĠÐ³ÑĮÐ°Ð±Ð¸Ð»Ð¸Ð½":6819,"ĠÐ±ÑĥÐ³Ð¾ÑħÐ°":6820,"ĠÑħÓıÐ°Ð»Ð¸ÑħÑĮ":6821,"Ð°ÑĨÓıÐ°Ð»":6822,"ĠÐļÓıÐ°Ð»":6823,"Ð¸ÑģÑĤÐ°Ð·":6824,"Ð²Ð°ÑĢÐ¸ÑģÐ°":6825,"ĠÐ³ÑĮÐ°ÑĢÐ¸ÑıÐ»Ð´Ð°":6826,"ĠÐ²ÑĥÐºÓıÐ°Ð½Ð¸Ð³Ð¸":6827,"ÐµÐ³Ð¸Ð»":6828,"ĠÑħÐ°Ð´ÑĥÐ¹":6829,"ĠÐ»ÑĬÑĥÐ³ÑĮÐ°ÑĢÐ°Ð»":6830,"ĠÑĢÐ°Ð³ÓıÐ°ÑĢÐ°Ð»":6831,"ĠÑĢÐ°ÐºÑĮÐ°Ð·ÑĥÐ»":6832,"Ð¢Ðļ":6833,"ĠÑĨÓĢÐ°ÐºÑĬ":6834,"ĠÐ¸Ð¼Ð°Ð¼Ð°Ñģ":6835,"ĠÐ²ÑĥÐºÓıÐ¸Ð½Ð°Ð»ÑĬ":6836,"ĠÑģÐ¾Ð²ÐµÑĤÐ¸ÑıÐ±":6837,"ĠÐĲÑħÐ¸ÑĢÐ°Ð±":6838,"ĠÐ¿Ð°Ð¹Ð´Ð°ÑıÐ»":6839,"ĠÑĦÐ¸Ð»Ð¸Ð°Ð»":6840,"ĠÐ½ÐµÐºÓıÑģÐ¸ÑıÐ±":6841,"Ð¥ÓıÐ°Ð»ÑĤÓı":6842,"77":6843,"ĠÑĢÐ°Ð´":6844,"Ð°Ð·Ð°Ð¼":6845,"ĠÐ¿Ð»Ð¾ÑīÐ°Ð´":6846,"ĠÐºÑĮÐµÑĩÓıÐ¾":6847,"ĠÐĶÐ°ÑĢ":6848,"ĠÐĶÐĲ":6849,"ĠÐļÐ°Ð»":6850,"ĠÐĳÐ°ÑĪ":6851,"ĠÐ±Ð°ÐºÓıÐ°Ð·ÑĥÐ»":6852,"ĠÐ±Ð¸ÑħÑĮÐ¸Ð·Ð°Ð±ÑĥÐ»Ð°":6853,"Ð°Ð½Ð°Ð»Ð´Ð°ÑģÐ°Ð½":6854,"Ð°Ð»Ð¸Ð¼ÑħÐ°Ð½":6855,"Ð»ÑĬÐ¸ÑıÐ»ÑĬÑĥÑħÑĬ":6856,"ĠÑĥÑĩÐ¸ÑĤÐµÐ»ÑĮÐ·Ð°Ð±Ð°Ð·ÑĥÐ»":6857,"ĠÐ´Ð¸ÑĢÐµÐºÑĤÐ¾ÑĢÐ°ÑģÑĥÐ»":6858,"ĠÐ°ÐºÑĨÐ¸Ñı":6859,"ĠÑĩÐµÐ¼Ð¿Ð¸Ð¾Ð½Ð°ÑĤÐ°Ð»Ð´Ð°":6860,"ĠÑįÐºÐ¾Ð½Ð¾Ð¼Ð¸ÐºÐ°ÑıÐ»ÑĬÑĥÐ»":6861,"ĠII":6862,"ĠÑħÓıÐµÑħÑĮÐµÐ·Ðµ":6863,"ĠÐ¼ÑĥÐ³ÓıÑĢÑĥÐ·Ð´Ð°":6864,"Ð°ÑĢÐ°ÑģÐµ":6865,"ĠÑĢÐ°Ð½Ð°":6866,"Ð»ÑĬÐ°ÑĢÐ°Ð²":6867,"Ð¾Ð½Ð´":6868,"Ð°Ð¸Ðº":6869,"ĠÐŀÐľ":6870,"ĠÐľÐ°ÑħÓıÐ°ÑĩÑħÑĬÐ°Ð»Ð°ÑıÐ»Ð´Ðµ":6871,"ĠÐºÐ¾Ð»ÑħÐ¾Ð·Ð°Ð»Ð´Ð°":6872,"ĠÐ³ÓıÑĥÑĢÑĥÑģÐ°Ð·ÑĥÐ»":6873,"ÐĽÑĬÐ¸Ð¼Ð°Ð»":6874,"Ð¢ÓıÐ°Ð´":6875,"ĠÑģÐ°Ð³ÓıÐ°ÑĤÐ°Ð»ÑĬ":6876,"ĠÐºÑĥÑĩÓıÐ´ÑĥÐ·":6877,"ĠÐ³Ð¾ÑĩÑĥÐ½":6878,"ĠÐ²ÐµÑĤÐµÑĢÐ¸Ð½Ð°ÑĢ":6879,"ĠÐ¼ÑĥÐ½Ð¸ÑĨÐ¸Ð¿Ð°Ð»":6880,"ĠÐĿÑĥÐ¶ÐµÑĢ":6881,"ĠÑħÑĥÐ´Ð¾Ð¶Ð½Ð¸Ðº":6882,"ĠÐ³ÓĢÐ°ÑģÑĢÑĥÑıÐ»ÑĬÑĥÐ»":6883,"ĠÑħÓĢÐ¸ÑģÐ°Ð±Ð°Ð»Ð´Ð°":6884,"Ð°Ð½Ð¸ÑıÐ»ÑĬÑĥÐ»":6885,"ÑģÐµÑģÑĤ":6886,"ĠÐºÑĬÐ°ÑĢÐ°Ð±":6887,"ÐºÑĬÐ¾Ð½Ð¾":6888,"ĠÑħÑĬÐ°Ð¼":6889,"Ð°ÑĩÓĢ":6890,"ĠÑıÐ»Ð°Ð³ÑĮ":6891,"ĠÐĵÓıÐ°Ð±Ð°Ñģ":6892,"ĠÐ±Ð°ÑĤÑĥÐ»ÐµÐ±":6893,"ĠÑĥÐ½ÑĤÐ°ÑĢÐ°Ð²":6894,"ÐµÐ»ÑĬÐµ":6895,"ĠÐ¦ÓıÐ¾ÑĢ":6896,"ĠÐ³ÑĮÐ°Ð´Ð¸Ð½Ð³Ð¾":6897,"ĠÐºÐ¾Ð½ÑĦÐµÑĢÐµÐ½":6898,"ĠÐ¼ÑĥÐ³ÓıÐ°Ð»Ð¸Ð¼Ð·Ð°Ð±Ð°Ð·":6899,"Ġ2013":6900,"ĠÑĢÐ¸ÑīÐ½Ð¸":6901,"Ð°Ð»Ð°ÑĤÓıÐ°Ð»":6902,"ĠÐĲÐ³ÑĬÐ²Ð°Ð»":6903,"ĠÐ°Ð¿Ð¿Ð°ÑĢ":6904,"ĠÐ¼Ð¸Ð½Ð¸ÑģÑĤÑĢÐ°ÑģÑĥÐ»":6905,"ĠÑĩÐ¾ÑĢÑħÐ¾Ðµ":6906,"ĠÐ¥Ð¸Ð·ÑĢ":6907,"ĠÐ±Ð°Ð´Ð¸Ð±":6908,"Ð¸Ð¸":6909,"ÐµÐ±ÐµÐ´":6910,"ĠÐ´Ð¸Ð´Ð°Ð³Ð¾":6911,"ÐºÑĬÐ¸Ð¼Ð°ÑĤ":6912,"Ð¸ÑıÐ»Ð³Ð¾":6913,"ÐµÐºÐº":6914,"ĠÐĿÐ°Ð¿":6915,"ĠÑĢÐ¾Ð³Óı":6916,"Ð°Ð±Ð°Ð·ÑĥÑħÑĬ":6917,"ĠÐ±Ð°ÑħÑĬÐ¸":6918,"ĠÐºÑĮÐ¾Ð»ÐµÐ²":6919,"ĠÐļÑĬÐ²Ð°ÑĤÓı":6920,"ĠÐĲÐ±Ð¸Ð·Ðµ":6921,"ĠÑħÓĢÐ°ÑĢ":6922,"ĠÑħÓıÐ°Ð´ÑĥÑĢÐ»ÑĬÐ¸ÑıÐ»ÑĬÑĥÐ»":6923,"ĠÑħÓıÑĥÐ¶Ð¶":6924,"ĠÐ·Ð°ÑħÓıÐ¼Ð°Ð»ÑĬÐ¸":6925,"ÑĥÐ½Ð³Ð¾ÑıÐ²":6926,"ÑıÐ±ÑĢÐ°Ð»ÑĬÑĥÐ»":6927,"Ð¸Ð»ÐµÐ»Ð´Ðµ":6928,"ĠÑĨÓıÑĥÐ½ÑĥÐ»ÐµÐ·ÑĥÐ»":6929,"ĠÐ¿ÐµÐ´Ð°Ð³Ð¾Ð³Ð¸Ðº":6930,"ĠÑĤÓıÑĥÐ³ÑĮÐ´ÑĥÐ»":6931,"ĠÐ°ÑįÑĢÐ¾Ð¿Ð¾ÑĢÑĤ":6932,"Ð¸Ð·Ð¾ÑĢ":6933,"ĠÐ½Ð°Ð³Ð°Ð³ÑĮ":6934,"ÑıÑĪÐ°Ð²":6935,"ĠÑĤÓıÐ¸Ð½":6936,"ĠÐļÐ²Ð°Ð½":6937,"ĠÑıÑĩÓıÑĥÐ½":6938,"ĠÑĢÐ°Ð¹Ð±":6939,"ÐĶÐ¸Ðµ":6940,"ĠÐ±Ð°ÑĤÐ¸ÑĩÓıÐ¾":6941,"ĠÑħÓıÐ°Ð´ÑĥÑĢÐ°Ð²":6942,"Ð¢Ð°Ð´Ð±Ð¸ÑĢ":6943,"ĠÑģÐ°ÑħÐ°Ð²Ð°ÑĤ":6944,"ĠÐ±Ð¸ÑĩÑĩÐ°Ð½Ð°":6945,"ĠÐ³ÓıÐ¾Ð»Ð¸Ð»Ð°Ð·":6946,"ÐŃÐ±ÐµÐ»":6947,"ĠÐºÑĥÑĨÐ°Ð»ÑĬ":6948,"ĠÑħÐ°Ð±Ð°ÑĢÐ³Ð¸":6949,"ĠÑģÑĥÐ½Ð´ÑĥÐ»":6950,"ĠÐºÐ¾Ð¼Ð¸ÑģÑģÐ¸ÑıÐ»ÑĬ":6951,"Ð°ÑĢÐ°Ð»ÑĬÑĥÐ±":6952,"ĠÑĤÐµÑĢÑĢÐ¾ÑĢÐ¸Ð·Ð¼Ð°Ð»Ð´Ðµ":6953,"ĠÐ¢ÓıÐ¸ÑģÑģÐ¸":6954,"Ð°Ð¹ÑĢ":6955,"Ð¾ÑĢÐ¾Ð½":6956,"ĠÐºÑĬÐ°Ð³ÓĢÐ¸Ð´":6957,"ĠÑĩÐ¸Ñı":6958,"ÑĥÑģÐµÐ¹Ð½":6959,"ĠÑĩÓıÐ°ÑĢÐ°Ð²":6960,"ĠÐºÓıÑĥÐ´Ð¸ÑıÐ¹":6961,"ĠÑĢÐ°Ð³ÑĮÐ°ÑĢÐ°Ð»":6962,"ĠÐļÓıÐ¸":6963,"ĠÐĵÓıÑĥÐ¼Ð°ÑĢÐ¸ÑĨÐ°":6964,"ĠÐ¥ÑĬÐ°Ð·Ð°Ð½":6965,"ĠÐ¼Ð¸Ð½Ð°ÑıÐ»ÑĬ":6966,"ĠÑĩÓıÑĥÐ½ÑĤ":6967,"ĠÐ±ÐµÑĩÐµÐ»ÑĬ":6968,"ĠÑĢÐµÐ»ÑĬÐ»ÑĬÐ°ÑĢÐ°Ð±":6969,"ĠÐ²Ð¸Ð´ÐµÐ¾":6970,"ÑĮÑİÑĤÐµÑĢ":6971,"ĠÐ¾Ð±ÑīÐµÑģÑĤÐ²Ð¾":6972,"ĠÐ°Ð½Ð¸":6973,"Ð´Ð¸Ð»":6974,"ĠÐ¼ÑĥÑĤ":6975,"Ð¾Ð½Ð°Ð»Ð´Ð°":6976,"Ð¸ÑħÐ°Ð½":6977,"Ð°Ð³ÑĬÑĥÑĢ":6978,"ĠÐľÑĥÑħÓıÐ°Ð¼Ð°Ð´Ð¾Ð²Ð°ÑģÑĥÐ»":6979,"ĠÑĢÐ¾ÑĨÓı":6980,"ĠÑĢÑĥÐ³ÐµÐ»Ð°Ð»Ð¸":6981,"ĠÑħÐ°Ð»ÐºÑĬÐ¸ÑıÐ»":6982,"ÐµÑĩÓıÐµÐ²":6983,"ĠÐºÐ»Ð°ÑģÑģÐ°Ð»Ð´Ð°":6984,"ĠÐ²Ð°ÑĤÐ°Ð½Ð¸":6985,"ĠÐ¸Ð´Ð°ÑĢÐ°Ð±Ð°Ð·Ð´Ð°":6986,"ĠÐ°Ð·Ð°":6987,"ĠÑĢÐ°ÑĨÓıÑĨÓıÐ°Ð»ÑĬÐ¸":6988,"ĠÑģÐ°Ð»Ð°ÑĦ":6989,"ĠÐºÐ¸Ð²":6990,"ĠÑĤÐµÐ¹":6991,"ĠÑģÐ°Ð»Ð°ÑĤ":6992,"ĠÐ¿ÑĥÐ½ÐºÑĤ":6993,"ĠÑħÓıÐ°ÑıÐ»ÑĬÑĥÐ»":6994,"Ð³ÑĮÑĥÐ½Ð°ÑĢ":6995,"ÐµÐ²Ð¸Ðº":6996,"ĠÑĩÐ°Ð½ÑĨÓı":6997,"ĠÐĶÐ°ÑĢÐ±":6998,"ĠÐĵÓıÐ¸ÑģÐ°Ð»":6999,"ĠÐ²ÑĥÐºÓıÐ°Ð³Ð¾":7000,"ĠÑħÑĬÐ²Ð°Ð´Ð°ÑĢ":7001,"ĠÐ°ÑħÐ¸ÐºÑĮ":7002,"ĠÑĤÓıÑĥÐ±Ð°Ð»ÐµÐ±":7003,"ĠÐ¼Ð°Ð³ÓıÐ°ÑĢÑĥÐ»Ð°Ð·":7004,"ĠÑģÐ°ÑħÐ»ÑĬ":7005,"ĠÐľÑĥÑħÓıÐ°Ð¼Ð°Ð´Ð¾Ð²Ð°Ð»ÑĬ":7006,"ĠÐĲÑħÓĢ":7007,"ÐĵÑĮÐµÐ»Ð´Ð°ÑģÐ°":7008,"ĠÐĲÑģÑħÓıÐ°Ð±":7009,"ĠÑĤÐ°Ð¼Ð°Ñħ":7010,"ĠÑĢÐµÐ»ÑĬÐ»ÑĬÐ°ÑĢÐ°Ð»":7011,"ĠÑīÐ²ÐµÐ·Ð°Ð±Ð¸Ð·Ðµ":7012,"ĠÐ³ÑĢÐ°Ð¼Ð¾ÑĤÐ°Ð±Ð°Ð·Ð´Ð°Ð»ÑĬÑĥÐ½":7013,"ĠÐ¿Ð°ÑģÐ¸ÑħÓı":7014,"ÐľÐ°ÑħÓıÐ°ÑĩÑħÑĬÐ°Ð»":7015,"ĠÑĪÑĤÐ°Ð±":7016,"Ð±Ð°ÑĤÓĢÐ¸ÑıÐ»":7017,"ĠÑĪÐ¾ÑĦÐµÑĢ":7018,"Ð³Ðµ":7019,"Ð±Ñĥ":7020,"ÑħÑĬÐ°":7021,"ĠÐ»ÑĬÐ¸Ð¼Ð³Ð¸":7022,"ĠÐ´Ð¸ÑĢÐ³Ð¸":7023,"Ð¸Ð·Ð°ÑĢÑĥÐ»Ð°":7024,"ĠÐļÓıÐ²Ð°Ð½":7025,"ĠÑĤÐ°Ð´Ð±Ð¸ÑĢÐ°Ð·Ð´Ð°":7026,"ĠÑħÓĢÑĥÐºÑĥÐ¼":7027,"ĠÐ±ÑĥÑĤÓıÐ°ÑıÐ»ÑĬÑĥÐ»":7028,"ĠÐ§ÓıÐ¾ÑħÑĬ":7029,"ĠÑĤÑĥÑĢÐ¸Ð·Ð¼Ð°Ð»ÑĬÑĥÐ»":7030,"ĠÑĢÐ°Ð´Ð¸Ð¾ÑıÐ»ÑĬ":7031,"Ð°ÑĢÐ¸ÑīÑħÐ°":7032,"ĠÑħÐ°ÑģÐ¸ÑıÑĤÐ°Ð±":7033,"ĠÐ±Ð°ÑħÓıÐ°ÑĢÑĩÐ¸ÑıÐ±":7034,"ĠÐ´ÐµÐºÐ°Ð±ÑĢ":7035,"ĠÑģÐ°Ð½Ð°Ð³ÓıÐ°Ð»ÑĬÐ¸":7036,"ĠÐĲÐ»ÐµÐºÑģÐ°Ð½Ð´ÑĢ":7037,"ĠÐĵÓıÐ°Ð±Ð´ÑĥÑģÐ°Ð»Ð°Ð¼":7038,"ÑĢÐ´":7039,"Ð¼ÑĥÐ»":7040,"Ð°ÑģÑģ":7041,"ĠÐºÑĮÐµÑıÐ½":7042,"ĠÐºÑĮÐ¸Ð±Ð¸Ð»":7043,"ĠÐ¡Ð°Ð»Ð¸ÑħÓı":7044,"ĠÐ³ÓıÐ¾Ð»ÐµÐ»":7045,"ĠÐŁÐ°Ð¹":7046,"ĠÑĢÐ°Ð³ÑĬÐ¸Ð·Ðµ":7047,"ÑĦÐ¾ÑĢÐ¼Ð°ÑĤ":7048,"ĠÐĵÑĮÐµÐ»Ð´Ð°Ð»ÑĬÑĥÐ½":7049,"ĠÐļÑĬÐ²Ð°ÑĢ":7050,"ĠÐºÐ¸Ð½Ð°Ð»ÑĬÑĥÐ»Ð³Ð¾":7051,"ĠÑĤÓıÑĥÐ±Ð°ÑıÐ»Ð´Ð°":7052,"ĠÑĢÑĥÐºÓıÐ¸Ð½Ð°Ð»ÑĬÑĥÐ»":7053,"ĠÐ¯Ñģ":7054,"ĠÑĤÑĢÐ°ÐºÑĤÐ¾ÑĢ":7055,"ĠÑĢÐ°Ð»Ð°Ð³ÑĮÐ¸Ð·Ðµ":7056,"ĠÑĤÐ°Ð²Ð°ÐºÐº":7057,"ĠÐ°ÑĢÑħÐ¸ÑĤ":7058,"ĠÐ¥ÑĬÐ²Ð°Ð´Ð°ÑĢÑĥÑħÑĬ":7059,"ÐĳÐ°ÑĢÐºÑĥÐ»Ð°":7060,"ÑģÐ¸Ñħ":7061,"Ð¼Ð°Ð·":7062,"Ð¼Ð°Ð³Óı":7063,"ĠÑħÓıÐ°Ð»ÑĤÓıÐ¸Ð·Ð°Ð±ÑĥÐ½":7064,"ĠÑĩÓıÐµÐ¹":7065,"ĠÐĿÐ°Ñģ":7066,"ĠÐºÑĥÐ¼ÐµÐºÐ°Ð»ÑĬÑĥÐ»":7067,"Ð°Ð½Ð´Ð¸Ð»":7068,"Ð»ÑĬÐ¸ÑıÐ»ÑĬÑĥÐ»Ð°Ð±":7069,"ĠÑĩÐ¸ÑıÑģÐ´Ðµ":7070,"ĠÐ¼Ð°Ð³ÓıÐ°ÑĢÑĥÐ»Ð°Ð²":7071,"ĠÑĢÑĥÐºÓıÐ¸Ð½Ð°Ð»Ð´Ð°":7072,"ĠÑĢÐ°ÑĩÑĥÐ½ÐµÐ»":7073,"ĠÐ¸Ð½ÑģÐ°Ð½Ð°ÑģÐµ":7074,"ĠÐºÐ²Ð°Ð½Ð°Ð½":7075,"ĠÑĤÓıÐ°Ð³ÓıÐµÐ»":7076,"ĠÐ¼Ð°Ð¶Ð³Ð¸ÑĤÐ°Ð»Ð´Ðµ":7077,"ĠÐĺÐ½ÑģÐ°Ð½":7078,"ĠÐ±Ð¾ÑĨÓıÑĥÐ»":7079,"ĠÑĩÓıÐµÐ·Ð°ÑĢÐ¸Ð·Ðµ":7080,"ĠÐ³ÓıÐ°Ð½ÐºÓı":7081,"ĠÐ±Ð°ÑģÑĢÐ¸ÑıÐ±":7082,"ĠÐ¢Ð°ÑĢÐ¸Ñħ":7083,"Ð»Ð°Ð±":7084,"ĠÐ´Ð°Ð»":7085,"ĠÐºÑĬÑĥÑĢÐ±Ð°Ð½":7086,"ĠÑĨÓıÐ°Ð¼":7087,"ÑħÑĬÑĥÐ»ÑĥÑħÑĬ":7088,"ĠÑħÑĬÑĥÐ±":7089,"ĠÐ·Ð°Ð¼Ð°":7090,"ĠÐĿÐ°Ð³Ð°Ð³ÑĮ":7091,"ĠÐ³ÓıÐ°Ð³Ð°ÑĢÐ°Ð²":7092,"ĠÐ¿Ð¸ÐºÑĢÑĥÐ³Ð¸":7093,"Ġ400":7094,"ĠÐºÑĬÐ°Ð´Ð°ÑĢÐ³Ð¸":7095,"ĠÐ±ÑĥÐºÓĢÐ¸Ð½":7096,"ĠÐ´Ð°Ð³ÑĮÐ°Ð±Ð½Ð¸Ð³Ð¸":7097,"ĠÐ±Ð°ÐºÓĢÐ°Ð»Ð´Ð°":7098,"ĠÐ³ÓıÐ°ÐºÐ°":7099,"ĠÑģÑĥÑĢÑģÐ°ÑĤ":7100,"ÐĲÑģÑģÐ°Ð»Ð°Ð¼Ñĥ":7101,"Ð»Ð¸Ð»":7102,"Ð¸ÑıÐ¼":7103,"ĠÑħÐµÑĢÐ°Ð»":7104,"ĠÐ¼Ð¸Ðº":7105,"ĠÑĤÓıÐ°Ð»ÑĬÐ¸":7106,"ĠÑĩÓıÐ²Ð°ÑĢ":7107,"Ð°ÑģÑĥÐ»Ð³ÑĥÐ½":7108,"ĠÐºÑĬÐ¾ÑĤÓĢ":7109,"ĠÐ³ÑĬÐ°Ð»Ð°ÑĤÓıÐ°Ð»":7110,"Ð¾Ð¼Ð°Ð½":7111,"ĠÐ½Ð¸Ð¶Ð³Ð¸":7112,"ĠÐ¹Ð¾Ñħ":7113,"ĠÐĲÐ»Ð¼Ð°ÑħÑĬ":7114,"ĠÐĹÐ°ÑĢ":7115,"ÑĩÐ°Ð³ÓıÐ°Ð·Ðµ":7116,"ÐĵÑĮÐµÐ´Ð¸Ð½Ð°Ð»":7117,"ĠÑĢÑĥÑĩÑĩÐ°Ð±Ð°Ð·":7118,"ĠÐ´Ð¸ÑĢÐµÐºÑĤÐ¾ÑĢÐ»ÑĬÑĥÐ½":7119,"ĠÑĤÐ°Ð¼Ð°ÑĪ":7120,"ĠÐ¥ÓıÐ°Ð¶Ð¸Ð¼ÑĥÑĢÐ°Ð´Ð¸Ð»":7121,"ĠÑĤÓıÐ°Ð»ÑĬÐ¸ÑıÐ»Ð´Ð°":7122,"ĠÐ£Ð½Ð³Ð¾":7123,"ĠÑħÓıÐ°ÐºÐ¸Ð¼Ð·Ð°Ð±Ð°Ð·":7124,"ĠÑĢÑĥÐºÓĢÐ°ÑĢÐ°Ð»":7125,"ĠÐºÑĢÐ¸Ð·":7126,"ĠÐ±Ð¸Ð±Ð»Ð¸Ð¾ÑĤÐµÐºÐ°ÑıÐ»ÑĬÑĥÐ»":7127,"ĠÐ¸Ð½Ð¶Ð¸ÑĤ":7128,"ĠÐĲÐ·ÐµÑĢÐ±Ð°Ð¹":7129,"ĠÑĦÐ¸Ð·ÐºÑĥÐ»ÑĮÑĤÑĥÑĢÐ°ÑıÐ»ÑĬÑĥÐ»":7130,"Ð»ÐµÐ³":7131,"Ð°ÐºÐ¸":7132,"ĠÐºÑĬÐ¾Ð»Ð¾":7133,"Ð¾Ð²Ð³ÑĥÐ½":7134,"ĠÐĲÑĪ":7135,"ĠÑħÓıÐ°Ð»ÑĤÓıÑĥÐ»Ð°":7136,"Ð¸ÐºÑĢÑĥ":7137,"ĠÐĶÐ°Ð³":7138,"ĠÐ´Ð°Ð½Ð´ÐµÐ»ÑĬÑĥÐ½":7139,"ĠÐ³ÓıÑĥÑĨÓıÐ¸ÑıÐ»ÑĬ":7140,"ĠÑĢÐ°Ð·Ð¸Ð³Ð¾":7141,"ĠÐ±Ð°Ð¶Ð°ÑĢÐ¸Ð³Ð¸":7142,"ÐĵÑĮÐµÐ±Ð³Ð¾":7143,"ĠÑģÐ°Ð½Ð¸ÑĤ":7144,"Ð¾Ð»Ð¾Ð³Ð¸ÑıÐ»":7145,"ĠÑĤÓıÐ°Ð±Ð¸Ð³ÓıÐ°ÑĤÐ°Ð»ÑĬÑĥÐ»":7146,"ĠÐ³Ð°Ð·Ð°Ð»ÑĬÑĥÐ»":7147,"ĠÑĥÐ½ÐºÑĬÐ°Ð±Ð¸Ð»ÐµÐ±":7148,"ĠÐ¥ÑĥÑĪÐµÑĤ":7149,"ĠÐ¼Ð¸Ð»Ð¸ÑĨ":7150,"ĠÑĨÐµÑĢÐµÑĢÐ°ÑħÑĬÐ¸Ð½":7151,"ĠÐ¡ÐĴÐŀ":7152,"ĠÐºÐ°ÑĤÐµÐ³Ð¾ÑĢ":7153,"ĠÐĻ":7154,"ÑĢÐ°ÐºÑĬ":7155,"ÑĢÐ°ÑıÐ»ÑĬÑĥÐ»":7156,"ĠÐºÐºÐµÐ·Ð°ÑĢ":7157,"Ð¸ÑģÑĤÑĢ":7158,"ĠÐĵÓıÐ°ÑĢÐ°Ð±":7159,"ÑĨÓıÐ°":7160,"ĠÑīÐ²ÐµÑıÐ»Ð´Ð°":7161,"Ð°Ð¿ÑĥÑĢ":7162,"ĠÐ§ÑĥÐ¿":7163,"ĠÐ±Ð°ÐºÓıÐ°Ð»Ð³Ð¸":7164,"ĠÐ´Ð°Ð³ÑĮÐ°Ð»ÑĬ":7165,"ĠÐºÐ²ÐµÑĢÐ³Ð¸":7166,"ĠÐ³ÓıÐ°Ð»Ð¸Ð¼Ð·Ð°Ð±Ð°Ð·ÑĥÐ»":7167,"ĠÐ¼ÐµÐ´ÑģÐµÑģÑĤ":7168,"ĠÐ±Ð¾Ð»ÑĮÐ½Ð¸ÑĨÐ°ÑıÐ»Ð´Ðµ":7169,"ĠÑħÓıÐ°Ð´Ð¸ÑģÐ°Ð»Ð´Ð°":7170,"ĠÑĢÑĥÐ³ÑĬÑĥÐ½":7171,"98":7172,"ĠÐ²Ð¸Ð¶":7173,"ĠÐĵÐ¾ÑĢ":7174,"ĠÐ¼Ð°Ð²Ð»":7175,"ĠÐ³ÑĮÐ°Ð±ÑĥÐ»ÐµÐ¹":7176,"ĠÐļÐ°Ð¼":7177,"ĠÐĳÐ°Ð»":7178,"ÑĥÐ´Ð°Ð³Ð¾":7179,"ĠÐ³ÑĬÐ°Ð½ÐºÑĬ":7180,"ĠÐ·Ð°Ð¼Ð°Ð½Ð°ÑıÐ»ÑĬÑĥÐ»":7181,"ĠÐ°ÑģÐºÓĢ":7182,"ĠÐĺÑĢ":7183,"ĠÑĦÐ¸Ð½Ð°Ð»":7184,"ĠÐ±Ð°Ð¹Ð±Ð¸ÑħÑĮÐ°ÑĢÐ°Ð»Ð´Ð°ÑģÐ°":7185,"Ð¦ÓıÐ°Ð»":7186,"ĠÐ¦ÓıÐ°Ð´Ð°":7187,"ĠÐ¼ÑĥÑĢÐ°Ð´Ð»ÑĬÑĥÐ½":7188,"ĠÐ³ÑĮÐ¸ÑĤÓıÐ¸Ð½Ð°Ð»":7189,"ĠÐ±Ð¾Ð¶Ð¸":7190,"ĠÐ·Ð°Ð¼ÐµÑģÑĤÐ¸ÑĤÐµÐ»ÑĮÐ»ÑĬÑĥÐ½":7191,"Ð°ÑĤÑĥÑĢÐ°":7192,"ĠÐ¾Ð¿ÐµÑĢÐ°ÑĨ":7193,"ĠÑħÓıÐ°Ð»ÑĤÓıÐ¸Ð·Ð°ÑĢÐ¸Ð·Ðµ":7194,"ĠÐ³Ð¾ÑħÓı":7195,"ĠÐ¼Ð°Ð¹Ð´Ð°Ð½Ð°Ð»Ð´Ð°":7196,"ĠÐ¿ÑĢÐµÐ¼ÑĮÐµÑĢ":7197,"Ð³Ð°Ð»ÑĤÐµÑĢ":7198,"ÐºÐ¸Ð±ÐµÐ³Ð¾":7199,"ĠÐ±Ð°Ð·Ð°Ð±":7200,"ĠÐºÐ°Ð´":7201,"Ð¸Ð·Ð¸Ð»ÑİÑĢÑĤ":7202,"ĠÐ»ÑĬÑĥÑĢÐ°Ð²":7203,"Ð°Ð²Ð³Ð¾":7204,"ĠÑĢÑĥÐº":7205,"Ð°ÑħÑĬÐ°Ð½":7206,"ĠÐľÐ°Ð´Ð¸Ð½":7207,"ĠÑĢÐµÑĨÓı":7208,"ÑĥÐ¼Ð°ÑĢÐ¾Ð²":7209,"ĠÐļÐŁ":7210,"ÑĥÑĤÓıÐ°":7211,"ÐĲÑĢ":7212,"ÑĥÑĩÑĩ":7213,"ĠÑħÐ°Ð»ÐºÑĬÐ°Ð»":7214,"ĠÑĪÐ°Ð³ÑĮÐ°ÑĢÐ°Ð»":7215,"ĠÐ±Ð¸ÑĩÓıÑĩÓıÑĥÐ»Ð°":7216,"ĠÑĢÐ¾ÐºÑĬÐ¾ÑģÐ°":7217,"ĠÐ°ÑģÐ»Ñĥ":7218,"ĠÑĩÓıÐ²Ð°ÑĢÐ°Ð±":7219,"ĠÐ´Ð°Ð½Ð´ÑĩÓıÐ²Ð°Ð»Ð°":7220,"ĠÑĢÐ¾ÐºÑĮÑĥÐºÑĬ":7221,"ĠÐºÑĬÐ²Ð°ÑĢÐ¸Ð³ÓıÑĥÐ½Ð°":7222,"ĠÑħÑĮÐ²Ð°Ð´ÑĥÐ»ÐµÐ±":7223,"ĠÑĢÐ¾ÑħÑĮÐ¸Ð»":7224,"Ð¸ÑĦÐ¸Ðº":7225,"ĠÐºÑĬÐµÑĢÐºÑĮÐµÐ¹":7226,"ĠÑħÑĬÐ²Ð°Ð´Ð°ÑĢÑĥÑħÑĬÐ°Ð±Ð°Ð·ÑĥÐ»":7227,"ĠÐ³ÓıÐµÐ´ÐµÐ³Óı":7228,"ĠÑĦÐ¸Ð»ÑĮÐ¼":7229,"ÐłÐµÑģÐ¿ÑĥÐ±Ð»Ð¸Ðº":7230,"ÐµÐ»ÑĬÐ¸Ðµ":7231,"Ð¸Ð·Ð°ÑĨÐ¸ÑıÐ»ÑĬÑĥÐ»":7232,"ĠÐ½Ð°Ð¿":7233,"ĠÐºÑĬÐ°Ð½Ð°":7234,"ĠÑģÐ¾Ð½Ð°Ð»Ð´Ð°ÑģÐ°Ð½":7235,"ĠÐĳÑĢ":7236,"ÐłÐ°ÐºÓıÐ°Ð»":7237,"ĠÑĢÐ°Ð³ÑĬÑĥÑħÑĬÐ°Ð½":7238,"ĠÐĹÐ°Ð¼Ð°Ð½":7239,"ÑħÑĮÑĥÐ»":7240,"ĠÐ¿Ð¾Ð»Ðº":7241,"Ġ45":7242,"ĠÑĥÑĢÐ³ÑĮ":7243,"ĠÑħÓıÐ¸Ð½ÐºÑĬÐ¸Ð³ÑĮÐµÑĩÓıÐ¾Ð»ÑĬÐ¸":7244,"ÑħÑĬÐ²Ð°ÑıÐ»":7245,"Ð³ÑĮÐ°Ð±Ð¸ÑıÐ»ÑĬÑĥÐ»":7246,"ĠÐºÐºÐµÐ»Ð¸Ð½":7247,"ÐĶÐ°Ð½Ð´ÐµÐ»ÑĬÐ¸":7248,"ĠÐ¡Ð¸ÑĢÐ°Ð¶ÑĥÐ´Ð¸Ð½":7249,"ĠÐŁÑĥÑĤÐ¸Ð½Ð¸Ð»":7250,"ĠÐºÐ¾ÑĩÓıÐ¾ÑħÑĬ":7251,"ĠÐ¶Ð¸Ð¹Ð³Ð¾":7252,"ĠÐĳÐ°ÑħÓıÐ°ÑĢÑĩÐ¸":7253,"ĠÐ¢ÓıÐ¾Ð»Ð³Ð¾ÑĢÐ¾ÑģÑģÐ¸ÑıÐ»ÑĬÑĥÐ»":7254,"ĠÐ±Ð¸ÑħÑħÑĥÐ½":7255,"ĠÑĢÐµÐ²Ð¾Ð»Ñİ":7256,"ĠÐºÑĬÐ²Ð°Ð»":7257,"Ð¸ÑıÐ»Ð´Ð°Ð³Ð¾":7258,"ĠÑħÑĬÐ°Ð»Ð°":7259,"ĠÑħÑĬÐ°ÑħÓıÐ°Ð±":7260,"ĠÐ¨Ð°Ñħ":7261,"ĠÐĺÐ½ÑĤÐµÑĢÐ½":7262,"ĠÑĨÓıÐ¸ÐºÓıÐºÓıÐ°Ð½Ð°":7263,"ĠÐ³ÑĮÐµÐ»ÑĬÑĥÐ»ÑĬ":7264,"ĠÐ±Ð°ÐºÑĬÐ°Ð½":7265,"ĠÐºÑĬÑĥÐ²Ð°ÑĤÐ°Ð»":7266,"ĠÑĢÑĥÑĩÑĩÐ°Ð±Ð°Ð·Ðµ":7267,"ĠÑĤÓıÐ¾ÐºÓıÐ°Ð²":7268,"ĠÑĤÓıÐ°Ð±Ð¸Ð³ÓıÐ¸ÑıÐ±":7269,"ĠÑĢÐ°Ð³ÓĢÐ°Ð»Ð´Ð°":7270,"ĠÑħÓıÐ°Ð»ÑĥÑĨÐ°ÑĢÐ°Ð±":7271,"ĠÐ¸Ð½Ð²ÐµÑģÑĤ":7272,"Ð»ÐµÐ´":7273,"Ð°Ð±Ð°ÑģÐ°ÑĢ":7274,"ÑĩÐºÓı":7275,"ĠÐ¥Ð°ÑĩÐ°Ð»":7276,"ĠÐłÐ°Ð¼":7277,"ĠÐĳÐ°Ðº":7278,"ĠÐĳÐ¸ÑĤÓıÐ°ÑĢÐ°Ð±":7279,"ĠÐ³ÑĬÐ¾Ñģ":7280,"ĠÐ³ÑĮÐµÐ»Ð³Ð¾":7281,"ÑĨÐ¾Ð³Ð¸":7282,"ĠÑĢÐ°ÑĩÓıÐ¸Ð½":7283,"ĠÑĢÐ°ÐºÓıÐ³Ð¸":7284,"ĠÐ°ÑħÓĢ":7285,"ĠÑĢÐµÑħÐ¸Ð·Ðµ":7286,"ĠÑĢÑĥÐºÑĬÐ³Ð¸":7287,"ĠÑģÐ¿Ð¾ÑĢÑĤÐ·Ð°Ð»":7288,"ĠÐ¼Ð°ÑħÑīÐ°Ð»Ð¸Ð´Ð°":7289,"ĠÐºÑĬÐ°ÑĩÓıÐ°ÑĢÐ°Ð±":7290,"ĠÐ¿Ð¾Ð»Ð¸ÑĤÐ¸ÐºÐ°":7291,"ĠÐºÐºÐµÐ»Ð°ÑĢÐ¾":7292,"ĠÑħÓıÐ°Ð¹ÑĢÐ°Ð½":7293,"ĠÐ³ÑĮÑĥÐºÑĬÐ°ÑĢÐ°Ð±":7294,"ĠÑģÐ¿ÐµÑĨÐ¸Ð°Ð»Ð¸ÑģÑĤÐ°Ð»":7295,"ĠÑĢÐ°ÑħÑĬÐ¸Ð½Ð°ÑĢÐ¸Ð·Ðµ":7296,"ĠÑĪÐ°ÑĢÑĤÓıÐ°Ð·Ð´Ð°":7297,"ĠÐ¾Ð±ÑĬÐµÐºÑĤÐ°Ð»":7298,"ĠÑĩÐ°ÑĩÐ°Ð½Ð°Ð·ÑĥÐ»":7299,"ĠÐ¢ÓıÐ°Ð½ÑĥÑģÐ¸":7300,"ĠÐĴÐµÑĩÐµÐ´Ð¾Ð²Ð°Ñģ":7301,"ÑĥÐ¼Ð³ÑĮÑĥÑĢÐ¸ÑıÑĤÐ°Ð»ÑĬÑĥÐ»":7302,"Ð°ÐºÐ°Ð½":7303,"ĠÑĤÓıÑĥÑĢÐ°Ð±":7304,"Ð¸ÑĨÐ¸":7305,"Ð°ÑħÓıÐ¼Ð°Ð´":7306,"ÐµÐ´ÐµÑĢÐ°Ð»":7307,"ĠÐ¡Ð²ÐµÑĢ":7308,"ĠÐľÑĥÑħÓıÐ°Ð¼Ð°Ð´Ð³Ð¸":7309,"ĠÑĢÐµÑģÐ°Ð»Ð´Ð°":7310,"ĠÐ°ÑģÐ°ÑĢÐ°Ð·ÑĥÐ»":7311,"ĠÐ°Ð±ÑĥÐ½Ð¸Ð³Ð¸":7312,"Ð¸ÑıÐ»Ð´ÐµÐ³Ð¸":7313,"ĠÑĥÑĩÐ¸Ð»Ð¸Ñī":7314,"ĠÐ³ÑĮÐ°Ð²ÑĥÑĢÐ°Ð»Ð´Ð°ÑģÐ°":7315,"ĠÐ³ÑĮÐ°Ð»Ðµ":7316,"ĠÐºÑĬÐ¾ÑĤÓıÐ¸ÑĩÓıÐ¾Ð³Ð¾":7317,"ĠÑĥÐ»Ð±ÑĥÐ»":7318,"ÐºÑĬÐ¾ÑĤÓıÑĥÐ½":7319,"ĠÐĵÓıÐµÐ¼ÐµÑĢÐ°Ð±":7320,"ĠÐ³ÓıÐ°ÑħÑĮÐ°Ð»ÑĩÐ°Ð³ÓıÐ°Ð·":7321,"ĠÐĳÐ°ÑĢÐºÑĥÐ»Ð°":7322,"ĠÐ±ÐµÑĤÓıÐµÑĢÐ³ÑĮÐ°Ð½Ð°Ð±":7323,"ĠÑģÑĥÐ½Ð´ÑĥÐ»ÑĬÐ³Ð¾":7324,"Ð°Ð±ÑĢÐ°Ð³ÓıÐ¸Ð»":7325,"ĠÐ³ÐµÐºÑĤÐ°ÑĢ":7326,"ÑģÐ¾Ð¼Ð¾Ð»":7327,"ĠÐºÑĢÐ¸Ð·Ð¸Ñģ":7328,"Ð°ÑĢÐ°Ð½":7329,"Ð»ÑĬÐ°Ð±Ð°Ð·ÑĥÐ»":7330,"ÑģÐ¸Ð´":7331,"Ð°Ð·Ð´Ð°ÑģÐ°Ð³Ð¸":7332,"ĠÐ»ÐµÐ·":7333,"ĠÐ¿Ð¾ÑģÑĤ":7334,"ĠÐ³ÓıÐ°Ð´Ð°Ð²":7335,"ÑıÐ»Ð´Ð°Ð³Ð¸":7336,"ĠÐ±Ð¾ÑģÐ¸ÑĩÓıÐ¾Ð³Ð¾":7337,"ĠÑħÓıÐ°Ð»ÑĤÓıÑĥÑħÑĬÐ°Ð±Ð¸Ð³Ð¸":7338,"ĠÐºÐ²ÐµÑĢÐ°Ð»ÑĬ":7339,"ĠÑĤÐ°Ð´Ð±Ð¸ÑĢÐ°Ð»ÑĬÑĥÐ»":7340,"Ð°Ð¼Ð°Ð»Ð¸Ð³Ð¾":7341,"ĠÑĢÐµÑħÑģÐ°Ð½Ð°":7342,"ĠÐ±Ð°ÑħÓıÐ°ÑĢÐ·Ð°Ð»":7343,"ÑĨÐ¾ÑıÐ·Ðµ":7344,"ĠÐ¨Ð°Ð¼Ñģ":7345,"Ð²ÐµÑĪ":7346,"ĠÐºÑĬÐ°Ð½ÑĥÐ½Ð°Ð»Ð´Ð°":7347,"ĠÐ¹Ð¸Ð³Ð¸Ð½":7348,"ĠÐ´Ð°Ð½Ð´ÐµÑĩÓıÐµÐ¹":7349,"ĠÐĳÐ¾ÐºÑĮÑĥÐ½":7350,"ĠÐļÐ°ÑĢÐ¸Ð¼":7351,"ĠÑĩÐ°Ð±ÑħÑĬ":7352,"Ð¼Ð¸ÑıÐ±":7353,"ĠÐĵÑĮÐµÑĩÓıÐ¾":7354,"Ð³ÓıÐ°Ð´Ð¸Ð½":7355,"ĠÑĩÐ°ÑģÑĤ":7356,"Ð´Ð°Ð»Ð³Ð¸":7357,"ĠÑĨÓıÐ°Ð»Ð°ÑĢÐ°Ð»":7358,"ĠÑĢÐ°Ð³ÓıÐ°":7359,"ÑİÑģÑģ":7360,"ĠÐºÐ¸Ð½ÑħÐ°":7361,"ĠÐ½Ð¸Ð»ÑĬÐµÑħÑĬÐµ":7362,"ĠÑıÑģÐ°Ð·ÑĥÐ»":7363,"ĠÑįÐ±ÐµÐ»Ð³Ð¸":7364,"ĠÐļÓıÑĥÐ´":7365,"ĠÑĢÐ¾ÐºÑĮÑĥÐ»":7366,"ÐµÑĤÐµÑĢÐ±ÑĥÑĢÐ³":7367,"Ð¨ÐºÐ¾Ð»":7368,"ĠÐ±Ð°Ð³ÑĮÐ°Ð´ÑĥÑĢ":7369,"ÐļÓıÐ¸Ð°Ð±Ð¸Ð»ÐµÐ±":7370,"ĠÐĲÑħÐ¸ÑĢÐ°Ð»Ð´Ð°":7371,"ĠÑĨÐµÐ±ÐµÑĤÓıÐµÐ·Ð°Ð±Ð¸ÑıÐ»ÑĬÐµ":7372,"ĠÐļÐ¾Ð½ÑģÑĤÐ¸ÑĤÑĥÑĨ":7373,"ĠÐĹÐ°Ð¹Ð½Ð°Ð±":7374,"ĠÑĨÐµÑĢÐµÑħÑĬÐ°Ð±Ð¸":7375,"ĠÐľÐµÐ»Ð¸ÐºÐ¾Ð²Ð°Ñģ":7376,"ĠÐºÑĬÐ¾ÑĤÓıÐ½Ð¾Ð±":7377,"ĠÐĳÐ°ÐºÑĮÐ°Ð³ÑĮÐµÑĩÓıÐ¸":7378,"ÐºÐ°Ð½Ð°Ð»":7379,"ĠÐ¼Ð°Ð»ÑĬÑĥÐ»Ð°":7380,"Ð¾ÑģÐµÐ½":7381,"Ð¾Ð²ÑħÐ¾Ð·":7382,"ĠÐľÐ°ÐºÑĬ":7383,"Ð¸Ð¼ÑĥÑĢÐ°Ð´":7384,"ĠÑĢÐµÐ¶":7385,"ĠÐ°Ð±Ð¸Ð»ÐµÐ»":7386,"ĠÐ¡Ð¸Ð»":7387,"ĠÑĢÑĥÐ³ÐµÐ»ÑĬÑĥÐ»":7388,"ĠÐĹÐ°ÑĥÑĢ":7389,"ĠÐļÓıÑĥÐ´Ð¸ÑıÐ²":7390,"ĠÐŃÐ¼":7391,"ĠÑĤÓıÐ°Ð¼ÑĥÐ»ÐµÐ±":7392,"ĠÑĤÓıÐ°Ð¼ÑĥÐ»Ð°":7393,"ĠÑĢÐ°ÑĤÑĥÐ»ÐµÐ»":7394,"ĠÐ´Ð°Ð½Ð´ÑĩÓıÐ²Ð°ÑıÐ»Ð´Ð°":7395,"ĠÑĨÐµÐ±ÐµÐ³Ð¸":7396,"ĠÐ½Ð¾Ð¼Ð¸Ð½":7397,"Ð°Ð½ÑģÑĥÑĢ":7398,"ĠÐ¿ÑĢÐ¾ÐµÐºÑĤÐ°Ð»Ð´Ð°":7399,"ĠÑħÓıÐ°ÐºÐ¸Ð¼Ð·Ð°Ð±Ð¸":7400,"ĠÐ³ÓıÐ°Ð½Ð°ÑģÐµÐ±":7401,"90":7402,"Ð°Ð°Ð½":7403,"ĠÐ±Ð¸Ð»ÑĬ":7404,"ĠÐ±ÐµÑģÑģ":7405,"ĠÑĤÐ°Ð½Ð¸":7406,"Ð¸Ð»Ð°ÑĢÐ¸Ð½":7407,"ĠÐ³ÑĮÐ°Ð±Ð¸Ð³Ð¸":7408,"ĠÑĩÐ¸ÑĢÐ°ÑħÑĬ":7409,"Ð¸ÑıÐ»ÑĬÑĥÐ»Ð³ÑĥÐ½":7410,"Ð°ÐºÑĬÐ¸":7411,"ĠÐ²ÑĥÐºÓıÐ°ÑĢÐ°Ð±":7412,"ÐĶÐ°Ð³":7413,"ĠÐ³ÓıÑĥÑĨÓıÐ°Ð±Ð°Ð·Ð´Ð°":7414,"ĠÐĲÐ»Ð¶Ð°Ð½":7415,"ĠÐĹÐ¸ÑıÐ²":7416,"ĠÐ°Ð½Ñģ":7417,"ÐĳÐ°Ð³ÓıÐ°ÑĢÐ°Ð±":7418,"ĠÑĢÐ°ÐºÑĮÐ³Ð¸":7419,"ÑĥÐ³ÐµÐ³Ð¸":7420,"ĠÑĢÐ°Ð·Ð¸Ð»ÑĬÑĥÐ½":7421,"ĠÐľÐ°ÑħÓıÐ°ÑĩÑħÑĬÐ°Ð»Ð°ÑıÐ»Ð´Ð°ÑģÐ°":7422,"ĠÐ³ÓıÐ°Ð³Ð°ÑĢÐ»ÑĬÐ¸ÑıÐ»Ð´Ð°":7423,"ĠÐľÑĥÑħÓıÐ°Ð¼":7424,"ĠÐ±ÐµÑĩÐµÐ´Ð°Ð»":7425,"ĠÐ±ÑĥÑģÑģÐ¸Ð½Ð°Ð±ÑĥÐ½":7426,"ĠÑĩÐµÐ¼Ð¿Ð¸Ð¾Ð½Ð°ÑĤ":7427,"ĠÑħÓıÐ°ÐºÑĬÐ¸ÐºÑĬÐ°ÑĤÐ°Ð»Ð´Ð°Ð³Ð¸":7428,"ĠÑīÑĥÐ°Ð±Ð¸Ð»ÐµÐ±":7429,"ĠX":7430,"Ð±Ð¸ÐºÑĬ":7431,"Ð²ÐµÐ´":7432,"ĠÐ´Ð¸Ð´Ð°Ð³Ð¸":7433,"ÑĥÐ¼ÑĥÐ·ÑĥÐ»":7434,"ĠÐ¥ÑĥÑĤÓı":7435,"ĠÐĵÓıÐ¸ÑĨÓıÐ³Ð¾":7436,"ĠÐ³ÓıÐµÐ¼ÐµÑĢÐ¸Ñģ":7437,"ĠÑĪÐºÐ¾Ð»Ð»ÑĬÐ¸Ð¼Ð°Ð»":7438,"ĠÐ³ÓıÐ°ÑħÑĮÐ°Ð»Ð»ÑĬÐ°ÑĢÐ°Ð±":7439,"Ð°ÑĢÑĥÐ»ÐµÐ²":7440,"Ġ1920":7441,"ĠÐºÑĬÐ¾ÑıÐ»ÑĬÐ³Ð¸":7442,"ĠÐ²Ð°ÐºÐº":7443,"ĠÐ±Ð¸Ð³ÑĮÐ°":7444,"ĠÐ³ÑĥÐ³Ð°ÑĢÑĥÑħÑĬÐ°Ð½":7445,"ÐļÓıÐ°Ð»ÑĬÐ°Ð·Ðµ":7446,"ĠÐ´Ð°Ð³ÑĬÐ¸ÑģÑĤÐ°Ð½Ð¸ÑıÐ·":7447,"ĠÐ³ÓıÐµÐ»Ð¼Ð¸ÑıÐ»":7448,"ĠÑĨÓıÐ°ÑĢÐ°Ð»Ð³Ð¸":7449,"ĠÐ±Ð°Ð¶Ð°ÑĢÑĥÐ»Ð°ÑĢÐ¾":7450,"Ġ2023":7451,"ĠÐ±Ð°ÑĢÐ°ÑħÑī":7452,"ĠÐ²Ð°ÑĤÓıÐ°Ð»ÑĬÐ°Ð½Ð°":7453,"Ð´Ð°Ð½":7454,"Ð²Ð¾Ð´":7455,"ÑĤÐ¸Ð±":7456,"ĠÑħÐ¸Ð¼":7457,"Ð°Ð¼Ð°ÑĤ":7458,"ĠÑģÐ°ÐºÑĬÐ°ÑĤ":7459,"ĠÐºÑĬÐ°Ð»":7460,"Ð¾ÑģÐ¾ÑĦ":7461,"Ð³ÓıÑĥÑĨÓı":7462,"ĠÐĶÐµÐ½":7463,"ĠÐ»ÑĬÐ¸ÐºÓıÐ°Ð¹":7464,"ĠÐ´Ð°Ð½Ð´ÐµÐ»ÑĬÐ¸ÑıÐ»ÑĬÑĥÐ»":7465,"ĠÐ³ÑĮÐ°Ð±ÑĥÐ½Ð¸Ð³Ð¸":7466,"ĠÐ³ÓıÐ°ÑĢÐ·Ð°Ð»":7467,"ÑĥÐºÐ¼Ñĥ":7468,"ĠÐ´Ð°Ð³ÑĮÐ»ÑĬ":7469,"ÐºÑĬÐ¾ÑıÐ»ÑĬ":7470,"ĠÐ¤ÑĢÐ°Ð½":7471,"ĠÐ±Ð¾ÑĢÑħÐ°Ð½Ð°":7472,"ĠÐºÑĬÑĥÐ²Ð°ÑĤÐ³Ð¸":7473,"ĠÐ½ÑĥÐ¶ÐµÑĢÐ³Ð¾":7474,"ĠÐ±Ð¾ÑĢÑħÑĥÐ½":7475,"ĠÐºÐ°Ð½ÑĤÓı":7476,"ĠÐ¢ÓıÐ°Ð´Ð³ÑĮÐ°ÐºÐ²Ð°ÑĢÐ¸":7477,"ĠÐ¡Ð°Ð³ÓıÐ°Ð´":7478,"ĠÑħÓıÐ°Ð»ÑħÑĮÐ¸":7479,"ĠÐ±ÑĥÑħÐ³Ð°Ð»ÑĤÐµÑĢ":7480,"ĠÐ¼ÑĥÑĢÐ¸Ð´":7481,"ĠÐ±Ð°ÑĢÐ°ÐºÐ°ÑĤÐ°Ð±":7482,"ĠÑħÐ¾Ð»":7483,"Ð°ÑĩÐ°Ð³ÑĬ":7484,"ĠÑĢÐ°Ð¹Ð¾Ð½ÑĨÐ¾ÑıÐ»":7485,"ĠÐºÐ²Ð°Ñĩ":7486,"ĠÑĢÐ°Ð³ÑĬÐ´Ð°ÑģÐ°":7487,"Ð¸ÑıÑģÐ´Ð°":7488,"ĠÑĢÐ°Ð³ÓıÐ°ÑĢÐ°Ð±":7489,"ÐĳÑıÐ»ÑĬÑĥÐ»":7490,"ĠÐºÐºÐ¾Ð»ÐµÐ±Ð°Ð»Ð¸":7491,"Ð¦Ð¸Ð½Ð³Ð¸":7492,"ĠÐ¼ÑĥÑģÑĤÐ°ÑħÓıÐ¸ÐºÑĬÐ°Ð¹":7493,"Ð¸Ð½ÑĩÓıÐµÐ±":7494,"ĠÐ¥ÓıÐ°Ð¶Ð¸ÐµÐ²Ð°Ñģ":7495,"ĠÐ¼Ð¾ÑĨÓĢ":7496,"ĠÐ¥Ð¸Ð·ÑĢÐ¸":7497,"ĠÑģÐµÐºÑĢÐµÑĤÐ°ÑĢÑĮÐ»ÑĬÑĥÐ½":7498,"ĠÐ±ÑĢÐ¸Ð³Ð°Ð´":7499,"ĠÐ³Ð¾Ð´ÐµÐºÓıÐ°Ð½":7500,"ĠÑħÓıÐ°Ð½ÑĩÓı":7501,"ĠÐĲÐ³":7502,"ĠÐłÐ°Ð´Ð°Ð»":7503,"ĠÑıÐ·":7504,"Ð¸Ð·Ð°Ð±Ð¸ÑıÐ»ÑĬÑĥÐ»":7505,"ĠÐ¸ÑĪÐ°Ð»ÑĬÑĥÐ»":7506,"ĠÑĢÐ¾ÑģÑĥÐ»ÑĬÐ³Ð¸":7507,"ĠÐĲÐ¼Ð¸ÑĢÐ¾Ð²":7508,"ĠÐłÐ¾ÑģÑģÐ¸ÑıÐ»ÑĬ":7509,"ĠÐ±ÑĥÐºÓıÐ°ÑĢÐ°Ð±Ð°Ð»Ð¸":7510,"ĠÑĥÐ½ÑĤÐ°ÑĢÐ°Ð·ÑĥÐ»":7511,"Ð°ÑĢÐµÐ±Ð»ÑĬÐ¸":7512,"ĠÐ¤ÐµÐ´ÐµÑĢÐ°ÑĨÐ¸ÑıÐ»ÑĬÑĥÐ»":7513,"Ð£ÐĽ":7514,"ĠÐ°Ð»Ð¶Ð°Ð½":7515,"ĠÑĩÓıÐµÐ·Ð°Ð±Ð¸ÑıÐ»ÑĬÑĥÐ»":7516,"ĠÑīÐ²Ð°ÑĢÐ°Ð±Ð³Ð¾":7517,"ĠÐºÐ¾Ð¼Ð¿ÑĮÑİÑĤÐµÑĢ":7518,"ĠÐºÑĮÐ²Ð°ÑĢÐ°ÑĢÐ°Ð±":7519,"ĠÐ±Ð°Ð³ÓıÐ°ÑĢ":7520,"ĠÐĺÐ½ÑħÐ¾ÐºÑĬ":7521,"ĠÐĳÑĥÑĢÑĤÑĥÐ½Ð°Ð¹":7522,"ĠÐ¼Ð°ÑĢÑĪÑĢÑĥÑĤ":7523,"ÐµÐ´ÐµÐ½":7524,"ÐºÐ°Ð»":7525,"ĠÐ½ÑĥÑĢ":7526,"ĠÐ½Ð°Ðº":7527,"ĠÐ³ÑĮÐ°Ð±Ð¸ÑĩÓıÐµÐ±":7528,"ĠÐ·Ð¾Ð´":7529,"ĠÑĢÐ¾ÑģÐ°ÑģÐµ":7530,"ĠÐ¡Ð¸Ð´":7531,"ĠÐ¢ÐµÑĢ":7532,"Ð³ÓıÐ°Ð½Ð°Ð±":7533,"ĠÐ°ÑħÓıÐ°ÑĢÐ°Ð»":7534,"Ð¥Ð¸ÑĢ":7535,"ĠÐ´Ð°Ð³ÑĮÐ°Ð²":7536,"ĠÐĵÑĮÐµÐ½Ð¸ÑģÐ°Ð½":7537,"ĠÐ±Ð¸ÑĤÓıÐºÐº":7538,"Ġ150":7539,"Ð°Ð·ÑĥÑħÑĬÐ°":7540,"ĠÑħÐ²ÐµÐ·Ð°Ð±ÑĥÐ»ÐµÐ±":7541,"ĠÐ³ÓıÐ¾Ð»Ð¾ÑħÑĬÐ°Ð½Ð°Ð²":7542,"ĠÐºÑĮÐµÐ¹Ð³Ð¸":7543,"ĠÑĥÑĩÐ°ÑģÑĤÐºÐ¾Ð²":7544,"ĠÐ³ÑĮÑĥÐºÑĬÑĥÐ½":7545,"ĠÑĨÓıÐ¾ÑĢÐ¾ÑĢÐ°Ð±":7546,"ĠÑĢÐ°Ð¹ÑĨÐµÐ½ÑĤÑĢÐ°Ð»Ð´Ð°":7547,"ÐµÐ³ÓĢÐµÑĢ":7548,"Ð½Ð°Ð´":7549,"ĠÑĤÐ°Ð»":7550,"ĠÐľÐ°Ð½ÑģÑĥÑĢ":7551,"ĠÑĨÓıÑĨÓı":7552,"ĠÐļÐ¸ÑĢ":7553,"ĠÐĵÓıÐ°Ð³Ð°ÑĢÐ°Ð±":7554,"ĠÐ±ÐµÑĤ":7555,"ĠÐ¢Ð°Ð¶ÑĥÐ´Ð¸Ð½":7556,"ĠÐ³ÓıÐ°ÑħÑĮÐ°Ð»Ð»ÑĬÑĥÐ½":7557,"ĠÐ¼ÑĥÐ·Ðµ":7558,"Ð¸ÑĪÐ°ÑĤ":7559,"Ð¸ÑĩÑĩÐ°Ð½ÑĤÐµ":7560,"ĠÑĤÓıÑĥÐ±Ð°Ð»Ð°":7561,"ĠÐĵÑĮÐµÐ½Ð¸ÑģÐ°":7562,"ÑħÓıÐ°Ð¶Ð¸ÑıÐ²":7563,"ĠÑĤÓıÐ¾ÐºÓıÐ»ÑĬÐ¸":7564,"ĠÐ¾Ð¿ÐµÑĢÐ°ÑĨÐ¸ÑıÐ»ÑĬÑĥÐ»":7565,"ĠÐ£Ð½ÐºÑĬ":7566,"ĠÐ°ÑĢÐ¼Ð¸ÑıÐ»Ð´Ð°":7567,"ĠÐ¡Ð¸ÑĢÐ¸ÑıÐ»Ð´Ðµ":7568,"ĠÐĲÐ´Ð¼Ð¸Ð½Ð¸ÑģÑĤÑĢÐ°ÑĤÐ¸Ð²Ð¸ÑıÐ±":7569,"ĠÐ¿ÑĢÐ¸Ð·ÐµÑĢ":7570,"ĠÐ±ÑĥÑĤÓĢÐ°":7571,"ĠÐĴÐ°ÑĢÐ¸Ñģ":7572,"Ð£Ð·ÑĥÑħÑĬÐ´Ð°":7573,"ĠÐ¥ÑĬÐ²Ð°Ð´Ð°ÑĢÑĥÑħÑĬÐ°Ð±Ð°Ð·ÑĥÐ»":7574,"Ð¾Ð³ÑĬ":7575,"ĠÐ±Ð°ÑıÐ»ÑĬÑĥÐ»":7576,"ĠÐ³ÓıÐ°Ð¶":7577,"ĠÑĤÐ¾Ð»ÐµÐ»":7578,"Ð¾Ð½Ñģ":7579,"Ð¾Ð½Ð¾ÑħÑĬ":7580,"ĠÐ½Ð°ÑĢÑĤ":7581,"ĠÐ¶Ð°Ð»Ð³Ð¸":7582,"ĠÐºÓıÑĥÑĤÓı":7583,"ĠÐ·Ð°Ð¼Ð°Ð½Ð°":7584,"ĠÐŁÐµÐ½Ñģ":7585,"ĠÐ½Ð°ÑħÑĬÑĩÓıÐ²":7586,"ĠÐ³ÓıÑĥÑĨÓıÐ¸ÑıÐ»ÑĬÐµ":7587,"ĠÐ°Ð½Ð°Ð»":7588,"ĠÑĨÓıÐ¸ÐºÓıÐºÓıÐ°ÑĢÐ°Ð²":7589,"ĠÐ´Ð°Ð³ÑĮÐ»ÑĬÑĥÐ½":7590,"Ð»ÑĬÐ¸ÑıÐ»ÑĬÑĥÐ»Ð³Ð¸":7591,"ĠÐ¥ÓıÐ°Ð¶Ð¸Ð»":7592,"ĠÐ¼ÑĥÑħÑĬÐ°Ð·ÑĥÐ»":7593,"ĠÑĢÐ¸ÐºÓıÐºÓıÑĥÐ½ÐµÐ»":7594,"ĠÐºÓıÐ°Ð»ÑĬÐ°Ð½":7595,"ĠÐ±ÑĥÐºÓıÐ¸Ð½ÐµÐ³Ð¸":7596,"ĠÑĢÐµÑģÐ¿ÑĥÐ±Ð»Ð¸ÐºÐ°ÑıÐ»ÑĬÑĥÐ»Ð°Ð±":7597,"ĠÐ°Ð´Ð¼Ð¸Ð½Ð¸ÑģÑĤÑĢÐ°ÑĨÐ¸ÑıÐ±Ð°Ð·ÑĥÐ»":7598,"ĠÐºÑĬÐ¸Ð¼Ð°ÑĤÐ°Ð±":7599,"ĠÐ¼Ð°ÑħÑīÐµÐ»Ð³Ð¸":7600,"ĠÑĨÓıÐµÑħÐ¾Ð½":7601,"Ġ1999":7602,"ÑĩÐ¸ÑıÑģÐ´Ð°":7603,"Ð±Ð°ÐºÐºÑĥÐ»":7604,"Ð¿Ð¾Ð»ÑĩÐµÐ½":7605,"ĠÑģÑĥÑĢÑģÐ°ÑĤÐ°Ð»":7606,"ĠÐ±Ð°ÐºÑĬÐ±Ð°ÐºÐºÑĥÐ´ÐµÑħÑĥÐ½":7607,"ĠÑĢÐ¾ÑĢÐ¶":7608,"ĠÐĳÐ°Ð±Ð°ÑİÑĢÑĤ":7609,"ĠÐ¸ÑģÑĤÐ¾ÑĢ":7610,"29":7611,"Ð´Ð°ÑĤ":7612,"Ð°Ð±Ð°Ð»ÑĬ":7613,"Ð°ÑĢÐµÐ¹":7614,"Ð°ÑĢÐµÐ´ÑĥÑħÑĬ":7615,"ĠÑĢÑĥÑħÑĮ":7616,"Ð»ÑĬÐ°Ð±Ð³Ð¾":7617,"ĠÐ½Ð°ÐºÓıÐºÓı":7618,"ÑĤÓıÐµ":7619,"ĠÐľÐ°Ðº":7620,"ÐµÐ²Ð¸Ñĩ":7621,"ĠÐ³ÑĬÐ°Ð·":7622,"ĠÐ³ÑĮÐµÐ»Ð³ÑĥÐ½":7623,"ĠÐ³ÑĮÐµÐ·ÑĥÑħÑĬÐµ":7624,"ĠÑĥÐ½Ð°ÑĢÐ¾":7625,"ĠÐ±Ð¸ÑĨÑĥÑħÑĬÐµ":7626,"ĠÑĨÓıÐ°Ð»ÑĥÐ»Ð°Ð³Ð¾":7627,"ÑĦÐ¾ÑĢÐ¼":7628,"ÐĲÐŁ":7629,"ĠÐºÑĮÐ¾Ð»Ð°ÑĢÐ¾":7630,"ĠÐĹÐ°Ð´":7631,"ÑħÑĮÐ¸ÑĤ":7632,"ĠÑħÑĥÑĤÓıÑĥÐ»ÐµÐ±":7633,"ÑĩÐ¸Ð»ÑĬÐ¸Ð³Ð¸":7634,"ĠÐŀÐŀ":7635,"ĠÑĥÑĩÐ¸ÑĤÐµÐ»ÑĮÐ»ÑĬÑĥÐ½":7636,"ĠÐ±ÑĥÑģÑĥÑĢÐ¼Ð°Ð½":7637,"ĠÐ³ÓıÐ¾ÑĢÑĨÓı":7638,"ĠÐĲÑģÐ°Ð´":7639,"ĠÐ¿ÑĢÐ¾ÑĦÐ¸Ð»":7640,"ĠÐ¡Ð¸ÑĢÐ¸ÑıÐ»Ð´Ð°":7641,"ĠÑĢÐ°Ð»ÑĬÐ°Ð´":7642,"ĠÑĢÐ°Ð¹ÑĨÐµÐ½ÑĤÑĢ":7643,"ĠÐłÐ°Ð¸ÑģÐ°ÑĤ":7644,"ĠÑĢÐ°Ð¹Ð±Ð¾Ð»ÑĮÐ½Ð¸ÑĨ":7645,"ÑĢÐ°Ð»ÑĬÐµ":7646,"ĠÐ±Ð¸Ð´ÑĥÐ»":7647,"ĠÑĢÐ°ÑĤÓıÐ°":7648,"Ð°ÑĤÐ°Ð²":7649,"ĠÐ³ÓıÑĥÐ¼":7650,"ĠÐĵÑĥÐ½Ð¸":7651,"ĠÐ¼ÐµÐ¼Ð¾ÑĢ":7652,"Ð´ÐµÐºÑģ":7653,"Ð°Ð¹Ð²Ð°Ð½":7654,"ĠÐ¿ÑģÐ¸Ñħ":7655,"ĠÑħÓıÐµÐ»":7656,"ĠÐĵÓıÐ°Ð¼Ð¼Ð°Ð±":7657,"ĠÑĩÓıÐ²Ð°Ð»ÐµÐ»":7658,"ĠÐ¡Ð°Ð´":7659,"ĠÐ¡Ð¸Ð²":7660,"ĠÐĴÐ°ÑģÐ¸Ð»":7661,"ĠÑħÐ°ÑģÐµÐ»":7662,"ĠÐ¢ÓıÐ¾ÐºÓı":7663,"ĠÑĢÐµÑħÑħÑĥÐ½":7664,"Ġ38":7665,"ĠÑħÓıÐ°ÐºÑĬÐ°Ð»ÑĬÑĥÐ»ÑĬÐ³Ð¸":7666,"ĠÑįÐ±ÐµÐ»Ð°Ð»Ð´Ð°":7667,"ĠÐ¹Ð¸ÐºÓıÐ¸Ð½":7668,"ĠÑĥÐ¼Ð¼Ð°ÑĤ":7669,"ĠÐºÐ°Ð¼Ð¿Ð°Ð½":7670,"ĠÑħÑĬÐ¸Ð·Ð°Ð¼Ð°Ð»Ð´Ð°":7671,"ÑĢÐ°ÐºÑĮÐ°Ð½Ð´Ðµ":7672,"ĠÐ»ÑĬÐ°Ð³ÓıÐµÐ»Ð°Ð»ÑĬ":7673,"ĠÐ°ÑĢÑħÐ¸Ð²":7674,"ÑĥÐ»Ð³Ð¾ÑħÓı":7675,"ÑģÑĥÑĢ":7676,"Ð·Ð°Ð»Ð³Ð¸":7677,"ÑıÐ¼":7678,"Ð¾Ð²Ð°Ð»ÑĬÐµ":7679,"Ð¸Ð±Ð°ÑĤÓı":7680,"Ð¸Ð¼Ð°":7681,"ĠÐĶÑĥÐ´Ð°":7682,"Ð°ÑĩÓıÐµÐ±":7683,"ÐµÐ¹Ð¸Ð»Ð°":7684,"ÑīÐ°Ð»":7685,"ĠÐ³ÑĮÐµÐ½Ð¸Ð¹":7686,"Ð¥ÑıÐ»ÑĬÑĥÐ»":7687,"ÑĢÐ¾Ð¹":7688,"ĠÐ¶ÐµÐ³Ð¸Ð³Ð¸":7689,"ĠÑĤÓıÐ°Ð»Ð°Ð±Ð°Ð·Ð´Ð°":7690,"ĠÑĢÐ°ÑĤÑĥÐ½":7691,"ĠÑĨÐ¾Ð³Ð¸Ð´Ð°Ð·":7692,"ĠÑģÐ²ÐµÑĢÑĥÑħÑĬÐ»ÑĬÐ¸":7693,"ĠÐĵÓıÐ°Ð±Ð´ÑĥÑĢÐ°ÑĪÐ¸Ð´":7694,"ĠÐ¥ÓıÐ°Ð»Ð¸Ð¼Ð°ÑĤ":7695,"ĠÐ³ÓĢÑĥÑĨÓĢÐ¸":7696,"Ð±Ð°ÑħÑĬÐ¸Ð½Ð°Ð·ÑĥÐ»":7697,"ĠÐ¨Ð°Ð³ÓıÐ±Ð°Ð½":7698,"Ð´Ð¸ÑĢ":7699,"ÑĤÐ¸ÑĢ":7700,"ÑģÐ°Ð³ÓıÐ¸Ð´":7701,"Ð°Ð»ÑĬÐ°Ð½Ð°":7702,"ĠÐ´Ð¸Ð´Ð°ÑģÐ°":7703,"ĠÑģÐµÑĢ":7704,"ĠÐ½ÑĥÑĨÐ°Ð»":7705,"Ð³ÑĮÐ°ÑĢ":7706,"Ð¸ÐºÐ¾Ð»":7707,"ĠÑħÑĬÐ²Ð°Ð»":7708,"ĠÐºÑĬÐ²Ð°ÑĤÓıÐ°Ð»":7709,"ĠÐ´Ð°Ð³ÑĮÐ°":7710,"ĠÐ³ÓıÐ°Ð´Ð¸Ð½Ð°Ð½":7711,"ĠÐ²Ð°ÑĩÓıÐ¸Ð½":7712,"ĠÐ³ÓıÐ¾Ð´Ð¾Ð¹":7713,"ĠÐ¿Ð¾Ð»ÐºÐ¾Ð²Ð½Ð¸Ðº":7714,"ĠÑĤÐ°ÑĢÐ¸ÑħÐ³Ð¸":7715,"ĠÐ¸Ð¼Ð°Ð¼Ð·":7716,"Ġ2011":7717,"Ġ2012":7718,"ĠÐ¼Ð¸ÑģÐ°Ð»Ð°Ð»":7719,"ĠÐ¿Ð°Ð¹Ð´Ð°Ð³Ð¸":7720,"ĠÑĤÑĥÑĢÐ¸Ð·Ð¼":7721,"ĠÐĵÓıÐµÐ¼ÐµÑĢÐ¸ÑģÐµÐ»":7722,"ÐĶÐ°Ð³ÑĬÐ¸ÑģÑĤÐ°Ð½Ð°Ð»Ð´Ð°":7723,"ĠÑĤÓıÑĥÑĢÐ°Ð·Ð°ÑĢÐ¸Ð·Ðµ":7724,"ĠÑĢÐ°Ð³ÑĬÑĥÑħÑĬÐ°Ð±Ð¸":7725,"ĠÑĦÐ¾ÑĢÐ¼Ð°":7726,"ĠÑīÑĥÑīÐ°ÑħÑĬ":7727,"ĠÑĢÐ°ÐºÓıÐ°Ð»Ð´ÐµÑīÐ²":7728,"ĠÑĢÐ°ÐºÓıÐ°Ð»Ð´ÐµÑīÐ²Ðµ":7729,"ĠÐĽÑĬÐ°Ð±Ð°Ð±Ð¸Ð»ÐµÐ±":7730,"ĠÑĢÐ¾ÑĢÑĤ":7731,"ĠÐ²Ð¸Ð»":7732,"ÑĥÑĢÐµ":7733,"ĠÐ»ÑĬÐ°ÑĢÐ°Ð»":7734,"ĠÐľÐ°Ð½":7735,"ĠÑħÓıÐ°Ð½":7736,"ĠÐ±ÑĥÐºÓıÐ°Ð½Ð¸Ð»Ð°Ð½":7737,"ĠÐłÐµÐºÓı":7738,"ĠÐĵÓıÑĥÑĢ":7739,"ĠÐĵÓıÐµÐ·ÐµÐ³ÓıÐ°Ð½":7740,"ĠÐ¡Ð¾ÑĨ":7741,"ĠÐ±ÑĥÐ³ÐµÐ±Ð»ÑĬÑĥÐ½":7742,"ĠÐ´Ð°Ð½Ð´ÐµÐºÐºÐ¾Ð»":7743,"ĠÑĢÐ°Ð³ÓıÐ°Ð¹Ð³Ð¸":7744,"ÑĥÑĩÐ¸Ð»Ð¸Ñī":7745,"ĠÐ£Ñĩ":7746,"ÑĭÐ¼":7747,"ĠÐĲÐ±ÑĥÐ»":7748,"ĠÐĲÑħÓıÐ¼Ð°Ð´Ð¾Ð²Ð°Ñģ":7749,"ĠÑīÐ°Ð¹Ð¸Ð½":7750,"ĠÐºÐ¾Ð¼Ð°Ð½Ð´Ð°ÑıÐ»Ð´Ð°":7751,"ĠÐĲÑĢÑģÐµÐ½":7752,"ĠÐ±ÐµÐ³ÑĮÑĥÐ»Ð°ÑĢÐ¸Ð½":7753,"ĠÑĢÐµÐ³Ð¸Ð¾Ð½Ð°Ð·Ð´Ð°":7754,"ĠÐĵÑĮÐ¸ÑĤÓıÐ¸Ð½Ð°Ð±":7755,"ĠÐ±Ð°ÑĩÑĩÐ¸Ð·Ðµ":7756,"ÐĵÑĮÐµÐ´Ð¸Ð½Ð»ÑĬÐ¸Ð´Ð°Ð»":7757,"ĠÐºÐ²Ð°ÑĤÓıÑĥÐ½":7758,"ĠÐ³ÓĢÐµÐ¼ÐµÑĢÐ°Ð»":7759,"ĠÐ±Ð°ÑħÑĩÑĥÐ½":7760,"ĠÑĤÐµÐ°ÑĤÑĢÐ°Ð»ÑĬÑĥÐ»":7761,"ĠÐ¡ÐĴÐŀÑıÐ»ÑĬÑĥÐ»":7762,"ÐĵÓıÐ°Ð´Ð°Ð¼":7763,"ĠÑģÑĥÐ±Ð±Ð¾ÑĤÐ½Ð¸Ðº":7764,"ĠÑĥÐ³Ð¾":7765,"ÑĥÐ°Ð»":7766,"ÐµÑı":7767,"Ð³ÐµÐ½":7768,"ĠÐ³ÑĮÑĥÑĢ":7769,"Ð°Ð»ÑĬÑĥÐ²":7770,"ĠÑĤÐµÐ½":7771,"Ð¸Ð·ÑĥÐ»":7772,"ĠÑģÐ¾":7773,"ĠÐ¶ÑĥÐ¶":7774,"ÑĩÓıÐ°Ð³Ð¾":7775,"ĠÑĨÓıÐ¸Ð»ÑĬ":7776,"Ð°ÑħÓıÐ°Ð¶":7777,"ĠÑĩÓıÐµÐ»":7778,"ĠÑĢÑĥÐºÓıÐ°Ð½Ð¸Ð»Ð°":7779,"Ð¸Ð½ÐµÐ³Ð¸":7780,"Ð¾ÑħÑĬÐµÐ±":7781,"ĠÐ±Ð¾ÐºÑĮÑĥÐ»Ð°Ð°Ð½":7782,"ĠÐĵÑĮÐµÐ»Ð³Ð¸":7783,"ĠÑģÑĥÐ°Ð»Ð°Ð»Ð³Ð¸":7784,"ÐĳÐ°ÐºÑĬ":7785,"ĠÐĽÑĬÐ¾Ð½Ð´Ð¾":7786,"ÐµÐ»ÑĬÐµÐ»":7787,"ĠÐºÑĮÐµÐ·ÐµÐ³Ð¸":7788,"ĠÑĤÓıÐ°Ð¼ÑĥÐ»ÐµÐ»":7789,"ĠÐ³ÓıÑĥÑĢÑĥÐ»":7790,"Ð¾Ð»ÑĬÐ°":7791,"ĠÐ³ÓıÐ¸Ð»Ð»Ð°Ð³Ð¸":7792,"ĠÑģÐ°Ð½Ð°Ð¹Ð¸Ð»":7793,"ĠÑĤÑĥÑħÑĥÐ¼Ð°Ð»ÑĬÑĥÐ»":7794,"ĠÐ°Ð²ÑĤÐ¾Ð¼Ð°ÑĪ":7795,"ĠÐ°Ð±ÑĥÑħÑĬÐµÐ³Ð¾":7796,"ĠÑĤÐ²Ð¾ÑĢÑĩÐµÑģÑĤÐ²Ð¾ÑıÐ»ÑĬÑĥÐ»":7797,"ĠÐļÐ¾Ð»ÑħÐ¾Ð·":7798,"Ð»Ð¸ÑĨ":7799,"ÑĢÐ¾Ð¼":7800,"Ð°ÑĢÐ°ÑĤÓıÐ°":7801,"Ð¸Ð»ÐµÐ²":7802,"ĠÐ³ÑĮÐ°Ð±ÐµÐ³Ð¸":7803,"ĠÐºÐºÐ¾Ð»ÐµÐ»ÑĬÑĥÐ»":7804,"ĠÐĵÓıÐ°ÑħÑĮÐ²Ð°ÑħÑĬ":7805,"ĠÑĢÐ°ÑħÑĬÐ°Ð·ÑĥÐ»":7806,"ĠÐ±ÐµÑĤÓıÐµÑĢÐ»ÑĬÐ¸":7807,"ĠÑĢÐ°Ð³ÓıÑĥÐ»ÐµÐ±":7808,"ĠÑĨÓıÑĥÐ½Ð°ÑĢÐ°Ð±":7809,"ĠÐĴÐµÑĢÑħ":7810,"ĠÐ³ÓĢÑĥÑĢ":7811,"ĠÐļÑĬÐ¾ÑĢ":7812,"ĠÑħÑĮÐ¾Ð½":7813,"ĠÐ±Ð°ÑĩÑĥÐ½Ð°":7814,"ĠÐ³ÓıÐ¾Ð´Ð¾Ð²Ðµ":7815,"ĠÑĢÐ°ÑĤÐ°ÑĢÐ°Ð»":7816,"ĠÑħÐ¸ÑģÐ¸Ð·Ð°Ð±Ð¸Ð·Ðµ":7817,"ĠÐ´Ð°Ð½Ð´ÑĩÓıÐ²Ð°ÑıÐ»":7818,"ĠÐ³ÑĮÐ¾ÑĢÐºÑĮÐ¾ÑĢÐ»ÑĬÐ°Ð±Ð¸":7819,"ĠÐ´Ð¸Ð½Ð°Ð»Ð´Ð°":7820,"ĠÐ³ÓıÐ°Ð´Ð°ÑĤÐ¸ÑıÐ²":7821,"ĠÑĤÐµÐ»Ð°":7822,"ĠÑħÓıÑĥÑĢÐ¼Ð°ÑĤÐ¸ÑıÐ±":7823,"ĠÐĵÓıÐ°Ð»Ð¸ÐµÐ²Ð°":7824,"ĠÐ»ÑĬÐ°Ð»Ð°ÑĢÐ¾Ð³Ð¾":7825,"ĠÑģÐ°Ð¿Ð°ÑĢÐ°Ð»ÑĬ":7826,"ĠÐ½Ð°Ð»Ð¾Ð³Ð°Ð·ÑĥÐ»":7827,"ĠÐ¼ÑĥÐ·ÐµÐ¹":7828,"ĠÐ¥Ð°ÑģÐ°Ð²ÑİÑĢÑĤÐ°Ð»Ð´Ð°":7829,"ĠÑĤÓıÑĥÐ±Ð°Ð·Ð°Ð±Ð¸Ð·Ðµ":7830,"ĠÐ»ÑĬÐ¸ÐµÐ½Ð¸Ð³Ð¸":7831,"ĠÐĺÑĢÐ°Ð½Ð°Ð»ÑĬÑĥÐ»":7832,"Ð°Ð¼Ð±Ð»":7833,"ĠÑĩÐ°Ð½ÑĨÓıÑĥÐ»Ð³Ð¾":7834,"ĠÑĢÐ°Ñī":7835,"ĠÑĢÐ°ÑĨÓıÑĨÓıÐ°Ð´":7836,"ÑĤÐ°Ð»ÑĬÑĥÐ»":7837,"Ð¸Ð½Ð¸":7838,"ĠÑħÐ¸ÑıÐ»":7839,"ĠÑĤÓıÐµÑĢÑħÑĮ":7840,"ĠÐºÐºÐ°Ð½Ð°Ð½Ð¸":7841,"ĠÐ°Ð±Ðµ":7842,"Ð°Ð¶Ð°Ð¸Ð½":7843,"ĠÐ±ÐµÑĩÓı":7844,"ĠÐ±ÐµÐ³ÓıÐµÑĢ":7845,"ĠÐĳÐ°Ð³":7846,"ĠÑīÐ²Ð°Ð»Ð´Ðµ":7847,"ĠÐ±Ð¸ÑħÑĮÐ¸Ð´Ð°Ð»":7848,"ĠÑĢÑĥÐ³Ð¸Ñī":7849,"ĠÐ¨ÑĥÑĢ":7850,"ĠÐĺÐ¼Ð°Ð½":7851,"Ð¸ÑıÑģÐµ":7852,"ĠÐ¶Ð¸Ð½Ð´Ð¸ÑħÑĬ":7853,"ÐļÐ¾Ð¼":7854,"ĠÐĸÐ¸Ð½Ð´":7855,"ĠÐ²ÑĥÐ³Ð¾Ð½Ð¸":7856,"ÐµÑģÑĤÐ°Ð½":7857,"ĠÐ¼Ð°ÑĨÓıÐ°Ð·Ð´Ð°":7858,"ĠÑģÐ°ÑħÐ°Ð±":7859,"ĠÑīÐ¸Ð²Ð°Ñģ":7860,"ĠÐ¸ÑĢÐ³Ð°":7861,"ĠÐ±Ð¾ÑĢÑĩ":7862,"ĠÑĪÐ°ÑĢÐ¸Ð³Óı":7863,"ĠÐĳÐ°Ð¹ÑĢÐ°Ð¼":7864,"ĠÐ¼Ð°Ð¹Ð´Ð°Ð½":7865,"ĠÐ¾ÐºÑĢÑĥÐ³Ð°Ð»ÑĬÑĥÐ»":7866,"ĠÐ¦ÓıÑĥÐ½ÑĤÓıÐ°":7867,"26":7868,"ÑĢÐ¾Ð´":7869,"ÐºÐ°Ð³Ð¸":7870,"Ð°Ð³Ð¸ÑĨÐ¸Ð½":7871,"Ð°ÑĤÐ¸ÑĢ":7872,"ÐµÐ»Ð´Ðµ":7873,"ĠÐ´Ð¸ÑħÑĬ":7874,"ĠÐ½Ð¸ÑıÑĤ":7875,"ÓĢÐ°":7876,"Ð°ÑħÑĬÐ°":7877,"Ð°ÐºÑĬÐ»Ñĥ":7878,"ÐµÐ´Ð°Ð³Ð¸":7879,"ĠÑħÑĬÐ°ÑĩÓı":7880,"ĠÐĳÐ°Ð³ÑĬ":7881,"ĠÑĢÐ°ÑħÑĬÐ³Ð¸":7882,"ĠÐ¿ÑĢÐ¾Ð¼ÑĭÑĪÐ»ÐµÐ½":7883,"ĠÐ³ÓĢÐ°ÑĢ":7884,"ÐµÐ»ÑĮÐ´":7885,"ĠÐ³ÓıÐ°Ð´Ð°Ð¼Ð°Ð»Ð³ÑĥÐ½":7886,"ĠÑģÐ¿ÐµÐºÑĤ":7887,"ĠÑħÓıÐ°ÑģÐ¸Ð»Ð°Ð·ÑĥÐ»":7888,"ĠÐºÑĬÐ¾ÑĤÓıÐ°Ð½Ð°":7889,"ĠÐºÑĬÐ¾ÐºÑĬÐ°ÑıÐ»ÑĬÑĥÐ»":7890,"ĠÐĵÓĢÐ°Ð±Ð´ÑĥÐ»":7891,"Ð¾Ð»ÑĮÐ½Ð¸ÑĨÐ°":7892,"Ð¦ÓıÐ¸ÑıÐ±":7893,"ĠÐ¥ÓıÐ°ÑģÐ°Ð½Ð¾Ð²":7894,"ĠÐ³ÑĬÑĥÑĤÐ°Ð´Ð°":7895,"ĠÐĽÐµÐ½Ð¸Ð½Ð³ÑĢÐ°Ð´":7896,"ĠÐ³ÓĢÐ°Ð´Ð°Ð¼Ð°Ð»":7897,"ĠÑĤÑĢÐ°Ð½ÑģÑĦÐ¾ÑĢÐ¼Ð°ÑĤ":7898,"ĠÐľÐ¾ÑĩÓıÐ¾":7899,"ĠÐ¼Ð°ÑĤÐµÐ¼Ð°ÑĤÐ¸ÐºÐ°ÑıÐ»ÑĬÑĥÐ»":7900,"Ð¸ÑıÐ¼Ð°ÑģÐµÐ±":7901,"ĠÐļÐŁÐ¡Ð¡":7902,"Ð»Ð°Ð»":7903,"ÐºÐ°Ð½":7904,"ÑĥÐ½Ð³":7905,"ÑĥÐ½Ð´":7906,"Ð¸Ð½ÑĨ":7907,"ĠÑħÓıÐµÑĤÓı":7908,"ĠÑĩÐ°Ð¼Ð°Ð»Ð¸Ð³Ð¾":7909,"ĠÐ¥Ð°Ð·Ð°Ð¼":7910,"ÑĥÑħÓıÐ°Ð¼Ð¼Ð°Ð´":7911,"ĠÐ³ÑĮÐµÐ·ÑĥÑħÑĬ":7912,"ĠÐ»ÑĬÑĥÑĤÑĥÐ½":7913,"ĠÐ³ÑĮÐ°Ð±ÑĥÐ½Ð³Ð¸":7914,"ÐļÐ¾Ð½":7915,"ÐļÐ°Ð²ÐºÐ°Ð·":7916,"ĠÑĢÐ°ÐºÑĮÐ°Ð·Ð´Ð°":7917,"ĠÑĪÐ°Ð³ÑĮÐ°ÑĢÐ°Ð»Ð´Ð°ÑģÐ°":7918,"ĠÑħÑĬÑĥÐ»ÑĥÑħÑĬÐ°Ð»":7919,"ĠÐ±Ð°ÐºÑĬÑĥÐ»":7920,"ĠÐ¥Ð°Ð´ÑĥÐ²":7921,"ĠÐ±Ð¾ÑĢÑħÐ°Ð»ÑĬÐ¸":7922,"ĠÑĤÓıÐ°Ð³ÓıÐ°Ð¼":7923,"ĠÐ¯ÐºÑĬ":7924,"Ġ2018":7925,"ĠÐĲÐ½ÑĨÓı":7926,"ĠÑĢÐµÐ´Ð°ÐºÑĨÐ¸ÑıÐ»ÑĬÑĥÐ»":7927,"ĠÐºÑĮÑĥÑĩÓıÐ°Ð»Ð´Ð°":7928,"ĠÐ»ÑĬÐµÐ»Ð³Ð¾":7929,"ĠÐºÐ°ÑĢÐ°Ð½Ð´Ð°":7930,"ĠÐĲÐ¹ÑĤ":7931,"ĠÐĵÓıÐ¾Ð±Ð¾Ð´Ð°":7932,"ĠÐ³ÑĮÑĥÐ¸Ð½Ð»ÑĬÐ¸":7933,"ÑĢÑıÐ´":7934,"ĠÐ³ÓıÐ°Ð¼Ð¼":7935,"ÐºÑĬÐ°Ð´Ð¸ÑĢ":7936,"Ð¿Ð¸ÐºÑĬ":7937,"ĠÐļÑĥÑĢ":7938,"Ð°ÑıÐ»Ð¸":7939,"Ð°ÑıÐ»ÑĬÑĥÐ»Ð°Ð±":7940,"ĠÐļÑĬÐµÐ±ÐµÐ´":7941,"ÐľÐĲ":7942,"ĠÐ¦ÓıÐµÑħ":7943,"ĠÐºÓıÐ²ÐµÐ»":7944,"ĠÐ³ÓıÐ°Ð³Ð°ÑĢÐ»ÑĬÐ¸ÑıÐ»ÑĬÑĥÐ»":7945,"ĠÐ±Ð¾ÑĢÑħÐ¸Ð·Ðµ":7946,"ĠÐºÑĬÑĥÐ½ÐºÑĬ":7947,"ĠÑĪÐ¸Ð¼Ð°Ð»Ð¸ÑıÐ±Ð³Ð¸Ð½":7948,"ĠÐ³ÓıÐ°ÐºÓıÐ°":7949,"27":7950,"Ð´Ð°Ð³ÑĮÐ°Ð±":7951,"Ð¼ÑĥÑģÐ»Ð¸Ð¼":7952,"Ð°Ð´Ð°Ð³Ð¸":7953,"Ð°ÑħÐ°Ð»ÑĬÑĥÐ»":7954,"Ð°Ð²Ð°":7955,"ĠÐľÐĴÐĶÑıÐ»ÑĬÑĥÐ»":7956,"ĠÑħÓıÐ°Ð»ÐºÓı":7957,"Ð°ÑĨÐ°Ð³Ð¸":7958,"ĠÑģÐ¾Ð½Ð³Ð¸":7959,"ĠÐ¡Ðľ":7960,"ĠÐ¸Ð½Ð´Ð°Ð»":7961,"ĠÐ¾Ð¿Ð¾Ð»ÑĩÐµÐ½":7962,"ĠÑĦÐ°Ð¼Ð¸Ð»":7963,"ĠÐĽÐ°Ð±Ð°Ð·":7964,"ĠÐ¹Ð¸Ð³Ð¸":7965,"ĠÐĵÑĬÐ¸ÑĢ":7966,"ĠÐ¢ÓıÐ¾ÑĨ":7967,"ĠÐ±Ð°Ð¹Ð±Ð¸ÑħÑĮÑĥÐ»ÐµÐ±":7968,"ÐĿÐ°Ð»ÑĬÑĥÐ»":7969,"ĠÐ³ÑĮÐµÐ´Ð¸Ð½Ð°Ð²":7970,"ĠÑħÑĮÐ²Ð°Ð³Óı":7971,"ĠÐ°Ð»ÑĮ":7972,"ĠÐ¼Ð°ÑĨÓĢÐ°Ð»ÑĬÑĥÐ»":7973,"ĠÑĩÓıÐ°Ð³Ð¾ÑıÐ±":7974,"ĠÐ³ÑĬÑĥÑĤÐ°Ð½Ð°Ð»Ð´Ð°":7975,"ĠÐ³ÓıÐ°ÑģÑĢÑĥÑıÐ»Ð´Ð°":7976,"ĠÐºÑĮÐ°Ð±ÑĥÐ½":7977,"ĠÐ¨ÐºÐ¾Ð»Ð°Ð»Ð´Ð°":7978,"ĠÐ³ÓıÐ¸Ð½ÑĤÓıÐ°Ð¼":7979,"ĠÐ·Ð°Ð²ÐµÐ´ÑĥÑİÑīÐ¸Ð¹":7980,"ĠÐĵÑĬÐ°Ð»Ð±Ð°ÑĨÓı":7981,"ĠÐ¼Ð¸Ð»Ð»Ð¸Ð°ÑĢÐ´":7982,"ĠÐ´Ð°Ð½Ð´ÐµÑĢÑĥÑģÑģ":7983,"ÑĥÐ»Ð°ÑĢÐ¸Ð½":7984,"ÑģÐ¾Ð²ÐµÑĤ":7985,"ĠÐºÑĮÐµÑıÐ»ÑĬÐµ":7986,"ÐĵÑĮÐµÐ»ÑĬÐ¸Ðµ":7987,"ĠÑĤÓıÐ¾Ð±Ð¸ÑĤÓıÐ¸ÑıÐ»ÑĬÐµ":7988,"ĠÐºÑĬÐ²Ð°ÑĤÓıÐ¸ÑģÐ°":7989,"ĠÑĥÐ½ÑĤÐ°ÑĢÐ°Ð·Ðµ":7990,"ĠÐ¼Ð°Ð³ÓıÐ¸ÑĪÐ°ÑĤÐ°Ð·Ð´Ð°":7991,"Ð´Ð¸Ð½Ð¾Ð²":7992,"ĠÐĲÐ½ÐºÑĮ":7993,"ĠÐ´Ð°ÑĢÐ°Ð¶Ð°ÑıÐ»Ð´Ðµ":7994,"Ð¾Ð³ÑĢÐ°Ð¼Ð¼":7995,"ĠÐĳÐµÐ³ÑĮ":7996,"ĠÐĳÐ°ÑĤÐ¸ÑĢ":7997,"ĠÑĤÐµÐ»ÐµÐ²Ð¸Ð·Ð¾ÑĢ":7998,"ĠÑħÐ²Ð°Ð»ÑĩÐµÐ½":7999,"ĠÑĥÑĩÐ¸ÑĤÐµÐ»Ð°ÑģÑĥÐ»":8000,"ĠÑĨÑĨÐ¸Ð¼":8001,"ĠÐĶÑĥÐ¼Ð°ÑıÐ»ÑĬÑĥÐ»":8002,"35":8003,"ĠÐ³ÑĥÐº":8004,"Ð±Ð¸Ð³Ð¸":8005,"ĠÐºÐ¸ÑĢÐµ":8006,"ĠÐ´Ð¸Ð°Ð»":8007,"ĠÐ´Ð¸ÑĨÐ°Ð³Ð¾":8008,"ÐµÐ½Ð¸ÑıÐ»ÑĬÑĥÐ»":8009,"ĠÐ°Ð±Ð¸Ð´Ð°Ð»":8010,"ĠÐłÐ°Ð¹":8011,"ĠÐĳÐ°ÑĢ":8012,"Ð³ÓıÐ°Ð½Ð°Ð²":8013,"ĠÐ¿ÑĢÐ¾ÑĤ":8014,"ĠÐ³ÓıÐµÐ¼ÐµÑĢÐ¸ÑģÐµÐ·":8015,"ĠÐĲÐ»ÑĮ":8016,"ĠÐ§Ð°Ð½Ð³Ð¸":8017,"ĠÐĽÑĬÐ°Ð»Ð°ÑĢÐ¾":8018,"ĠÑĢÐ¸ÐºÓıÐºÓıÐµÐ½":8019,"ĠÐ³Ð°Ð·ÐµÑĤÐ°Ð»":8020,"ĠÐºÐ²ÐµÐºÓı":8021,"ĠÐ±Ð°ÐºÑĬÐ²":8022,"ĠÐ¼ÑĥÐ³ÓıÐ°Ð»Ð¸Ð¼Ð»ÑĬÑĥÐ½":8023,"ĠÐ¥ÑĬÐ°ÑħÓıÐ°Ð±":8024,"ĠÐºÐ°ÐºÐ°Ð»":8025,"ĠÐ³ÑĮÐ¾ÑĢÐºÑĮÐ¾ÑħÑĬÐµÐ»":8026,"ĠÑĢÐ°ÑħÑĩ":8027,"ĠÐĺÑģÑĢÐ°Ð¿":8028,"ĠÐ²Ð°ÑĩÓĢ":8029,"ĠÐ·Ð°ÑħÓıÐ¼Ð°Ð»ÑĬÐ°Ð±Ð°Ð·ÑĥÐ»":8030,"ĠÐºÑĬÐµÑĢÐºÑĮÐµÐ·Ðµ":8031,"ĠÐ³ÑĮÐ¾ÑĢÐºÑĮÐ¾ÑģÐµÐ»":8032,"Ð¥ÓıÐ°ÐºÑĬÐ¸ÐºÑĬÐ°ÑĤÐ°Ð»ÑĬÑĥÐ»":8033,"ĠÐ³ÓıÑĥÐ½Ð³ÑĥÑĤÓıÐ¸":8034,"ĠÑĩÐ²Ð°ÑħÑĥÐ»ÐµÐ±":8035,"ĠÐ¿ÐµÑĢÐµÐ´":8036,"ĠÐłÐ°Ð³ÑĬÑĥÐ»":8037,"ĠÐ¸Ð½Ð¶ÐµÐ½ÐµÑĢ":8038,"ĠÐ³ÓĢÐ°ÑĤÓĢÐ¸Ð»ÑĬÐ¸":8039,"ĠÐ¿Ð¾ÑģÐµÐ»Ð¾Ðº":8040,"Ð´Ñĥ":8041,"Ð²ÐµÑĤ":8042,"Ð¼ÐµÑĢ":8043,"Ð¸ÐºÐ»Ð¸Ð½":8044,"ĠÐĳÐ°ÐºÓı":8045,"ÐĵÑĮÐ°ÑĢ":8046,"ĠÑĨÓıÐ¸ÐºÓıÐºÓıÐ¸Ð½Ð°Ð±":8047,"Ð¸Ð³ÐµÐ½":8048,"ÑıÐ·Ðµ":8049,"Ġ33":8050,"ĠÐ±Ð°ÑĩÐ°ÑĢÐ°Ð±":8051,"ĠÐºÑĬÐ°Ð´Ð°ÑĢÐ°Ð»ÑĬÑĥÐ»":8052,"ĠÐºÑĬÐ¾ÐºÑĬÐ°Ð±Ð³Ð¾":8053,"ĠÐ¥Ð°Ð´ÑĥÑĢ":8054,"ĠÐ³ÓıÐ°Ð´Ð°ÑĤÐ»ÑĬÑĥÐ½":8055,"ĠÐºÓĢÐ°Ð»ÑĬ":8056,"ĠÐĴÐ°ÑĤÓıÐ°Ð½Ð°Ð»ÑĬÐµ":8057,"ĠÐ¥Ð°ÑģÐ°Ð±":8058,"Ġ2000":8059,"ĠÐ²Ð°ÑĩÐ°Ð½Ð°":8060,"ÑħÐ°Ð»Ð¸ÐºÑĬ":8061,"ĠÐºÑĢÐ¸ÑĤ":8062,"ĠÐ¼ÑĥÐ·ÐµÑıÐ»ÑĬÑĥÐ»":8063,"ĠÐ¾ÑĦÐ¸ÑĨÐµÑĢ":8064,"ÐºÑĬÐ°Ð´Ð³Ð¸":8065,"ĠÐ±ÑĢÐ¸Ð³Ð°Ð´Ð¸ÑĢ":8066,"ĠÐ½Ð°ÑĢÐºÐ¾ÑĤÐ¸Ðº":8067,"ĠÐ³Ð²Ð°Ð½Ð³ÑĬÐ°ÑĢÐ°Ð±":8068,"ĠÐ¿ÑĢÐ¾ÑĦÐµÑģÑģÐ¸Ð¾Ð½Ð°Ð»Ð¸ÑıÐ±":8069,"Ð»Ð¸Ñĩ":8070,"ÑĥÐ»Ð¸":8071,"ÐºÐ¾Ð½Ð¾Ð¼":8072,"Ð°Ð½Ð³":8073,"ÑħÑĥÑĢ":8074,"Ð¸Ð½Ð°ÑĤ":8075,"ĠÐĵÐ°Ð·":8076,"ĠÐ¼Ð°Ð»ÑĬÑĥÐ»ÐµÐ±":8077,"ĠÑģÐ°ÑĢ":8078,"ĠÐ½Ð°Ð·":8079,"Ð³ÑĮÐ¾ÑĢÐºÑĮ":8080,"ÑĥÐ±Ð°ÑĢ":8081,"Ð¸ÑģÑĤÐ¸ÑıÐ±":8082,"Ð¾Ð±ÑĥÑģ":8083,"ĠÐłÑĥÐ³ÑĬ":8084,"ĠÐ³ÑĬÐ°ÑĢ":8085,"ÐłÐ°ÑħÑĮÐ´Ð°Ð»":8086,"ĠÐ¸ÑĪÐ»ÑĬÑĥÐ½":8087,"ĠÐ³ÓıÐ°ÑħÑĮÐ°Ð»Ð»ÑĬÑĥÐ»Ð°":8088,"ĠÐļÑĬÑĥÑĢÐ±":8089,"ĠÑħÓıÐ°Ð¶Ð°Ð»ÑĬÑĥÐ»Ð°":8090,"ĠÑģÐ°ÑħÐ°Ð²":8091,"ĠÐŃÑĢ":8092,"ĠÐŃÐ¼ÐµÐ½":8093,"ÑĥÑīÐ¸":8094,"ÑĤÐµÑĢÐ½":8095,"ĠÐĴÐ°ÑĤÓıÐ°Ð½Ð°Ð»ÑĬÑĥÐ»":8096,"ĠÐºÐ¾Ð¼Ð°Ð½Ð´Ð°ÑıÐ»ÑĬÐµ":8097,"Ġ2008":8098,"ĠÑĤÐ¾ÑħÑĤÑĥÑĢÐ·Ð°Ð±Ð¸":8099,"Ð±Ð°ÑģÐ¸ÑĢ":8100,"ĠÐ±Ð¸ÑĩÑĥÐ»ÐµÐ±":8101,"ĠÑħÐµÑĢÐ°Ð²":8102,"ĠÐ±Ð°ÐºÓıÐ°ÑĢÑĥÐ»ÐµÐ±":8103,"ĠÑĤÐ°ÐºÑĬÑģÐ¸ÑĢÐ³ÑĮÐ°Ð±Ð¸ÑıÐ»ÑĬÑĥÐ»":8104,"ĠÐĵÓıÐ°Ð±Ð´ÑĥÐ»Ð°ÑĤÓıÐ¸Ð¿Ð¾Ð²Ð°ÑģÑĥÐ»":8105,"ĠÑīÐ²ÐµÐ·Ð°Ð±ÑĥÐ½Ð°":8106,"ÑĩÐ¸ÑıÑģÐµ":8107,"ĠÐ³ÓıÐµÐ½ÐµÐºÐºÐ¸Ð·Ðµ":8108,"ĠÐĶÐ°Ð½Ð´ÐµÐ»ÑĬÐ¸ÑıÐ»Ð´Ð°":8109,"ĠÐºÐ°ÑĢÑĤÐ¾ÑĪ":8110,"ĠÐºÑĬÑĥÑĢÐºÑĮ":8111,"ĠÐĶÐ°ÑĢÐ±Ð¸ÑĪ":8112,"ĠÐºÐ¾Ñģ":8113,"ÑĤÓıÐ°Ð»":8114,"Ð°Ð²Ð°ÑĢ":8115,"ÐµÐ½Ð³Ð¸":8116,"ĠÑħÓıÐ°Ð·Ðµ":8117,"ÐºÑĮÐµÐ¹":8118,"ĠÐºÓıÐ¸ÑıÐ»Ð³Ð¾":8119,"ĠÐºÐºÐ¾Ð»ÐµÐ´ÑĥÑħÑĬ":8120,"ĠÑĩÓıÐµÐ³Óı":8121,"ĠÑĩÓıÐ²Ð°ÑĢÐ°Ð²":8122,"ĠÐ³ÑĮÐ°ÑĢÐ¸ÑĩÓıÐ¾Ð³Ð¾":8123,"Ð´Ð°ÑģÐ°Ð½Ð³Ð¾":8124,"ĠÑĢÐ°Ð³ÑĬÑĥÐ»ÐµÐ»":8125,"Ð¥ÑĮ":8126,"ĠÐ±Ð°ÑĤÓıÐ¸Ð±Ð°ÑĤÓı":8127,"ĠÐ£Ð¿":8128,"ĠÐ¸Ð½ÑģÑĥÐ´Ð°":8129,"ÐµÑĩÓıÐ¾Ð½Ð¸Ð³Ð¸":8130,"ĠÐ³ÑĬÑĥÑĢÑĥÑĪ":8131,"ĠÐ¥ÓıÐ°Ð¼Ð·Ð°ÑĤÐ¸ÑĨÐ°":8132,"ĠÐºÐ²ÐµÐ³Óı":8133,"ĠÐ¼Ð°ÑģÐ»":8134,"Ġ65":8135,"ĠÑĤÓıÐ°Ð³ÓıÐ¸Ð½Ð°ÑĢ":8136,"Ð¨ÐĲ":8137,"Ġ2017":8138,"ÐĽÑĬÐ°Ð±":8139,"ĠÐ³ÑĮÑĥÐ½Ð°ÑĢÐ³Ð¸":8140,"ĠÑĪÐ°ÑĢÑĤÓıÐ°Ð»Ð³Ð¸":8141,"ÐĵÑĬÐ¾ÑĢÐºÑĮ":8142,"ĠÑĢÐ¸Ð³ÑĮÐ¸Ð½":8143,"ĠÐ¦Ð¾Ð³Ð¸Ð´Ð°Ð»":8144,"ĠÑĢÐ°ÑģÐ³Ð¸":8145,"ĠÐĵÓıÐ°Ð»Ð¸Ð±ÐµÐ³Ð¾Ð²":8146,"ĠÐ½ÐµÐºÓıÑģÐ¸ÑıÐ»":8147,"ĠÐºÑĬÐ²Ð°ÑĤÓıÐ¸ÑĢÐµÑħÑĥÐ½":8148,"Ð±Ð°ÐºÓıÐ°Ð·Ð´Ð°":8149,"ĠÐ¸ÑħÐ´Ð°Ð»Ð¸Ð»":8150,"ĠÐºÐ°Ð¿Ð¸ÑĤÐ°Ð»Ð¸ÑıÐ±":8151,"ĠÐ¶Ð°Ð½ÑĥÐ±Ð¸ÑıÐ±Ð³Ð¸Ð½":8152,"ĠÐ³Ð°ÑĢÐ³Ð°Ð´":8153,"Ð½Ñı":8154,"ĠÐ±Ð°Ð³ÓıÐ°ÑĢÐ°Ð±":8155,"ĠÐ³ÑĮÐ°Ðº":8156,"ĠÐ³ÓıÐµÑĩ":8157,"ĠÐľÐ¸Ð½":8158,"ĠÑĩÓıÑĩÓı":8159,"ĠÑĢÐ°ÑħÑĬÐ¸":8160,"ĠÑĥÐ½ÐµÐ¹":8161,"ÑıÐ»ÑĬÑĥÑħÑĬ":8162,"ĠÐ»ÑĬÑĥÐ³ÑĮÑĥÐ½ÐµÐ»":8163,"ĠÐ¸ÑĪÐ°Ð»Ð´Ðµ":8164,"ĠÐ°ÑħÓıÐ´":8165,"ĠÑĢÑĥÐ³ÐµÐ»Ð³Ð¸":8166,"ĠÐ§ÑĥÑĢ":8167,"ĠÑĢÐ°ÐºÓıÐ°Ð»ÑĬ":8168,"ĠÐ±ÑĥÐºÓıÐ°ÑĢÐ°Ð±Ð»ÑĬÐ¸":8169,"Ð¸Ð¿Ð¿":8170,"ĠÑĢÐ°Ð³ÑĮÐ¸ÑıÐ»ÑĬÑĥÐ»":8171,"ĠÐ¸Ð´Ð°ÑĢÐ°":8172,"ĠÑĥÑĢÐ³ÑĬÑĥÐ½Ð³Ð¾":8173,"ĠÐ¼Ð°Ð³ÓıÐ¸ÑĪÐ°ÑĤÐ°Ð·ÑĥÐ»":8174,"ĠÐĲÑħÐ¼ÐµÐ´":8175,"Ð¾ÑĢÑĩÓıÐ°Ð¼Ð¸":8176,"ĠÑĩÓıÐ²Ð°Ð½ÐºÑĬÐ¾ÑĤÓı":8177,"ĠÐ±Ð°ÑĩÑĩÑĥÐ½":8178,"ĠÐºÑĮÐ¾Ð³Óı":8179,"ĠÐ¿ÐµÐ½ÑģÐ¸Ñı":8180,"ĠÑģÑĤÐ¾Ð»Ð°Ð»Ð´Ð°":8181,"ĠÐ¿ÑĢÐ¾ÑĦÐ¸Ð»Ð°ÐºÑĤ":8182,"ĠÑĥÐ³ÑĮ":8183,"Ð´Ð°ÑħÑĬ":8184,"Ð´Ð°Ðµ":8185,"ÐºÐ¸Ð½":8186,"ÑĤÐ¾Ð²":8187,"Ð¸Ð½ÑĤÓı":8188,"ĠÑĨÐµÑħ":8189,"ÑĥÑĢÐ°Ð»ÑĬÑĥÑħÑĬ":8190,"Ð¾ÑģÐµÐ»":8191,"ÐµÐ½Ð·":8192,"ĠÐºÓıÐ¸ÑĨÓı":8193,"ĠÑĢÐ¾ÑģÑģÐ¸ÑıÐ»ÑĬÑĥÐ»":8194,"ĠÐłÐ°Ð¼Ð·":8195,"ĠÑĩÓıÑĥÑħÑĮ":8196,"ĠÐ¡Ð¾Ð½":8197,"ĠÑĢÑĥÐºÓıÐ°Ð³Ð¾":8198,"ĠÐ½Ð¸Ð»ÑĬÐ³Ð¾":8199,"ĠÐºÐ²Ð°Ð½Ð°Ð»":8200,"ĠÐ±ÐµÑĤÓıÐµÑĢÐ³Ð¸":8201,"ĠÐºÑĮÑĥÐ½Ð¸":8202,"ĠÐ²Ð°ÑĩÓıÑĥÐ½Ð°":8203,"ĠÐ±Ð°ÐºÑĬÐ²Ð°ÑĢÐ°Ð±":8204,"ĠÐ±Ð°Ð¶Ð°ÑĢÑĥÐ½":8205,"ĠÐ¥ÑĥÐ½Ð·Ð°ÑħÑĬÐµ":8206,"ĠÑĨÐµÐ±ÐµÑĤÓıÑĥÑĢÐ°Ð±":8207,"ĠÐ³ÓıÐ°ÐºÑĬÐ»":8208,"ĠÐºÑĮÐµÑıÐ»ÑĬÑĥÐ»ÑĬ":8209,"ĠÐ±Ð¸ÑĩÐ¸Ð·Ðµ":8210,"ĠÐ¿Ð¸ÑħÑĬÐ¸Ð»":8211,"ĠÐ¼Ð¸Ð»Ð¸ÑĨÐ¸ÑıÐ»ÑĬÑĥÐ»":8212,"ĠÐ³ÑĥÑĢÐ¶Ð¸ÑıÐ·ÑĥÐ»":8213,"ĠÐ²Ð¾ÐµÐ½":8214,"ĠÐĳÐ°Ð´ÑĢÑĥÐ´Ð¸Ð½":8215,"ĠÑģÐ¿ÐµÐºÑĤÐ°Ðº":8216,"ĠÐ³Ð°":8217,"ĠÐºÐ°Ð²ÐºÐ°Ð·":8218,"ÑĤÓıÐ°ÑģÐ°":8219,"ĠÐ¶ÑĥÐ½":8220,"ĠÑĤÓıÐ°Ð³ÑĬÑĥÑĢ":8221,"Ð¸ÑħÐ°Ð½Ð¾Ð²":8222,"ĠÐłÑĥÑģÑĤ":8223,"Ð¸Ð´Ð¸":8224,"ÐµÐ¼ÐµÐ½":8225,"ĠÐ¡Ð°Ð²":8226,"ÐµÑħÐ½Ð¸Ðº":8227,"ÑĪÐµÑĢ":8228,"ĠÐ½ÑĥÑħÐ°Ð»ÑĬÑĥÐ»":8229,"ĠÐ³ÓıÐ°Ð´Ð°Ð¼Ð°Ð·Ð´Ðµ":8230,"Ð¸ÑģÑĤÐ°Ð½Ð°Ð»Ð´Ð°":8231,"ĠÐ¦ÐµÑĢÐµ":8232,"ĠÑĢÑĥÐ³ÐµÐ·ÑĥÐ»":8233,"ÐłÐ°ÑģÑĥÐ»":8234,"ĠÑĨÓıÑĥÐ½Ð¸ÑıÐ»Ð´Ðµ":8235,"ĠÐ»ÑĬÐ¸Ð¼Ð°Ð»Ð³ÑĥÐ½":8236,"ĠÐ³ÑĮÐ°Ð½Ð¸Ð²Ðµ":8237,"ĠÑĢÐ°ÐºÑĮÑĨÐ¾ÑıÐ»":8238,"ÑıÐ±ÑĢÐ°Ð»ÑĬ":8239,"ĠÐ³Ð°Ð·ÐµÑĤÐ°Ð»ÑĬÐµ":8240,"Ð¿ÑĢÐµÑģÑģ":8241,"ĠÑįÐºÐ¾Ð½Ð¾Ð¼Ð¸ÐºÐ°":8242,"ĠÑĤÓıÐ¸Ð±Ð¸ÑĤÓıÑĥÐ½":8243,"ĠÐļÑĬÑĥÑĢÑĬÐ°Ð½Ð°Ð»Ð´Ð°":8244,"ĠÐ»ÑĬÑĥÐºÑĬÑĥÐ½":8245,"ĠÐ°Ð³ÑĢ":8246,"ĠÐĽÑĬÐ¸Ð¼Ð°Ð»Ð°Ð·ÑĥÐ»":8247,"ĠÐ¿ÑĢÐµÐ´Ð¿ÑĢÐ¸ÑıÑĤ":8248,"ĠÐ¸ÑģÐ°Ð½Ð°Ð³Ð¸":8249,"ĠÐ±Ð¾Ð»Ð¶Ð°Ð»":8250,"ĠÐĶÐĲÐ¡Ð¡Ðł":8251,"ĠÐ¥ÑĬÐ°Ð·Ð°Ð½Ð±":8252,"ĠÐ°ÑıÑĤ":8253,"Ð°Ð±Ð°":8254,"ÐºÓıÐ¸":8255,"ÐºÓıÐ°ÑĩÓı":8256,"Ð¾Ð½Ð°Ð½Ð¸":8257,"ĠÐ¿Ð¾ÑĢÑĤ":8258,"Ð¸ÑĤÐ¾Ð²":8259,"Ð°ÐºÑĬÐ¸ÑĢ":8260,"Ð»ÑĬÐ¸ÐºÓı":8261,"ĠÐĵÓıÐµÐ»":8262,"ĠÑīÐ²ÐµÑıÐ»ÑĬÑĥÐ»":8263,"Ð¾Ð´Ð¸Ð½":8264,"ÐĵÑĮÐ¸ÑĤÓı":8265,"ĠÑħÐ°Ð»Ð°Ð»ÑĬÐ¸":8266,"ĠÐĺÐ²Ð°Ð½":8267,"ÐĳÑĥÐºÓı":8268,"ĠÑħÐ²Ð°Ð¶Ð°Ð¸Ð½":8269,"ĠÑĢÐµÑħÑģÐ¾Ð»ÐµÐ±":8270,"ĠÐ±Ð¸ÑĩÑĩÐ°ÑĩÓıÐ¾Ð³Ð¾":8271,"ĠÐ´Ð¸ÐµÐ³Ð¸":8272,"ÑħÐ°Ð½Ð¾Ð²Ð°Ñģ":8273,"ĠÑĩÓıÐ²Ð°Ð»Ð°":8274,"Ð¢ÓıÐ¾ÑĨÐµÐ±Ðµ":8275,"ĠÐ±Ð°Ð³ÑĮÐ°Ð½":8276,"ĠÐºÐºÐ²ÐµÐ¹":8277,"ĠÐºÐ¾Ð¼Ð¸ÑģÑģÐ¸Ñı":8278,"ĠÑĩÓıÐ°Ð³Ð¾Ð»ÑĬÐ¸":8279,"ĠÐ³ÓĢÑĥÑĨÓĢÐ¸ÑıÐ»ÑĬÑĥÐ»":8280,"ĠÐ±ÑİÐ´Ð¶ÐµÑĤÐ°Ð»ÑĬÑĥÐ»":8281,"ĠÐ¥ÓıÑĥÑģÐµÐ½Ð¾Ð²":8282,"ĠÑĤÓıÐ°ÑĤÓıÐ°Ð»":8283,"ĠÐľÑĥÑħÓĢÐ°Ð¼Ð¼Ð°Ð´":8284,"Ð»Ð¸Ð¼Ð¿Ð¸ÑıÐ»ÑĬÑĥÐ»":8285,"ĠÑĤÓıÐ°ÑħÑĮÐ°Ð·ÑĥÐ»":8286,"ĠÐ·Ð°Ð¼ÐµÑģÑĤÐ¸ÑĤÐµÐ»Ð°Ð»":8287,"ĠÐ¸Ð½ÑģÐ¿ÐµÐºÑĤÐ¾ÑĢ":8288,"Ð´Ð°Ð³ÑĮÐ¾ÑĢÐºÑĮÐ¾ÑģÐµÐ±":8289,"ÑĥÐ»Ð¸Ñī":8290,"ĠÐºÐ¸Ð±Ð³Ð¾":8291,"ĠÑĢÐµÐ·":8292,"Ð°Ð·Ð¸Ð·":8293,"Ð¸ÑĢÐ°ÐºÑĮ":8294,"ĠÑĤÓıÐµÐ·Ðµ":8295,"Ð°Ð³ÑĮÐ¸Ð»":8296,"ĠÐ»ÑĬÑĥÐ³ÓĢ":8297,"ĠÐĸÐ°Ð±ÑĢÐ°Ð³ÓıÐ¸Ð»":8298,"ĠÑĨÓıÐ¸ÐºÓıÐºÓıÐ¸Ð½Ðµ":8299,"Ġ36":8300,"ĠÑħÑĥÑĢÐ·Ð°Ð»":8301,"ĠÑĢÐ°Ð³ÑĬÑĥÐ»Ð°Ð²":8302,"Ġ2019":8303,"ĠÐ¼Ð°ÑĪÐ¸Ð½Ð°Ð±":8304,"ĠÐĵÓıÑĥÐ¼Ð°ÑħÐ°Ð½Ð¾Ð²":8305,"ĠÐ¤ÐµÐ´ÐµÑĢÐ°Ð»Ð¸ÑıÐ±":8306,"ĠÐºÐ¾Ð½Ñģ":8307,"ÑħÓıÐ°Ð¶Ð¸ÐµÐ²":8308,"ĠÐŁÐ°ÑĤÓıÐ¸Ð¼Ð°ÑĤÐ¸Ð»":8309,"ĠÐ§ÓıÐ¸ÐºÓı":8310,"ĠÐ±Ð°ÐºÓıÐ°ÑĢÐ°ÑĢÐ°Ð±":8311,"ĠÐ¼Ð¸Ð½Ð¸ÑģÑĤÐµÑĢÐ»ÑĬÐ¸ÑıÐ»ÑĬÑĥÐ»":8312,"Ð©Ð¸Ð²":8313,"ĠÐĵÓıÐ°Ð±Ð´ÑĥÐ»Ð°Ð³ÑĮÐ¸ÑĨÐ°":8314,"ĠÐ³ÑĮÐ°Ð½Ð¶ÐµÑģÐµÐ»":8315,"ĠÐ¥ÑĮÑĥÐ»":8316,"ĠÑĦÐ¸Ð»Ð¾ÑģÐ¾ÑĦ":8317,"ĠÐ´Ð¸Ð²Ð°Ð½Ð°Ð»Ð´Ðµ":8318,"ÐĲÑħÐ¸ÑĢÐ°Ð±":8319,"ĠÐ»Ð¸ÑĤÐµÑĢÐ°ÑĤÑĥÑĢÐ°ÑıÐ»ÑĬÑĥÐ»":8320,"ĠÐ¥ÓıÐ°Ð¹Ð±ÑĥÐ»":8321,"ÐĲÐ³ÑĬÐ²Ð°Ð»Ð¸":8322,");":8323,"Ð½ÑĥÑħ":8324,"ĠÐ±Ð¸ÑĩÓı":8325,"ĠÑħÑĥÐ½Ð·":8326,"Ð°Ð¼Ð°Ð»Ð³Ð¸":8327,"ĠÐ´Ð°":8328,"ĠÐ±ÑĥÐ³Ð¾Ð»ÑĬÐ¸ÑıÐ»ÑĬÑĥÐ»":8329,"ĠÑĩÐ²Ð°Ð½":8330,"ĠÐºÑĮÐ°Ð±Ð¸":8331,"Ð¾Ð±Ð°":8332,"ĠÐĳÑĥÑĨÓı":8333,"ĠÐ¥ÓıÐ¸Ð½ÐºÑĬ":8334,"ĠÐ¥ÓıÐ°Ð´Ð¸Ñģ":8335,"ĠÐ±Ð°ÐºÓıÐ°Ð»ÑĬÑĥÐ»Ð°Ð±":8336,"ĠÐ»ÑĬÑĥÐ³ÑĮÐ°Ð±Ð°ÑħÑĬ":8337,"ÐĲÑģ":8338,"ĠÐ±Ð°ÑĤÐ¸ÑĩÓıÐ¾Ð½Ð¸":8339,"ĠÐ°Ð½ÑĨÓĢ":8340,"ĠÑĤÓıÐ¾ÑĨÐµÑĢÐµ":8341,"Ð°Ð»Ð¸ÐºÑĮ":8342,"Ð¦ÑıÐ»ÑĬÑĥÐ»":8343,"ÐĺÐĽ":8344,"ÑĥÐ³ÐµÑıÐ½":8345,"ĠÑħÐ¸ÑģÐ¸":8346,"ĠÐ²Ð°ÑĨÐ³ÓıÐ°Ð»":8347,"ĠÐĵÓĢÐ°ÑĢÐ°Ð±":8348,"ĠÐ¯ÑħÓı":8349,"ĠÐ³ÓıÐ°ÑĢÑĨÑĥÑħÑĬ":8350,"ĠÐ©Ð¸Ð±ÑħÐ°":8351,"ĠÑĤÓıÐ°Ð±Ð¸Ð³ÓıÐ¸ÑıÐ»":8352,"ĠÐ±ÑĥÑģÑĥÑĢÐ±Ð°Ð½":8353,"ĠÐĵÓıÐ°ÑĢÐ°ÑĨ":8354,"ĠÑħÓıÐ°ÑĢÐ¿":8355,"ĠÐ²Ð°ÑħÓıÑĪÐ¸ÑıÐ±":8356,"ĠÑĩÓıÐ¾ÑĢÐ¾Ð³Ð¾":8357,"ĠÐ¼Ð°Ð³ÑĬÐ°Ð»Ð¾":8358,"Ð¸Ñİ":8359,"Ð°Ð±Ð¸ÑĢ":8360,"Ð°ÑĢÑħ":8361,"ĠÐ±ÑĥÑħÑĬ":8362,"ĠÐĳÐµÐ¶":8363,"ĠÐ³ÑĮÐµÐ»Ð´Ð°ÑģÐ°Ð½":8364,"ĠÐ¸Ð½Ð°Ð»ÑĬÐµ":8365,"ÑĦÐµÑĢ":8366,"ĠÑĨÓıÑĥÐ½Ð°Ð½Ð°":8367,"Ð°ÐµÐ²Ð°ÑģÐµ":8368,"ĠÐºÑĥÐ¼ÐµÐºÑĩÐ¸":8369,"ĠÐ³ÑĮÐµÐ·ÑĥÐ»Ð³Ð¸":8370,"ĠÐ³Ð°Ð·ÐµÑĤÐ°Ð»ÑĬ":8371,"Ð¸ÑıÐ·Ð´Ð°ÑģÐ°":8372,"ĠÐŃÑĢÐºÐµÐ½Ð»ÑĬÐ¸":8373,"ĠÑĢÐ°ÑĩÑĥÐ½Ð°":8374,"ĠÐºÐ»Ð°ÑģÑģÐ°Ð·Ð´Ð°":8375,"ĠÑİÑģÑģ":8376,"ĠÑĨÐ¾Ð¹Ð³Ð¸Ð´":8377,"ĠÐ³ÓıÐ°ÑĢÑĨÑĥÐ»Ð°Ð±":8378,"ÐļÓıÐ¸Ð³Ð¾":8379,"ĠÐ³ÑĮÐ°Ð½Ð¶ÐµÐ»ÑĬ":8380,"Ð¸Ð½ÑģÑĥÐ´Ð°":8381,"ĠÑĨÐµÑĢÐµÑĤÓıÐµÐ·Ð°ÑĢ":8382,"ĠÑĤÓıÐ°Ð´Ð²ÑĥÑģÑģÑĥÐ½":8383,"ĠÐ¼Ð°Ð¶Ð»Ð¸ÑģÐ°Ð»ÑĬÑĥÐ»":8384,"ĠÑİÑĢÐ¸Ð´":8385,"ĠÐ¡ÑĥÑĢÑħÐ°Ð¹":8386,"ĠÐŀÐľÐĴÐĶÑıÐ»ÑĬÑĥÐ»":8387,"ĠÐĴÐµÑĢÑħÐ¾Ð²":8388,"96":8389,"ÑĥÑıÐ»ÑĬÑĥÐ»":8390,"Ð³Ð¸ÑıÐ½":8391,"Ð¸Ð·Ð°":8392,"ĠÐ´Ð°Ð»Ð¸Ð»":8393,"Ð¾Ð²Ð¸Ðº":8394,"ĠÐ¥Ð°ÑĤ":8395,"ĠÐºÑĮÑĥÑĩÓĢ":8396,"ĠÐĶÐ°Ð¼Ð°Ð´":8397,"ĠÐ¡Ð°Ð¶Ð¸Ð´":8398,"ĠÑħÐ°Ð»Ð³ÑĮÐ°Ð±Ð¸":8399,"ÑĤÓıÐµÑĢÑħÑĮÑĥÐ»":8400,"ĠÐ¸ÑĪÐ°Ð»Ð³Ð¸":8401,"ĠÑħÐ°Ð»ÐºÑĬÐ°Ð·":8402,"ĠÐĽÑĬÐ°Ð³ÓıÐ¸Ð»":8403,"ĠÑģÐ¿Ð¾Ð½Ñģ":8404,"ĠÐ±Ð¸ÑĩÓıÑĩÓıÐ¸Ð·Ð°Ð±Ð¸Ð·Ðµ":8405,"ĠÐ¼ÐµÑħÐ°Ð»ÑĬÐ³Ð¸":8406,"ÐĽÐµÐ½":8407,"ĠÐ±Ð°ÑħÑĥÐ½ÐµÐ±":8408,"ĠÐ¼Ð¸Ð½Ð°ÑıÐ»ÑĬÑĥÐ»":8409,"ĠÐĺÐ½Ñģ":8410,"ĠÐ³ÑĮÐ¸ÐºÑĬÐ¸Ð´Ð°Ð»":8411,"Ġ1941":8412,"ĠÐ¼Ð¾ÑĨÓıÐ°Ð»":8413,"ĠÐĽÐµÐ½Ð¸Ð½Ð¸Ð»":8414,"Ġ2022":8415,"ĠÑīÐ²ÐµÐ·Ð°ÑĢÑĥÐ½Ð°":8416,"ĠÐ±Ð°ÑĢÑī":8417,"ĠÑĢÐ¸Ð¸Ð´Ð°Ð»Ð¸Ð»":8418,"ĠÐ¡ÑĥÐ³ÑĬÑĢÐ°Ð»ÑĬÐµ":8419,"ĠÐ´ÐµÐ»ÐµÐ³":8420,"ĠÑĨÐ¾ÑħÓıÐ¾Ð³Ð¾":8421,"ĠÐ²ÑĭÐ¿ÑĥÑģÐºÐ½Ð¸Ðº":8422,"ÑĩÐºÓıÐ°":8423,"Ð´ÑĥÐ»Ð°":8424,"Ð°ÑĢÐ°Ð¼":8425,"Ð¸Ð½ÑģÑĤÐ¸ÑĤÑĥÑĤ":8426,"ĠÐ²Ð°Ð»":8427,"Ð¸Ð·Ð¸Ð½":8428,"Ð¸ÑħÓĢ":8429,"Ð¸ÑĨÐµ":8430,"ĠÐºÓıÑĥÐ½":8431,"Ð°ÑĢÐ°Ð»Ð»ÑĬÑĥÐ½":8432,"ĠÑħÑĬÐ¸Ð·Ð°Ð±":8433,"ĠÑĪÑĥÑĢ":8434,"ĠÐĳÐ°ÑĩÓı":8435,"ĠÐ³ÑĮÐµÑģÐ´Ð°ÑģÐ°":8436,"ĠÐ±Ð¾Ð»ÑĬ":8437,"Ð°Ð½Ð¸Ð¹":8438,"ĠÐ±ÐµÑĤÓıÐµÑĢÐ±Ð°ÑħÑĬ":8439,"ÐĲÐ²":8440,"ĠÐĹÑĥÐ»":8441,"Ġ34":8442,"Ð¦ÐµÐ±Ðµ":8443,"Ġ55":8444,"ĠÑĤÓĢÐ¾ÑĨÐµÐ±ÐµÑģÐµÐ±":8445,"ĠÑĤÐ°ÑĢÐ¸ÑħÑĩÐ¸":8446,"ĠÐ±Ð°ÑħÐ°Ð½Ð°":8447,"ĠÐ»ÑĬÐ°Ð±Ð°Ð±Ð³Ð¾":8448,"ĠÐºÐ¾Ð¼Ð°Ð½Ð´Ð°ÑıÐ»ÑĬÑĥÐ»":8449,"ĠÑĩÑĥÑĢÐ¸Ð·Ðµ":8450,"ĠÐ¿Ð¾Ð»Ð¸ÑĤÐ¸ÐºÐ¸ÑıÐ»":8451,"ÐłÐ¾ÑģÑĥÐ»ÑĬ":8452,"ĠÐºÐ¾Ð´Ð¾ÑĢ":8453,"Ð¦ÓıÑĥÐ¼Ð°Ð´Ð°":8454,"Ġ1944":8455,"ĠÑĤÓıÐ°Ð´ÐºÑĬÐ°Ð¹":8456,"ĠÑıÑĨÐ°Ð»":8457,"ĠÑĥÑĩÐ°ÑģÑĤÐºÐ°ÑıÐ»ÑĬÑĥÐ»":8458,"ĠÐĳÐ¾ÐºÑĮÐ¸Ð»Ð°Ð°Ð½":8459,"ĠÑĤÓıÐ¾ÑĨÐµÐ²Ðµ":8460,"ĠÑĤÐµÐ¼Ð°ÑıÐ»Ð´Ð°":8461,"ĠÐºÐ¾ÑĩÓıÐ¾Ð»ÑĬ":8462,"ĠÐĵÐµÐ½ÑĥÐ±":8463,"ĠÑĨÐµÐ±ÐµÐºÐºÑĥÐ½Ð³Ð¾":8464,"ĠÐ±Ð°ÐºÑĬÑĤÓĢÐµÑĢÑħÑĮÑĥÐ´ÐµÑħÑĥÐ½":8465,"ĠÐĽÑĬÐ°ÑĢÐ°ÑĤÓĢÐ°":8466,"ĠÐļÐŁÐ¡Ð¡Ð°Ð»ÑĬÑĥÐ»":8467,"):":8468,"in":8469,"ĠÐ±Ð¾Ð»ÑĮÐ½Ð¸ÑĨÐ°":8470,"ĠÐ´Ð¾ÑĢ":8471,"ĠÑģÐ°Ð³Óı":8472,"Ð¿Ð¸ÑĤ":8473,"Ð°Ð·ÐµÐ³ÑĥÐ½":8474,"ĠÐĵÓıÐ¾Ð»":8475,"Ð»ÑĬÑĥÐ½Ð³Ð¾":8476,"ĠÐĳÐ¸ÑĩÓıÑĩÓı":8477,"ĠÑĢÐ°Ð¹Ñģ":8478,"ĠÐ¢Ð°Ð²":8479,"ĠÐ³ÑĮÐµÑĩÓıÐ¾Ð»ÑĬÐ¸ÑıÐ»Ð´Ð°":8480,"ĠÐ»ÑĬÐ¸Ð¼Ð°Ð´ÑĥÐ»":8481,"ÑİÐ±":8482,"ĠÐ°Ð½Ð¸Ð½":8483,"ÐĳÐ¸ÑħÑĮ":8484,"ĠÑħÓıÐ°Ð¶Ð°Ð»ÑĬÑĥÐ»ÐµÐ±":8485,"ĠÑĪÐ°Ð³ÑĮÐ°ÑĢÐ°Ð·ÑĥÐ»":8486,"ĠÐ°ÑħÐ¸ÑĢÐ¸ÑģÐµÐ»":8487,"ĠÐŃÐ»":8488,"ĠÑĢÐ°ÑĤÐ°Ð½Ð¸Ð³Ð¸":8489,"Ġ75":8490,"ĠÐºÑĬÑĥÐ²Ð°ÑĤÐ°Ð±":8491,"ĠÐ½Ð°ÑĩÐ°Ð»ÑĮÐ½Ð¸ÐºÐ°ÑģÑĥÐ»":8492,"ĠÐĿÑĥÐ¶ÐµÑĨÐ°":8493,"ĠÐ¡Ð°Ð¹Ð³Ð¸Ð´Ð¿Ð°ÑĪÐ°":8494,"ĠÐ¸ÑģÐºÑĥÑģÑģÑĤÐ²Ð¾ÑıÐ»ÑĬÑĥÐ»":8495,"ĠÑĩÓıÐ²Ð°Ð»ÐµÐ±":8496,"ĠÐ¼ÑĥÐºÑĬÑģ":8497,"ĠÐ¿ÑĢÐ¾Ð´ÑĥÐºÑĨÐ¸Ñı":8498,"ĠÐºÐ°Ð»ÐµÐ½Ð´":8499,"ĠÑħÓĢÐ°ÑĢÐ¿":8500,"ĠÐ°ÑĢÑħÐ¸ÑĤÐµÐºÑĤ":8501,"Ð»ÐµÐ»":8502,"Ð°Ð·ÑĥÑħ":8503,"Ð¸Ð»Ñı":8504,"ĠÐ¼Ð°Ð»ÑĬÑĥÐ½":8505,"ĠÐ»Ð°Ð±":8506,"ĠÐ»ÑĬÐ°Ð»ÑĬ":8507,"ĠÐºÐºÐ°Ð½Ð¸Ð½":8508,"ĠÑħÓıÐ°ÑıÐ»":8509,"Ð¸Ð»ÑĬÐ¸ÑıÐ»ÑĬÑĥÐ»":8510,"ĠÐĵÓıÑĥÑĨÓı":8511,"ĠÐĳÐ¸ÑĤÓıÑĥÐ½":8512,"Ð¸ÑıÐ»ÑĬÐ°Ð¶":8513,"ĠÐľÑĥÑħÓıÐ°Ð¼Ð°Ð´Ð¸Ð´Ð°":8514,"ĠÐ±ÐµÑĤÓıÐµÑĢÐ»ÑĬÐ¸ÑıÐ»Ð´Ð°":8515,"ÐļÐ¸Ð½Ð°Ð»Ð³Ð¾":8516,"ĠÐ°ÑħÓıÐ¸ÑıÐ»ÑĬÑĥÐ»":8517,"ÑĥÐºÑĢÑĥ":8518,"ĠÐļÑĬÐµÐ´Ð¸":8519,"ĠÐ³ÑĮÐµÐ·ÑĥÐ»Ð³ÑĥÐ½":8520,"ĠÐ¥ÓıÐ°Ð¶Ð°ÑĤ":8521,"ĠÐ¦ÓıÐ°ÑĢ":8522,"ĠÐŀÐ±":8523,"ĠÐ¥ÑĬÐ²Ð°ÑĢ":8524,"ĠÐºÓĢÐ²Ð°ÑĢ":8525,"ĠÐ¥Ð°ÑģÐ°Ð»":8526,"ĠÐ¼Ð¸Ð½Ð¸ÑģÑĤÐµÑĢÐ»ÑĬÐ¸ÑıÐ»ÑĬ":8527,"ĠÐ¿Ð°ÑĪÐ¼Ð°Ð½Ð°Ð±":8528,"ĠÐ¥Ð°ÑģÐ°Ð²ÑİÑĢÑĤÐ°Ð»ÑĬÑĥÐ»":8529,"ĠÐĵÓıÑĥÑģÐ¼Ð°Ð½Ð¾Ð²":8530,"ĠÑħÓıÐ°Ð»ÑĤÓıÐ¸Ð·Ð°Ð±ÑĥÐ»Ð°":8531,"ĠÑĤÓıÐ°Ð´Ð²ÑĥÑģÑģÐ°Ð½Ð°":8532,"ÐĺÐ½ÑģÐ°Ð½":8533,"ĠÑĤÑĥÐ¼Ð°Ð½ÐºÓı":8534,"Ð¾Ð»ÑĮÑĪÐµÐ²Ð¸Ðº":8535,"Ð°Ð»ÑħÓıÐ°ÑģÐ¸Ð»":8536,"ĠÐ´ÐµÐ¼Ð¾ÐºÑĢÐ°ÑĤ":8537,"ĠÑĥÐ³Ð¾Ð»Ð¾Ð²":8538,"Ð³Ð°Ð½":8539,"ÐºÐµÑĢ":8540,"Ð±ÐµÑĢÐ±":8541,"ĠÐºÑĥÐ¼":8542,"ÑģÐ¸":8543,"ĠÐ³ÓıÐ°Ñĩ":8544,"ĠÐ°Ð±Ð¸ÑĩÓıÐ¾Ð³Ð¾":8545,"ĠÐłÑĥÑħÓı":8546,"ÐµÐ¼Ð°":8547,"ĠÐ³ÑĬÐµÐ¶":8548,"ĠÐ³ÑĮÐ°ÑĢÐ¸ÑıÐ»ÑĬÐµ":8549,"ĠÐ¥ÓıÐ°Ñģ":8550,"ĠÐ±ÑĥÐºÓıÐ¸Ð½Ð¸Ð½":8551,"ĠÑħÐ°ÑģÐ°Ð»Ð¸Ð»":8552,"ĠÑĤÓıÐ¾Ð±Ð¸ÑĤÓıÑĥÐ½":8553,"ĠÐºÑĬÐ°Ð´Ð°Ð»":8554,"Ð¸Ð·Ð°ÑĢÑĥÑĢÐ°Ð»":8555,"ĠÐ¼Ð°Ð³ÓıÐ°ÑĢÑĥÐ»Ð°Ð·Ð´Ð°":8556,"ĠÐ¿Ð°ÑĩÐ°Ð»Ð¸ÑħÑĬÐ°Ð·ÑĥÐ»":8557,"ĠÑħÓıÑĥÐºÐ¼Ð°Ð±Ð¸":8558,"ĠÐĿÐ¸Ð»ÑĬÐµÐµ":8559,"ĠÑĢÑĥÐºÓıÑĥÐ½Ð°ÑĢÐ¾":8560,"ĠÐ®Ð½ÑĥÑģ":8561,"ĠÐ·Ð°ÐºÐ°Ð³ÓıÐ°ÑĤ":8562,"ĠÑĢÐµÐ»ÑĬÐ»ÑĬÑĥÐ½":8563,"Ġ1943":8564,"ĠÐ±Ð¸ÑīÐ¸Ð·Ðµ":8565,"ĠÐľÐ°Ð»Ð°Ñĩ":8566,"ĠÐ´Ð°Ð½Ð´ÐµÑĩÓıÐ°ÑĢÐ°Ð±":8567,"ĠÐĶÐ¸Ð±Ð¸ÑĢÐ¾Ð²":8568,"ĠÐºÐ²Ð°ÑĢÐ°Ð½Ð°Ð±":8569,"ĠÐ¦ÐµÐ½ÑĤÑĢÐ°Ð»ÑĬÑĥÐ»":8570,"Ð°ÑĤÑĮÑıÐ½":8571,"ĠÑħÐ¾Ð»Ð°":8572,"Ð°ÑĤÑĢÐ°Ð»Ð´Ð°":8573,"ÑĥÑĢÐ°Ð·ÑĥÐ»":8574,"ĠÐ»ÑĬÐ»ÑĬ":8575,"ĠÐ»ÑĬÐ°Ð²":8576,"ĠÐ»ÑĬÐ¸Ð´Ð°Ð³Ð¾":8577,"Ð¶Ð¸Ð´":8578,"ĠÑĩÐ²ÐµÑĢ":8579,"ĠÑĩÐ°Ð³ÓĢ":8580,"Ð¸ÑıÐ»ÑĬÑĥÐ»Ð°Ð»":8581,"ĠÐĳÑĥÐ³":8582,"ĠÑįÐ¿":8583,"ĠÐ½Ð°ÑħÑĬÐ°ÑģÐ°Ð½":8584,"ĠÑĢÐ¸ÐºÓıÐºÓıÐ°Ð´Ðµ":8585,"ÑģÐºÐ¸ÑıÑģÑĥÐ»":8586,"ĠÐºÐ²ÐµÑĢÑī":8587,"ĠÐ¿Ð¸ÐºÑĢÑĥÑıÐ»ÑĬÑĥÐ»":8588,"ĠÑģÐ¿Ð¾ÑĢÑĤÑĪÐºÐ¾Ð»":8589,"ĠÐĿÐ¸Ð¶ÐµÐ´Ð°":8590,"ĠÑĩÓıÐµÐ·Ð°Ð±ÑĥÐ»ÐµÐ±":8591,"ĠÐ»ÑĬÐ¸Ð¼ÐµÑĢÐ°Ð»ÑĬÐµ":8592,"ĠÐºÐ°Ð¼ÑĥÐ»Ð°ÑĢÐ¾":8593,"ĠÑģÐ¿Ð¾ÑĢÑĤÑģÐ¼ÐµÐ½Ð°Ð»":8594,"ĠÐ¿ÑĢÐ¾ÐºÑĥÑĢÐ°ÑĤÑĥÑĢÐ°ÑıÐ»ÑĬ":8595,"Ð¸ÑĩÓĢÐ¾Ð³Ð¾":8596,"ĠÐ²Ð°Ð³ÓıÐ·Ð°":8597,"ĠÐ¥ÓıÐ°ÐºÑĬÐ¸ÐºÑĬÐ°ÑĤÐ°Ð»Ð´Ð°Ð³Ð¸":8598,"ĠÐ¿ÐµÐ´Ð°Ð³Ð¾Ð³Ð¸ÐºÐ¸ÑıÐ±":8599,"\")":8600,"ĠÐºÐ½":8601,"ĠÑĤÐ°ÑĤ":8602,"Ð°ÑĢÐ°Ð±Ð³Ð¸":8603,"ÑĩÐ¸Ð³Ð¸":8604,"ÑĥÐ´Ð¸ÑıÐ·ÑĥÐ»":8605,"ÑħÓıÐµÑħÑĮ":8606,"ĠÐ¢ÐµÐ»":8607,"ĠÐĿÐ°ÑģÑĢÑĥ":8608,"ÐĶÑĥÑĢ":8609,"Ð¼Ð°Ð½Ð°Ð¿":8610,"ĠÐļÑĬÐ°Ð½":8611,"ĠÐļÑĬÐ°Ð´Ð¸":8612,"ĠÐ²Ð°ÑģÐ°ÑģÐµ":8613,"ĠÐĽÑĬÐ°Ð»ÐµÐ±":8614,"ĠÑĪÐ°Ð³ÑĮÐ¸Ð´":8615,"ĠÐ»ÑĬÐ°Ð¹Ð³ÑĥÐ½":8616,"ĠÐ±Ð°Ð»Ð°Ð³ÑĮÐ°Ð»":8617,"ĠÐ±Ð¸ÑĩÓıÑĩÓıÑĥÐ»Ð°ÑĢÐ¾":8618,"ÐĵÓıÑĥÐ¼ÑĢÑĥ":8619,"ĠÑħÓıÐ°Ð´ÑĥÑĢÐ¸Ð·Ðµ":8620,"ĠÐ´Ð¸ÐµÐ³Ð¾":8621,"ĠÐ²Ð°ÐºÑĨÐ¸Ð½":8622,"ĠÑĢÐ¾ÑħÐµÐ»Ð³Ð¸":8623,"ĠÑĩÓıÐµÐ·Ð°Ð±ÑĥÐ½Ð°":8624,"ĠÐ§ÓıÐ°ÑĢ":8625,"ĠÑīÐ¸Ð²Ð°ÑģÐµ":8626,"Ð¾Ð»Ð¾Ð³Ð¸ÑıÐ±":8627,"Ġ2006":8628,"Ð¤Ð¡":8629,"ĠÐ±ÑĥÑħÑĮÐµÐ½Ð°Ð»":8630,"ĠÐ³ÓıÐ¸ÑģÐ¸":8631,"ĠÐľÑĥÐ½Ð°Ð³ÑĮÐ°Ð»":8632,"Ð½ÑĥÑģÐ³Ð¾":8633,"ĠÐ°Ð³ÐµÐ½ÑĤ":8634,"ĠÐ¼Ð°Ð³ÓıÐ°ÑĢÐ´Ðµ":8635,"ĠÐľÐ°ÑħÑĥÐ»":8636,"ĠÐłÑĥÐºÓıÐ°Ð½Ð°":8637,"ĠÐ°Ð·Ð±Ð°ÑĢÐ°Ð»Ð´Ð°":8638,"ĠÑģÐ¸ÑıÑģÐ°ÑĤ":8639,"ÐĲÑħÓıÐ¼Ð°Ð´":8640,"ÐĸÐ¸Ð½Ð´Ð¸ÑĢÐ³Ð¾":8641,"Ð³Ð°":8642,"ÑĥÐ»ÐµÐ·Ð´Ð°":8643,"ĠÐ³ÓıÐ°Ð±":8644,"Ð¸Ð»Ð¾Ð²Ð°Ñģ":8645,"Ð¸Ð·Ð°Ñİ":8646,"ÑĨÐ¸Ð¾Ð½":8647,"Ð¾ÑĢÐ¾Ð´":8648,"ĠÐľÐ¸Ñħ":8649,"Ð¿Ð¾Ð·Ð¸ÑĨ":8650,"ÑıÐ»Ð¸":8651,"ĠÐ¢Ð°Ð¼":8652,"ĠÐ¢Ð°ÑĤÑĮÑıÐ½":8653,"ĠÐ±Ð¾ÑıÐ»ÑĬÑĥÐ»":8654,"Ð¸Ð·Ð°Ð±Ð¸ÑıÐ»Ð´Ð°":8655,"ĠÐ°ÑģÑģ":8656,"ĠÐ¨Ð¸ÑĢ":8657,"ĠÐĹÐ°Ð³ÑĬÐ°Ð»":8658,"ĠÑĢÐµÑħÐ°Ð½Ð°":8659,"ĠÐ³ÑĮÐ°Ð²ÑĥÐ»Ð°":8660,"Ð°Ð³ÓĢÐ°ÑĤ":8661,"ĠÑĤÓĢÐ°Ð¼":8662,"ĠÑĥÐ»ÐºÐ°Ð±Ð°Ð·ÑĥÐ»":8663,"ĠÐ³ÓıÐ¸Ð»Ð»Ð°Ð±Ð¸":8664,"ĠÐ±Ð¸Ð³ÑĮÐ°Ð»ÑĬÐ¸":8665,"ĠÐ±ÑĥÐºÓıÐ¸Ð½ÑĩÓıÐ¸Ð½":8666,"ĠÐĵÓıÐ¸ÑģÐ°ÐµÐ²Ð°Ñģ":8667,"ĠÐ¿ÐµÐ½ÑģÐ¸Ð¾Ð½ÐµÑĢ":8668,"ĠÑħÓıÑĥÑħÑĮÐ±Ð°ÑħÑĬÐ¸":8669,"ĠÑıÑĢÐ³ÑĬÐ¸Ð´Ð³ÓıÑĥÑĨÓı":8670,"ĠÐ¾Ð±Ð»Ð°ÑģÑĤÐ°Ð»ÑĬÑĥÐ»":8671,"ĠÑĢÑĥÐºÓıÐ¸Ð½ÑĩÓıÐµÐ»":8672,"ĠÐĵÓıÐ°ÑħÑĮÐ°Ð»ÑĩÓıÐ¸":8673,"ĠÐŃÑĩÐµÐ´Ð°":8674,"ĠÐ¡ÐĴÐŀÑıÐ»Ð´Ð°":8675,"ÑĢÐ°Ð¹":8676,"Ð°Ð³Ð¸ÑıÐ½":8677,"Ð°ÑģÐ¸ÑıÐ±":8678,"Ð°ÑģÐ´Ð°Ð³Ð¸":8679,"ÐºÓıÐ°Ð½ÑĨÓı":8680,"ĠÑĤÐ°Ð½Ðº":8681,"ĠÐ´Ð¾ÑĢÐµ":8682,"Ð¸ÑĢÐ³Ð¸":8683,"ĠÐ¿Ð¾":8684,"Ð³ÑĮÐµÐºÑĬ":8685,"ĠÑĨÓıÐ²Ð°":8686,"ÐºÑĮÐ°Ð»":8687,"ÑĥÑħÑĬÐµÐ³Ð¸":8688,"Ð¹Ð¸Ð´Ðµ":8689,"ĠÐĳÐ¸Ñĩ":8690,"ĠÐ·Ð°Ð¼Ð°Ð½Ð°Ð»Ð´Ð°ÑģÐ°":8691,"ĠÐ°ÑģÑħÓıÐ°Ð±":8692,"ĠÐ´Ð°Ð½Ð´ÐµÐ»ÑĬÐ¸ÑıÐ»Ð´Ðµ":8693,"ĠÐ½Ð°ÑħÑĬÑĢÑĥÑģÑģ":8694,"ĠÑĢÐ°Ð³ÓıÐ¸Ð·Ðµ":8695,"ĠÑīÐ¸Ð±Ð´Ð°Ð¹":8696,"ĠÐ¼ÐµÑħÐ°Ð½":8697,"ĠÐ¼ÐµÑħÐ°Ð»Ð´Ð°Ð³Ð¸":8698,"ĠÑĢÐ°ÐºÓıÑĩÓıÑĥÐ½":8699,"ĠÐºÑĬÐ²Ð°ÑĤÓıÐ¸Ð²":8700,"ĠÑĢÐ°ÑħÑĬÐ°Ð»ÑĬÐ³Ð¸":8701,"ĠÐ°ÑħÐ¸ÑĢÐ³Ð¸":8702,"ĠÑĢÑĥÐºÑĬÐ·Ð°Ð±Ð°ÑħÑĬ":8703,"Ġ44":8704,"ĠÑĨÐ¾Ð³Ð¸Ð´Ð°Ð·Ðµ":8705,"ĠÐ³ÑĮÐµÐºÑĬÐ¾Ð½":8706,"ĠÐĳÐ°ÑĢÐºÐ°Ð»Ð°ÑıÐ»ÑĬÑĥÐ»":8707,"ĠÐºÐ°Ð¼Ð¸Ð»Ð°Ð±":8708,"ĠÑĤÐ°Ð²Ð¿Ð¸ÐºÑĬ":8709,"ĠÐºÐ°Ð³ÑĬÑĤÐ¸Ð´Ð°":8710,"ÐĲÐ»Ð»Ð°Ð³ÑĮÐ°ÑģÑĥÐ»":8711,"ĠÑģÑĥÐ±ÑģÐ¸Ð´":8712,"ĠÐ³ÐµÐºÑĤÐ°ÑĢÐ°Ð»Ð´Ð°":8713,"ĠÐ±Ð°ÐºÑĬÐ±Ð°ÐºÐºÑĥÐ»":8714,"ĠÑįÐ½ÐµÑĢÐ³":8715,"ĠÐĲÐ·ÐµÑĢÐ±Ð°Ð¹Ð´":8716,"ĠÐ±Ð¸Ð»ÑĬÐ»ÑĬÐ°Ð½ÑħÑĬ":8717,"Ð¾ÑĤÑĢÐµÐ±":8718,"ĠÐ£Ð¿ÑĢÐ°Ð²Ð»ÐµÐ½":8719,"ÑĢÐ¸Ð±":8720,"ÑĢÐ¸Ðº":8721,"Ð½Ð°Ð»Ð´Ð°":8722,"ĠÐ³ÑĥÐ¼":8723,"ÐºÐ°ÑıÐ»ÑĬ":8724,"Ð±Ð¾ÐºÑĮ":8725,"Ð²Ð°Ðº":8726,"ĠÐĵÐ¸Ð½":8727,"ĠÐ¼Ð°":8728,"ĠÐºÓıÐ²Ð°Ð½":8729,"Ð°ÑĨÐ¾":8730,"ĠÐ·Ð°Ð³ÑĮ":8731,"ĠÐļÐº":8732,"ĠÐļÐµÑĢ":8733,"ĠÐļÐ²Ð°ÑĤÓı":8734,"ĠÐłÐ°Ð´Ð¸Ð¾":8735,"ÑĨÓıÑĥÐ½":8736,"ĠÑĩÓıÐ¾Ð»ÐµÐ±":8737,"ĠÑĨÓıÑĥÐ½Ð°Ð³Ð¸":8738,"ĠÐ°ÑħÓıÐ°ÑĢÐ°Ð±":8739,"ĠÐ§Ð°ÐºÐ°ÑĢ":8740,"ĠÐºÐ¾Ð¼ÑģÐ¾Ð¼Ð¾Ð»":8741,"ĠÐĵÓıÐ°Ð±Ð´ÑĥÐ»Ð»Ð°Ð³ÑĮ":8742,"ĠÐĵÓıÐ°Ð±Ð´ÑĥÐ»ÑħÐ°Ð»Ð¸ÐºÑĬ":8743,"ÑĭÐ½":8744,"ĠÑĥÐ½ÑĤÐ°ÑĢ":8745,"ĠÑħÓıÐ°ÑģÐ¸Ð»Ð°Ð·Ð´Ð°":8746,"ĠÐ±Ð¸ÑĤÓıÐ¸Ð·Ðµ":8747,"ÐĸÐ°Ð¼":8748,"...\"":8749,"ĠÑĨÓıÐµÑħÐ°Ð½Ð°":8750,"ĠÑĢÑĥÑĩÑĩÐ°Ð±Ð°Ð·Ð´Ð°":8751,"ĠÑĢÐ°ÑħÐ¸Ð½ÑĩÓıÐµÐ»":8752,"ĠÐ¼Ð¸Ð½Ð¸ÑģÑĤÐµÑĢÑģÑĤÐ²":8753,"ĠÐ³Ð¾ÑĩÐ¸Ð½Ð°ÑĢ":8754,"ĠÐ±Ð°Ð»ÑĥÐ³ÑĬ":8755,"ĠÑĦÐµÑĢÐ¼ÐµÑĢ":8756,"ÐĲÐ²Ð°ÑĢÐ°Ð³":8757,"ĠÐ¼Ð¸Ð½Ð¸ÑģÑĤÐµÑĢÑģÑĤÐ²Ð¾ÑıÐ»ÑĬ":8758,"ĠÐĹÐ°Ð»Ð¼Ñĥ":8759,"ĠÐ¨Ð°Ð¿Ð¸Ð³Óı":8760,"ÐĵÑĮÐ°Ð±ÑģÐ°Ð³ÓıÐ°ÑĤÐ°Ð»Ð´Ð°":8761,"ĠÐºÓıÐ¸ÐºÑĬÐ¾ÑıÐ»Ð´Ð°":8762,"ĠÐ²ÑĭÑģÑĤÐ°Ð²Ðº":8763,"ĠÐĴÐ°ÑģÐ¸Ð»ÑĮ":8764,"Ð°Ð±Ð°ÑĨÐ°":8765,"ĠÐ³ÑĮÐ¸ÑĤÓĢ":8766,"ÑĤÐ¸Ð»":8767,"ÑģÐµÑĤ":8768,"ĠÐ³ÓıÐ¸Ð´Ð°Ð»ÑĬÑĥÐ»":8769,"ĠÑģÑĩÐµÑĤ":8770,"ĠÐĵÑĮÐ°Ð´Ð¸ÑĢ":8771,"ĠÐļÑĢÐ°Ñģ":8772,"ÑĨÓıÐ¸ÑıÐ»":8773,"ĠÑĩÓıÐ°Ð¼":8774,"ĠÑĤÓıÐ°Ð´Ð±ÑĥÑģÑģ":8775,"ÑīÐ¸":8776,"ÐĵÑĮÐµÐ·Ð´Ð°":8777,"ĠÐ¦Ð¾ÑĨ":8778,"ÑĦÐ¸ÑĢ":8779,"ĠÑĦÐµÐ»ÑĮÐ´":8780,"ĠÐĵÓıÐ°Ð±Ð´ÑĥÐ»Ð³Óı":8781,"ĠÐ¿Ð¾Ð»Ð¸ÐºÐ»Ð¸Ð½":8782,"ĠÑĤÓĢÐ°Ð³ÓĢ":8783,"ĠÐ¿ÑĢÐµÐ´Ð¼ÐµÑĤ":8784,"ĠÐºÑĬÐ¾ÐºÑĬÐ°ÑıÐ»ÑĬ":8785,"Ġ2007":8786,"ÑĢÐ°ÑħÑĬÐ¸Ð½Ð°Ð»ÑĬÑĥÐ»":8787,"ĠÑĢÐµÑĩÓıÑĩÓıÑĥÐ½":8788,"ĠÐ¸Ð½ÑĤÐµÑĢÐ½ÐµÑĤÐ°Ð»Ð´Ð°":8789,"ĠÐ¡Ð°Ð³ÓıÐ°Ð´ÑĥÐ»":8790,"ÐĵÓıÐµÐ¼ÐµÑĢÐ°Ð»":8791,"ĠÐ³ÑĢÐ°Ð¶Ð´Ð°Ð½":8792,"ĠÐ¦Ð°Ð´Ð°ÑħÑĬÐ°Ð±":8793,"ĠÐ¼Ð°ÐºÑĮÑĥ":8794,"ĠÐľÐ°Ð³ÑĮÐ´":8795,"ĠÐĸÐ¸Ð´ÐµÑĢÐ³Ð¾":8796,"ĠÐłÐ°Ð¼Ð·Ð°Ð½":8797,"ĠÑĥÐº":8798,"Ð³Ð¸ÑıÐ·ÑĥÐ»":8799,"ĠÐ±Ð°ÑĢÐ°Ð¹":8800,"Ð°ÑĢÐ¾Ð´":8801,"ĠÐºÐµÑĢÐµÐ½":8802,"Ð°ÑģÐµÐ³Ð¸":8803,"ÐµÐ»Ð°Ð·ÑĥÐ»":8804,"Ð¾Ð»Ð°Ð³Ð¾":8805,"Ð¾Ð»Ð°ÑĢÐµÐ»":8806,"ĠÐ´Ð°Ð²":8807,"ÑĤÓıÐ¸":8808,"ĠÑĨÓıÐµÑĢ":8809,"ĠÑĢÐµÑĪ":8810,"ĠÐ¥ÑĥÐ½":8811,"ĠÐļÐ²ÐµÑĪ":8812,"ĠÐ³ÑĮÐ°ÑĢÑĥÐ»Ð°Ð³Ð¾":8813,"ĠÑħÑĬÐ²ÐµÐ·Ðµ":8814,"ĠÐĺÑħ":8815,"ĠÐ³ÓĢÐ°ÑħÑĮÐ°Ð»":8816,"ĠÐĵÓıÐ°Ð±Ð´ÑĥÐ»ÐºÑĬÐ°Ð´Ð¸ÑĢ":8817,"ĠÐ½Ð°ÑħÑĬÐµÐ³Ð¾":8818,"Ġ37":8819,"ÐĵÓıÐ°ÑĢ":8820,"ĠÑĨÓĢÐ°ÑĢÐ°Ð»":8821,"ĠÑĢÐ¸ÑĤÓıÐ°Ð½Ð°":8822,"ĠÐ¸Ð½ÐµÐ³ÓıÐ°Ð½":8823,"ĠÐºÐ²ÐµÑĪÐ»ÑĬÐ¸":8824,"ĠÐºÐ°Ð¼ÑĥÑĢÐ°Ð±":8825,"ĠÑĩÓıÐ°ÑħÓıÐ¸ÑıÐ±":8826,"ĠÑĢÐ¸ÑħÑĮÐ¸Ð·Ð°ÑĢÐ¸Ð·Ðµ":8827,"ĠÑĢÐ¸ÑĩÑĩÐ°ÑĢÐ°Ð»":8828,"ĠÐ»ÑĬÐ°Ð»Ð°ÑĢÐ¾Ð°Ð½":8829,"ĠÐ²Ð¸ÑĤÓıÑĥÐ»Ð°":8830,"ĠÐ³ÓıÐ¾ÑĢÑħÑĬÐ¾Ð´Ð°":8831,"ĠÐĵÑĬÐ¾ÑĢÐºÑĮÐ³ÑĮÐ°ÐºÐ²Ð°ÑĢÐ¸":8832,"ĠÐ³ÓıÐ°Ð»Ð°Ð¼Ð°ÑĤÐ°Ð»":8833,"ĠÐ¥ÓıÐ°Ð»ÑĤÓıÐ¸":8834,"ĠÑĨÓıÐ¸ÐºÓıÑĥÐ½":8835,"ĠÐľÑĥÑĢÑĤÐ°Ð·Ð°Ð³ÓıÐ°Ð»Ð¸ÐµÐ²":8836,"ĠÐ¼Ð°Ð»Ð°Ð¸Ðº":8837,"ĠÐ¡ÑĤÐ°Ð»Ð¸Ð½":8838,"ĠÐ¥ÓıÐ°Ð¹Ð´Ð°ÑĢÐ±":8839,"ĠÑĩÓıÐ°Ð»Ð³Óı":8840,"ĠÐĴÐµÑĢÑħÐ¾Ð²Ð½ÑĭÐ¹":8841,"ĠÑĢÐ¸ÐºÑĬ":8842,"Ð°ÑıÐ¹":8843,"ĠÐĲÑģÑĤÑĢ":8844,"ĠÑĢÐ¾ÑģÐ°Ð±Ð°Ð·Ð´Ð°":8845,"ĠÐĵÓıÐ¸ÑģÐ°":8846,"Ð¸Ð´Ð¸Ð½":8847,"ĠÐĳÐ¾Ð¶":8848,"ĠÐ³ÑĮÐ¾ÑĢÐºÑĮÐ¾":8849,"Ð¾ÑĨÐ¸":8850,"ĠÐ±Ð°ÑħÑĬÐ¸Ð½Ðµ":8851,"ÐµÐ»ÑĮÑħÐ¾Ð·":8852,"ÑģÐºÐ¾Ðµ":8853,"ÐµÑĨÐ°Ð³Ð¸":8854,"ĠÐ¹Ð¸ÐºÓıÑĥÐ½Ð°":8855,"ĠÐ²Ð°ÑĨÐ°ÑģÑĥÐ»":8856,"ĠÐ·Ð°ÐºÐ°Ð·":8857,"ĠÑĢÐ¸ÑħÑĮÐ¸Ð·Ð°ÑĢÑĥÐ»ÐµÐ»":8858,"Ð¦ÓıÐ°ÐºÑĬ":8859,"ĠÑħÓıÐ¸ÑģÐ°Ð±Ð°Ð»Ð´ÐµÐ³Ð¸":8860,"ĠÐ±Ð¸ÐºÑĮÑĥÐ½":8861,"ĠÐ³ÓıÐ°ÐºÑĬÐ»ÑĥÐ³Ð¸":8862,"Ð°Ð»ÑĮÑĤ":8863,"ÐĿÐ¸Ð¶ÐµÑĨÐ°":8864,"ĠÑĤÐ²Ð¾ÑĢÑĩÐµÑģÐº":8865,"ĠÑıÑħÑĬÐ°Ð½Ð°":8866,"ĠÐ¼Ð°Ð³ÓıÐ°ÑĢÐ´Ð°":8867,"ĠÐ¿Ð°ÑĢÐ»Ð°Ð¼ÐµÐ½ÑĤÐ°Ð»ÑĬÑĥÐ»":8868,"ĠÐ³ÑĮÐ°Ð»Ð±Ð°Ð´ÐµÑĢÐ¸Ðµ":8869,"ĠÑģÐ°Ð¹Ð¸Ð³ÑĬÐ°ÑĤ":8870,"ĠÐļÑĬÑĥÑĢÐ±Ð°Ð½Ð¾Ð²":8871,"39":8872,"Ð»Ð¾ÑĤ":8873,"Ð´Ð°ÑıÐ½":8874,"Ð°Ð½Ð°ÑħÐ°":8875,"ĠÐ²Ð¾ÑĢÑĤ":8876,"ĠÐ¿Ð°Ð»":8877,"ĠÐ±ÑĥÐºÓıÐ°Ð³Ð¾":8878,"ĠÑĨÓıÑĥÑĢÐ°Ð»":8879,"Ð¸ÐºÐ¾Ð»Ð¾":8880,"ĠÐ¡Ð¸Ð±Ð¸ÑĢ":8881,"ĠÐ¡Ð¨ÐĲ":8882,"ĠÐĳÑĥÑħ":8883,"ĠÐĳÐ°ÑģÐ¸ÑĢ":8884,"Ð¾Ð¼Ð±":8885,"ÑĥÐ»ÑĬÐ³Ð¸":8886,"Ð¸Ð·Ð°Ð±ÑĥÐ»ÐµÐ»":8887,"ĠÑĨÓıÐ°Ð»Ð°ÑĢÐ°Ð²":8888,"ĠÐĶÐ°Ð³ÑĬÐ¸ÑģÑĤÐ°Ð½Ð°Ð»Ð´Ð°Ð³Ð¸":8889,"ĠÐ³ÑĮÐ°Ð±ÑĥÐ½Ð¸Ð»Ð°":8890,"ĠÐ±Ð¾ÑģÐ°ÑĢÐ°Ð»":8891,"ÐĶÑĥÑĨÐ°":8892,"ĠÐĸÑĥÑĢÐ½Ð°Ð»":8893,"ĠÐ°Ð²Ð¸":8894,"ĠÐ³ÑĮÐ°Ð½Ð°Ð»":8895,"ÑģÑĤÑĢÑĥÐº":8896,"ÐĳÐ¸ÑĨ":8897,"ĠÐ¥ÓıÐ°Ð¶Ð¸ÑıÐ²":8898,"ĠÑħÑĬÑĥÐ»ÑĥÑħÑĬÐ°Ð·ÑĥÐ»":8899,"ĠÑĢÐ¾ÑģÑĥÑĨÐ¾ÑıÐ·ÑĥÐ»":8900,"ÑģÐºÐ¸ÑıÑģ":8901,"ĠÐ¼Ð°Ð³ÓıÐ¸ÑĪÐ°ÑĤÐ°Ð»":8902,"ÐŁÐµÑĤÐµÑĢÐ±ÑĥÑĢÐ³":8903,"ÑĥÐ³ÑĬÐ°Ð¹":8904,"ÑĥÐºÑĬÐ°Ð»":8905,"ĠÐ´Ð¸Ð½Ð³Ð¸":8906,"ĠÐºÑĬÐ¾ÐºÑĬÐ°Ð±Ð¸":8907,"ĠÐ³ÓıÐ°Ð´Ð°Ð¼Ð°Ð·Ð³Ð¸":8908,"ĠÑĥÑĩÐ¸ÑĤÐµÐ»ÑĮÐ·Ð°Ð±Ð°Ð·":8909,"ÐļÑĬÐ¾ÐºÑĬ":8910,"ĠÐ³Ð¾ÑĩÐ°Ð½Ð°":8911,"ĠÑĢÐ°Ð¹Ð°Ð´Ð¼Ð¸Ð½Ð¸ÑģÑĤÑĢÐ°ÑĨÐ¸ÑıÐ»Ð´Ð°":8912,"ÐµÑĢÑĤÐ¼Ð°":8913,"ĠÑĤÓıÐ°Ð´ÐºÑĬÐ°ÑıÐ»":8914,"ĠÐ³ÑĮÑĥÐ¸Ð½Ð°Ð±":8915,"ĠÐ±Ð°ÑĢÐºÐ°Ð»Ð°ÑıÐ»ÑĬÑĥÐ»":8916,"ĠÑħÓıÐ¸ÐºÐ¼":8917,"ĠÐ´Ð¾Ñı":8918,"ĠÐ»ÑĬÐµÐ±ÐµÑĢÐ³Ð¾":8919,"ĠÑĦÐ°ÐºÑĥÐ»ÑĮÑĤÐµÑĤÐ°Ð»Ð´Ðµ":8920,"ĠÐ³ÑĮÐ¸ÑĤÓıÐ¸Ð½Ð°Ð¹":8921,"Ð¢ÓıÐ°Ð´ÐµÐ³ÓıÐ°Ð½Ð°Ð²":8922,"ÐµÐ´ÐµÑĢÐ°Ð»Ð¸ÑıÐ»":8923,"us":8924,"ĠÐ±Ð¸ÑĤÓĢ":8925,"ĠÐ³ÑĮÐµÑĢÑģ":8926,"Ð»ÑĬÐ¸ÑıÐ»Ð´Ð°Ð»ÑĬÑĥÐ½":8927,"Ð¸Ð½Ð¸Ð½":8928,"Ð°ÑħÐ¸ÐºÑĮ":8929,"ÐµÐ»Ð°Ð»ÑĬ":8930,"ĠÐ»ÑĬÐ°ÑĢÐ°Ð±":8931,"ĠÐ¥ÑĥÑĩ":8932,"ĠÐ¡Ð°Ð±":8933,"ĠÐ¡Ð¾Ð±ÑĢÐ°Ð½":8934,"ĠÐ½Ð¸Ð»ÑĬÐ³Ð¸":8935,"ĠÐ±Ð¾ÐºÓı":8936,"ĠÐ³ÓıÐµÐ¼ÐµÑĢÐ»ÑĬÑĥÐ½":8937,"ĠÐ¶Ð¾ÑıÐ»ÑĬÐµ":8938,"ĠÑĢÐ°Ð³ÓıÐ°Ð±Ð°Ð·Ð´Ð°Ð»ÑĬÑĥÐ½":8939,"ĠÐ±Ð¾ÐºÑĮÐ°Ð½Ð°":8940,"ĠÑĨÓıÐ¸ÐºÓıÐºÓıÐ¸Ð½Ð°Ð±Ð¸Ð·Ðµ":8941,"ĠÐ»ÑĬÑĥÐ³ÓıÐ¸Ð·Ð°Ð±Ð¸Ð·Ðµ":8942,"ĠÐ»ÑĬÐ¸ÐºÓıÐ°Ð±ÑīÐ¸Ð½Ð°Ð±":8943,"ĠÐ»ÑĬÐ°Ð·Ð°Ð±ÑĥÑĢÐ°Ð±":8944,"ĠÑħÓıÐ°ÑģÐ¸Ð»Ð°Ð»Ð³Ð¸":8945,"ĠÐŀÑĢ":8946,"ĠÐ°ÑģÐ»Ð¸ÑıÐ±Ð»ÑĬÑĥÐ½":8947,"ĠÐ¾ÑĤÐ´ÐµÐ»Ð°Ð·ÑĥÐ»":8948,"ĠÐ§ÓıÐ°ÑĢÐ°Ð´Ð°":8949,"ĠÐ¸Ð¼Ð°Ð¼Ð»ÑĬÑĥÐ½":8950,"ĠÐ±ÑĥÑħÓıÑĥÐ»ÐµÐ±":8951,"ĠÑĤÐ°ÐºÑĬÑģÐ¸ÑĢÐ°Ð»":8952,"ĠÐĵÓıÐ°Ð´Ð°ÑĤ":8953,"ĠÐĵÑĮÐµÐ´Ð¸Ð½Ð°Ð±Ð³Ð¾":8954,"Ġ1990":8955,"ĠÐ³ÓıÐ°Ð¶Ð°Ð¸Ð±Ð³Ð¾":8956,"ĠÑģÑĥÐ½Ð½Ð°ÑĤÐ°Ð±":8957,"ĠÐ¥ÓıÐ°Ð¹Ð´Ð°ÑĢ":8958,"ĠÐķÐ³Ð¸Ð¿ÐµÑĤÐ°Ð»ÑĬÑĥÐ»":8959,"ĠÐ²Ð¸Ð»Ð°ÑıÑĤ":8960,"!!":8961,"ĠÐ³Ð¸ÑĢ":8962,"ĠÑĢÐ°Ð¼Ð°Ð·Ð°Ð½":8963,"Ð¸Ð½ÑĩÓĢ":8964,"ĠÐ¼Ð¾Ð±Ð¸Ð»":8965,"ĠÐ³ÑĮÐ°Ð±ÑĥÐ³Ðµ":8966,"Ð¸ÑĢÐºÑĬ":8967,"ĠÐ¿ÑĥÑĢ":8968,"ĠÐľÐ¸Ðº":8969,"ĠÐľÐµÑĤÑĢ":8970,"ĠÐ¸ÑĤ":8971,"Ð´Ð°ÑģÐµÐ±":8972,"ÐµÐ¹Ñħ":8973,"ÑħÓıÐ°ÐºÑĬ":8974,"ĠÐĿÐ¾Ð²":8975,"Ð°Ð±Ð°Ð·ÑĥÐ»ÑĬ":8976,"ĠÐ¿ÑĢÐ¸Ð²":8977,"ĠÐ·Ð°Ð¼Ð°Ð½Ð°Ð»Ð´Ð°Ð³Ð¸":8978,"ĠÐ±Ð¾ÑģÐ¸":8979,"ĠÐ±Ð°ÑħÑĬÑĥÐ½ÐµÐ±":8980,"ĠÑĦÐ°ÑĢ":8981,"ĠÑĢÐ°ÑĩÓıÑĥÐ½Ð°Ð°Ð½":8982,"ĠÐ±Ð°ÑĩÐ¸Ð½Ð°Ð»ÑĬÑĥÐ»":8983,"ĠÐ¼ÑĥÑħÑĬÐ°Ð·Ð´Ð°":8984,"ĠÑĢÐ¸ÐºÓıÐºÓıÐ°Ð´Ð°":8985,"ĠÐºÐ¸Ð´Ð°Ð³":8986,"ÑĥÑĪÐµÑĤ":8987,"ĠÑģÑĤÐ°ÐºÐ°Ð½":8988,"ĠÑĢÐ¾ÐºÑĮÑĥÐ»ÐµÐ»":8989,"Ġ85":8990,"ÑħÓıÐ°Ð¶Ð¸ÑıÑģ":8991,"ĠÐ¶Ð°Ð¼Ð³ÓıÐ¸ÑıÑĤÐ°Ð»ÑĬÑĥÐ»":8992,"ĠÐĲÐ½Ð´ÑĢ":8993,"ĠÑĢÐ°Ð´Ð¸Ð¾ÑıÐ»ÑĬÑĥÐ»":8994,"ĠÑĤÑĥÑĢÐ½Ð¸ÑĢÐ°Ð»ÑĬÑĥÐ»":8995,"ĠÐ¿Ð°ÑĪÐ¼Ð°Ð½Ð»ÑĬÐ¸":8996,"ĠÐ¶ÑĥÐ±Ð°Ð½":8997,"ĠÑĤÓıÐ°Ð´ÐºÑĬÐ°Ð½Ð°":8998,"ĠÐ¼Ð»ÑĢÐ´":8999,"ĠÑħÐ¸Ð½ÐºÓı":9000,"ĠÐ³ÑĮÑĥÐ¼ÐµÑĢÐ°Ð»Ð´Ð°":9001,"ĠÐ¼Ð°Ð³ÓıÐ½Ð°ÑıÐ»ÑĬÑĥÐ»":9002,"ĠÐ¨ÐºÐ¾Ð»Ð°Ð»ÑĬÑĥÐ»":9003,"ĠÐºÑĬÐ²Ð°ÑĤÓıÐ¸Ð±ÐµÑħÑĥÐ½":9004,"ĠÐºÑĬÐ°Ð²Ð¼":9005,"ĠÐ¥Ð°Ð´ÑĥÑģÐµÐ±":9006,"ĠÑħÐ°Ð·Ð¸Ð½Ð°":9007,"ĠÐ¯ÑĢÐ°Ð³ÑĬ":9008,"Ð¥ÓıÑĥÑĢÐ¼Ð°ÑĤÐ¸ÑıÐ»":9009,"ÐĺÐ¼Ð°Ð¼":9010,"ĠÐĽÑĬÐ¾Ð½Ð´Ð¾Ð´Ð°":9011,"Ð³Ð°ÑĢ":9012,"ÑĥÐ»Ð³Ð¸":9013,"ĠÐ±Ð°ÑĢÐ°Ð»":9014,"ÐµÐ»Ð¸":9015,"ÑĩÐ°Ð»":9016,"ĠÑħÓıÐ°Ð¼Ð°Ð´":9017,"ĠÑĨÐ¾Ð»ÑĬÑĥÐ½":9018,"Ð°ÑħÓıÐ¼":9019,"Ð¾Ð±Ð°Ð»":9020,"ĠÐłÐµÑħÑģ":9021,"ĠÐºÑĬÐ¾ÑħÓıÐµÑħÑĮ":9022,"ĠÑĢÐ°Ð¹Ð¾Ð½Ð°Ð·Ð´Ð°ÑģÐ°":9023,"ĠÐ¸Ð½Ð°":9024,"ĠÐŁÐµÑĤÑĢ":9025,"ÑĦÑĦ":9026,"ÐļÐ¾Ð»":9027,"ĠÐ¶Ð°Ð½Ð¸ÑģÐ°Ð½":9028,"ÐľÐ°ÑĪ":9029,"ĠÐĵÓıÐ°Ð»Ð¸ÑĨÐ°":9030,"ĠÐĲÑħÓıÑĥÐ»Ð³Ð¾ÑħÓı":9031,"ĠÑĨÐµÑĢÐµÐ³Ð¾":9032,"ÑĩÐ°Ð³ÓıÐ¸Ð³Ð¸":9033,"Ġ46":9034,"ĠÑĢÐ°ÑĩÑĩ":9035,"ĠÐ¸Ð¼Ð³ÓıÐ°Ð»":9036,"ĠÐºÑĬÐ¾ÐºÑĬÐ³Ð¾":9037,"ĠÑħÓıÐ°ÑĢÐ°ÐºÐ°ÑĤÑĩÐ°Ð³ÓıÐ¸":9038,"ĠÐ¿Ð°ÑĢÑģ":9039,"ĠÐĵÓıÐ°Ð»Ð¸ÐµÐ²Ð°ÑģÑĥÐ»":9040,"ĠÐºÐµÑĩÓıÐ³Ð¸":9041,"ĠÑĨÓıÐ°Ð¹Ð¸":9042,"ĠÐ¶ÑĥÐ±Ð°ÑĢÐ°Ð±":9043,"ĠÑĨÐµÐ±ÐµÑĤÓıÐµÐ·Ð°Ð±Ð¸Ð·Ðµ":9044,"ĠÑĩÓıÑĥÐ¶ÑĥÐ³ÓıÐ°Ð´Ð°Ð½Ð°Ð»ÑĬÑĥÐ»":9045,"ĠÐ¿ÑĥÐ»Ð°Ð½Ð°Ð²":9046,"ĠÐ¼Ð°Ð³ÓıÐ°ÑĢÑĥÑħÑĬÐµ":9047,"Ð´ÑĥÐ·Ð´Ð°":9048,"ĠÐ¼Ð°Ð½Ð·Ð¸Ð»Ð°Ð»ÑĬ":9049,"Ð°Ð·Ð´Ð°Ð³ÑĥÐ½":9050,"ĠÑįÑħÐµÑĤÑĥÐ½":9051,"ĠÐĲÐ¼ÐµÑĢÐ¸ÐºÐ°ÑıÐ»ÑĬÑĥÐ»":9052,"ĠÐļÑĬÐ°ÑģÑĥÐ¼":9053,"ÐłÐ°Ð¹Ð¾Ð½Ð°Ð»Ð´Ð°":9054,"ĠÐ¿ÐµÑĢÐµÐ´Ð°Ñĩ":9055,"45":9056,"ÑĢÐ°Ð³ÑĮ":9057,"Ð½Ð°Ñģ":9058,"ĠÐ³ÑĮÐ°ÑģÑĥÐ»":9059,"ĠÑĢÐ°Ð¾":9060,"Ð°Ð³Ðµ":9061,"Ð°Ð·Ð³Ð¾":9062,"ĠÐ²Ð°Ð³ÑĮÐ°Ð±":9063,"ĠÐ»ÑĬÐµÐ¹":9064,"ĠÑģÐ°Ñģ":9065,"ĠÐļÑĥÐ¼":9066,"Ð¸Ð»ÑĬÐ»ÑĬÐ°Ð½Ð°":9067,"ÑıÐ»Ð³Ð¸":9068,"ÑĥÐ´Ð¸ÑıÐ»":9069,"ĠÐ±Ð¸ÑĨÐ¸Ð½Ð°":9070,"ĠÐ¿ÑĢÐ¾Ð²":9071,"ĠÐ°Ð´ÑĢÐµÑģ":9072,"Ð°Ð¸Ð´Ð°":9073,"ĠÐ±ÑĥÐºÓıÑĥÐ½Ð¸Ð½":9074,"ĠÑĢÐ¾ÑģÑĥÑĨÐ¾ÑıÐ²":9075,"ĠÑĤÓĢÑĥÐ±":9076,"ĠÐ¤Ð¡":9077,"ĠÐ³ÓıÐ°Ð´Ð°Ð¼Ð°Ð·ÑĥÐ»Ð³ÑĥÐ½":9078,"Ġ600":9079,"ĠÐ¾ÑĤÐ´ÐµÐ»Ð°Ð»ÑĬ":9080,"ĠÑĢÐ¾ÑħÐ°Ð»Ð¸Ð»":9081,"ĠÐ±Ð°Ð¹ÑĢÐ°Ð¼Ð°Ð»ÑĬÑĥÐ»":9082,"ĠÐ³ÑĮÐ°Ð±ÑĥÐ»Ð°ÑĢÐµÐ±":9083,"ĠÐ²ÑĥÑģÑģÐ°Ð½Ð°":9084,"ĠÐ¦ÓıÐ°Ð»Ð´Ð¾ÑħÑĬ":9085,"ĠÐ»Ð¸ÑĤÐµÑĢÐ°ÑĤÑĥÑĢÐ¸ÑıÐ±":9086,"ÑĥÐ¼Ð°Ð´Ð¸ÑģÐµÐ·ÑĥÐ»":9087,"Ð¸Ð°Ð½":9088,"Ð¾Ð¿ÐµÑĢ":9089,"ÑĤÐµÐº":9090,"Ð¸Ð½Ð´Ð°":9091,"ĠÐ±ÑĥÐ³ÑĮ":9092,"Ð°ÑĤÐ°Ð·":9093,"ĠÐºÑĬÐ°Ð»Ð¸":9094,"Ð¸ÑıÐ»Ð´Ð°ÑģÐ°Ð³Ð¸":9095,"Ð¸ÑıÐ±Ð°Ð·Ðµ":9096,"ĠÑĢÐµÐºÓĢ":9097,"ĠÐĲÐ¢Ðļ":9098,"ĠÐłÐ¾Ñħ":9099,"ĠÐĵÓıÐ°Ð½Ð´Ð°Ð»":9100,"Ð¸Ð½Ð°Ð±ÑĥÐ»Ð°":9101,"ĠÑīÐ²ÐµÐ»Ð°":9102,"ĠÐ¢ÑĥÑĢÐ½Ð¸ÑĢ":9103,"ĠÐ²ÑĥÐºÓıÐ°Ð½Ð¸Ð»Ð°":9104,"ĠÐ²ÑĥÐºÓıÑĥÐ½Ð°Ð°Ð½":9105,"ĠÐ±ÐµÑĤÓıÐµÑĢÐ°Ð»Ð´Ð°":9106,"ĠÐ±ÐµÐ³ÑĮÐ¸Ð»Ð°ÑĢÐ¾":9107,"ĠÐĹÐ°Ð¼":9108,"ĠÐ½ÑĥÑħÐ¼Ð°Ð»ÑĬÑĥÐ»ÐµÐ·Ð´Ð°":9109,"ĠÐ¼ÑĥÐ½Ð³Ð¸":9110,"ĠÐľÐ°ÑħÓıÐ°Ð¼Ð°":9111,"ĠÑĢÐ°Ð³ÑĮÑĥÐ»ÐµÐ±":9112,"ĠÑıÐ½Ð²":9113,"ĠÐ±Ð¸ÑĤÓıÐ°Ð½Ð°":9114,"ĠÑĢÐ¸ÑħÑĮÑĥÐ»Ð°":9115,"ĠÐ¼Ð°Ð³ÓıÐ¸ÑĪÐ°ÑĤÐ³Ð¸":9116,"ĠÐ³ÓıÐ°Ð´Ð°Ð¼Ð°Ð·ÑĥÑħÑĬÐµ":9117,"ĠÑĨÐµÐ²ÐµÑħÑĥÐ½":9118,"ĠÐĶÑĥÐ½Ð³Ð¸":9119,"ĠÐ¶ÑĥÑĢÐ½Ð°Ð»Ð°Ð»ÑĬÑĥÐ»":9120,"ĠÐ³ÑĮÐ°Ð±Ð¸ÑıÐ»ÑĬÑĥÐ»ÑĬ":9121,"ĠÐ±Ð°Ð»Ð»":9122,"ĠÐºÐ¾Ð½ÐºÑĥÑĢÑģÐ°Ð»ÑĬÑĥÐ»":9123,"ĠÑĢÐ°ÑħÓıÐ¼Ð°ÑĤ":9124,"ÐĵÑĮÐ°Ð½Ð¸Ð±":9125,"ĠÑħÐ°ÑģÐ¸ÑıÑĤÐ°Ð»":9126,"ĠÑĤÐ°Ð²Ð±Ñĥ":9127,"ÐµÑıÐ»Ð´Ð°Ð»ÑĬÑĥÐ½":9128,"ĠÑħÑĥÐ´Ð¾Ð¶ÐµÑģÑĤÐ²ÐµÐ½":9129,"ĠÐ¢ÐµÐ¼Ð¸ÑĢÑħÐ°Ð½":9130,"ÑĢÑĥÐºÑĤÑĥÑĢ":9131,"Ð»Ð°ÑĤÐ¾Ð½":9132,"ĠÐĵÑĮÐ°Ð¼ÑĥÑīÐ¸":9133,"ĠÐºÓıÐ°Ð»Ð³ÓıÐ°ÑıÐ»Ð´Ð°":9134,"ĠÐ±Ð°ÑĤÓıÐ¸Ð±Ð°ÑĤÓıÐ¸ÑıÐ»":9135,"Ð²ÑĢÐ¾Ð¿":9136,"Ð·Ð°Ð²":9137,"ÑħÐ°ÑĢ":9138,"Ð°ÑģÐ¸":9139,"Ð¾ÑģÐ°ÑĢÐ¾":9140,"Ð¿Ð¸ÑĢ":9141,"Ð´Ð°Ð»ÑĢÐ¾Ñģ":9142,"ĠÐ¡Ð°ÑĤ":9143,"ĠÐ¿ÑĢÐµÐ¿":9144,"ĠÐ¶Ð¸Ð½Ð´Ðµ":9145,"ĠÑĢÐ¾Ð»ÑĬ":9146,"Ð¡Ð¨":9147,"ĠÐĸÐļ":9148,"ĠÑĨÐµÑĢÐµÐºÐºÑĥÐ½":9149,"ĠÐ¤ÐĲÐŁ":9150,"ĠÑħÐ¸ÑĢÑĥÑĢÐ³":9151,"ĠÑĥÑĩÐ¸ÑĤÐµÐ»ÑĮÐ·Ð°Ð±Ð°Ð·Ðµ":9152,"ĠÑģÑĥÑĢÐ°ÑĤÐ°Ð»Ð´Ð°":9153,"ĠÑĩÑĥÑĢÑĥÐ½":9154,"ĠÑĤÐ¾ÑħÑĤÑĥÑĢÐ°ÑģÑĥÐ»":9155,"ĠÐĺÑģÐ°Ð½":9156,"ĠÐ¿ÑĢÐµÐ·Ð¸Ð´ÐµÐ½ÑĤÐ°Ñģ":9157,"ĠÐºÑĮÐ²Ð°Ð³ÑĮÐ¸":9158,"ĠÐ²ÐµÑĤÐµÑĢÐ°Ð½Ð°Ð»":9159,"ĠÐ¸Ð½ÑĦÐ¾ÑĢÐ¼Ð°Ð»Ð°ÑĤ":9160,"ĠÐ¼ÑĥÐ½Ð¸ÑĨÐ¸Ð¿Ð°Ð»Ð¸ÑıÐ»":9161,"ĠÐ³ÓıÐ¾ÑĢÑħÑĬÐ°Ð±Ð¸":9162,"ÐĶÑĥÐ½ÑıÐ»":9163,"ĠÑģÐ¸ÑıÑħÓĢ":9164,"ĠÐ³Ð¸Ð¼Ð½Ð°Ð·Ð¸ÑıÐ»Ð´Ð°":9165,"ĠÐ³ÓıÐ°Ð»ÑħÑĥÐ»":9166,"ĠÐ¸ÑĢÑģÐ°Ð»ÑĬÐµ":9167,"Ġ2021":9168,"ĠÑĤÐµÐ¼Ð°":9169,"ĠÑĢÐ°ÐºÐºÑĥÐ½":9170,"ĠÑģÐ°Ð¹ÑĤÐ°Ð»Ð´Ð°":9171,"ĠÐ±Ð°ÑħÓıÑģ":9172,"ĠÑħÓĢÐ°ÐºÑĬÐ°Ð»ÑĬÑĥÐ»ÑĬ":9173,"Ð½Ð°Ð´Ð·":9174,"Ð»Ð¾Ð¶":9175,"ĠÐ³ÑĮÐ°Ð·":9176,"ĠÑħÑĥÐ»":9177,"Ð°ÑħÐ°Ð»Ð´Ð°":9178,"ĠÐ³ÓıÐ¸ÑıÐ»ÑĬÐ°Ð¶":9179,"ÑĥÑĢÐ°Ð·Ðµ":9180,"Ð°Ð¼Ð¸Ð·":9181,"Ð¸Ð»Ð¸":9182,"Ð¶Ð°Ð½Ð°Ð»Ð´Ð°":9183,"Ð°Ð³ÑĮÐ¸Ð´":9184,"Ð³ÑĮÐ¸":9185,"Ð¸Ð±Ð¸ÑĤÓĢ":9186,"Ð¸ÑģÑĤÐ°Ð·Ðµ":9187,"ĠÑģÐ¾Ð½Ð¸Ð»Ð°Ð±":9188,"ĠÐĵÓıÑĥÐ±":9189,"ĠÐĳÐ¾Ñģ":9190,"ĠÐĳÑĥÑĤ":9191,"ĠÐ¥ÓıÐ¾ÑģÐµÐ½":9192,"ĠÑĢÐ°ÑħÑĬÑĥÐ½ÐµÐ»":9193,"Ð°Ð³ÓĢÐ¸ÑĢ":9194,"ĠÐ²Ð°ÑĩÓıÐ°ÑĢÐ°Ð±":9195,"ĠÑĢÐµÐºÓıÐµÑħÑĬÐµ":9196,"ĠÑĢÑĥÐºÓıÐ¸Ð½Ð³Ð¸":9197,"ĠÑħÓıÐ°Ð´ÑĥÑĢÐ°ÑĢÐ°Ð±":9198,"ĠÑĢÐ¸ÑħÑĮÑĥÐ½":9199,"ĠÐ½ÑĥÑħÐ°Ð»ÑĬÐ³Ð¸":9200,"ĠÐ±Ð°Ð¹ÑĢÐ°Ð¼Ð°Ð»Ð´Ð°":9201,"ĠÑĩÓĢÐµÐ»":9202,"ĠÐ±Ð°ÑīÐ°Ð´":9203,"ĠÐ³ÓıÐ°ÑĤÓıÐ¸Ð»ÑĬÐ¸":9204,"ĠÐ³ÓıÐ°ÑĤÓıÐ¸ÑĢÐ°ÐºÑĮ":9205,"ĠÐ©Ð°Ð¹Ð¸Ð½":9206,"ĠÐĲÐ´Ð°Ð¼":9207,"ĠÐĳÐ°ÐºÑĬÐ»ÑĬÑĥÐ»":9208,"ĠÑĢÐ¸ÑĩÑĥÐ½":9209,"ĠÐ¼Ð°ÑĤÐµÑĢÐ¸Ð°Ð»Ð¸ÑıÐ±":9210,"ĠÑĢÐ°Ð·Ð¸Ð»ÑĬÐ°Ð½Ð°":9211,"ĠÑĨÓıÐ¾Ð´Ð¾ÑĢÐ»ÑĬÐ¸":9212,"ĠÐĵÑĮÐ¸Ð³ÑĮÐ°Ð»ÑĬÐ°":9213,"ĠÐ¸ÐºÑĬÐ»Ð¸Ð¼":9214,"ĠÑįÐºÑģÐ¿ÐµÑĢÑĤÐ°Ð·":9215,"ĠÐłÑĥÐºÑĬÐ¸ÑıÑĤ":9216,"ĠÐ½Ð°ÑģÐ»ÑĥÑıÐ»ÑĬÑĥÐ»":9217,"ÐĳÐ°Ð¹Ð±Ð¸ÑħÑĮ":9218,"ĠÑĢÐ°ÐºÓıÑĩÓıÐ°ÑĢÐ°Ð±":9219,"ÑĥÑĤÓıÐ°Ð»Ð¸Ð±":9220,"ĠÐ¿Ð»Ð°Ð½Ð°Ð»":9221,"ÑĢÐ°Ð³Óı":9222,"Ð³Ð°ÑĤ":9223,"Ð»ÑĬÐ°Ð³Ð¸":9224,"Ð·Ñİ":9225,"Ð¸Ð½ÑĤÐµÑĢÐ½":9226,"ĠÑģÐ¾Ð±ÑĢÐ°Ð½Ð¸ÑıÐ»ÑĬÑĥÐ»":9227,"ĠÐ³ÑĮÐ°Ð±Ð¸ÑıÐ»ÑĬ":9228,"ĠÑĨÓıÐ°ÑĤ":9229,"ĠÑīÐ¸Ð½Ð°Ð±":9230,"ĠÐĶÐ°Ð³ÑĮÐ°Ð»":9231,"Ð¸Ð´Ð°Ð»ÑĬÑĥÐ½":9232,"ĠÐ±ÐµÐ¶":9233,"ĠÐ¡Ð°Ð³ÓĢ":9234,"ĠÑįÑĢ":9235,"ĠÐ±Ð¸ÑħÑĮÑĥÐ»Ð°ÑĢÐ¾":9236,"ĠÐ³ÓıÐ°ÑĢÐ°Ð´":9237,"Ð¸ÑĩÑĩÐ°Ð½":9238,"ĠÑıÑģÐ°Ð»ÑĬ":9239,"ĠÐ»ÑĬÑĥÐ³ÓıÐ°ÑĢÐ°Ð²":9240,"Ġ32":9241,"ĠÐ¼ÑĥÑħÑĬÐ°Ð»Ð´Ð°ÑģÐ°":9242,"ĠÑĢÐ°Ð³ÑĮÑĥÐ»Ð°Ð³Ð¾":9243,"ĠÐºÓıÐ°Ð»ÑĬÐ°Ð»":9244,"ĠÐ±Ð¸ÑĩÓıÑĩÓıÐ¸Ð·Ð°Ð±ÑĥÐ½Ð°":9245,"ĠÐºÑĬÐ¾ÑĤÓıÐ°ÑĢÐ°Ð±":9246,"ĠÐ³ÑĬÐ¾ÑĢÐºÑĮÐµÑħÑĥÐ½":9247,"ÐĴÐ°":9248,"ĠÐ¼ÑĥÑĢÐ°Ð´Ð³Ð¸":9249,"ĠÐ¼ÑĥÐ³ÓıÐ°Ð»Ð¸Ð¼Ð·Ð°Ð±Ð°Ð·Ðµ":9250,"ĠÑĨÐ¾ÑĨÐ°Ð·ÑĥÐ»":9251,"ĠÐ±ÑĥÑģÑģÑĥÐ½":9252,"ĠÑĢÑĥÑģÑģÐ¸Ð½Ðµ":9253,"ĠÐ·Ð°ÐºÐ¾Ð½Ð°Ð»ÑĬÑĥÐ»":9254,"ĠÐ±Ð¾ÑĢÐ¶":9255,"ĠÐ³ÑĢÐ°Ð¼Ð¼":9256,"Ð¸Ð½ÑģÑĥÐµ":9257,"ĠÐºÑĬÐ¾Ð¹Ð¸Ð´Ð°ÑģÐ°":9258,"ĠÐ°ÐºÑĤÐ¸Ð²":9259,"ĠÐľÐ°Ð¶Ð³Ð¸ÑĤ":9260,"ĠÐľÑĥÐ³ÓıÑĢÑĥÐ·ÑĥÐ»":9261,"ĠÐ³ÐµÐ¾Ð³ÑĢÐ°ÑĦ":9262,"95":9263,"ÑĥÑı":9264,"Ð±Ð°Ð³Óı":9265,"Ð±Ð°ÐºÓıÐ°Ð»":9266,"Ð»ÑĬÑĥÐºÑĮ":9267,"ĠÐ²ÐµÑĤ":9268,"ĠÐ²Ð¸ÑĨÐµ":9269,"ĠÑĨÐµÐ½ÑĤÑĢÐ°Ð»Ð´Ð°":9270,"ĠÐ¼Ð°Ð»ÑĬÑĥÐ»":9271,"ĠÐ½Ð¾ÑħÑĬ":9272,"ĠÐ½ÐµÐºÓĢ":9273,"ĠÐ¶Ð¾Ð³Ð¾":9274,"Ð¸ÑĢÐº":9275,"ĠÐºÑĬÐ°Ð¿":9276,"ĠÑħÓıÐ¸Ð»Ð»Ð°":9277,"ĠÐ¸Ð¶Ð°ÑĢ":9278,"Ð³ÓıÐ°ÑĢ":9279,"ÐĵÐ°Ð·ÐµÑĤ":9280,"ÐĵÑĥÐ¼Ð±ÐµÑĤ":9281,"ĠÐ¥ÓıÑĥÑģÐµÐ¹Ð½":9282,"ĠÑĪÐºÐ¾Ð»Ð°Ð»Ð´Ð°ÑģÐ°":9283,"ĠÐ½Ð°ÑħÑĬÐ¾Ð¹Ð³Ð¸":9284,"ĠÐ±Ð°ÑĤÐ°":9285,"ĠÐĸÐ°Ð»Ð°Ð»":9286,"ĠÐĸÐ¸Ð±Ð³Ð¾":9287,"ĠÐºÑĬÐ²Ð°ÑĤÓıÐ°ÑħÑĬ":9288,"ÐĿÑĥÑħ":9289,"ĠÑĢÐ°Ð³ÑĮÐ¸":9290,"ĠÐºÓıÐ²Ð°ÑĢÐ³Ð¸":9291,"ĠÑĤÑĥÐ½Ðº":9292,"Ð³ÑĥÑĤÓıÐ¸ÑıÐ»ÑĬÐµ":9293,"ĠÐºÑĬÐ²Ð°ÑĢÐ¸Ð³ÓıÑĥÐ½ÐµÐ±":9294,"ĠÐĿÐ¸Ð¶ÐµÐµ":9295,"Ð»ÑĬÐ¸ÑıÐ»ÑĬÐ³Ð¸":9296,"ĠÑģÐ°Ð±Ð°Ð±":9297,"ĠÑħÐ°Ð½Ð¶Ð°ÑĢ":9298,"ĠÐ±Ð¸ÐºÑĮÐ¸Ð·Ðµ":9299,"ĠÑĤÓıÐ¸Ð±Ð¸ÑĤÓıÐ°ÑĢÐ°Ð±":9300,"ĠÐ°ÑĢÐ¼Ð¸ÑıÐ»ÑĬÑĥÐ»":9301,"ĠÐ¼ÑĥÐ·ÐµÑıÐ»Ð´Ð°":9302,"ÑħÓĢÐ°Ð¶":9303,"ĠÐĿÑĥÑĢÐ¼ÑĥÑħÓıÐ°Ð¼Ð°Ð´Ð¾Ð²":9304,"ĠÐ³ÑĮÐµÑĩÓĢÐµÐ±":9305,"ĠÐĶÐµÑĢÐ±ÐµÐ½ÑĤÐ°Ð»Ð´Ð°":9306,"Ð³ÑĮÐ°ÐºÐ²Ð°ÑĢÐ¸ÑģÐ°":9307,"ĠÐºÑĬÑĥÐ»ÑĥÐ½":9308,"ÐºÑĬÐ¾ÑĤÓıÐ¸":9309,"ĠÑįÑĤÐ°Ð¿":9310,"ĠÐłÐ°ÑĩÓıÐ°":9311,"ĠÐ°Ð½Ð°Ð»Ð¸Ð·":9312,"ĠÐľÐ¾ÑĩÓıÐ¾ÑħÑĬ":9313,"65":9314,"ĠÐºÐ¸Ð±Ðµ":9315,"Ð°Ð»ÑĬÐ¸Ð·Ðµ":9316,"ĠÑĨÑĥÐ½":9317,"ÑĨÐ°Ð»":9318,"ÑıÑħÓı":9319,"ĠÐºÑĬÑĥÑĢÐ±":9320,"ĠÐľÐµÑģÐµÐ´":9321,"ĠÐļÐ²":9322,"ÐµÐ¼Ð»":9323,"ĠÐ¡Ð°Ð»Ð¸Ð¼":9324,"ÐµÐºÑĨÐ¸Ñı":9325,"ĠÑĤÓıÐ°Ð´Ð°Ð³ÑĮÐ°Ð±":9326,"ĠÐ±ÑĥÐ³ÐµÐ±ÑīÐ¸Ð½Ð°Ð±":9327,"ĠÑīÐ²Ð°Ð½Ð¸Ð³Ð¸":9328,"ÐĵÑĮÐ°Ð¹":9329,"ĠÐ³ÑĮÐµÑĩÓıÐ¾Ð°Ð½":9330,"ĠÐ¶Ð¸Ð½Ð´Ð¸ÑĨÐ°":9331,"ĠÐ¸ÑĪÐ°Ð·Ð´Ð°":9332,"ĠÐ³ÓıÑĥÑĨÓıÑĥÐ»ÐµÐ±":9333,"Ð¡ÑĥÐ³ÑĬ":9334,"ĠÐĹÑĥÐ»ÑĮ":9335,"ĠÑĤÐ°ÑĢÑĤÐ¸Ð±":9336,"ÑĩÐ°Ð³ÓıÐ°Ð·Ð´Ð°":9337,"ĠÑĢÐ¸ÑħÑĮÐ°Ð½Ð°":9338,"ĠÐºÐ¾Ð½ÑĦ":9339,"Ġ63":9340,"ĠÑħÓıÐ°ÑĢÐ°ÐºÐ°ÑĤÑĩÐ¸Ð»ÑĬÐ¸":9341,"ĠÐ±ÐµÑĢÐ³ÑĮÐµÐ½Ð»ÑĬÐ¸Ð³Ð¸":9342,"ĠÐ³ÓıÐ°ÑĢÑĨÑĥÐ´Ð°Ð»ÑĬÑĥÐ½":9343,"Ð¾ÑģÑĤÐ°Ð½":9344,"ĠÐ¶ÑĥÑĢÐ½Ð°Ð»Ð¸ÑģÑĤÐ°Ð·ÑĥÐ»":9345,"ĠÑħÓıÐ°ÑĢÐ°Ð¼":9346,"ĠÐ³ÓıÐ°ÑħÑĮÐ°Ð»Ð»ÑĬÐ°ÑĢÐ°Ð·Ðµ":9347,"ĠÑĤÑĥÐºÐµÐ½":9348,"ĠÐ¨Ð°Ð¼ÑħÐ°Ð»Ð¾Ð²Ð°ÑģÑĥÐ»":9349,"ĠÑĩÑĩÑĥÐºÓı":9350,"ĠÐ³ÑĮÑĥÑĢÐ¼Ð°Ð·Ð´Ð°":9351,"Ð®Ð¡Ð¨":9352,"ĠÐ½ÐµÐ¼ÑĨÐ°Ð·ÑĥÐ»":9353,"ĠÐ°ÑĢÑħÐ¸ÑĤÐµÐºÑĤÑĥÑĢ":9354,"ÑĥÑĦ":9355,"Ð³ÐµÑĢ":9356,"ĠÐ³ÑĮÐ¾ÐºÑĮ":9357,"Ð¼Ð¸ÑĤ":9358,"Ð¼Ð°Ð±Ð°Ð·ÑĥÐ»":9359,"Ð¸Ð½ÐºÓı":9360,"ĠÐ³ÓıÐ°ÑħÑĮ":9361,"ĠÐ»ÑĬÐ¸Ð´Ð°":9362,"ĠÑģÐ¸ÑĢ":9363,"ĠÑģÐ¾Ð²ÑħÐ¾Ð·":9364,"Ð¾ÑĢÐ³Ð¸":9365,"Ð¸ÑıÐ»Ð³ÑĥÐ½":9366,"ĠÐłÐ¸ÐºÓıÐºÓı":9367,"Ð°ÑĩÐ°Ð½Ð°Ð»":9368,"ĠÐ¡Ð°Ð»Ð°ÑĤ":9369,"ĠÐ±Ð¸ÑĨÐµ":9370,"ĠÐ±Ð¸ÑħÑĮÐ¸ÑĩÓıÐ¾":9371,"ĠÑħÐ°Ð»Ð¸Ñĩ":9372,"ĠÐ±ÑĥÐºÓıÐ¸Ð½ÐµÑģ":9373,"ĠÑĤÓıÐ°Ð´ÐµÐºÓıÐ°Ð½ÑĨÓı":9374,"ĠÑĢÐ°ÑĩÓıÐ°ÑĢÐ°Ð·Ðµ":9375,"ĠÐĵÑĬÐ¾Ð·":9376,"ĠÑħÑĮÐ¾Ð»Ð±":9377,"ĠÐĹÐ°Ð»Ð¸Ð¼ÑħÐ°Ð½":9378,"ĠÑħÑĥÑĤÓıÐ°ÑĢÐ°Ð²":9379,"ÐĿÐ¾Ð²":9380,"ĠÐ¶Ð¸Ð´ÐµÐ´Ðµ":9381,"ĠÐ¶Ð¸Ð´ÐµÑħÑĬÐµ":9382,"ĠÑĤÓıÐ°Ð¼ÑĥÑĢÐ°Ð±":9383,"ĠÑĤÓĢÐ¸Ð±Ð¸ÑĤÓĢ":9384,"Ð¾Ð»Ð°Ð°Ð½":9385,"ĠÐ¹Ð¸ÐºÓıÐ¸Ð½Ðµ":9386,"ĠÐ¸Ð½ÑģÐ°Ð½Ð°Ñģ":9387,"ĠÑĨÓıÐµÑħÐµÐ·Ðµ":9388,"ĠÐ³ÑĮÐµÐ´Ð¸Ð½Ð°Ð»Ð³Ð¾":9389,"ĠÐ²Ð¸ÑħÑĮÐ¸Ð·Ðµ":9390,"ĠÐ¥ÓıÐ°Ð¶Ð¸ÐµÐ²Ð°":9391,"ĠÐ¥Ð°Ð»ÐºÑĬÐ°Ð·Ð´Ð°":9392,"ĠÐĵÓıÐ°Ð´Ð°Ð¼Ð°Ð»":9393,"ĠÑĥÑĩÐ°ÑģÑĤÐº":9394,"ĠÐĽÐµÐ½Ð¸Ð½":9395,"Ð·Ð°Ð±Ð°ÑħÑĬÐµ":9396,"ĠÑĤÐ¾Ð½Ð½":9397,"ĠÐ¡Ð°Ð½ÐºÑĤ":9398,"ÑĢÐ¸ÐºÑĬ":9399,"Ð´ÑĥÑħ":9400,"Ð´Ð°Ð´Ð°":9401,"ĠÐ±Ð°":9402,"Ð°Ð¼Ð±ÑĥÐ»":9403,"Ð¸Ð»Ð°ÑģÑĥÐ»":9404,"ĠÐ¼Ð°Ð½Ð´":9405,"ĠÐ½Ð°Ð»ÑĬÑĥÐ»":9406,"ĠÐ³ÑĮÐ°Ð±Ð¸Ð»":9407,"ĠÐľÐ°Ð¼":9408,"ĠÐľÐ¤":9409,"ĠÑħÓıÐ°Ð»Ð³Ð¸":9410,"ĠÐ¥Ð°Ñĩ":9411,"ÑĥÑģÑĥÑĢÐ±":9412,"ĠÐĵÓıÐ¾Ð´":9413,"ÐµÐºÐ¾Ð²":9414,"ĠÐľÑĥÑħÓıÐ°Ð¼Ð°Ð´Ñģ":9415,"ĠÐĿÐ°ÑħÑĬÐµ":9416,"ĠÐ¶Ð¸Ð½Ð´Ð¸ÑħÑĬÐµ":9417,"ĠÑĨÓıÑĥÐ½Ð°ÑĢÐ°Ð»":9418,"ĠÐ³ÑĮÐ°Ð½Ð¸ÑģÐ°":9419,"ĠÑħÐ°Ð»ÐºÑĬÐ³Ð¸":9420,"ĠÐ»ÑĬÑĥÐ³ÓıÐ°ÑĢÐ°Ð»":9421,"ĠÑģÐ²ÐµÑĢÐ°Ð½Ð°":9422,"ÐµÑĩÓıÐ¸Ð½":9423,"ĠÐ¿Ð°ÑĩÐ°Ð»Ð¸ÑħÑĬÐ°Ð·Ð´Ð°":9424,"Ð°Ð±Ð°Ð·ÐµÐ³Ð¸":9425,"ĠÑĢÐ¸ÑĤÓıÐ°ÑĢÐ°Ð»":9426,"ĠÐĲÐ»Ð»Ð°Ð³ÑĮÐ°ÑģÐ´Ðµ":9427,"ÑĥÐ´Ð¸Ð½Ð¸Ð»":9428,"ĠÑĢÑĥÑĩÑĩÐ°Ð±Ð¸Ð³Ð¸":9429,"ÐĽÑĬÐ°ÑĢÐ°ÑĤÓıÐ°":9430,"ĠÐ±ÑĥÑħÑĮÐ°Ð½Ð°":9431,"ĠÑĢÑĥÑħÓıÑĩÓıÐ°Ð³Ð¾":9432,"Ġ2009":9433,"ĠÑĤÐ¾ÑħÑĤÑĥÑĢÐ·Ð°Ð±Ð°Ð·":9434,"ĠÑĩÓĢÐ²":9435,"ĠÐ°Ð²ÑĤÐ¾Ð½Ð¾Ð¼":9436,"ĠÐ¸Ð´Ð°ÑĢÐ°ÑıÐ»Ð´Ð°":9437,"Ġ1942":9438,"ĠÑģÐ°Ð¹Ð³ÑĬÐ°ÑĤÐ°Ð·Ð´Ð°Ð»ÑĬÑĥÐ½":9439,"Ð±Ð¾ÑĨÓıÑĥÐ»":9440,"ĠÐ³ÑĮÐ°Ð»Ð¼Ð°Ð³ÑĬÐ·Ð°Ð±Ð¸":9441,"ĠÐ±Ð¸Ð±Ð»Ð¸Ð¾ÑĤÐµÐºÐ°ÑıÐ»Ð´Ð°":9442,"Ð±ÑĥÐ·Ð´Ð°":9443,"ĠÐ¥Ð¸Ð·ÑĢÐ¾":9444,"ĠÐ²Ð¾ÑħÐ°ÑĢÐ°Ð²":9445,"ĠÑĤÓıÐ°ÑĢÐ¸ÐºÑĬ":9446,"ĠÐ¸Ð½ÑĤÐµÐ»Ð»":9447,"ĠÐ±Ð¸ÑĤÓıÐºÐºÐµÐ¹":9448,"ĠÐºÐ²ÐµÐ³ÓıÐµÐ½":9449,"ÑĥÐµÐ³Ð¸":9450,"ÐºÐ²ÐµÑĢ":9451,"ĠÑĢÐ¸ÑīÑĥÐ½":9452,"ĠÑģÐ¼":9453,"ĠÐºÐºÐµÑıÐ»Ð´Ð°":9454,"Ð¸Ð±Ð»":9455,"ÑĥÑħÑĬÐ¼Ð°ÑħÑĬ":9456,"ĠÐļÐ¸Ð·Ð¸Ð»ÑİÑĢÑĤ":9457,"ÐµÐ¼ÑĮÐµÑĢ":9458,"ĠÐ³ÑĮÐµÐ·Ð´Ð°Ð³Ð¾":9459,"ĠÐ¸Ð½ÑĩÓı":9460,"ĠÐľÑĥÑħÓıÐ°Ð¼Ð°Ð´ÑħÓıÐ°Ð¶Ð¸":9461,"ĠÐ¢Ð°Ñħ":9462,"ĠÐ·Ð°Ð¼Ð°Ð½Ð°Ð»Ð´Ðµ":9463,"ĠÐ±ÑĥÐºÓıÐ¸Ð½Ð°ÑĢÐ¾":9464,"ĠÐ½Ð°ÑħÑĬÑĢÐ°ÑĤ":9465,"ÐĲÐ·":9466,"ĠÐ»ÑĬÐ°Ð»ÑħÑĬ":9467,"ĠÐĵÓıÐ°Ð±Ð´ÑĥÐ»Ð±Ð°ÑģÐ¸ÑĢ":9468,"ĠÐłÐ¾ÑģÑģÐ¸ÑıÐ»Ð´Ðµ":9469,"ÑĭÐ²":9470,"ĠÐºÑĬÐ²Ð°ÑĤÓıÐ°Ð·Ð´Ð°":9471,"ĠÐ±Ð¸ÑħÑĮÐ¸Ð·Ð°Ð±ÑĥÐ»ÐµÐ»":9472,"ĠÐ³ÑĮÐµÐ½Ð¸Ð±Ð³Ð¾":9473,"ĠÐ¿Ð°ÑĩÐ°Ð»Ð¸ÑħÑĬÐ°Ð»ÑĬÐµ":9474,"ÐĺÑıÐ»ÑĬÑĥÐ»":9475,"Ġ57":9476,"ĠÑħÐ¸ÑģÑĥÐ»ÐµÐ²":9477,"ÐĸÐ°ÐºÑĬ":9478,"Ð¸Ð½Ð´Ð°ÑħÑĬ":9479,"Ð¾Ð»Ð¾Ð³Ð¸Ñı":9480,"ĠÐ±Ð¸ÑĩÐ°":9481,"ĠÐ½Ð°ÑģÐ¸Ð±":9482,"ĠÑħÐ°Ð½Ð»ÑĬÐ¸":9483,"ĠÑħÑĥÐ½Ð´ÐµÑĢÐ¸Ð»":9484,"ĠÐ±ÑİÐ´Ð¶ÐµÑĤÐ°Ð»Ð´Ðµ":9485,"ĠÐ²ÑĥÐºÓĢÐ°ÑĢÐ°Ð²":9486,"ÑĢÐ°Ð½ÑģÐ¿Ð¾ÑĢÑĤ":9487,"ĠÑīÐ°ÐºÐ°Ð±":9488,"ĠÑıÑĢÐ°Ð³ÑĬÐ³Ð¸":9489,"ĠÐ¿ÑĢÐ¸Ð·Ð°Ð»ÑĬÑĥÐ»Ð°Ð»":9490,"ĠÑĢÐ¸ÑĩÑĥÐ»ÐµÐ»":9491,"ĠÐ³ÓıÐ°Ð¶Ð°Ð¸Ð±Ð»ÑĬÐ¸":9492,"ĠÑħÓıÐ°ÑĢÐ°Ð¼Ð°Ð±":9493,"ĠÑĢÐ°ÑĨÓıÑĨÓıÐ°":9494,"ĠÐºÑĮÐµÐ»ÐµÐ±":9495,"ĠÑĨÓıÑĥÐ¼Ð°Ð´":9496,"ĠÐ´Ð¾Ð·ÑĥÐ»":9497,"ĠÐ·Ð°Ð²ÐµÐ´ÑĥÑİÑīÐ°Ñı":9498,"ĠÐĿÐ°Ð¿Ð¸ÑģÐ°ÑĤ":9499,"ĠÐºÑĬÐ°Ð³ÓĢÐ¸Ð´Ð°ÑıÐ»ÑĬ":9500,"ĠÐĹÐ°Ð´Ð¸ÐµÐ²Ð°Ñģ":9501,"ĠÐºÓıÐ¸ÑĨÓıÑĥÐ»":9502,"ĠÐºÐµÑģ":9503,"ĠÑĢÐ¸Ð·":9504,"Ð°ÑħÐ¼Ð°ÑĤ":9505,"ĠÑħÓıÐ°Ð»Ð°Ð»Ð´Ðµ":9506,"ĠÐ¥Ð²Ð°ÑĢ":9507,"ĠÐĲÐ¿":9508,"ĠÐļÐ¸ÑĤ":9509,"ĠÐĵÓıÐ°Ð½Ð´":9510,"ĠÐĵÓıÐ°Ð¶Ð°Ð¸Ð±":9511,"ÑĢÑĥÑĨ":9512,"Ð°ÑıÐ»ÑĬÑĥÐ»Ð³ÑĥÐ½":9513,"ÑīÑĥÐ½":9514,"ĠÐ¨Ð¾ÑĤ":9515,"ĠÐ±Ð°ÐºÓıÐ°Ð±":9516,"ĠÐ±Ð¾ÐºÑĮÐ°Ð½Ð¸Ð³Ð¸":9517,"ĠÐ±ÐµÐ³ÑĮÑĥÐ»Ð°Ð°Ð½":9518,"ĠÑģÑĥÐ°Ð»Ð°Ð»ÑĬÑĥÐ»":9519,"ĠÐ°ÑħÐ°Ð»ÑĬÑĥÐ»":9520,"Ð¸ÑĢÐµÐ³Ð¾":9521,"ĠÐ±Ð¸ÑĤÓıÐ°ÑħÑĬÐµ":9522,"ĠÐºÓĢÐ¸Ð°Ð±Ð¸Ð»ÐµÐ±":9523,"ÑģÑĤÐ²Ð¾ÑıÐ»Ð´Ð°":9524,"ÑĥÐ½Ð³Ð¾ÑıÐ»":9525,"ĠÐ¼Ð°ÑĨÓĢÐ°Ð»":9526,"ĠÐĲÑģÐ°Ð´ÑĥÐ»":9527,"ĠÐºÑĥÑĩÓıÐ´ÑĥÐ»Ð³Ð¸":9528,"ĠÑĢÑĥÐ³ÑĮÑĥÐ½Ð»ÑĬÑĥÐ½":9529,"ĠÐłÐµÑģÐ¿ÑĥÐ±Ð»Ð¸ÐºÐ°ÑıÐ»Ð´Ð°":9530,"ĠÑĢÐ°Ð³ÓĢÐ¸":9531,"ĠÐ±Ð°Ð¶Ð°ÑĢÑĥÐ»ÐµÐ²":9532,"ĠÑĨÐ¾ÑıÐ²Ð»ÑĬÑĥÐ½":9533,"ĠÑĨÐµÑĢÐµÑĤÓıÑĥÑĢÐ°Ð»":9534,"ĠÐ¼ÐµÑĤÑĢÐ°Ð»ÑĬÑĥÐ»":9535,"ĠÐ¿Ð°ÑĢÐ°ÑħÐ°Ð»ÑĬÐ¸":9536,"ĠÐºÑĮÐ¸Ð¶ÑĥÐ½":9537,"ĠÑħÓıÐµÑĢÐµÐ½Ð°Ð±":9538,"ĠÐ³ÑĮÐ°ÑĢÐ·Ð°ÑıÐ±":9539,"ĠÐ¾ÑĢÐ³Ð°Ð½Ð¸Ð·Ð°ÑĨÐ¸ÑıÐ±Ð°Ð·ÑĥÐ»":9540,"ĠÐ»Ð°Ð³ÐµÑĢ":9541,"ĠÑĢÐ¾ÑĨÐµÐ½":9542,"ĠÑĤÐ°ÑĢÐ¶Ð°Ð¼Ð°":9543,"ĠÐ¼ÑĥÑĤÐ°Ð³ÓıÐ¸Ð»":9544,"ĠÐ¡Ð¸Ð²ÑĥÑħÑĬ":9545,"94":9546,"ÐµÐµÐ²":9547,"ÑĢÐ¸ÑıÐ±":9548,"Ð»ÑĬÐ°":9549,"Ð°Ð¼Ð¾":9550,"ĠÐ´ÑĢÐ°Ð¼":9551,"Ð¸ÑģÐµÐ²":9552,"Ð°Ð²ÑĢ":9553,"Ð¿Ð°ÑĢÐ°ÑĤ":9554,"ĠÑĩÐ¸Ð½Ð¾Ð²":9555,"ĠÐĶÐ°Ð½Ð´":9556,"ĠÐļÑĥÐ»ÑĮÑĤÑĥÑĢÐ°ÑıÐ»ÑĬÑĥÐ»":9557,"ÐµÑģÐ´Ð°":9558,"ĠÐłÐ¾ÑĢÑĩÓıÐ°Ð¼Ð¸":9559,"ĠÐĳÐ¸ÑĩÑĩÐ°Ð½ÑĤÐµ":9560,"ĠÐ¥ÓıÐ°ÑĤÑĤÐ°":9561,"ĠÐ±Ð¾Ð³Ð¾":9562,"ĠÐºÐ²Ð°Ñģ":9563,"ĠÑĨÓıÐ°Ð»ÑĥÐ»Ð°":9564,"ĠÐ²Ð°ÑģÐ°ÑģÐ´Ð°":9565,"ĠÑĨÓıÐ¸ÐºÓıÐºÓıÑĥÐ½ÐµÐ»":9566,"ĠÐ³ÑĮÐµÑģÑĥÐ»Ð³ÑĥÐ½":9567,"Ð¾Ð²Ð°ÑģÑĥÐ»Ð³ÑĥÐ½":9568,"ĠÑħÐ¸ÑĢÐ¸ÑıÐ¹":9569,"ĠÐ³ÓıÐ°Ð´Ð°Ð¼Ð°Ð·ÐµÐ³Ð¸":9570,"Ġ2002":9571,"ÐĿÐ¸Ð»ÑĬÐµÑĨÐ°":9572,"ÐĹÐ°ÑħÓıÐ¼Ð°ÑĤ":9573,"ĠÑĢÐ¸ÑĩÑĩÐ°Ð·Ðµ":9574,"ÑĤÐ¸Ð½Ð³":9575,"ĠÐ³ÑĥÐ³Ð°ÑĢÐ¸":9576,"ĠÐ¼Ð°ÑĨÓĢÐ°Ð·ÑĥÐ»":9577,"ĠÐ¶Ð°ÐºÑĬÐ°ÑģÐµÐ»":9578,"Ð¸ÑĨÐ¸Ð¿Ð°Ð»Ð¸ÑıÐ±":9579,"ĠÐ±ÑİÐ´Ð¶ÐµÑĤÐ°Ð»Ð´Ð°ÑģÐ°":9580,"ĠÐºÑĬÐ¸ÑģÐ¼Ð°ÑĤÐ°Ð»ÑĬÑĥÐ»":9581,"ĠÐ³Ð¾ÑĢÐ´":9582,"ĠÐ´Ð°Ð½Ð´ÐµÐ»ÑĬÐ°Ð±Ð°Ð·ÑĥÐ»":9583,"ĠÑģÐ¸ÑģÑĤÐµÐ¼Ð°ÑıÐ»Ð´Ð°":9584,"ĠÐ¡ÑĥÐ»ÐµÐ¹Ð¼Ð°Ð½Ð¾Ð²":9585,"ĠÑĢÐ¸ÐºÓĢÐºÓĢÑĥÐ½Ð°":9586,"ĠÑıÑħÑĬÑĥÐ½":9587,"ĠÑħÓıÑĥÑħÑĮÐ±Ð°ÑħÑĬÐ¸ÑıÐ»ÑĬÐµ":9588,"ĠÑĨÓıÐ¸Ð³ÑĮÐ°Ð±":9589,"ĠÐ±ÐµÑĤÓıÐµÑĢÐ³ÑĮÐ°Ð±Ð¸":9590,"ĠÐ¶Ð°Ð¼Ð³ÓıÐ¸ÑıÑĤÐ°Ð»Ð´Ð°":9591,"ĠÐĵÓıÐ°Ð±Ð°ÑĪÐ¸Ð»Ð¾Ð²":9592,"ĠÐĳÐµÑĤÓıÐµÑĢÐ³ÑĮÐ°Ð½Ð°Ñģ":9593,"ĠÑģÐ°Ð¼Ð¾Ð»ÐµÑĤ":9594,"ĠÐ¼ÐµÐ¼Ð¾ÑĢÐ¸Ð°Ð»Ð¸ÑıÐ±":9595,"ĠÐ´Ð¸Ð°Ð»ÐµÐºÑĤ":9596,"ra":9597,"Ð»Ð¾Ðº":9598,"Ð´ÑĥÐ»ÑĬ":9599,"ÑĥÐ½ÐµÐ²":9600,"Ð¸Ð½ÑĤ":9601,"ĠÑĨÐ°Ð±Ð¸":9602,"Ð¸Ð»Ð±":9603,"ĠÐĵÑĢÑĥÐ·":9604,"ĠÐ»Ð°Ð·":9605,"ÓĢÑĩÓĢ":9606,"ĠÐ±ÐµÑĨ":9607,"ĠÑĢÐ°ÑħÑĬÐ¸Ð½":9608,"ĠÐºÐ²Ð°Ð½Ð°":9609,"ĠÐ±ÐµÑĤÓıÐµÑĢÐ°Ð¹":9610,"ĠÐ³ÑĮÐµÐ²Ð³ÑĥÐ½":9611,"ÐľÐ°ÑĢ":9612,"ĠÑĨÓıÐ°ÑĢÐ°ÐºÐ¸":9613,"ĠÐļÓıÐ¸Ñĩ":9614,"ĠÑĢÐµÐºÓıÐµÐ´Ð°":9615,"ĠÐºÑĬÐ°Ð´Ð°ÑĢÐ°Ð»ÑĬ":9616,"ĠÑĢÐ¸ÑĤÓıÑĥÐ»ÐµÐ»":9617,"198":9618,"ĠÐºÐ°Ð³ÑĬÐ°ÑĤÐ³Ð¸":9619,"ĠÐ±ÑĥÑħÑĮÐ°ÑĢÐ°Ð±":9620,"ĠÑĩÓĢÐ°ÑħÓĢ":9621,"ĠÑĤÓıÐ¾ÐºÓıÐ°Ð»":9622,"Ð§ÐµÑĢÐ½":9623,"ĠÐľÐ¾ÑģÐºÐ²Ð°ÑıÐ»Ð´Ð°ÑģÐ°":9624,"ĠÐ´Ð¸Ð²Ð¸Ð·":9625,"ĠÐ¿ÑĢÐ¾ÐµÐºÑĤÐ°Ð»":9626,"ĠÐĵÑĥÑĢÐ¾Ð½Ð¸":9627,"ĠÐ¿Ð¸ÑĪÐ°ÑĨÐ¾":9628,"ĠÐĳÐ¸ÑĨÐµÐ½":9629,"ĠÐ¼ÑįÑĢÐ°ÑģÑĥÐ»":9630,"ĠÐĳÑĥÐºÓıÐ°Ð½Ð°":9631,"ĠÐ±Ð°ÑģÐ¼Ð°ÑıÐ»Ð´Ð°":9632,"ĠÐ°ÑĤÑĤ":9633,"ĠÐ©Ð¸Ð²Ð°Ð²":9634,"ĠÐ¸ÑģÐ°Ð½Ð°ÑģÐµÐ±":9635,"ĠÐ»ÑĬÐ¸ÐºÓĢÐ°Ð±":9636,"ĠÐĹÑĥÐ±Ð°Ð¸ÑĢ":9637,"ĠÐĳÑĥÐ»Ð°ÑĤ":9638,"VIII":9639,"ĠÑĢÐ°Ð¹ÑģÐ¾Ð±ÑĢÐ°Ð½Ð¸ÑıÐ»ÑĬÑĥÐ»":9640,"Ð·ÑİÐ´Ð¾":9641,"Ð»Ð¸Ð¼Ð°ÑĤ":9642,"Ð¾ÑĤÓıÐ°":9643,"Ð°Ð»Ð¾Ð²":9644,"ÑĥÐ»Ð¸Ð»Ð°Ð½":9645,"Ð±Ð°Ð·Ð°ÑĢ":9646,"ĠÐ±Ð¾ÑĢÐºÑĮ":9647,"ÑģÐ±":9648,"Ð¸ÑıÐ³ÑĥÐ½":9649,"Ð°Ð´Ð°ÑģÐ°Ð½":9650,"ĠÐ²Ð¸Ð»ÑĬÐ»ÑĬ":9651,"ĠÑģÐ¸Ð»":9652,"ĠÐºÐºÐ°ÑĢÐ°Ð·Ðµ":9653,"Ð¶Ð¸":9654,"ÑĩÐ°Ð³ÓĢ":9655,"Ð¿Ð°ÑĪ":9656,"ĠÐ¥ÐµÑĢ":9657,"Ð°Ð±Ð¸Ð´":9658,"ÑĥÑģÐ°Ð½":9659,"ĠÐ³ÑĮÐ¾ÑĢÐºÑĮÐ¾Ð¹":9660,"ĠÐ¨Ð°Ð¹":9661,"ÑıÐ»ÑĬÐ³Ð¸":9662,"ĠÐŁÐ°Ñħ":9663,"ĠÐ¶Ð¸Ð½Ð´Ð¸Ð»ÑĬ":9664,"Ð°ÑıÐ»ÑĬÐµÐ³Ð¸":9665,"ĠÐ¶Ð°Ð½Ð¸ÑģÐµÐ±":9666,"ĠÐ³ÓıÑĥÑĨÓıÐ°Ð±Ð°Ð·":9667,"Ð¸Ð³ÑĢ":9668,"ĠÐ±Ð°ÑĩÐ¸Ð½":9669,"ĠÐ³ÓıÐµÐ»Ð°Ð»ÑĬ":9670,"Ġ2020":9671,"ĠÐ¼Ð°ÑħÑħ":9672,"ĠÐĲÑħÓıÐ¼Ð°Ð´Ð¸Ð»Ð¾Ð²":9673,"ĠÑĤÓĢÐµÑħÑĮ":9674,"ĠÐ±ÐµÑĢÐ³ÑĮÐ°ÑĢÐ°Ð±":9675,"ĠÐ±ÑĥÑĤÓıÐ°ÑıÐ»Ð´Ðµ":9676,"ĠÐľÑĥÑģÐ°ÐµÐ²Ð°ÑģÑĥÐ»":9677,"ĠÐ³ÑĮÐ°Ð½Ð¶ÐµÐ³Ð¾":9678,"ĠÑĤÐµÑĢÐ°Ð¿":9679,"ĠÐ»ÑĬÐ¸Ð¼ÐµÑĢÐ»ÑĬÐ¸":9680,"ĠÐĵÑĮÐµÐ»ÑĬÐ³Ð¸":9681,"ĠÑĩÓıÑĥÑħÓıÐ°ÑĢÐ°Ð»":9682,"ĠÐ´Ð¾ÐºÑĥÐ¼ÐµÐ½ÑĤÐ°Ð»Ð³Ð¸":9683,"ĠÑħÓıÐ°Ð»ÑĤÓıÐ¸Ð·Ð°ÑĢÑĥÐ½":9684,"ĠÐºÐ¾ÑĢÐ¿ÑĥÑģ":9685,"ĠÐ²Ð¸ÑīÐ¸Ð·Ðµ":9686,"ĠÑĢÐ¸ÐºÑĮÑĥÐ½":9687,"ĠÐ¸Ð½ÑģÑĤÐ¸ÑĤÑĥÑĤÐ°Ð»Ð´Ð°":9688,"ĠÐľÐ°ÑħÓıÐ¼ÑĥÐ´Ð¸Ð»":9689,"ĠÑĢÐµÐºÑĤÐ¾ÑĢ":9690,"ĠÐ°Ð²ÑĤÐ¾ÑĢÐ°Ñģ":9691,"ĠÑģÐ°Ð»Ð°Ð¼Ð³Ð¸":9692,"ĠÐĵÓıÐ°Ð¼Ð¸ÑĢÑħÐ°Ð½":9693,"ĠÐ³ÑĮÐ°ÑĢÐ·Ð°Ð³Ð¾":9694,"ĠÐĳÐ°ÑĤÓıÐ¸":9695,"ĠÐĹÐ°ÑħÓıÐ¼Ð°ÑĤÐ°Ð»ÑĬÑĥÐ»":9696,"ÐľÐ¸Ð»Ð»Ð°ÑĤ":9697,"ĠÐ¡Ð¸Ð´ÑĢÐ°ÑĤ":9698,"ĠÑħÓıÐµÑĤÓıÐµ":9699,"ĠÐ°ÑĢÐ°Ð¹":9700,"Ð»Ñİ":9701,"Ð½Ð¾Ð¹":9702,"Ð±Ð°ÑĨÓıÑĨÓıÐ°Ð´":9703,"Ð°ÑĢÐ³Ð¸":9704,"Ð²Ð°ÑĨ":9705,"ÑĤÐ°Ð½Ð¾Ð²":9706,"ÑģÐ°Ð»ÑĬÑĥÐ»":9707,"ÑģÐ¾ÑİÐ·Ð°Ð»ÑĬÑĥÐ»":9708,"Ð¼Ð°Ñħ":9709,"ĠÐ³ÓıÐµÑĤÓı":9710,"ÐµÐ»ÐµÐ½":9711,"ĠÐ»Ðµ":9712,"ĠÐºÐºÐµÑıÐ»Ð´Ð°ÑģÐ°":9713,"ĠÐľÐµÐ»ÑĬÐµÐ»":9714,"ĠÑīÑĥÐ±":9715,"ĠÐºÐºÐ¾Ð»Ð°ÑĢÐ¸Ð½":9716,"ĠÐĳÑĥÐ´":9717,"Ð°ÑıÐ»ÑĬÑĥÐ»Ð³Ð¸":9718,"Ġ120":9719,"ĠÐ³ÑĮÐµÑģÐ³Ð¸":9720,"ĠÑīÐ²ÐµÑĩÓıÐµÐ±":9721,"ĠÐ¿ÑĢÐµÐ·":9722,"ĠÐ¨ÑĥÐ³Óı":9723,"ĠÐ½Ð°ÑħÑĬÐ²ÑĥÑģÑģ":9724,"ÐļÐ¸Ð³ÓıÐ°Ð½":9725,"ÐļÐ¸Ð´Ð°Ð³Ð¾":9726,"ĠÐ¹Ð¸ÑĤÓı":9727,"ĠÐ²Ð°ÑģÐ°Ð·ÑĥÐ»":9728,"ĠÑħÑĥÑĤÓıÑĥÐ»Ð°ÑĢÐ¾":9729,"ĠÑĢÐµÑģÐ¿ÑĥÐ±Ð»Ð¸ÐºÐ°ÑıÐ»ÑĬÐµ":9730,"ĠÐ»ÑĬÑĥÐ³ÓıÐ°ÑĢÐ°Ð±":9731,"ĠÐ±Ð°ÑĢÐºÑĥÐ»Ð°Ð³Ð¾":9732,"ĠÑħÓıÐ°Ð»ÑĤÓıÑĥÐ»Ð°Ð±":9733,"ĠÐ°Ð´Ð¼Ð¸Ð½Ð¸ÑģÑĤÑĢÐ°ÑĨÐ¸ÑıÐ»Ð´Ðµ":9734,"ĠÑĨÐ¾Ð³Ð¸Ð´Ð°Ð·ÑĥÐ»":9735,"ĠÐºÓıÐ²ÐµÐ·Ðµ":9736,"ĠÐ¼ÑĥÐ³ÓıÐ°Ð»Ð¸Ð¼Ð°ÑģÑĥÐ»":9737,"ĠÐ±Ð°Ð¹ÑĢÐ°Ð¼Ð³Ð¸":9738,"ĠÐ±Ð°Ð¹ÑĢÐ°Ð¼Ð°Ð»Ð´Ðµ":9739,"ĠÐ»ÑĬÐ¸Ð¼ÐµÑĢÐ³Ð¸":9740,"ĠÐ±Ð¾Ð¶Ð¸Ð·Ðµ":9741,"ĠÑĤÐ¾ÑħÑĤÑĥÑĢÐ»ÑĬÑĥÐ½":9742,"ĠÐ·Ð°ÑħÓıÐ¼Ð°Ð»ÑĬÑĥÐ»Ð°":9743,"ĠÐºÑĥÑĩÓıÐ´ÑĥÐ·ÑĥÐ»":9744,"Ð¸Ð»Ð°ÑĢÐ¾Ð°Ð½":9745,"Ð¸Ð½ÑĩÓıÐ¾Ð½Ð¸Ð³Ð¸":9746,"ĠÑħÓıÐ°Ð»ÑĤÓıÑĥÑħÑĬÐ°Ð±Ð¸Ð³ÑĥÐ½":9747,"ĠÐ¥ÓıÐ°Ð¶Ð¸Ð¼ÑĥÑĢÐ°Ð´Ð¸ÑĨÐ°":9748,"ĠÐ±ÐµÐ³Ð°Ð²ÑĥÐ»Ð°Ñģ":9749,"ÐµÑĢÐµÐµÐ²":9750,"ĠÐ³ÑĮÐ¾ÑĢÐºÑĮÐ¾ÑģÐ°Ð½":9751,"ĠÐ¼Ð°Ð´Ð°Ð½Ð¸ÑıÐ±":9752,"ĠÐ³ÑĬÐ²Ð°ÑĢÐ¸Ð´Ð³Ð¾":9753,"Ð·Ð°Ð¼Ð°Ð½Ð°Ð»Ð´Ð°ÑģÐ°Ð½":9754,"ÑįÐ¼ÐµÐ½Ð³Ð¸":9755,"ĠÐĵÓıÐ°Ð´Ð°Ð¼Ð°Ð·ÑĥÐ»":9756,"ĠÐĺÐ½ÑħÐ¾ÑģÐ°":9757,"ĠÐ³ÑĥÑĢÐµÐ²Ð³Ð¸":9758,"ĠÐ³ÑĥÑĩÐ°Ð±":9759,"ĠÐľÐ°Ð³ÓıÐ°ÑĢÑĥÑħÑĬ":9760,"ĠÑħÐ°Ð»Ð°ÑĤÐ±Ð°ÑħÑĬÐ°ÑĢÐ°Ð±":9761,"ĠÐĵÓıÐ°Ð»Ð¸ÑħÓıÐ°Ð¶":9762,"ĠÑĨÐµÐ½ÑĤÑĢÐ°Ð»ÑĬ":9763,"ĠÐļÓıÐ¸Ð°Ð±Ð¸Ð·Ðµ":9764,"ĠÐ¯ÐºÑĬÑĥÐ±":9765,"ĠÐĵÑĬÐ¸ÑĢÐ¸Ñģ":9766,"97":9767,"Ð»ÐµÐ¹":9768,"Ð°Ð»Ð°Ð»ÑĬÑĥÐ»":9769,"ÑĥÐ»ÐµÐ·Ðµ":9770,"ĠÐ±Ð¾Ð»ÑĮÑĪÐµÐ²Ð¸Ðº":9771,"ĠÐ²Ð¾ÑĢ":9772,"Ð°Ð²ÑĢÐ¾Ð¿":9773,"Ð¿Ð¾ÑĤÑĢÐµÐ±":9774,"ĠÐĶÐ¸Ð²":9775,"ÐµÑģÐµ":9776,"Ð¸Ð´Ð¸ÑĢ":9777,"ĠÑĢÐ°Ð¹Ð¾Ð½Ð°Ð»":9778,"Ð¸ÐµÐ³Ð¾":9779,"ÐĵÑĮÑĥÐ´ÑĥÐ»":9780,"ĠÐĿÑĥÑħÓı":9781,"ĠÑĢÐ°Ð³ÑĬÐ°Ð»":9782,"ÑĦÐ¸Ñı":9783,"ÐľÐ°ÑģÐ°Ð»Ð°":9784,"ĠÑĢÐ°ÐºÓıÐ°Ð·Ðµ":9785,"ĠÐºÐ¸Ð½Ð´Ð°Ð¹":9786,"ĠÐºÐ¸Ð½Ð°Ð»ÑĬÐµÐ³Ð¾":9787,"ÐµÑıÐ»ÑĬÑĥÐ»Ð°Ð±":9788,"ĠÑĢÐ¸ÐºÓıÐºÓıÑĥÐ½Ð°Ð°Ð½":9789,"Ð¢ÑĥÑĢÐ½Ð¸ÑĢ":9790,"ÑĩÓıÐ²Ð°Ð´Ð¸":9791,"ĠÐ³ÓıÐ¾Ð»Ð¾ÑħÑĬÐ°Ð±Ð¸Ð³Ð¸":9792,"ĠÐ¨Ð°Ð¼Ð¸Ð»Ð¸Ðµ":9793,"ĠÑĢÑĥÐºÓıÐ¸Ð½Ð°Ð»ÑĬÐµ":9794,"Ġ48":9795,"195":9796,"ĠÐŀÐ»Ð¸Ð¼Ð¿Ð¸ÑıÐ»ÑĬÑĥÐ»":9797,"ÑĥÐ´Ð¸Ð½Ð¾Ð²Ð°Ñģ":9798,"ĠÐĵÓĢÑĥÐ¼Ð°ÑĢ":9799,"ĠÑĤÓıÐµÑħÑĮÐ°Ð»ÑĬÑĥÐ»":9800,"ĠÐ¥Ð°Ð´ÑĥÐ±ÐºÐºÑĥÐ½":9801,"ĠÐ¼Ð°ÑĪÐ¸Ð½Ð°ÑıÐ»Ð´Ð°":9802,"ĠÐ²Ð°ÐºÐ¸Ð»Ð·Ð°Ð±Ð¸Ð³Ð¸":9803,"ĠÐľÐ°Ð³Ð¾Ð¼ÐµÐ´Ð¾Ð²Ð¸Ñĩ":9804,"ĠÐ³ÓıÐ°ÑħÑĮÐ°Ð»Ð»ÑĬÐ°ÑĢÐ°Ð²":9805,"ĠÑĢÐ¾ÑĢÑħÐ°ÑĤÐ°Ð»":9806,"ĠÑĨÓıÑĥÐ¼ÑĥÑĢ":9807,"ĠÑįÐ»ÐµÐºÑĤÑĢÐ¾Ð½":9808,"ĠÐļÐ°Ð¼Ð°Ð»Ð¾Ð²":9809,"ÐĳÐ°Ð¹ÑĢÐ°Ð¼":9810,"ĠÐ°ÑģÐºÐ°ÑĢÐ°Ð»":9811,"ĠÐ¨Ð¸ÑħÑģÐ°Ð³ÓıÐ¸Ð´":9812,"ĠÐ¼ÑĥÐ½Ð¸ÑĨÐ¸Ð¿Ð°Ð»Ð¸ÑĤÐµÑĤ":9813,"ĠÐ°Ð¿Ð¿Ð°ÑĢÐ°ÑĤÐ°Ð»ÑĬÑĥÐ»":9814,"ÑĢÑĥÑĨÐµÐ»Ð»":9815,"Ð¸Ð»ÑĬÐ¸Ð³Ð¸":9816,"ÐµÑıÐ·ÑĥÐ»":9817,"ĠÑĢÐ°ÑĨÓı":9818,"ÑĤÐµÐ½":9819,"ĠÑħÐ¸Ð½Ð°Ð»":9820,"Ð°ÑĤÐ°Ð»Ð³Ð¸":9821,"ĠÑĤÐµÐ¿":9822,"ĠÐ¼Ð°ÑĤÓı":9823,"ĠÐ³ÑĮÐ°Ð±Ð¸ÑĩÓıÐ¾Ð½Ð¸":9824,"Ð°Ð²ÐºÐ°":9825,"ĠÐ¿ÐµÑĢÑģ":9826,"ĠÐľÑĥÑħÑĬ":9827,"Ð³ÑĮÐ°":9828,"ĠÐ¸Ð±Ð½":9829,"ĠÐłÐ°Ð·":9830,"Ð°ÑĩÑħÑĬÐ°Ð»Ð°":9831,"ĠÑĪÐ°Ð³ÓĢÐ¸ÑĢ":9832,"ĠÑıÐ»ÑĬÑĥÐ»":9833,"ĠÐ³ÑĬÐ°Ð½Ñģ":9834,"ĠÐ·Ð°Ð¼Ð°Ð½Ð°Ð»Ð´Ð°ÑģÐ°Ð½":9835,"ĠÐ³ÓıÐ¾Ð»Ð°ÑĢÐµÐ»":9836,"ÐĶÐ°Ð³ÑĬ":9837,"ĠÑĦÐµÐ´ÐµÑĢÐ°Ð»Ð¸ÑıÐ»":9838,"ĠÐ¶Ð°Ð½Ð°Ð·Ð°":9839,"ĠÐ±ÐµÐ³ÑĮÐ¸Ð»Ð°Ð°Ð½":9840,"ĠÐ²ÑĥÐ³Ð¾Ð°Ð½":9841,"ĠÐļÑĬÐµÑĨ":9842,"ĠÐºÐ¸Ð½Ð°Ð»Ð³ÓıÐ°Ð³Ð¸":9843,"ĠÐºÑĬÐ²Ð°ÑĤÓıÐ¸Ðµ":9844,"ĠÑįÐ±ÐµÐ»Ð°Ð»ÑĬÐµ":9845,"ÐµÑĨÐ°Ð³Ð¾":9846,"ÐĸÐµÐ³Ð¸":9847,"ĠÑĥÐ»ÐºÐ°Ð±Ð°Ð·Ð´Ð°":9848,"ĠÐ¿ÑĢÐ¾Ð¿":9849,"ĠÑĤÓıÐ°Ð´ÐµÐ³ÓıÐ°Ð½Ð°Ð²":9850,"ĠÐ±ÑĥÑģÑģÐ°ÑĢÐ°Ð±":9851,"ĠÐ³ÓıÐ°Ð¼Ð°Ð»Ð°Ð»":9852,"ĠÐ½Ð°ÑĩÐ°Ð»ÑĮÐ½Ð¸ÐºÐ»ÑĬÑĥÐ½":9853,"ĠÐ¢ÑĥÑĢÑĨÐ¸ÑıÐ»ÑĬÑĥÐ»":9854,"ĠÐ±ÑİÐ´Ð¶ÐµÑĤÐ°Ð»Ð´Ð°":9855,"ĠÐºÑĢÐµÐ´":9856,"ĠÑħÐ¸Ð½Ð»ÑĬ":9857,"ĠÐ¿Ð»Ð°Ð½Ð°Ð»Ð´Ð°":9858,"ĠÐĳÐ°ÐºÑĬÐ±Ð°ÐºÐºÑĥÐ»":9859,"ĠÐĵÑĬÐ°Ð·Ð¸Ð¼ÑĥÑħÓıÐ°Ð¼Ð°Ð´Ð¾Ð²":9860,"ĠÐ¿Ð¾Ð»Ð¸ÑĨÐ¸ÑıÐ»ÑĬ":9861,"ĠÐ³ÓıÑĥÐ¼ÑĢÑĥÑıÐ»ÑĬÐ³Ð¾":9862,"Ð°ÑĥÑĢÐµ":9863,"ĠÑĨÓĢÐ¸ÐºÓĢÐºÓĢÑĥÐ½":9864,"ĠÐ¡Ð°ÑĢÐ¸ÑĢ":9865,"ĠÐ±ÐµÑĩÓıÑĩÓı":9866,"ĠÑģÐ¿Ð¾Ð½ÑģÐ¾ÑĢ":9867,"ĠÑĦÐµÐ»ÑĮÐ´ÑĪÐµÑĢ":9868,"ÑĢÐ°ÑģÐ°":9869,"ÑĬÐµÐ·Ð´":9870,"Ð´ÑĥÐºÑĮ":9871,"ĠÐ³Ð¸":9872,"Ð°Ð½ÑīÐ¸Ð½":9873,"ĠÑĢÐ¾Ð»":9874,"Ð¸Ð½Ð¸Ð±":9875,"Ð°Ð»ÑĬÑĥÑĢ":9876,"ĠÑĤÐ¾ÑĢ":9877,"ĠÑģÑĥÐ»":9878,"ĠÑģÐ¸Ð¿":9879,"ĠÑģÑĥÑħÑĬÐ¼Ð°ÑħÑĬ":9880,"ĠÐĶÑĥÐµ":9881,"ĠÑĩÓıÐ¾Ð»ÐµÐ»":9882,"ĠÑĩÓıÐ¾Ð»Ð°ÑĢÐ¾":9883,"Ð¸Ð½Ð°Ð±ÑĥÑĢÐ°Ð±":9884,"ĠÑĢÑĥÐºÓıÐ¸Ð½Ð°":9885,"ĠÐ¢Ð°Ð±Ð°ÑģÐ°ÑĢ":9886,"Ð³ÓıÐ°Ð½Ð³Ð¸":9887,"ĠÐ³ÑĥÑĢÐ³":9888,"Ð°ÑħÑĮÑĥÐ»":9889,"ĠÑĢÐ°ÑĩÓıÐ°ÑĢÐ°Ð·ÑĥÐ»":9890,"ĠÐĽÑĬÐ°Ð»":9891,"ĠÐĵÓıÐ°Ð»Ð¸ÑģÑĥÐ»":9892,"ÐµÐ»ÑĬÑĥÐ±":9893,"ĠÐ³ÑĮÐµÐ½Ð¸Ð±Ð³Ð¸":9894,"ĠÐ³ÓıÐ¾Ð»Ð¾ÑħÑĬÐ°Ð±Ð°Ð·Ð´Ð°":9895,"ĠÑħÐ¸ÑģÑĥÐ»ÐµÐ±":9896,"ĠÐºÐ²ÐµÑĪÐ³Ð¾":9897,"ĠÐ³ÓıÐ°Ð´Ð°ÑĤÐ°Ð»Ð³Ð¸":9898,"ĠÐ±Ð¸Ð³ÑĮÐ°Ð»ÑĬÐ°Ð±Ð¸":9899,"ĠÑĤÐ¾ÑħÑĤÑĥÑĢÐ·Ð°Ð±Ð°Ð·ÑĥÐ»":9900,"ĠÑĢÐµÐ´Ð°ÐºÑĨÐ¸ÑıÐ»Ð´Ð°":9901,"ĠÐ±Ð¸Ð¶ÑĥÐ½":9902,"ĠÐĵÑĮÐµÐºÑĬ":9903,"Ð¦ÓıÑĥÐ¼Ð°Ð´Ð¸ÑģÐµÐ·ÑĥÐ»":9904,"ĠÐ³ÓıÐ°ÑĢÐ·Ð°Ð³Ð¸":9905,"ĠÑĤÐµÑĢÑĢÐ¾ÑĢÐ¸Ð·Ð¼Ð°Ð»ÑĬÑĥÐ»":9906,"ĠÑħÓıÐ°Ð¶Ð°ÑĤÐ°Ð±ÑīÐ¸Ð½Ð°Ð±":9907,"ĠÐ´ÑĥÐ½ÑıÐ»Ð°Ð»ÑĬÑĥÐ»Ð³Ð¾":9908,"ĠÐ±Ð°ÑĨÓıÑĨÓıÐ°Ð´Ð³Ð¾":9909,"ĠÐ¿ÐµÑĢÐ²ÐµÐ½":9910,"ĠÑĤÓıÐ°ÑĤÐ¸Ð½Ð°ÑĢ":9911,"ĠÐ±Ð°ÐºÐºÑĥÐ½":9912,"ĠÐ±ÑĥÑģÑģÐ¸Ð½Ð°Ð±ÑĥÐ»ÐµÐ±":9913,"ÑĤÓĢÐµÑĢÑħÑĮÑĥÐ»":9914,"ĠÑĢÐ°Ð³ÑĬÑĥÑħÑĬÐ°Ð±Ð°Ð·ÑĥÐ»":9915,"ĠÑĤÓıÐ°ÑħÑĮÐ°Ð·Ð´Ð°":9916,"ĠÐ²Ð¸ÑĩÑĩÐ°Ð½":9917,"ĠÐ³ÑĥÑĢÐ¶Ð¸":9918,"ÐĽÑĬÐ¸ÐºÓıÐ°Ð±":9919,"ĠÐľÐ°ÑħÓĢÐ¼ÑĥÐ´":9920,"ÐĲÐĽÐª":9921,"ÐłÐ°ÐºÓıÐ°Ð»Ð´Ðµ":9922,"ĠÐĺÐ½ÑħÐ¾ÐºÑĬÐ²Ð°ÑĢÐ¸":9923,"ĠÐ³ÓıÐ°Ð¼Ð¼Ð°Ð»":9924,"ĠÐĽÑĬÐ°Ð³ÓıÐ¸Ð»ÑĥÑħÑĬ":9925,"ÐºÐ°Ð¼Ð¸Ð»":9926,"Ð°Ð½Ð¸Ð±":9927,"ÑģÐ¸Ð»":9928,"ĠÐ»Ð°ÑĥÑĢÐµ":9929,"ĠÐ´Ð¾Ð²Ðµ":9930,"ĠÑĤÓıÑĥÐ½Ð°":9931,"ĠÑĤÓıÐ¾Ð»ÐµÐ±":9932,"ĠÑĤÓıÐµÑĢÐµÐ½":9933,"Ð¸ÑģÐ»Ð°Ð¼":9934,"ĠÐ·Ð°Ð¿":9935,"ĠÐļÐ°Ð½":9936,"ĠÐ³ÑĮÐ°ÑĢÑĥÐ»ÐµÐ²":9937,"ĠÐ³ÑĮÐµÐ·ÑĥÐ»ÑĬ":9938,"ĠÐ°ÑģÑĦ":9939,"ĠÐ¨Ð°Ð±Ð°Ð·":9940,"ĠÐ³ÑĮÐµÑĩÓıÐµÐ¹":9941,"ĠÐ±Ð¾ÑģÑĥÐ»ÐµÐ»":9942,"ĠÐ»ÑĬÑĥÐ³ÑĮÐ°ÑĢÐ°Ð²":9943,"ÐĲÐĹ":9944,"ĠÐĴÐ°ÑħÓı":9945,"ĠÐºÐ¸Ð½Ð½Ð¸Ð³Ð¸":9946,"ĠÐºÓıÐ°Ð»ÑĬÐ°Ð»ÐµÐ»":9947,"ĠÑħÑĬÐ¸Ð·Ð°Ð½Ð°Ð»":9948,"ĠÐ¶Ð°Ð²Ð°Ð±Ð³Ð¸":9949,"ĠÑĥÐ»Ð±ÑĥÐ·ÑĥÐ»":9950,"Ġ42":9951,"ĠÑħÓıÐ°Ð´ÑĥÑĢÑĥÐ»ÐµÐ±":9952,"ÐµÐ³ÑĢÐ°Ð¼":9953,"ĠÐ±Ð°Ð¶Ð°ÑĢÐ°Ð½Ð°":9954,"ĠÐ´Ð°Ð½Ð´ÑĩÓıÐ²Ð°ÑĢÐ°Ð»":9955,"ĠÐºÓĢÑĥÐ´Ð¸ÑıÐ²":9956,"ĠÐĵÑĮÐµÐ½Ð¸Ð±Ð³Ð¾":9957,"ÐĽÑĬÐ°Ð³ÓıÐ°Ð»Ð¸Ð»":9958,"ĠÐ±Ð°Ð³ÑĮÐ°Ð±Ð¸":9959,"ĠÐĵÑĬÐ°Ð·Ð¸Ð¼":9960,"ĠÐ½Ð°ÑģÑĢÐ°Ð½":9961,"ĠÑħÓıÐ°Ð»ÑĤÓıÑĥÑħÑĬÐ°Ð½Ð°ÑģÑĥÐ»":9962,"Ð°ÑħÓĢÐ°Ð±":9963,"ĠÑĨÓıÐ°Ð»Ð´Ð¾ÑħÑĬÐ°Ð½Ð°ÑģÐµ":9964,"ĠÐºÑĬÐ¾Ð¹Ð¸Ð´Ðµ":9965,"Ð´ÐµÑĢÐ¸Ðµ":9966,"ĠÐĵÑĮÐ¸ÑĤÓıÐ¸Ð½Ð¾Ð²":9967,"Ð°Ð´Ð¶Ð°Ð±":9968,"ĠÐ¢ÓıÐ¾Ð»Ð±":9969,"ĠÑĢÐ¸ÐºÓĢÐºÓĢÐ°Ð´":9970,"ĠÐ°Ð½Ð¸ÑīÐ°Ð»":9971,"ĠÐ´ÐµÐ»Ð¾":9972,"ĠÐ¥ÓıÐ°ÑĢÐ¸ÐºÐ¾Ð»Ð¾":9973,"ĠÐ¿Ð¸ÑĤÐ½Ð°":9974,"ĠÑĥÐ·ÑĥÑħÑĬÐ´Ð°":9975,"ĠÑħÐ°ÑģÐ»Ð¸ÑħÑĬÐµ":9976,"ĠÐĲÐ³ÑĬÐ²Ð°Ð»Ð¸ÑģÐ°":9977,"ÑĢÐ°ÐºÑĬÐ°Ð»ÑĬÐ¸":9978,"ĠÐ°Ð»ÑĬÑĥÐ»":9979,"ĠÐ°ÑĦ":9980,"Ð°ÑĢÐ³Ð¾":9981,"ĠÐ³ÑĮÐ°ÑģÐ´Ð°":9982,"Ð»ÑĬÐ°Ð±Ð°Ð·Ð´Ð°":9983,"ÑĤÐ°Ð»Ð°":9984,"Ð°Ð·Ð¸ÑĢ":9985,"ĠÐ²ÑĥÑħ":9986,"ĠÑĤÓıÐµÐºÑĬ":9987,"ĠÐºÑĬÐ°Ð±":9988,"ĠÐľÐ°ÐºÑĮ":9989,"ĠÐľÑĥÑģÑĤ":9990,"ÑĥÑħÑĬÐ°Ð±Ð°Ð·ÑĥÐ»":9991,"ĠÑīÐ¾Ð»Ð°ÑĢÐµÐ±":9992,"ĠÐ·Ð°Ð½":9993,"ĠÐĶÑĥÐ±":9994,"ÐµÐºÑĨÐ¸ÑıÐ»ÑĬÑĥÐ»":9995,"ĠÑĤÓıÐ°Ð´Ð°Ð±Ð»ÑĬÑĥÐ½":9996,"ĠÑĤÓıÐ°Ð´ÑĩÓıÑĥÐ½":9997,"ĠÑĥÐ½ÐµÐ»ÑĬÑĥÐ»":9998,"ĠÐľÑĥÑħÓıÐ°Ð¼Ð°Ð´Ð¾Ð²Ð°ÑģÐµ":9999,"ĠÐºÐ²Ð°ÑĢÐ°Ð»":10000,"ĠÑĨÓıÐ°Ð»ÑĥÐ»ÑĬ":10001,"ĠÐ±Ð°ÐºÓıÐ°Ð»ÑĬÑĥÐ»Ð°Ð»":10002,"Ð²Ð°Ð»ÐµÐ±":10003,"ÐľÑĥÐ³Óı":10004,"ĠÐ¢ÓıÐ¸Ð½":10005,"ĠÑĨÐµÑĢÐµÑĩÓı":10006,"ĠÐ³ÑĮÐ¾ÑĢÐºÑĮÐ¾Ð±Ð³Ð¸":10007,"ĠÐ±Ð°ÑıÐ½Ð»ÑĬÐ°Ð½Ð°":10008,"ÑĢÐ¾ÐºÑĬ":10009,"ĠÑħÓĢÐ°ÑģÐ¸Ð»":10010,"ĠÑģÐ¿Ð¾ÑĢÑĤÐ°Ð»Ð´Ðµ":10011,"ĠÐ¿ÑĢÐµÐ´Ð»Ð¾Ð¶":10012,"ĠÐ¼Ð¾ÑĨÓıÐ¸Ð´Ð°":10013,"ĠÑĩÓıÐµÐ·Ð°Ð±ÑĥÑĢÐ°Ð±":10014,"ĠÐ´ÐµÐ¿ÑĥÑĤÐ°ÑĤÐ»ÑĬÑĥÐ½":10015,"ĠÑħÓıÑĥÐºÑĥÐ¼Ð°ÑĤÐ°Ð»Ð´Ð°":10016,"ĠÑħÓıÑĥÑĢÐ¼Ð°ÑĤÐ¸ÑıÐ²":10017,"ĠÐ¿Ð°ÑĢÑĤÐ¸Ð·Ð°Ð½":10018,"ÐļÑĬÑĥÑĢ":10019,"ĠÐ¼Ð°Ð»ÑĬÐ°ÑĢÐ°Ð±":10020,"ĠÑĢÐ¸Ð³ÑĮÐ°Ð»ÑĬÑĥÐ»":10021,"Ġ1000":10022,"ĠÑħÓıÑĥÑħÑĮÐµÐ»":10023,"ĠÐ¼Ð°Ð´ÑĥÐ³ÑĮÐ°Ð»Ð·Ð°Ð±Ð¸":10024,"ÑħÑĬÐ²Ð°Ð³ÓıÐ°ÑıÐ»":10025,"ĠÑĨÐ¾Ð³Ð¾ÑıÐ±":10026,"ĠÑĤÓıÐ°ÑģÐ°Ð±":10027,"ĠÐ¡ÑĤÐ°Ð»Ð¸Ð½Ð¸Ð»":10028,"ĠÐ³ÓĢÐµÐ»Ð¼Ñĥ":10029,"ĠÐ»Ð¸ÑĨÐµÑıÐ»ÑĬÑĥÐ»":10030,"ĠÐļÑĬÐ°ÑģÐ¸":10031,"ĠÐºÑĬÐ°ÑĢÐºÑĬ":10032,"ĠÐºÐ°Ð·Ð¸ÑıÑĤ":10033,"ĠÐĲÐ±ÑĥÐ»Ð¼ÑĥÑģÐ»Ð¸Ð¼":10034,"ĠÐºÐ²ÐµÑĢÑīÐ°Ð»Ð¸ÐºÑĮ":10035,"ĠÑħÑĮÐ¾Ð»Ð±Ð¾ÑħÑĬ":10036,"ĠÐºÐµÑģÐµÐº":10037,"ÑĢÐ¸ÑģÑĤ":10038,"Ð°Ð»Ð¸ÐµÐ²":10039,"Ð½Ð¸Ð»ÑĬ":10040,"ÐºÐ¸ÑĢÐµÐ³Ð¾":10041,"Ð±Ð°Ð·":10042,"ĠÐºÐ¸ÑģÐ°Ð½":10043,"Ð»ÑĬÑĥÑħÑĬÐµ":10044,"ÑĤÐµÐ»":10045,"Ð°Ð´Ð¸Ð¾Ð½":10046,"Ð°Ð´ÐµÑħÑĥÐ½":10047,"ĠÐ²ÐµÐ³":10048,"ĠÐ²ÐµÑĩ":10049,"ĠÐĵÑĮÑĥÐ´ÑĥÐ»":10050,"Ð¶Ð°Ð»":10051,"ĠÐ±ÑĥÐºÓıÐ¸Ð½Ð°Ð±Ð¸Ð·Ðµ":10052,"ÑĥÐ¼ÑĥÐ·":10053,"Ð°ÑħÓıÐ¸Ð¼":10054,"Ð¸ÐºÑĥÐ»":10055,"ÑħÑĬÐ°Ð±Ð¸":10056,"ĠÐ³ÑĮÐ°ÑĢÐ´":10057,"ĠÐ¸Ð½Ð°Ð»ÑĬÑĥÐ»":10058,"ĠÐ¦Ð¾Ð½Ð¸Ð³Ð¸":10059,"ĠÐ´Ð°Ð½Ð´ÐµÐ³Ð¸":10060,"ĠÐ½Ð°ÑħÑĬÐ±ÑĥÑģÑģ":10061,"ĠÑĢÐ°Ð³ÓıÐ°Ð±Ð¸Ð³Ð¸":10062,"ĠÐ³ÓıÑĥÑĨÓıÐ°ÑĢÐ°Ð»Ð´Ð°ÑģÐ°":10063,"Ð¸Ð·Ð°ÑĢÐ¸":10064,"ĠÐ»ÑĬÑĥÐ³ÓıÑĥÐ»ÐµÐ±":10065,"ĠÑħÑĬÑĥÐ»ÑĥÑħÑĬÐ°Ð»ÑĬÐµ":10066,"ĠÐ¼Ð°Ð³ÓıÐ°ÑĢÑĥÐ»Ð°Ð·Ðµ":10067,"Ð¾ÑĩÐ¾Ð½":10068,"ĠÑĢÐ¾ÐºÑĬÐ¾Ðµ":10069,"ÐĴÐĶ":10070,"ĠÑĢÐ°ÑĩÐ°ÑĢÐ°Ð»":10071,"ĠÐĵÑĮÐ°Ð½Ð¸ÑĢ":10072,"ĠÑĥÐ»ÐºÐ°ÑıÐ»Ð´Ð°Ð³Ð¾":10073,"Ð£Ð¼":10074,"ĠÐ²Ð°ÑĤÐ°Ð½Ð¸Ð³Ð¸":10075,"ĠÑīÐ¸Ð²Ð½Ð¸Ð³Ð¸":10076,"ĠÐĲÐ²Ð°ÑĢÑĤÐµ":10077,"ĠÐ³ÓıÐ°Ð´Ð°Ð½Ð»ÑĬÐ¸ÑıÐ»ÑĬÑĥÐ»":10078,"ĠÐ³ÓıÐ°Ð¹Ð¸Ð±Ð°Ð»":10079,"ĠÐĵÑĬÐ°Ð·Ð¸ÐµÐ²":10080,"ĠÐ³ÑĮÑĥÐ½Ð°ÑĢÐ°Ð»ÑĬÑĥÐ»":10081,"ĠÐ°Ð²ÑĤÐ¾Ð±ÑĥÑģ":10082,"ĠÑħÓıÐ°ÐºÑĬÐ¸ÐºÑĬÐ°ÑĤÐ°Ð»Ð´Ð°":10083,"ĠÐºÐ¸Ð»Ð¾Ð³ÑĢÐ°Ð¼Ð¼":10084,"ĠÐ¿ÑĢÐ¾ÑĨÐµÑģÑģ":10085,"ĠÑĨÐµÐ±ÐµÑĤÓıÐµÐ·Ð°Ð±Ð¸ÑıÐ»ÑĬÑĥÐ»":10086,"ĠÐĳÐ¾ÐºÑĮÐ°ÑĢÐ°Ð±":10087,"ĠÐ£Ð·Ð´Ð°Ð»ÑĢÐ¾Ñģ":10088,"ĠÑĢÐ°ÐºÓıÐ±Ð°ÑĨÓıÑĨÓıÐ°Ð´Ð°Ð±":10089,"ĠÐłÐ°Ð¶Ð°Ð±Ð¾Ð²":10090,"ĠÐ±ÐµÑĤÓıÐµÑĢÐ³ÑĮÐ°Ð½Ð°Ð»":10091,"ĠÐ±ÐµÑĨÓıÐ¸Ð·Ðµ":10092,"ĠÐ¨Ð°Ð¼ÑħÐ°Ð»Ð¾Ð²":10093,"ĠÑĩÐ¾ÑĢÐ¾ÐºÐ»ÑĬÐ¸":10094,"ĠÑĨÐµÑĢÐµÑĢÐ°ÑħÑĬÐ¸Ð½Ð°Ð»":10095,"ĠÐ¥ÓıÐ°Ð¹Ð±ÑĥÐ»Ð°ÐµÐ²":10096,"ĠÑģÐ°Ð½Ð°Ð³ÓıÐ°ÑĤÐ°Ð±":10097,"ĠÐ¼Ð¸Ð½ÑĥÑĤÐ°Ð»ÑĬ":10098,"Ð¼Ð°ÐºÑĬÐ°Ð±":10099,"ĠÐ¼Ð¸Ð½Ð°ÑıÐ»ÑĬÑĥÐ±":10100,"ÐłÐµÑģÐ¿ÑĥÐ±Ð»Ð¸ÐºÐ°ÑıÐ»ÑĬÑĥÐ»":10101,"Ð¾ÑģÐ°ÑĢÐ¾Ð»ÑĬ":10102,"Ð§ÐµÑĢÐ½Ð¾Ð²Ð¸Ðº":10103,"ÑĥÐ»ÓĢ":10104,"ÐºÐ°Ð»Ð°Ð¼":10105,"ĠÐºÑĥÐ¹":10106,"Ð°ÑĤÐ°Ð·Ð´Ð°":10107,"Ð°ÑħÐµÑĤ":10108,"ĠÐ²ÐµÐ´":10109,"Ð°ÐºÐ°Ð»":10110,"Ð¸Ð»Ð°ÑĤ":10111,"Ð¸ÑģÐ°Ð»Ð°":10112,"Ð¸ÑĤÐ°Ð½":10113,"ĠÑĢÐµÑĨ":10114,"ĠÑħÓıÐ°Ð»Ð¸Ð¼":10115,"Ð°ÐºÑĬÐ°Ð±":10116,"Ð°ÑħÓıÐ¸ÑıÐ»":10117,"ĠÐ¡Ð°ÑĢÐ°ÑĤ":10118,"ĠÐ³ÑĬÐ¾Ð·":10119,"ĠÐĶÐ°Ð³ÑĬÐ¸ÑģÑĤÐ°Ð½Ð°Ð»Ð´Ð°Ð³Ð¾":10120,"ĠÐĺÐ»":10121,"ĠÑĨÓıÑĥÐ½ÑĥÐ»Ð°Ð³Ð¾":10122,"ĠÑĤÓıÐ¾Ð±Ð¸ÑĤÓıÐ¸ÑıÐ»ÑĬÑĥÐ»":10123,"ĠÑĨÓıÐ°ÑĢÐ°Ð»ÑĬÐµ":10124,"ĠÐ¥ÓıÐ°Ð¶Ð¸ÑĨÐ°":10125,"ĠÐļÓıÐ°Ð»ÑĬÐ°Ð·Ðµ":10126,"ĠÐ±Ð°ÑıÐ½Ð°Ð»Ð´Ð°":10127,"ĠÐ¿Ð¸ÐºÑĢÑĥÐ³ÑĥÐ½":10128,"ĠÑĤÓıÐ°Ð¼Ð¸":10129,"ĠÑĢÐµÑħÑģÐ¾Ð»ÐµÐ»":10130,"ÑĥÑĪÑĤ":10131,"ĠÑħÑĮÐ²Ð°Ð´ÑĥÐ»":10132,"ĠÐ³ÑĬÑĥÑĢÑĥÑīÐ³Ð¸":10133,
[...]
