{"<s>":0,"<pad>":1,"</s>":2,"<unk>":3,"<mask>":4,"!":5,"\"":6,"#":7,"$":8,"%":9,"&":10,"'":11,"(":12,")":13,"*":14,"+":15,",":16,"-":17,".":18,"/":19,"0":20,"1":21,"2":22,"3":23,"4":24,"5":25,"6":26,"7":27,"8":28,"9":29,":":30,";":31,"<":32,"=":33,">":34,"?":35,"@":36,"A":37,"B":38,"C":39,"D":40,"E":41,"F":42,"G":43,"H":44,"I":45,"J":46,"K":47,"L":48,"M":49,"N":50,"O":51,"P":52,"Q":53,"R":54,"S":55,"T":56,"U":57,"V":58,"W":59,"X":60,"Y":61,"Z":62,"[":63,"\\":64,"]":65,"^":66,"_":67,"`":68,"a":69,"b":70,"c":71,"d":72,"e":73,"f":74,"g":75,"h":76,"i":77,"j":78,"k":79,"l":80,"m":81,"n":82,"o":83,"p":84,"q":85,"r":86,"s":87,"t":88,"u":89,"v":90,"w":91,"x":92,"y":93,"z":94,"{":95,"|":96,"}":97,"~":98,"¡":99,"¢":100,"£":101,"¤":102,"¥":103,"¦":104,"§":105,"¨":106,"©":107,"ª":108,"«":109,"¬":110,"®":111,"¯":112,"°":113,"±":114,"²":115,"³":116,"´":117,"µ":118,"¶":119,"·":120,"¸":121,"¹":122,"º":123,"»":124,"¼":125,"½":126,"¾":127,"¿":128,"À":129,"Á":130,"Â":131,"Ã":132,"Ä":133,"Å":134,"Æ":135,"Ç":136,"È":137,"É":138,"Ê":139,"Ë":140,"Ì":141,"Í":142,"Î":143,"Ï":144,"Ð":145,"Ñ":146,"Ò":147,"Ó":148,"Ô":149,"Õ":150,"Ö":151,"×":152,"Ø":153,"Ù":154,"Ú":155,"Û":156,"Ü":157,"Ý":158,"Þ":159,"ß":160,"à":161,"á":162,"â":163,"ã":164,"ä":165,"å":166,"æ":167,"ç":168,"è":169,"é":170,"ê":171,"ë":172,"ì":173,"í":174,"î":175,"ï":176,"ð":177,"ñ":178,"ò":179,"ó":180,"ô":181,"õ":182,"ö":183,"÷":184,"ø":185,"ù":186,"ú":187,"û":188,"ü":189,"ý":190,"þ":191,"ÿ":192,"Ā":193,"ā":194,"Ă":195,"ă":196,"Ą":197,"ą":198,"Ć":199,"ć":200,"Ĉ":201,"ĉ":202,"Ċ":203,"ċ":204,"Č":205,"č":206,"Ď":207,"ď":208,"Đ":209,"đ":210,"Ē":211,"ē":212,"Ĕ":213,"ĕ":214,"Ė":215,"ė":216,"Ę":217,"ę":218,"Ě":219,"ě":220,"Ĝ":221,"ĝ":222,"Ğ":223,"ğ":224,"Ġ":225,"ġ":226,"Ģ":227,"ģ":228,"Ĥ":229,"ĥ":230,"Ħ":231,"ħ":232,"Ĩ":233,"ĩ":234,"Ī":235,"ī":236,"Ĭ":237,"ĭ":238,"Į":239,"į":240,"İ":241,"ı":242,"Ĳ":243,"ĳ":244,"Ĵ":245,"ĵ":246,"Ķ":247,"ķ":248,"ĸ":249,"Ĺ":250,"ĺ":251,"Ļ":252,"ļ":253,"Ľ":254,"ľ":255,"Ŀ":256,"ŀ":257,"Ł":258,"ł":259,"Ń":260,"Ð°":261,"Ð°Ð":262,"ĠÐ":263,"Ð¸":264,"Ñĥ":265,"Ðµ":266,"Ð»":267,"ÑĢ":268,"Óı":269,"ÑĬ":270,"Ð¾":271,"Ð°Ð»":272,"Ð½":273,"ĠÑ":274,"ÑĮ":275,"Ð°Ñ":276,"Ð³":277,"Ð´":278,"ÑĥÐ»":279,"ĠÐ³":280,"Ð¸Ñ":281,"Ðº":282,"Ð°Ð±":283,"Ð±":284,"ĠÐ±":285,"Ð°Ð½":286,"Ð°ÑĢ":287,"ÑĥÐ½":288,"ĠÐº":289,"ĠÐ³ÑĮ":290,"ĠÑĢ":291,"Ð²":292,"Ð»ÑĬ":293,"ÑĤ":294,"Ñģ":295,"Ð¼":296,"Ð·":297,"Ñħ":298,"Ð¸Ð½":299,"Ð°Ð»ÑĬ":300,"Ð³Ð¾":301,"Ð°Ð³":302,"Ð´Ð°":303,"Ð¸Ñı":304,"ĠÑħ":305,"Ð°Ð·":306,"ÐµÐ±":307,"Ð³Ð¸":308,"Ð°Ð´":309,"Ð°Ñģ":310,"ĠÐ±Ñĥ":311,"Ð°ÑĤ":312,"ÐºÓı":313,"Ð°Ñħ":314,"ĠÐ³Óı":315,"ĩÓı":316,"ÐµÑĢ":317,"ÐµÐ»":318,"ĠÐ²":319,"ĠÑĨ":320,"ĠÑĤ":321,"ÑĥÑĢ":322,"Ð°Ð¼":323,"Ð°Ðº":324,"Ð°Ð»ÑĬÑĥÐ»":325,"Ð¸Ð»":326,"ĠÐĵ":327,"ĠÐ¼":328,"Ð¾Ð»":329,"ĠÐ³ÑĮÐµ":330,"Ð¸Ð·":331,"ÓıÐ°Ð»":332,"ÑĥÑħ":333,"Ð»ÑĬÑĥÐ»":334,"ÑĨ":335,"ĠÐ»":336,"Ð°Ð½Ð°":337,"Ð´Ðµ":338,"Ð¾Ð½":339,"ĠÐ»ÑĬ":340,"Ð°Ð¹":341,"ĠÐ´":342,"ĠÑģ":343,"ĠÐ½":344,"Ñı":345,"Ð°Ð»Ð´Ð°":346,"ÑĤÓı":347,"Ð¾ÑĢ":348,"ĠÐ³ÑĮÐ°Ð±":349,"ĠÐ¶":350,"Ð¸ÑĢ":351,"Ð°Ñı":352,"ĠÑĤÓı":353,"ÑĩÓı":354,"Ð¸Ñģ":355,"čĊ":356,"ĠÐºÑĬ":357,"Ð°Ð²":358,"ÓĢ":359,"Ð¾Ñģ":360,"ĠÑĢÑĥ":361,"ĠÐĵÑĮ":362,"ĠÐ²Ð°":363,"Ð°ÑħÑĬ":364,"Ð¸Ð·Ðµ":365,"ÐºÑĬ":366,"Ð°ÑĢÐ°Ð±":367,"ĠÐ±ÑĥÐ³Ð¾":368,"Ð°Ð³Óı":369,"Ð¾Ð²":370,"Ð°Ð·ÑĥÐ»":371,"Ð¸ÑıÐ»":372,"ĠÐºÐº":373,"Ð¶":374,"Ñĩ":375,"Ð°Ð³ÑĮ":376,"Ð¸Ñħ":377,"Ð¸ÑıÐ±":378,"Ð¸ÑĨ":379,"ĠÐľ":380,"ĠÐ¿":381,"ÐµÐ½":382,"ÐµÐ·":383,"ĠÑħÓı":384,"Ð¿":385,"ĠÐ±ÑĥÐºÓı":386,"Ð³ÑĮ":387,"ĠÑĨÓı":388,"ÐºÑĮ":389,"ĠÐ¸":390,"Ð´Ð°Ñģ":391,"Ð¸ÑĤ":392,"Ð¸Ð±":393,"Ð³Óı":394,"ÐµÐ²":395,"ÑĥÑħÑĬ":396,"Ð¸Ð¼":397,"ĠÑĢÐµ":398,"ÑĥÐ½Ð°":399,"ĠÑī":400,"ĠÑĩ":401,"ĠÑħÓıÐ°Ð»":402,"ÑĥÐ¼":403,"Ð¸ÑıÐ»ÑĬÑĥÐ»":404,"ĠÐ¥":405,"Ð°ÐºÑĬ":406,"ĠÐĲ":407,"ĠÐºÑĮ":408,"ĠÐ°Ð±":409,"Ð»ÑĬÐ¸":410,"ĠÐºÓı":411,"Ð¹":412,"Ð°ÑĢÐ°Ð»":413,"ĠÑĨÐ¾":414,"Ð°Ð±Ð¸":415,"Ð°ÑħÓı":416,"Ð°Ð·Ðµ":417,"ĠÑħÓıÐ°Ð»ÑĤÓı":418,"Ð°Ð³ÑĬ":419,"Ð°ÑĨ":420,"Ð¸Ðº":421,"ĠÐ·":422,"ÑĥÐ»ÐµÐ±":423,"ĠÐĶ":424,"ĠÑĢÐ¾Ñģ":425,"ĠÐļ":426,"Ð¸Ð»ÑĬ":427,"Ð´Ð°Ð»":428,"Ð´Ð°ÑģÐ°":429,"ĠÐ³ÑĮÐµÐ±":430,"ÐµÑģ":431,"ĠÐ±ÑĥÐ³":432,"Ð¸ÐºÓı":433,"ÑĥÐ±":434,"Ð¸ÑģÑĤ":435,"Ð¾Ð±":436,"Ð°ÑĤÓı":437,"ĠÐł":438,"ÐµÐ´":439,"ĠÐ³ÓıÐ°Ð´":440,"ÑĥÐ»Ð°":441,"ĠÐºÐºÐ¾Ð»":442,"ĠÑģÐ¾Ð½":443,"Ð°Ð·Ð´Ð°":444,"ÑĥÑģ":445,"ĠÐĵÓı":446,"ÑħÑĬ":447,"Ð¸Ð´":448,"Ð¸ÑħÑĮ":449,"Ð°Ð¶":450,"Ð°ÑıÐ»":451,"ÑĥÑħÓı":452,"ĠÑħÑĬ":453,"Ð¸Ð³Ð¸":454,"ÑĨÓı":455,"Ð»ÑĬÑĥÐ½":456,"ĠÐ²Ñĥ":457,"ÑĩÓıÐ¾":458,"Ð°Ñĩ":459,"ĠÐ±Ðµ":460,"ĠÑĩÓı":461,"Â»":462,"ÑıÐ»":463,"Â«":464,"ÑĢÑĥ":465,"Ð°ÑĩÓı":466,"Ð°Ð³Ð¸":467,"ÐµÐ¼":468,"Ð¸ÑĤÓı":469,"ĠÐ¡":470,"ĠÑĪ":471,"ÐµÑħ":472,"ĠÂ«":473,"Ð¸Ð½Ð°Ð±":474,"ĠÑı":475,"Ð°ÑģÑĥÐ»":476,"Ð³ÑĥÐ½":477,"Ðĵ":478,"ÐµÐº":479,"ĠÐĳ":480,"ÑĪ":481,"Ð°Ð³Ð¾":482,"Ð°ÑıÐ»ÑĬÑĥÐ»":483,"ÑĥÐ´":484,"ĠÑĢÐ°Ð¹":485,"Ð°Ð»Ð´Ðµ":486,"ĠÑĢÑĥÐºÓı":487,"Ð°Ð¼Ð°Ð´":488,"Ð°ÐºÓı":489,"Ġ1":490,"ÑĥÑĢÐ°Ð±":491,"ĠÐºÑĬÐ¾":492,"ÐµÐ·Ðµ":493,"ĠÐ³ÑĬ":494,"ĠÐ½ÑĥÑħ":495,"ĠÑĤÓıÐ°Ð´":496,"Ġ(":497,"Ð²Ð°ÑĢ":498,"ĠÐ³ÑĮÐ°ÑĢ":499,"ĠÐ½Ð¸Ð»ÑĬ":500,"Ð¸ÑĨÐ°":501,"ÑĥÑħÓıÐ°Ð¼Ð°Ð´":502,"ĠÑĢÐ°Ð¹Ð¾Ð½":503,"ÐµÑĤ":504,"Ð¸Ñī":505,"ĠÐ±ÑĥÐ³ÐµÐ±":506,"ĠÑĢÑĥÐ³Ð¾":507,"Ð¾ÑĢÐºÑĮ":508,"Ð¸Ð²":509,"ĠÐ³ÑĮÐµÐ»":510,"ĠÐ³ÑĮÐµÑģ":511,"Ð¸Ðµ":512,"ÐµÐ¹":513,"ÑħÓı":514,"ÑıÐ»ÑĬÑĥÐ»":515,"ĠÐ³ÑĮÐµÐ·":516,"ĠÐ¥Óı":517,"Ð¸Ð¶":518,"Ð¸ÑĩÓı":519,"Ð¸ÑıÐ»Ð´Ð°":520,"ÑĥÐ»ÐµÐ»":521,"ĠÑĢÐ°ÑħÑĬ":522,"Ð¸ÑıÐ»ÑĬ":523,"ĠÑīÐ²":524,"ĠÐ»ÑĬÑĥ":525,"ĠÑĥÐ½":526,"Ð°Ð»ÑĬÐµ":527,"Ð¾Ð¼":528,"ĠÐ¸Ð½":529,"Ð°ÑıÐ»Ð´Ð°":530,"ĠÐ´Ð°Ð½":531,"Ð¾Ð´":532,"ĠÐľÑĥÑħÓıÐ°Ð¼Ð°Ð´":533,"Ð³ÑĬ":534,"Ñī":535,"ĠÐºÐºÐ¾Ð»Ð°":536,"Ð¸Ð½Ðµ":537,"ĠÐ³ÓıÐ°Ð´Ð°Ð¼":538,"ĠÑį":539,"ÐµÐ¼ÐµÑĢ":540,"Ð¸Ð½Ð°Ð»":541,"Ð¸ÑģÑĤÐ°Ð½":542,"ĠÐ±Ð¸ÑĨ":543,"Ð°ÑĢÐ¾":544,"ĠÐ¢":545,"Ð³ÓıÐ°Ð½":546,"ĠÐ±Ð¾":547,"ĠÐ·Ð°Ð¼":548,"ÐĵÑĮ":549,"ĠÐ³ÑĮÐµÑĩÓıÐ¾":550,"ĠÐ±ÑĥÐºÓıÐ°Ð½Ð°":551,"ĠÐ³ÑĥÑĢ":552,"Ð¸Ñĩ":553,"Ð°Ð³ÑĬÐ¸ÑģÑĤÐ°Ð½":554,"ÑĥÐ»ÑĬ":555,"ĠÐ¦":556,"Ð¸Ð·Ð°Ð±":557,"Ð¸Ð»Ð°":558,"ĠÐĿ":559,"Ð°Ð±Ð°Ð·ÑĥÐ»":560,"ĠÐ¿ÑĢ":561,"ĠÐºÐ²":562,"Ð°ÑħÑĮ":563,"Ð¼Ð°":564,"ĠÐ»ÑĬÐ¸ÐºÓı":565,"ĠÐ¶Ð¸Ð½":566,"ÐºÐ¾Ð»":567,"ĠÐ³ÑĮÐ¾ÑĢÐºÑĮ":568,"ĠÐ»ÑĬÐ¸Ð¼":569,"Ð°ÑĢÐ°Ð²":570,"ĠÑĨÓıÐ°Ð»":571,"ĠÐ²ÑĥÐºÓı":572,"Ð°ÐºÓıÐ°Ð»":573,"Ġ2":574,"ĠÐĵÑĮÐµÐ±":575,"ĠÐ³ÓıÐµÐ¼ÐµÑĢ":576,"Ð¸Ð´Ð°":577,"Ð¾ÑĨ":578,"Ġ-":579,"ĠÐ·Ð°Ð¼Ð°Ð½":580,"ĠÐ±Ð¸ÑħÑĮ":581,"Ð¾ÑħÑĬ":582,"âĢ":583,"ÑĥÐ¶":584,"ÐµÐ³Ð¸":585,"ĠÐ¾":586,"ĠÑĢÑĥÐ³":587,"ĠÑĢÐµÑģ":588,"ĠÑħÐ°Ð»":589,"Ð¸ÐºÓıÐºÓı":590,"ĠÐ¼Ð°Ð³Óı":591,"ĠÐ³ÑĮÐ°Ð±Ð¸Ð·Ðµ":592,"ĠÑħÑĬÐ²":593,"ÑĨÐ°":594,"ĠÑĢÐ¾":595,"ĠÐ½Ð¸Ð»ÑĬÐµÑĢ":596,"Ð°Ð½Ð¸":597,"ĠÐĶÐ°Ð³ÑĬÐ¸ÑģÑĤÐ°Ð½":598,"Ð°Ð»Ð°":599,"Ð¸Ð»Ð°Ð½":600,"ĠÐ°Ñģ":601,"ĠÐ¨":602,"Ð°Ð±Ð°Ð·":603,"ĠÐ³ÓıÐ¾Ð»":604,"ĠÑħÐ°Ð´":605,"ÑıÐ»ÑĬ":606,"ĠÐ´Ð°Ð½Ð´Ðµ":607,"Ð¼Ð°ÑĤ":608,"ĠÑĢÐ°Ð¹Ð¾Ð½Ð°Ð»ÑĬÑĥÐ»":609,"ĠÐ±ÑĥÐºÓıÐ¸Ð½":610,"Ð´ÑĥÐ»":611,"ÑĥÑĤ":612,"ĠÐĺ":613,"ĠÐ°Ð±ÑĥÐ½":614,"Ð°Ð»Ð³Ð¸":615,"ĠÐ³ÑĮÐµÑĩÓı":616,"Ð°ÐºÑĮ":617,"ÑĤÓıÐµÑĢ":618,"Ð¸ÑħÑĬ":619,"ÑĥÐ¼ÑĢÑĥ":620,"ĠÐ³ÑĮÐ°Ð±ÑĥÐ½":621,"Ð¾Ð²Ð°Ñģ":622,"ÑĥÑĤÓı":623,"ĠÐ³ÑĮÐµÐ½":624,"ÐµÐ±Ðµ":625,"ĠâĢ":626,"Ð´Ð°ÑģÐ°Ð½":627,"Ð¸Ð´Ðµ":628,"ĠÐ±Ð°ÐºÓı":629,"ĠÑĩÐ¸":630,"ĠÐ±Ð¾Ñģ":631,"ĠÐŁ":632,"Ð°Ðµ":633,"ĠÐ±ÐµÑĢ":634,"ĠÑĨÐ¾Ð³Ð¸":635,"ĠÐ½Ð¸Ð¶":636,"Ð¾Ð³Ð¾":637,"ĠÐ´ÑĥÐ½":638,"ĠÐ»ÑĬÑĥÐ³ÑĮ":639,"Ð¸ÐºÑĬ":640,"ĠÐ³ÑĮÐ°Ð±ÑĥÐ»ÐµÐ±":641,"ÐĶ":642,"ĠÐ±Ð°ÑħÑĬ":643,"ĠÐĵÓıÐ°Ð±":644,"Ð·ÑĥÐ»":645,"ĠÐ±ÐµÑĤÓıÐµÑĢ":646,"Ðł":647,"Ð°ÑĪ":648,"ĠÑĪÐºÐ¾Ð»":649,"ĠÑĢÐ¾ÑģÐ´Ð°Ð»":650,"ĠÑĢÐ°Ð³ÑĬ":651,"Ð¸ÑıÑģ":652,"ĠÐ±Ð°Ð¹":653,"ĠÐ³ÓıÑĥÐ¼ÑĢÑĥ":654,"Ð°Ð»ÑĬÑĥÐ½":655,"ÑĥÑĢÐ°Ð»":656,"ĠÐ¶Ð¸Ð½Ð´":657,"Ð°ÑħÑĮÐ°Ð»":658,"ÑĦ":659,"ÑĥÑĨÓı":660,"ĠÑĦ":661,"ĠÐ½Ð°ÑħÑĬ":662,"ĠÐ¶Ð¾":663,"ĠÐ³ÑĮÐµÐ´":664,"Ð°ÑıÐ»ÑĬ":665,"ĠÑĢÐ°Ð³Óı":666,"Ð°ÑĨÓı":667,"Ðļ":668,"ÐĲ":669,"ĠÐ±Ð°ÑĤ":670,"ĠÐ½ÑĥÑħÐ¼":671,"ĠÐĵÑĮÐµÐ´":672,"ĠÐ±Ð¾ÐºÑĮ":673,"ĠÐ¶Ð°Ð½":674,"Ð°Ð¿":675,"ĠÐĽ":676,"ĠÐ±ÐµÐ³ÑĮ":677,"ĠÑĨÓıÑĥÐ½":678,"Ð°Ð»Ð´Ð°ÑģÐ°":679,"ĠÐłÐ¾Ñģ":680,"ĠÑīÐ¸Ð±":681,"ÐµÐ½ÑĤ":682,"Ð¸Ð³Ð¾":683,"ĠÑĢÐµÐºÑĬ":684,"ĠÐºÓıÑĥÐ´":685,"Ð°Ð³ÓıÐ°ÑĤ":686,"Ð°ÐµÐ²":687,"ĠÐ¸ÑĪ":688,"Ð´Ð°Ð³Ð¸":689,"Ð°ÑĢÐº":690,"ĠÑĢÐ¾ÑģÑĥÐ»ÑĬ":691,"ĠÐ³ÑĮÐ°Ð±ÑĥÐ½Ð°":692,"ĠÐĴ":693,"ĠÐ°ÑħÓı":694,"ĠÐ´Ð¸ÑĢ":695,"Ð¾Ðº":696,"ÑħÑĥÐ½":697,"ĠÐ³ÓıÑĥÑĨÓı":698,"ĠÐ³ÓıÐ°ÑħÑĮÐ°Ð»":699,"ÑĥÐ½ÐµÐ±":700,"ÑĨÐ¾":701,"Ñİ":702,"Ð¸Ð½Ð³Ð¾":703,"Ð¥":704,"ĠÐ³ÓıÐ°ÑĢ":705,"Ð¸Ð½Ð¸ÑģÑĤ":706,"Ð¡":707,"ĠÐĸ":708,"ĠÑģÑĥ":709,"ĠÐ³ÑĮÐµÐ²":710,"ĠÐ¹":711,"ĠÑĤÓıÐ°Ð´Ðµ":712,"ĠÐ³ÓĢ":713,"Ð°Ð½Ð¸Ð³Ð¸":714,"Ð±Ð¸ÑħÑĮ":715,"Ð¸Ð»ÐµÐ±":716,"ÑıÐ»Ð´Ð°":717,"ĠÑĨÐµÐ±Ðµ":718,"Ð¼Ð°Ð½":719,"ĠÑĢÑĥÐ³ÐµÐ»":720,"ĠÑģÐ¾Ð½Ð°Ð»ÑĬ":721,"ĠÐ²ÑĥÐ³Ð¾":722,"ĠÐ»ÑĬÐ¸Ð¼Ð°Ð»":723,"ĠÐ°Ð²":724,"ĠÐĲÐ»":725,"00":726,"ĠÐ¼ÐµÑħ":727,"Ð°Ð»Ð°Ð³ÑĮ":728,"ĠÐºÑĮÐ¾Ð»":729,"ÐµÐ»ÑĮ":730,"ÑĥÐº":731,"Ð»Ð°Ð³ÑĮ":732,"Ð²Ð°Ð»":733,"Ð¸ÑıÐ»Ð´Ðµ":734,"ĠÑħÐ°Ñģ":735,"Ð°ÑĤÐ°Ð»":736,"Ð°ÑĢÑĥÐ»":737,"ĠÐ³ÑĮÐ°Ð½":738,"ĠÐĵÑĮÐµÐ»":739,"ĠÐļÑĬ":740,"Ġ19":741,"Ð¸ÐµÐ²":742,"ĠÑħÓıÐ°Ð»ÑĤÓıÐ¸":743,"Ðľ":744,"ĠÐ¼Ñĥ":745,"ĠÑĢÐ°ÑĩÓı":746,"Ð¸ÑıÐ»ÑĬÐµ":747,"ÐµÐ»ÑĬÑĥÐ»":748,"ĠÐ»ÑĬÐ°Ð»":749,"ĠÐĵÑĬ":750,"ÑģÑĤ":751,"ÑĥÐ¼ÐµÐº":752,"Ð»Ð¸Ðº":753,"ÐµÐ·Ð°Ð±":754,"ĠÐ§":755,"ĠÐĲÐ¼":756,"Ð´Ð°Ð»ÑĬÑĥÐ½":757,"Ð¸ÑĪ":758,"ĠÐ¢Óı":759,"ÑĥÑĩ":760,"ĠÐ°Ð´":761,"ĠÑħÐ°Ð»ÐºÑĬ":762,"Ð¿ÑĥÐ±":763,"ĠÐ°Ð¼":764,"ĠÑħÑĮ":765,"Ð°Ð´Ð°ÑħÑĬ":766,"ĠÐ±Ð°ÑĩÓı":767,"Ð¿ÑĥÐ±Ð»Ð¸Ðº":768,"ĠÐĹ":769,"ĠÐ¶Ð¸Ð½Ð´Ð¸ÑĢ":770,"ĠÐ²Ð°Ñģ":771,"ĠÑħÐ°Ð´ÑĥÐ±":772,"ĠÐºÑĥÐ¼ÐµÐº":773,"Ð¸Ð»Ð»":774,"ĠÑħÓıÐ°ÐºÑĬ":775,"ĠÐ°Ð±ÑĥÑĢÐ°Ð±":776,"ĠÑģÑĥÐ°Ð»":777,"ĠÑĢÐ°ÐºÓı":778,"ĠÐ°Ð½":779,"ĠÐºÑĬÐ²":780,"ĠÑĨÓıÐ¸ÐºÓıÐºÓı":781,"Ð¸Ð½Ð¸ÑģÑĤÑĢ":782,"ĠÐ±Ð°ÐºÓıÐ°Ð»":783,"ÑħÑĮ":784,"ĠÐºÐ¸Ð½Ð°Ð±":785,"Ð°Ð¼Ð¸Ð»":786,"Ð°Ð´Ð°":787,"Ð³Ð¸Ð»":788,"Ð°ÑĩÐ°Ð»":789,"ĠÑĢÐµÐºÑĬÐ¾Ð½":790,"ÐµÐºÑĤ":791,"Ðĳ":792,"ĠÐºÐ¾Ð¼":793,"Ð¾Ð³":794,"Ð¸ÑıÐ²":795,"Ð°Ð»ÑĬÑĥÐ»ÑĬ":796,"Ð²ÐµÑĢ":797,"ĠÐ±Ð°Ð¹Ð±Ð¸ÑħÑĮ":798,"Ð½Ð¸Ð³Ð¸":799,"ĠÐ±Ð°ÑĤÓı":800,"ĠÑĨÐ°Ð´Ð°ÑħÑĬ":801,"Ð¸Ð¼Ð°ÑĤ":802,"ĠÐĵÓıÐ°Ð±Ð´ÑĥÐ»":803,"ĠÐ³ÑĮÐµÑģÑĥÐ»":804,"ĠÐ°Ñħ":805,"ĠÐ³ÑĮÐµÐ·ÑĥÐ»":806,"ÐºÓĢ":807,"ĠÑĢÐ°ÐºÑĮ":808,"Ð¸ÑģÐ°":809,"ÑĥÐ»ÐµÐ²":810,"ĠÑĢÑĥÐºÓıÐ°Ð½Ð°":811,"Ð¸ÑıÑĤ":812,"ĠÑĤÓıÐ¾Ð±":813,"Ð¾ÑĢÑĤ":814,"ĠÐĶÐ°Ð³ÑĬÐ¸ÑģÑĤÐ°Ð½Ð°Ð»ÑĬÑĥÐ»":815,"ĠÐºÓıÑĥÐ´Ð¸ÑıÐ±":816,"ÑıÐ±":817,"ĠÑĤÓıÐ¾Ð±Ð¸ÑĤÓı":818,"Ð°Ð·Ð°Ð±":819,"Ð°Ð»Ð¸ÑıÐ±":820,"ĠÑħÑĥÑĤÓı":821,"ĠÐºÐ¸Ð½":822,"Ð¸ÑĩÑĩ":823,"Ð¸Ð´ÐµÑĢ":824,"ĠÑĨÐµÑĢ":825,"ĠÑĨÓıÐ°ÑĢ":826,"ĠÑĤÐ°ÑĢ":827,"Ð°Ð±Ð¸Ð»ÐµÐ±":828,"ĠÑĤÓıÑĥÐ±":829,"ÐµÑıÐ»ÑĬÑĥÐ»":830,"Ð¾Ð½Ð¸":831,"Ð°Ð½Ð´":832,"ĠÐłÐ¾ÑģÑģ":833,"ĠÐĽÑĬ":834,"ĠÑĪÐ°Ð³ÑĮ":835,"ĠÐ£":836,"Ð°Ð±Ð°Ð·Ð´Ð°":837,"ĠÐ³ÑĮÐµÐ»ÑĬÑĥÐ»":838,"ĠÐºÑĬÐ°Ð´":839,"ÑĥÑħÑĬÐµ":840,"ĠÐ½Ð¸Ð»ÑĬÐµ":841,"ĠÐ´Ð°Ð³ÑĮ":842,"ÐµÑģÐµÐ±":843,"Ð¾ÑĤ":844,"ĠÐºÐ¸Ð½Ð°Ð»":845,"ĠÐ½Ð°ÑħÑĬÐµ":846,"ÑĥÑĨ":847,"ĠÐ°Ð¼Ð¼Ð°":848,"ĠÐĲÐ»Ð»Ð°Ð³ÑĮ":849,"ĠÑħÐ²":850,"Ð°ÑĤÐ°Ð»ÑĬÑĥÐ»":851,"ĠÑħÓıÐ°Ð»ÑĤÓıÑĥÑħÑĬ":852,"ĠÑĨÓıÐ°ÐºÑĬ":853,"Ð°ÐºÑĬÐ°":854,"Ð¸ÑīÑĥÐ½":855,"Ð¸Ð³":856,"..":857,"ĠÐ½ÑĥÑħÐ¼Ð°Ð»ÑĬÑĥÐ»":858,"ĠÑĢÐµÑģÐ¿ÑĥÐ±Ð»Ð¸Ðº":859,"ĠÐ³ÑĮÐ°Ð±ÑĥÑĢÐ°Ð±":860,"Ð°Ð¸":861,"Ð±ÐµÐ»":862,"ÑĢÐ°Ð¼":863,"ĠÐ·Ð°ÑħÓı":864,"Ð°ÑĢÑĤ":865,"Ð½Ð¸Ðº":866,"ĠÐ±ÑĥÐºÓıÐ°ÑĢÐ°Ð±":867,"Ð¸Ð·Ð°ÑĢ":868,"Ð¸Ð¿":869,"ĠÐ³ÓıÐ°Ð´Ð°Ð¼Ð°Ð»":870,"Ð»ÑĬÐ¸ÑıÐ»ÑĬÑĥÐ»":871,"Ð°Ð·Ð´Ðµ":872,"ÐµÑĩÓıÐ¾":873,"ÐµÑģÑĤ":874,"Ð¼Ð¸Ð½Ð¸ÑģÑĤÑĢ":875,"Ð¸ÑĩÓıÐ¾Ð³Ð¾":876,"ÑĩÐ¸":877,"Ð°ÑıÐ½":878,"Ñĭ":879,"ÑĥÑĢÐ°Ð´":880,"ĠÐºÐºÐ¾Ð»ÐµÐ±":881,"ĠÐ¶Ð°Ð¼":882,"ĠÐ·Ð°Ð¼Ð°Ð½Ð°Ð»Ð´Ð°":883,"ĠÐ³ÑĮÐ¾ÑĢÐºÑĮÐ¾Ð±":884,"ĠâĢĵ":885,"ĠÐĲÐ¼Ð¼Ð°":886,"Ð¼Ð°Ð´":887,"ĠÐºÑĬÐ²Ð°ÑĤÓı":888,"ĠÑıÑģ":889,"ÐĿ":890,"Ð°Ð±Ð³Ð¾":891,"Ð°Ð·Ð°ÑĢ":892,"ĠÑĢÐµÑħ":893,"Ð°ÑģÐ¸Ð»":894,"ĠÐ»ÑĬÑĥÐ³Óı":895,"ÑıÐ·":896,"Ð°Ð»ÑĬÐ¸":897,"Ð°Ð½Ð³Ð¾":898,"ĠâĢĶ":899,"ĠÑģÐ¿":900,"ĠÐ½ÑĥÐ¶":901,"ĠÐ»ÑĬÐ¸ÐºÓıÐ°Ð±":902,"ÑĥÐ»ÑĥÑħÑĬ":903,"ĠÑģÐ²ÐµÑĢ":904,"Ð¸Ð³Óı":905,"ĠÐ»ÑĬÐ°Ð¹":906,"Ð¼Ñĥ":907,"ÑĤÑĥÑĢ":908,"ĠÐ¶Ð¸Ð´ÐµÑĢ":909,"ĠÑĤÓıÐ¾ÑĨ":910,"ĠÐĵÓıÐ°Ð»":911,"Ġ3":912,"ÑıÐ½":913,"ĠÑħÑĥÑĢ":914,"Ð¾Ð·":915,"ÐµÐ·ÑĥÐ»":916,"ĠÑĩÐ¸ÑıÑģ":917,"Ð±Ð¸ÑĢ":918,"ĠÐ¥ÓıÐ°Ð¶":919,"ĠÑĢÐ°ÐºÓıÐ°Ð»":920,"ĠÑĥÐ½ÑĤ":921,"ÐµÐ»ÑĬ":922,"ĠÐ¼ÑĥÐ½":923,"Ð·Ð°Ð±Ð¸":924,"ĠÑħÓıÐ°ÐºÑĬÐ°Ð»ÑĬÑĥÐ»ÑĬ":925,"Ð°Ð·ÐµÑĤ":926,"ĠÐ±Ð°Ñĩ":927,"ĠÐºÐºÑĥÐ½":928,"ĠÐ¿Ð¸Ðº":929,"ĠÐ±Ð°ÑĢÐº":930,"ÐµÐ±ÐµÑģÐµÐ±":931,"ĠÐ¼ÑĥÑħÑĬ":932,"ĠÑĢÐ¸ÐºÓıÐºÓı":933,"Ð°ÑģÐ°":934,"Ð°Ð»Ð¸":935,"Ð¸ÑĩÓıÑĩÓı":936,"ĠÐĵÑĮÐµÑģ":937,"ÑĥÑģÑĤ":938,"ĠÐľÐ°ÑħÓı":939,"Ð¸Ð½Ð°":940,"ĠÐ³ÓıÐ°Ð³":941,"Ð°ÑĩÐ°Ð»Ð¸ÑħÑĬ":942,"ĠÑħÑĬÑĥÐ»ÑĥÑħÑĬ":943,"ĠÐ°Ð±ÑĥÐ½Ð°":944,"ĠÐ¼Ð°ÑĨÓı":945,"Ð¸ÑģÐ°Ð±":946,"Ð¸Ð³ÑĮ":947,"ĠÐ³ÓıÐµÐ»":948,"Ð²Ð°Ð½":949,"ĠÐ±ÑĥÐºÓıÑĥÐ½":950,"ĠÐ´Ð°Ð½Ð´":951,"ĠÐ±Ð¸ÑĨÐ°Ð½Ð°":952,"ĠÐ¶Ð¸Ð´Ðµ":953,"ÑĥÐ»Ð°Ð°Ð½":954,"ĠÐºÑĮÐµÐ·Ðµ":955,"ĠÑĢÐ°ÑħÑĬÐ°Ð»ÑĬ":956,"ĠÐ´Ð¸Ð´Ð°":957,"ĠÐ¼Ð°Ð³ÓıÐ°ÑĢÑĥÐ»":958,"ĠÑĥÑĩ":959,"ĠÐ´Ñĥ":960,"Ð¾Ñĩ":961,"ĠÑĩÐ°Ð³Óı":962,"ĠÐºÑĮÑĥÐ½Ð°":963,"ĠÐ±Ð¸ÑħÑĮÐ¸Ð·Ð°Ð±":964,"Ð´Ð°Ð³Ð¾":965,"ĠÐ±ÑĥÐ³Ð¸Ð½":966,"ĠÑĢÐ°Ð³ÑĮ":967,"ĠÑĨÐ¾Ð³Ð¸Ð´Ð°Ð»":968,"Ð¶Ðµ":969,"ĠÐ¶Ð°Ð½Ð¸Ð±":970,"Ð¼Ð¸Ð½Ð¸ÑģÑĤÑĢÐ°ÑĨ":971,"ĠÐ³ÑĮÐ°Ð²":972,"ÑĥÐ²":973,").":974,"ĠÐ³ÓıÐ°Ð´Ð¸Ð½":975,"Ð¦":976,"Ġ\"":977,"ĠÑħÓıÐ°Ð´":978,"ĠÐºÓıÐ°Ð»ÑĬ":979,"ĠÐ³Ð°Ð·ÐµÑĤ":980,"Ð¾ÑĨÓı":981,"Ð°Ð´Ð±Ð¸ÑĢ":982,"ĠÑĢÐ¾ÑģÑĥ":983,"ĠÐºÓıÐ²Ð°ÑĢ":984,"Ð¾Ñħ":985,"ĠÐ´Ð°ÑĢ":986,"ĠÑħÓıÐ°Ð¶":987,"ĠÑįÐ±ÐµÐ»":988,"ĠÐ±Ð¸ÑīÑĥÐ½":989,"ĠÐ©":990,"ÑģÐº":991,"),":992,"ĠÐĵÑĮÐµÐ´Ð¸Ð½":993,"Ð³ÓıÐ°Ð»":994,"ÑĢÐ°Ð½":995,"Ð¸Ð¹":996,"ĠÐ¦Ð¾":997,"ĠÐ¶Ð¸Ð½Ð´Ð¸ÑĢÐ³Ð¾":998,"Ð¢":999,"Ð°ÑıÐ»Ð´Ðµ":1000,"ĠÐ±Ð°Ð»Ð°Ð³ÑĮ":1001,"ĠÐ³ÑĮÐµÐ½Ð¸Ð±":1002,"ĠÑĨÓıÐ°Ð»Ð´":1003,"ĠÐ¦Óı":1004,"ĠÐ¸Ð½Ñģ":1005,"ĠÐºÑĮÑĥÐ½":1006,"ÐµÑĩÓı":1007,"ĠÐļÓı":1008,"ĠÐ½Ð¸Ð¶Ðµ":1009,"Ð°Ð³ÓĢ":1010,"Ð¾Ð»ÐµÐ±":1011,"ÐµÐ·ÐµÐ³ÓıÐ°Ð½":1012,"Ð°Ð³ÓıÐ¸Ð´":1013,"ĠÐ²ÑĥÐºÓıÐ°Ð½Ð°":1014,"ĠÐºÐ¸Ð½Ð°Ð»Ð³Ð¾":1015,"ĠÑĪÐ°Ð³ÑĮÐ°ÑĢ":1016,"ĠÑĢÐ°Ð³ÑĬÑĥÐ»":1017,"ĠÐ´Ð¸ÑĨÐ°":1018,"ĠÐºÐ²ÐµÑĢ":1019,"ÑĥÐ·":1020,"ĠÐ°ÑħÐ¸ÑĢ":1021,"Ð°ÑĢÐµÐ±":1022,"Ð¸ÑĤÐµÐ»ÑĮ":1023,"ĠÐ»ÑĬÐ°Ð·Ð°Ð±":1024,"ĠÐĲÑħÓı":1025,"Ġ20":1026,"ÐµÑĨ":1027,"ÐºÑĥÐ½":1028,"ĠÐºÑĬÐ¾ÑıÐ»ÑĬ":1029,"ĠÐ²Ð°ÑĩÓı":1030,"ĠÐ±Ð¸ÑĩÓıÑĩÓı":1031,"ĠÑħÓıÐ°ÑģÐ¸Ð»":1032,"Ð¸Ð¾Ð½":1033,"ĠÑħÓıÐ¸ÑģÐ°Ð±":1034,"ĠÐ³ÓıÐ¾Ð´":1035,"Ð¸ÐºÑĮ":1036,"ĠÐ¼ÐµÑħÐ°Ð»ÑĬ":1037,"ĠÐ°Ð±ÑĥÐ»ÐµÐ±":1038,"Ð°Ð¼Ð·":1039,"Ð½Ð°":1040,"ĠÐĵÑĮÐµÐ½":1041,"ÑıÐ»Ð´Ðµ":1042,"Ð°ÑģÐµ":1043,"ĠÐ¿Ð°ÑĩÐ°Ð»Ð¸ÑħÑĬ":1044,"Ð¸ÑħÓı":1045,"ĠÐ³ÓıÐ°ÑĢÐ°ÑĨ":1046,"Ñį":1047,"ÑĥÐ»ÑĮ":1048,"ĠÑģÐ°Ñħ":1049,"Ð¾Ð²Ð°":1050,"Ð¸ÑıÐ·":1051,"Ð°Ð³ÓıÐ°Ð»":1052,"ÐĵÓı":1053,"ÐµÐ¿":1054,"ĠÐ·Ð°ÑħÓıÐ¼Ð°ÑĤ":1055,"ÑĩÓıÐ²":1056,"ĠÑħÓıÑĥÐº":1057,"ĠÑĤÐ°Ð´Ð±Ð¸ÑĢ":1058,"ĠÑĨÐµÑĢÐµ":1059,"ĠÐ¼Ð°Ð³ÓıÐ¸ÑĪ":1060,"Ð¾ÑĢÑħ":1061,"ĠÑħÑĬÐ¸Ð·":1062,"Ð°ÑĢÐ°Ðº":1063,"ĠÐ³ÑĮÐ°Ð»":1064,"ĠÐºÐ¸Ð´":1065,"ĠÐ³ÓıÐ¾Ð»Ð¾ÑħÑĬ":1066,"ĠÑīÐ²Ð°Ð½Ð°":1067,"ĠÐ²ÑĥÐ³":1068,"ĠÑĨÓıÐ°Ð»Ð´Ð¾ÑħÑĬ":1069,"Ð°Ð²Ð°Ð±":1070,"ĠÐºÑĬÐ²Ð°ÑĢ":1071,"Ð¸ÑĢÐµ":1072,"Ð°Ð»ÐµÐ±":1073,"ĠÑĢÐµÐºÓı":1074,"ĠÐŃ":1075,"ĠÐ±Ð°ÑıÐ½":1076,"Ð°Ð»Ð°Ð¼":1077,"Ð°Ð±Ð°Ð·Ðµ":1078,"ĠÑĢÑĥÐºÑĬ":1079,"ÑĨÐ¸Ð½":1080,"Â».":1081,"ÑĩÐ°Ð³Óı":1082,"Ð¾Ð²Ð°ÑģÑĥÐ»":1083,"ĠÐ¿Ð¾Ð»":1084,"ĠÐ¿Ð¸ÐºÑĢÑĥ":1085,"ĠÐ¨Ð°Ð¼Ð¸Ð»":1086,"ĠÐºÐºÐ°Ð½Ð°":1087,"ĠÐłÐ¾ÑģÑģÐ¸ÑıÐ»ÑĬÑĥÐ»":1088,"ÑĢÐ¾":1089,"ĠÐ±ÑĥÐ³Ð¸Ð»":1090,"Ð»ÑĬÐ¸Ð³Ð¸":1091,"ÑħÐ°":1092,"ĠÐ¼Ð¸Ð»Ð»":1093,"ĠÐ±ÑĥÐºÓıÐ¸Ð½Ðµ":1094,"ÑĥÐ»Ð°ÑĢÐ¾":1095,"ĠÑģÐ¾Ð½Ð°Ð»ÑĬÑĥÐ»":1096,"Ðĺ":1097,"ĠÐ¶Ð°Ð²Ð°Ð±":1098,"Â»,":1099,"ĠÐ³ÓıÐµÐ¼ÐµÑĢÐ°Ð»":1100,"ĠÑĤÓıÐ°Ð¼":1101,"Ð»ÑĬÐ°Ð½Ð°":1102,"Ð¼ÐµÐ½":1103,"ÑģÑģ":1104,"Ð»ÑĬÐ¸ÑıÐ»Ð´Ð°":1105,"ĠÑĢÑĥÐºÓıÐ¸Ð½":1106,"ÐµÐ·Ð°ÑĢ":1107,"ĠÐºÐ¾Ð»":1108,"ĠÐ¼Ð°Ñħ":1109,"ĠÐºÑĬÐ¾ÑĤÓı":1110,"Ð»Ð°Ñģ":1111,"Ð°Ð¼Ð°Ð»":1112,"ĠÑıÐ½":1113,"ÑĥÑĢÐ°Ð²":1114,"ĠÐ³ÑĬÑĥÑĢ":1115,"ĠÐ¶ÐµÐ³Ð¸":1116,"ĠÐ³ÑĬÐ¾ÑĢ":1117,"ĠÐĲÐ±":1118,"ÐµÑħÑĥÐ½":1119,"Ð¸ÑıÐ·ÑĥÐ»":1120,"ĠÑĤÓıÐ¾ÑĢ":1121,"ĠÑĥÐ»":1122,"ĠÐ±Ð°Ð½":1123,"ĠÐ¼Ð°ÑĪ":1124,"ĠÐ±Ð°Ð¶":1125,"ÑĥÐ³":1126,"ĠÑħÓĢ":1127,"Ġ5":1128,"ĠÑĢÐ¾ÐºÑĬ":1129,"ĠÑĤÑĥÐ½":1130,"ÑĥÐ´Ð°":1131,"ĠÐĲÑħÓıÐ¼Ð°Ð´":1132,"ĠÐ°ÑģÐ»":1133,"Ð°Ð½Ð°Ð»":1134,"ĠÐºÓıÐ¸Ð³Ð¾":1135,"ĠÐĵÓıÑĥÐ¼":1136,"Ð°Ð±Ð¸Ð³Ð¸":1137,"ÐŁ":1138,"ĠÐ±ÐµÐ³ÑĮÑĥÐ»Ð°":1139,"Ð¸Ð½ÐºÑĬ":1140,"ĠÑĢÐµÑħÑģ":1141,"Ġ4":1142,"ĠÐºÑĬÐ°Ð´Ð°ÑĢ":1143,"Ð±Ð°ÑĤÓı":1144,"Ð°ÑĤÐ°Ð±":1145,"ĠÑĤÓĢ":1146,"ĠÑħÓıÐ°Ð»ÑĤÓıÑĥÐ»":1147,"ÐĽ":1148,"ÑĤÓĢ":1149,"ĠÑģÐ¿Ð¾ÑĢÑĤ":1150,"ĠÑĤÐ°ÑĢÐ¸Ñħ":1151,"ĠÑĤÓıÐ°Ð»":1152,"ĠÑĤÓıÐ¾ÑĢÐ¸ÑĤÓı":1153,"ĠÑĢÐ°ÑĤ":1154,"Ð°Ð³ÑĮÐ¸ÑĢ":1155,"ĠÑĢÐµÑģÐ¿ÑĥÐ±Ð»Ð¸ÐºÐ°ÑıÐ»ÑĬÑĥÐ»":1156,"ĠÐ¼Ð°ÑĨ":1157,"Ð»ÑĬÐ¸Ðµ":1158,"ĠÐ±Ð¸ÑĩÑĩ":1159,"Ð°Ð´Ðµ":1160,"ĠÐ½Ð¸Ð¶ÐµÑĢ":1161,"ĠÐ³ÑĮÐµÐ»ÑĬ":1162,"ĠÐ±ÐµÑĢÐ³ÑĮ":1163,"ÐºÐ°":1164,"ÐµÑħÑĮ":1165,"ĠÐ°Ð´Ð¼Ð¸Ð½Ð¸ÑģÑĤÑĢÐ°ÑĨ":1166,"ĠÑħÓıÐ°Ð´ÑĥÑĢ":1167,"ĠÐ³ÑĥÑĢÐ¾Ð½Ð¸":1168,"ĠÐ±Ð¸ÑĤÓı":1169,"Ð°Ð½Ð¸Ð½":1170,"ĠÐºÑĮÐ¾Ð»ÐµÐ±":1171,"ÑģÐ»":1172,"ĠÐ¾ÑĤ":1173,"Ð°Ð¼Ð·Ð°ÑĤ":1174,"Ð¸Ð´Ð°Ð»":1175,"ÑĥÐ½Ð·":1176,"ÑĥÑĪ":1177,"ÑıÐ»ÑĬÐµ":1178,"ÑĥÐ³ÑĬ":1179,"ĠÐ³ÑĮÐµÑĩÓıÐµÐ±":1180,"ĠÐ±ÑĥÑĤÓı":1181,"ĠÐ¶Ð°Ð»":1182,"ÑĥÑī":1183,"ÑĥÐ½ÐµÐ»":1184,"ĠÐ²Ð°ÑħÑĬ":1185,"ĠÐºÐ¸Ð½Ð°Ð±Ð³Ð¾":1186,"ĠÐ±ÑĥÐ³ÐµÐ»":1187,"Ð°ÑģÐ°Ð½":1188,"ĠÑģÑĤ":1189,"Ð¾Ð»Ð°":1190,"ÐµÐ³Ð¾":1191,"ÑĥÑģÑģ":1192,"Ð°Ð»Ð´Ð°ÑģÐ°Ð½":1193,"Ð°ÑģÐ´Ð°":1194,"ĠÐ±Ð°ÑĤÓıÐ¸":1195,"ĠÑĢÐ¸ÑħÑĮ":1196,"Ð¾Ð²ÐµÑĤ":1197,"ĠÑħÐ¸Ñģ":1198,"Ð°ÑĢÐ°":1199,"ĠÐ³ÑĬÐ¾ÑĢÐºÑĮ":1200,"ĠÐĵÑĮÐµÐ·":1201,"ÑĥÑĢÐ½":1202,"ĠÐ³ÑĥÑĢÐµÐ±":1203,"Ð½ÑĤ":1204,"ĠÑĢÐ°Ð·":1205,"Ð¾Ð´Ð¾":1206,"ĠÐ¶Ð¸Ð´ÐµÑĢÐ³Ð¾":1207,"ĠÑĥÑĢ":1208,"ĠÑįÐº":1209,"Ð»Ñĥ":1210,"ĠÐ°Ð½Ð°":1211,"ÑĢÐº":1212,"ÑĥÑĩÓı":1213,"ĠÐľÐ°ÑħÓıÐ°Ñĩ":1214,"ÑĥÐ¿":1215,"ĠÐ°Ð²Ð°ÑĢ":1216,"ÐĴ":1217,"ĠÐ³ÓıÐ¾Ð»Ð¸Ð»":1218,"ĠÑĢÐ°Ñĩ":1219,"ĠÑĢÐ°ÐºÓıÐ°Ð»Ð´Ðµ":1220,"ĠÑĨÓĢ":1221,"Ð¾Ð½Ð¸Ð³Ð¸":1222,"ĠÑħÓıÐ¸Ð½ÐºÑĬ":1223,"Ð°ÑĢÑĥÑħÑĬ":1224,"ĠÐ¥ÓıÐ°Ð¼Ð·Ð°ÑĤ":1225,"Ð°ÑĢÐ°ÐºÐ°ÑĤ":1226,"ĠÐºÑĬÐ°Ð³ÓıÐ¸Ð´":1227,"ÑĥÐ½Ð·Ð°ÑħÑĬ":1228,"ĠÑĢÐ°Ð¹Ð¾Ð½Ð°Ð»Ð´Ð°":1229,"Ð°ÑĤÓıÐ°Ð½":1230,"ĠÐ¸Ð´":1231,"Ð¸ÑģÐµÐ»":1232,"ĠÐºÐ²Ðµ":1233,"Ð¥Óı":1234,"ĠÐ±Ð¾ÑģÑĥÐ½":1235,"ĠÑģÐ¾Ð½Ð°Ð»Ð´Ð°":1236,"ĠÐ´Ð¸Ðµ":1237,"ĠÐ³ÑĮÐµÑĩÓıÐ¾Ð³Ð¾":1238,"ĠÐ¼ÑĥÑĢÐ°Ð´":1239,"ĠÑıÐ³Ð¸":1240,"ÑħÐ¾Ð·":1241,"ĠÐ³ÑĮÐ°ÑĢÐ¸Ð·Ðµ":1242,"ÑħÐ°Ð½":1243,"ĠÑĤÓıÐ¾ÑĨÐµÐ±ÐµÑģÐµÐ±":1244,"Ð°Ð·Ð´Ð°ÑģÐ°":1245,"ÑıÐ»Ð´Ð°ÑģÐ°":1246,"Ð°ÑĨÓıÑĨÓı":1247,"ÑħÑĬÐ°Ð»":1248,"ĠÑĢÑĥÐºÓıÐ°ÑĢÐ°Ð»":1249,"ĠÑĩÓıÐ²":1250,"ĠÑħÐ°ÑĢ":1251,"ÐµÑĢÐ¸Ð»":1252,"ĠÐ¶Ð°Ð¼Ð°Ð³ÓıÐ°ÑĤ":1253,"Ð½Ð¸":1254,"ĠÐ³ÓıÑĥÑĢ":1255,"ĠÐ¶Ð¸Ð²":1256,"ĠÐ¸Ð¼":1257,"ÐºÑĬÐ¾":1258,"ÑĥÐ»ÑĮÑĤÑĥÑĢ":1259,"ÑĥÐ´Ðµ":1260,"ĠÐ¶Ð°ÐºÑĬÐ°":1261,"ĠÐ³ÑĮÐµÐ´Ð¸Ð½":1262,"ÑħÓıÐ°Ð»":1263,"ĠÐ±Ð°ÐºÓıÐ°Ð»Ð´Ð°":1264,"Ð±Ð°ÑĤÓıÐ¸ÑıÐ»":1265,"Ð°Ð»Ð¸Ð¼":1266,"ĠÐ¹Ð¸ÐºÓı":1267,"ĠÐ³ÑĮÐµÐ»Ð´Ð°":1268,"ĠÐ¤":1269,"ĠÑħÐ°Ð±":1270,"Ð¸ÑģÐ°Ð»":1271,"ĠÐ±Ð°ÐºÑĬ":1272,"ĠÐ´ÑĥÐ½ÑıÐ»":1273,"ÑĢÐ°Ð»Ð´Ð°":1274,"ĠÑĨÐ¾Ð³Ð¸Ð´":1275,"ÐµÐ³":1276,"ÑĢÐºÐµÐ½":1277,"ĠÑĢÐ¸ÑĤÓı":1278,"ĠÑĤÓıÐ°Ð»Ð°Ð±":1279,"Ð¸Ð°Ð»":1280,"Ð±Ð°ÑħÑĬ":1281,"ÑĥÐºÑĬ":1282,"ĠÐ³ÑĮÐ¸ÑĤÓı":1283,"Ð´ÐµÐ»":1284,"ĠÐ±Ð°Ð¶Ð°ÑĢ":1285,"ĠÐ³ÑĮÐ°Ð´":1286,"ĠÐ³ÑĮÐµÐ·Ð´Ð°":1287,"ĠÐĵÓıÑĥÐ¼Ð°ÑĢ":1288,"ĠÐ¼Ð°Ñģ":1289,"19":1290,"ĠÐ³ÓıÐ°Ð´Ð°Ð¼Ð°Ð·ÑĥÐ»":1291,"ÑĥÑĢÐ±":1292,"ĠÐºÓıÐ¾Ð´Ð¾":1293,"Ð¸ÑĩÓıÐ¾":1294,"ĠÑģÐ¾Ð½Ð°Ð·":1295,"ĠÐ³ÑĬÐ¾ÑĢÐ»ÑĬ":1296,"ĠÐ³ÑĮÐ°Ð±ÑĥÐ»Ð°":1297,"ĠÐ·Ð°Ð³ÑĮÐ¸ÑĢ":1298,"ÑĥÑĢÐ¼Ð°ÑĤ":1299,"ĠÐ¿ÑĢÐµÐ´":1300,"ĠÐºÐ¾Ð½":1301,"ĠÐ´Ð¾Ð±":1302,"ÐĵÑĮÐµÐ±":1303,"ĠÐ³ÑĮÐµÐ½Ð¸ÑĢ":1304,"ĠÐ´Ð°Ð½Ð´ÑĩÓıÐ²":1305,"ĠÐ²Ð°Ðº":1306,"ĠÑħÓıÐ°Ð»ÑĤÓıÐ¸Ð·Ðµ":1307,"ĠÐ¥ÑĥÐ½Ð·Ð°ÑħÑĬ":1308,"ĠÐ³ÑĮÐ¾ÑĢÐºÑĮÐ¾ÑĢ":1309,"Ð°ÑħÓıÐ°ÑĢ":1310,"ÐµÑĩÓıÐ¾Ð³Ð¾":1311,"ÑĤÐµÑĢ":1312,"Ð²Ð¾":1313,"ĠÐ´Ð¸Ð½":1314,"Ðŀ":1315,"ĠÑĥÐ¼":1316,"ÑĢÐ³":1317,"Ð»Ð°ÑģÑģ":1318,"ĠÐ³ÓıÑĥÐ½":1319,"ĠÐºÐºÐ°ÑĢÐ°Ð±":1320,"ĠÐĵÑĮÐ°Ð±":1321,"ÑĤÐ¾ÑĢ":1322,"ĠÐ¼Ð°Ð¶":1323,"ĠÐ°ÑģÐºÓı":1324,"Ð¸Ð½Ð°ÑĢ":1325,"ĠÐľÑĥÑģ":1326,"ÑĥÐ´ÑĥÐ»":1327,"ĠÐ¸Ð½Ðµ":1328,"ÑĥÐ³Ð¾":1329,"Ð·Ð°Ð±Ð°Ð·":1330,"Ð°Ð²Ðº":1331,"Ð¸ÑıÑĢ":1332,"ÑĥÐ³ÑĮ":1333,"Ð°Ð´ÑĥÐ»":1334,"ĠÑħÑĬÐ¸Ð·Ð°Ð½":1335,"ĠÑĢÐ¾ÐºÑĮ":1336,"Ð¾Ð»ÑĮ":1337,"ĠÐºÑĬÐ¾ÐºÑĬ":1338,"ĠÐºÐ¸Ð´Ð°Ð³Ð¾":1339,"ĠÐĵÑĮÐµÐ´Ð¸Ð½Ð³Ð¾":1340,"ÑĥÐ»Ð°Ð³Ð¾":1341,"ĠÑħÑĮÐ²":1342,"ĠÐ³ÑĮÐµÐ´Ð¸Ð½Ð³Ð¾":1343,"ĠÐĿÐ¸Ð»ÑĬ":1344,"Ð°Ð»Ð´Ð°Ð³Ð¸":1345,"ĠÑĥÑĢÐ³ÑĬ":1346,"ÑĥÐ³Óı":1347,"ĠÑĪÐºÐ¾Ð»Ð°Ð»ÑĬÑĥÐ»":1348,"ĠÐºÐ»Ð°ÑģÑģ":1349,"ĠÐ»ÑĬÐ¸ÐºÓıÐ°Ð»":1350,"Ġ6":1351,"Ð°Ð»ÑĬÑĥÑħÑĬ":1352,"ĠÐľÑĥÑħÓıÐ°Ð¼Ð°Ð´Ð¾Ð²":1353,"Ð°ÑĦ":1354,"ĠÐŀ":1355,"ĠÐºÑĬÐ¸Ð¼Ð°ÑĤ":1356,"ÑĩÑĩ":1357,"ĠÐ°ÑģÐ»Ð¸ÑıÐ±":1358,"Ð°ÑıÐ»ÑĬÐµ":1359,"ĠÐ¼Ð¾ÑĨÓı":1360,"Ð»ÑĬÐ¸Ð´Ð°Ð»":1361,"ĠÐ¥Ð°Ð´":1362,"ĠÐĲÐ»Ð»Ð°Ð³ÑĮÐ°Ñģ":1363,"Ð¸Ð½Ð³Ð¸":1364,"ĠÐºÑĬÐ°Ð½":1365,"ÐŃ":1366,"Ġ8":1367,"ĠÐ¾ÑĤÐ´ÐµÐ»":1368,"ĠÐ¸Ñħ":1369,"ĠÑĩÐ°Ð½Ð³Ð¾":1370,"Ð»ÐµÐ½":1371,"ĠÐ¼Ðµ":1372,"ĠÐĵÑĮÐ°Ð½":1373,"ĠÑĢÐ¾Ñħ":1374,"Ġ7":1375,"Ð°Ð½Ð¸Ð»Ð°":1376,"ĠÐ³ÑĮÐµÐ·Ð¸Ðµ":1377,"Ð¸Ð³ÓıÐ°Ð½":1378,"ĠÐ²Ð°ÑĨ":1379,"Ð¸Ð·ÐµÐ³Ð¸":1380,"Ð³ÓıÐ°Ð»Ð¸Ð¼":1381,"ÑĥÑħÑĮ":1382,"ĠÑīÐ°Ð¹":1383,"Ðĸ":1384,"ĠÐ½ÑĥÐ¶Ðµ":1385,"Ð°Ð´Ð°Ð½":1386,"Ð¸ÑıÐ»Ð´Ð°ÑģÐ°":1387,"ĠÐ¼Ð°Ð³ÓıÐ¸ÑĪÐ°ÑĤ":1388,"Ð°ÑĢÐ°Ð·ÑĥÐ»":1389,"ĠÐ±Ð°Ñħ":1390,"Ð°Ð»ÑĬÑĥÐ»Ð°Ð±":1391,"ÑĥÑĢÑģ":1392,"ĠÐ½ÑĥÑħÐ¼Ð°Ð»ÑĬÑĥÐ»ÐµÐ²":1393,"ĠÐ³ÑĮÐ°Ð½Ð¶Ðµ":1394,"Ð°ÑĢÐ°Ð¹":1395,"ĠÐ¼ÑĥÑģÑĤ":1396,"...":1397,"ÐµÐ¿ÑĥÑĤ":1398,"Ð°ÑħÓıÐ¸ÐºÑĬ":1399,"ĠÐºÓıÐ²":1400,"Ð³ÓĢ":1401,"ĠÐ¹Ð¸Ð³Ð¾":1402,"ĠÐ°Ð±ÑĥÐ½Ð¸":1403,"ĠÑĨÓıÐ¸ÐºÓıÐºÓıÑĥÐ½":1404,"Ð°ÐºÐº":1405,"Ð°Ð»Ð°Ð»Ð´Ð°":1406,"ĠÑħÓıÐ°ÑĢÐ°ÐºÐ°ÑĤ":1407,"ĠÐ³ÓıÐ°Ð´Ð°Ð¼Ð°Ð·":1408,"ĠÐĵÓıÐ°Ð±Ð´":1409,"ĠÑĥÐ¼ÑĥÐ¼":1410,"ĠÑĥÐ»Ðº":1411,"Ð°Ð¹Ð´":1412,"ĠÐłÐ°ÑģÑĥÐ»":1413,"ĠÐ¼Ð°ÑħÑī":1414,"ĠÐ±ÑĥÐºÓĢ":1415,"Ð³ÑĥÑĤÓı":1416,"ÑĥÐ´Ð¸Ð½":1417,"Ð°ÑĨÐ°":1418,"Ð¿ÐµÑĢ":1419,"ĠÐ¼ÐµÑħÐ°Ð»Ð´Ð°":1420,"ĠÐ±ÑĥÐºÓıÐ¸Ð½ÑĩÓıÐ¾":1421,"ÑĢÐ°Ð»ÑĬ":1422,"ĠÐľÐ°ÑħÓıÐ°ÑĩÑħÑĬÐ°Ð»":1423,"Ð°Ð´Ð¸":1424,"ÐºÐ²":1425,"ĠÐ¼ÑĥÑģÑĤÐ°ÑħÓıÐ¸ÐºÑĬ":1426,"ĠÐºÐ²ÐµÑĪ":1427,"ÑıÐ²":1428,"ĠÑĩÐ°Ð³ÓıÐ¸":1429,"Ð£":1430,"ĠÑĨÓıÐ¸ÑıÐ±":1431,"ÑģÐ°Ð³ÓıÐ°ÑĤ":1432,"Ð°Ð»Ð¸Ð»":1433,"ĠÐºÑĬÐ°ÑĩÓı":1434,"ĠÐ³ÑĮÐ°ÑĢÑĥÐ½":1435,"ĠÐ»ÑĬÐ°Ð»Ð°":1436,"ĠÐ³ÑĬÑĥÑĢÑĥÑī":1437,"ĠÑģÐ²ÐµÑĢÑĥÑħÑĬ":1438,"ĠÑīÐ¸Ð±Ð°Ð±":1439,"ĠÑħÑĬÐ²Ð°Ð½":1440,"ĠÐ´ÑĥÑĢ":1441,"ĠÐ´ÐµÐ¿ÑĥÑĤ":1442,"ĠÐ¼ÑĥÐ³ÓıÐ°Ð»Ð¸Ð¼":1443,"ĠÐ¥ÑĬ":1444,"ĠÐ³ÓıÐ°Ð´Ð°ÑĤ":1445,"ĠÐ³ÓıÐ¾Ð»Ð¾":1446,"Ð¸Ð½Ð´":1447,"ÐµÑĩ":1448,"Ð¾ÐºÑĮ":1449,"Ð³Ð¸ÑĤ":1450,"ÑĥÐ½Ð°Ð°Ð½":1451,"Ð°Ñī":1452,"ĠÐºÑĬÐ²Ð°ÑĢÐ¸Ð³Óı":1453,"ĠÐ»ÑĬÐ°Ð±":1454,"ĠÑīÑĥÐ½":1455,"ÑĢÑĤ":1456,"ĠÐ¸Ð½ÑģÐ°Ð½":1457,"ĠÐ»ÑĬÑĥÐ½":1458,"ĠÐ°Ð·Ð°ÑĢ":1459,"ÑĥÑĨÐ°":1460,"ÑħÑĬÐ²":1461,"ĠÐºÑĥÐ»ÑĮÑĤÑĥÑĢ":1462,"ĠÑĨÐµÐ²":1463,"ĠÐ¿ÑĢÐ¾":1464,"Ð¸ÑĨÐ¸Ð½":1465,"Ð¸Ð±Ðµ":1466,"ĠÑĤÓıÐ¾":1467,"ÑħÓıÐ°Ð¶":1468,"ĠÐŁÐ°ÑĤÓı":1469,"ĠÐĶÐ°Ð³ÑĬÐ¸ÑģÑĤÐ°Ð½Ð°Ð»Ð´Ð°":1470,"Ð°Ð¹Ð¾Ð½":1471,"Ð±Ð°ÐºÑĬ":1472,"Ð°Ð´Ð°Ð»":1473,"ĠÐ°Ð±Ð¸Ð·Ðµ":1474,"Ġ9":1475,"Ð·Ð°Ð±Ð°Ð·ÑĥÐ»":1476,"ĠÑĨÓıÐµÑħ":1477,"ĠÐºÐºÐ¾Ð»ÐµÐ»":1478,"ĠÐºÐ²Ð°Ð½":1479,"ĠÐ³ÓıÐ°Ð³Ð°ÑĢ":1480,"Ð°ÑĢÐµÐ»":1481,"Ð°Ð²ÐºÐ°Ð·":1482,"Ð¾Ð¹":1483,"Ð¸Ð°Ð±Ð¸Ð»ÐµÐ±":1484,"Ð°Ð·Ð°Ð½":1485,"Ð°ÑĢÐ°Ð»Ð´Ð°ÑģÐ°":1486,"ĠÐ°ÑħÓıÐ²Ð°Ð»":1487,"ĠÐ½ÑĥÑħÐ°Ð»ÑĬ":1488,"ĠÐĿÐ¸Ð¶":1489,"ĠÐĵÓĢ":1490,"ĠÑħÐ¸ÑĢ":1491,"ĠÐ±Ð¾ÑĢÑħ":1492,"Ð¸ÑģÐµÐ±":1493,"Ð°Ð±ÑĥÐ»":1494,"ĠÐ²Ð°ÐºÐ¸Ð»":1495,"ĠÐ±Ð¾ÐºÑĮÑĥÐ½":1496,"ÐµÐºÑĤÐ¾ÑĢ":1497,"ĠÐºÑĥÑĨ":1498,"ÑģÐ»Ð°Ð¼":1499,"ÑĥÐ·ÑĥÐ»":1500,"ĠÑĥÐ½ÐµÐ±":1501,"ĠÐºÓĢ":1502,"ĠÐ½ÑĥÑħÐ¼Ð°Ð»ÑĬ":1503,"ĠÑħÐ°ÑģÐ°Ð±":1504,"ĠÐ±Ð°Ð¹ÑĢÐ°Ð¼":1505,"ĠÐ»ÑĬÐ°Ð±Ð³Ð¾":1506,"ÐĵÑĮÐµÐ´":1507,"ĠÑĤÐµÑĢ":1508,"ĠÑĨÐ¾Ð³Ð¸Ð´Ð°Ð»Ð³Ð¸":1509,"ĠÐºÐ¾Ð»ÑħÐ¾Ð·":1510,"ÐµÑģÑģ":1511,"ĠÐºÑĬÑĥÐ²":1512,"ÑĤÐ°Ð»":1513,"ĠÑĨÐµÐ±ÐµÑĤÓı":1514,"ĠÑĤÓıÐ¾Ð±Ð¸ÑĤÓıÐ°Ð½Ð°":1515,"ĠÐ¶Ð°Ð¼Ð³Óı":1516,"Ð¸Ð·Ð¼":1517,"ĠÐ¼Ð¸Ð½":1518,"ĠÐºÓıÐ°Ð»":1519,"ĠÑĤÓıÑĥÑĢ":1520,"Ð»ÑĬÐ¸ÑıÐ»ÑĬ":1521,"ĠÐ±Ð°ÑĢÐºÐ°Ð»Ð°":1522,"Ð»Ð°Ð½":1523,"ĠÐŁÐ°ÑĤÓıÐ¸Ð¼Ð°ÑĤ":1524,"ĠÐ³ÑĮÑĥÐ´ÑĥÐ»":1525,"ĠÐĵÑĮÐµÐ²":1526,"ĠÐ»ÑĬÐ¸Ð¼Ð°Ð»Ð°Ð·ÑĥÐ»":1527,"ĠÐ°Ð»":1528,"Ð´Ð¸Ð½":1529,"ĠÐ³ÑĮÐ°ÑĢÑĥÐ»ÐµÐ»":1530,"ÐºÐºÑĥÐ½":1531,"ĠÐ±Ð°ÑħÓıÐ°ÑĢ":1532,"ĠÑĨÓıÐ°ÐºÑĬÐ³Ð¾":1533,"ĠÐĴÐ°ÑĤÓıÐ°Ð½":1534,"ÐµÑĢÐ°Ð»":1535,"ÑģÐ°Ð½Ð°":1536,"ĠÐ±ÐµÑĢÐ³ÑĮÐµÐ½":1537,"ĠÑĤÓıÐ¾Ð»":1538,"ĠÐºÑĬÐ°Ð±ÑĥÐ»":1539,"ĠÑĩÓıÐµÐ·Ð°Ð±":1540,"ÑģÐµÐ´":1541,"ĠÐ§Óı":1542,"ÑĥÐ¹":1543,"ĠÑĨÐ¾ÑĨ":1544,"ĠÑģÐ°Ð¹":1545,"ĠÐ±ÑĥÐ³Ð¸Ð»Ð°Ð½":1546,"ÐµÐ¶":1547,"ĠÐľÑĥÑħÓı":1548,"ĠÐ²ÑĥÐºÓıÐ°ÑĢÐ°Ð²":1549,"ĠÐ¸Ð¼Ð°Ð¼":1550,"ĠÐ²Ð°ÑĤ":1551,"ĠÐ³ÑĮÐµÐ»ÑĬÐ¸Ðµ":1552,"Ð°ÑĨÐ¸Ñı":1553,"ĠÑĤÓıÐ°Ð³Óı":1554,"ĠÐ´Ð°Ð³ÑĮÐ°Ð±":1555,"ĠÐ¯":1556,"ĠÑĤÓıÐ°ÑģÐ°":1557,"ĠÐ³ÓıÐ°ÑĢÑĨ":1558,"Ð¸Ð»ÑĬÐ¸":1559,"ÑģÐµÐ´Ð°ÑĤ":1560,"ĠÐ¥Ð°Ñģ":1561,"ĠÐ»ÑĬÑĥÐ³ÑĮÐ°Ð½Ð°":1562,"ĠÑħÐ°Ð±Ð°ÑĢ":1563,"ĠÐĶÑĥÐ½":1564,"ÐµÑĤÐµÑĢ":1565,"Ð¸ÑģÑģ":1566,"ĠÑĢÐ¾ÑģÐ°Ð±":1567,"ÑĥÐ´Ð¸ÑıÐ±":1568,"ĠÐºÑĬÐ¾ÑıÐ·":1569,"ĠÐ»ÑĬÐ¸Ð¼ÐµÑĢ":1570,"Ð¨":1571,"Ð»Ð¸Ð¼":1572,"ĠÑĤÐµÐ»":1573,"ĠÐ³ÑĮÐµÑģÐ´Ð°":1574,"ĠÐĵÑĮÐµÐ»ÑĬÑĥÐ»":1575,"Ð´Ð°ÑģÐ°Ð³Ð¸":1576,"ÐµÐ»Ð³Ð¸":1577,"ĠÑīÐ²ÐµÐ·ÐµÐ³ÓıÐ°Ð½":1578,"ĠÑĥÑĩÐ¸ÑĤÐµÐ»ÑĮ":1579,"Ġ201":1580,"ĠÐ±ÐµÑĢÑĨ":1581,"ĠÐºÐ°Ðº":1582,"ĠÐ³ÓıÐ°ÐºÑĬ":1583,"ĠÐ·Ð°Ð¼ÐµÑģÑĤ":1584,"ĠÑĤÐ¾Ñħ":1585,"Ð¸ÑĨÓı":1586,"ĠÐ³ÑĮÐµÑģÐ¸Ðµ":1587,"ĠÐ°Ð´Ð°Ð±":1588,"ĠÐ´ÐµÐ¿ÑĥÑĤÐ°ÑĤ":1589,"ĠÐ±Ð¸ÑīÑĥÐ½Ð³Ð¾":1590,"ĠÐºÐ¾Ð¼Ð°Ð½Ð´":1591,"ĠÐ°ÑģÐ°ÑĢ":1592,"ĠÑĢÐ¸Ñī":1593,"ĠÑĢÑĥÑĩÑĩ":1594,"ÐµÑıÐ½":1595,"ĠÐ³ÓıÑĥÑĢÑĥÑģ":1596,"ĠÐ¼Ð°Ð¶Ð³Ð¸ÑĤ":1597,"ĠÐ±ÑĥÐºÓıÑĥÐ½Ð°":1598,"ĠÑĢÐ°Ð³ÓıÐ¸":1599,"ĠÑĩÓıÑĥÐ½":1600,"ĠÐºÑĮÐµÑıÐ»ÑĬÑĥÐ»":1601,"ĠÐ°ÑĢ":1602,"Ð°Ð¹Ð³Ð¸":1603,"ĠÐ¿ÑĢÐµÐ´ÑģÐµÐ´Ð°ÑĤ":1604,"Ð¸ÐºÐ¸ÑıÐ±":1605,"Ð°ÑıÐ»Ð´Ð°ÑģÐ°":1606,"ĠÑĤÓıÐ°Ð´ÐµÐ³ÓıÐ°Ð½":1607,"Ð°Ð½Ð³Ð¸":1608,"ÐµÐ½ÑĤÑĢ":1609,"ĠÑīÐ¸Ð²":1610,"ĠÐ³ÑĮÐ¾ÑĢÐºÑĮÐ¾ÑħÑĬ":1611,"ĠÐ¼Ð°ÑĨÓıÐ°Ð»":1612,"ĠÐ¥Ð°Ð»":1613,"Ð¸Ð°Ð»Ð¸ÑıÐ±":1614,"ĠÐ³ÓıÐ°Ð´Ð°Ð¼Ð°Ð·Ðµ":1615,"ĠÐ±Ð¸ÑĨÑĥÐ½":1616,"ĠÑĢÑĥÐºÓıÑĥÐ½":1617,"ĠÐ³ÑĮÐ°ÑĢÑĥÐ½Ð°":1618,"ĠÐ®":1619,"ĠÐ³ÑĮÐµÐ´Ð¸Ð½Ð°Ð±":1620,"ĠÑħÑĥÑĢÑħ":1621,"Ð¸Ð·Ð°Ð±Ð¸Ð·Ðµ":1622,"ĠÑħÓıÑĥÐºÑĥÐ¼":1623,"ĠÐ¸ÑħÑĤ":1624,"Ð»ÑĬÐ¸Ð·Ðµ":1625,"ĠÑģÑĥÑĢ":1626,"ĠÐĵÑĮÐµÐ½Ð¸Ð±":1627,"Ð´ÐµÑĢÐ¸Ð»":1628,"ĠÐºÐ°Ð¼":1629,"ĠÐ±Ð¸ÑĨÑĥÐ½ÐµÐ±":1630,"ĠÐºÐ°Ð³ÑĬ":1631,"ĠÐ²ÑĥÐ³ÐµÐ²":1632,"ĠÐ³ÑĮÐµÐ¹":1633,"Ð¸ÑıÑģÑĥÐ»":1634,"ĠÐ°ÑĢÐ°Ð±":1635,"Ð¾Ð±Ðµ":1636,"ĠÐ²ÑĥÐºÓıÐ¸Ð½":1637,"ĠÐ³ÓıÐ°Ð»Ð¸Ð¼":1638,"Ð¸Ð²Ðµ":1639,"Ð·Ð°Ð»":1640,"ĠÐĲÐ½":1641,"Ð¢Óı":1642,"ÐĽÑĬ":1643,"Ð°ÑĢÐ¸Ð½":1644,"Ð°Ð¹Ð¸Ð±":1645,"ĠÐ³ÓıÐ°ÑħÑĮÐ°Ð»Ð»ÑĬÐ¸":1646,"ĠÐ³ÓıÐµÐ¼ÐµÑĢÐ°Ð±":1647,"Ð°ÑĨÓıÑĨÓıÐ°Ð´":1648,"ĠÐĲÑħ":1649,"ĠÑħÑĥÑĢÑħÑĥÐ½":1650,"Ð¾ÑģÐ°":1651,"ÐºÐ°ÑĢ":1652,"ĠÐ³ÑĥÑĢÐ¾":1653,"Ð¾Ð»ÑĬ":1654,"ĠÐ±ÑĥÑħÑĮ":1655,"Ð»Ð¸":1656,"ĠÑĢÑĥÑħÓı":1657,"ĠÐ»ÑĬÑĥÐ³ÑĮÑĥÐ½":1658,"Ð¾Ð»ÐµÐ»":1659,"Ð°ÑĤÐ°Ð»Ð´Ð°":1660,"ĠÐ³ÑĮÐ°Ð±ÑĥÐ»ÐµÐ»":1661,"ĠÐĲÐ²Ð°ÑĢ":1662,"ĠÑĢÑĥÐºÓıÐ¸Ð½Ðµ":1663,"ĠÐ¼Ð°ÑĪÐ³ÑĮ":1664,"ĠÐ½Ð¸Ð»ÑĬÐµÐ´Ð°":1665,"ĠÐķ":1666,"ĠÐļÐ°Ð²ÐºÐ°Ð·":1667,"ĠÑħÓıÑĥÐºÐ¼Ñĥ":1668,"ĠÐ³ÓıÐ¸Ð»Ð»":1669,"Ð³ÑĮÐ°Ð½":1670,"ĠÐ³ÑĮÐ°Ð±Ð¸":1671,"ĠÑģÐ°Ð½":1672,"20":1673,"ĠÐ³ÑĮÐ°ÑĢÑĥÑĢÐ°Ð»":1674,"Ð±Ð°Ð»":1675,"Ð¾Ð»Ð¾Ð³":1676,"ĠÐĵÑĮÐµÑģÑĥÐ»":1677,"ĠÐºÑĬÐµÑĨ":1678,"Ð¾Ð»ÑĮÐ½":1679,"ĠÐ´Ð¸ÑĢÐµÐºÑĤÐ¾ÑĢ":1680,"ĠÑİ":1681,"ĠÐ±Ð¾Ð¶":1682,"ĠÑīÐ²ÐµÐ·Ðµ":1683,"ĠÐĵÑĮÐµÐ·ÑĥÐ»":1684,"ĠÑĩÑĥÑĢ":1685,"ĠÑĨÐµÐ²Ðµ":1686,"Ð°Ð¼Ð°Ð·Ð°Ð½":1687,"ĠÑĢÑĥÐ³Ð¸Ð½":1688,"ĠÑĪÐºÐ¾Ð»Ð°":1689,"ĠÐ°Ð½ÑĨÓı":1690,"Ð°ÐºÐ°ÑĢ":1691,"ĠÐ¼Ð°ÑģÑĬ":1692,"ĠÐ³ÓıÐµÐ·ÐµÐ³ÓıÐ°Ð½":1693,"ĠÑģÐ°ÑħÐ»ÑĬÐ¸":1694,"ĠÐ´Ð¾Ðº":1695,"ÐµÑĢÐ±":1696,"ÑĥÑĢÐ½Ð°Ð»":1697,"Ð°ÑģÑĤ":1698,"ÐµÐ»Ð°":1699,"Ð°Ð½Ð´Ðµ":1700,"ÑĥÐ½Ð°ÑĢ":1701,"Ð¾ÑĢÐ¼":1702,"Ð°Ð»Ð¸ÑħÓı":1703,"ĠÐ³ÓıÐ°Ð´Ð°Ð½":1704,"Ð´ÐµÐ½":1705,"Ð°ÑģÐµÐ±":1706,"ĠÐ°Ð·Ð°ÑĢÐ³Ð¾":1707,"Ð°ÐµÐ²Ð°Ñģ":1708,"ĠÐ±Ð°Ð¹Ð±Ð¸ÑħÑĮÐ°Ð½Ð°":1709,"Ð°ÑĨÐ¸ÑıÐ»ÑĬÑĥÐ»":1710,"ĠÑħÑĮÐ²Ð°Ð´":1711,"ĠÐ©Ð¸Ð±":1712,"ĠÑĤÐ°ÑĢÐ±":1713,"Ð°ÑıÐ±":1714,"Ð¸Ð±Ð¸ÑĢ":1715,"ĠÐ±ÑĥÐ³ÐµÐ²":1716,"ĠÐ¼Ð°ÐºÑĬ":1717,"ĠÑĢÐ¾ÑģÐ°Ð±Ð°Ð·ÑĥÐ»":1718,"ĠÐ±ÐµÑĩ":1719,"ĠÑįÑĢÐºÐµÐ½":1720,"ĠÐ»ÑĬÐ°Ð»ÐµÐ±":1721,"Ġ10":1722,"ĠÐºÓıÐ¾Ñĩ":1723,"Ġ200":1724,"Ð¸Ð´ÐµÐ½ÑĤ":1725,"ĠÐ¸ÑħÑĤÐ¸ÑıÑĢ":1726,"Ð¾Ð½Ð¾Ð¼":1727,"Ð¸ÑĤÐµÑĤ":1728,"Ð°Ð»ÐµÐ»":1729,"ĠÐ³ÑĮÐ¾ÑĢÐºÑĮÐ¾ÑħÑĬÐµÐ±":1730,"ÑĩÓĢ":1731,"Ð³ÓıÐ°Ð³Ð¸":1732,"ĠÐ¼ÑĥÑħÑĬÐ°Ð»ÑĬÑĥÐ»":1733,"ĠÑįÐ¼ÐµÐ½":1734,"ĠÐ¼Ð¸ÑģÐ°Ð»":1735,"ĠÐĲÑĢ":1736,"Ð°Ð»ÑĬÐ³Ð¸":1737,"ĠÐ°Ð´Ð¼Ð¸Ð½Ð¸ÑģÑĤÑĢÐ°ÑĨÐ¸ÑıÐ»ÑĬÑĥÐ»":1738,"ĠÐºÑĮÐ¾Ð»Ð°":1739,"ĠÐ¿Ð°ÑĢ":1740,"ĠÐ´Ð°ÑĢÐ°Ð¶":1741,"ÐµÐ·Ð¸Ð´ÐµÐ½ÑĤ":1742,"ÐµÐ´Ð°":1743,"Ð´Ð¾":1744,"Ð°ÑĢÐ°Ð·Ðµ":1745,"ĠÑħÓıÑĥÑĢÐ¼Ð°ÑĤ":1746,"ÑĥÐµ":1747,"ÑĥÐ»ÐµÐ¹":1748,"ĠÐ¡Ð¾Ð²ÐµÑĤ":1749,"Ð¾ÑĢÐµ":1750,"ÐµÐ¼Ð¿":1751,"ÑĢÐ°Ð²":1752,"ĠÐ¥ÓıÐ°Ð¶Ð¸Ð¼":1753,"ĠÐ±Ð°ÑĢÐ°Ð±":1754,"ĠÐ·Ð°Ðº":1755,"Ð°Ð½ÑĨÓı":1756,"ĠÐ±Ð¾ÑģÐ¸Ð·Ðµ":1757,"ĠÐ¾Ð±":1758,"ĠÑģÐ¾ÑĨ":1759,"ÑĥÑĢÐ¼":1760,"Ð¸Ð·Ð°Ð±ÑĥÐ½":1761,"ĠÐ·Ð°Ð¼ÐµÑģÑĤÐ¸ÑĤÐµÐ»ÑĮ":1762,"ĠÐ¸ÑĢÐ³":1763,"Ð°Ð±Ð¸Ð»":1764,"ĠÐĺÐ½":1765,"ĠÐ±Ð¸Ð³ÑĮ":1766,"ĠÐ½Ð¸Ð¶ÐµÑĨÐ°":1767,"Ð¸Ð¼Ð°Ð»":1768,"ĠÑĤÐµÑĢÑĢ":1769,"Ð¹Ð³Ð¸":1770,"ĠÑĨÓıÐ¸ÐºÓıÐºÓıÐ°ÑĢÐ°Ð±":1771,"ĠÑĢÐ°Ð³ÑĬÑĥÐ»Ð°Ð±":1772,"Ð¸Ð»ÑĬÑĥÐ½":1773,"Ð°Ð½Ð°Ð»Ð´Ð°":1774,"ĠÑīÐ²Ð°ÑĢÐ°Ð±":1775,"Ð°Ð³ÑĮÐ°Ð»":1776,"ĠÐ±ÑĥÑģ":1777,"ĠÑĤÐ¾ÑħÑĤÑĥÑĢ":1778,"ĠÑĢÐ¾ÑģÑĥÐ»ÑĬÐ°":1779,"ÑģÑĥÐ»":1780,"Ð¾Ð¶":1781,"ÐµÐµ":1782,"ÑĥÐ³ÑĬÑĢÐ°Ð»ÑĬ":1783,"ĠÐ±ÑĥÐ³Ð¸Ð»Ð°":1784,"ĠÑĪÐºÐ¾Ð»Ð°Ð»Ð´Ð°":1785,"Ð¸Ð·Ð°Ð¼":1786,"ÑİÑĢÑĤ":1787,"ĠÐ³ÓıÐ°Ð¹Ð¸Ð±":1788,"ĠÑĩÓıÐ°ÑħÓı":1789,"ĠÐ³ÑĮÐµÐ´Ð¸Ð½Ð°Ð»":1790,"Ð¾Ð²Ðµ":1791,"ĠÑĩÓĢ":1792,"ÑĢÐµÑħ":1793,"ĠÐ³ÑĮÐµÑĩÓıÐµÐ»":1794,"ĠÑĢÐ¾ÑģÑĥÐ»ÑĬÐµ":1795,"ĠÑĤÓıÐ¾ÐºÓı":1796,"ĠÑħÓıÑĥÐ¶":1797,"Ġ18":1798,"Ð°Ð·Ð³Ð¸":1799,"Ð¾Ð»Ð°ÑĢÐ¾":1800,"ĠÑĤÐ°ÑĢÐ±Ð¸Ñı":1801,"Ð¾Ð²Ð¸Ñĩ":1802,"ĠÑĢÐ°Ð³ÓıÐ°Ð»":1803,"ĠÐ³ÓıÐ¾ÑĢ":1804,"ĠÐ±Ð°ÑĩÓıÑĥÐ½ÐµÐ±":1805,"ĠÐ¸Ð´Ð°ÑĢÐ°Ð±":1806,"ĠÑģÑĥÐ½":1807,"Ð¤":1808,"ĠÐ±Ð°Ð³ÑĮ":1809,"ĠÐĵÑĮÐµÐ»ÑĬ":1810,".)":1811,"ĠÐ°Ðº":1812,"ÑħÓıÐ¾":1813,"Ð°Ð¸Ð±":1814,"ĠÐ¿Ð¾Ð»Ð¸ÑĤ":1815,"ĠÐ¶Ð¸Ð±":1816,"Ð¸ÑıÑĤÐ°Ð»ÑĬÑĥÐ»":1817,"ÑģÑĤÐ²Ð¾":1818,"ĠÐ³ÑĮÐ¸ÐºÑĬ":1819,"ĠÐ±Ð°ÑħÑĬÑĥÐ½":1820,"ĠÑģÐ°Ð³ÓıÐ°ÑĤ":1821,"Ð°Ð´Ð¸ÑĢ":1822,"ĠÐ±ÑĥÐ³Ð¾Ð½Ð¸Ð³Ð¸":1823,"Ð¸Ð»Ð¸Ð½":1824,"ĠÐ¶Ð¸Ð³":1825,"ÐĿÐ¸Ð»ÑĬ":1826,"ĠÑĨÓıÑĥÐ½Ð¸Ð·Ðµ":1827,"ĠÑĨÐµÐ±":1828,"Ð¾Ð»ÑĮÐ½Ð¸ÑĨ":1829,"ĠÐ±Ð°Ð·Ðµ":1830,"Ð°ÑĤÓĢ":1831,"Ð¾ÑģÐºÐ²":1832,"Ð°ÐºÓĢ":1833,"ĠÑĨÓıÐ°Ð»Ð¸Ð·Ðµ":1834,"ĠÐºÑĮÑĥÑĢ":1835,"ĠÐºÑĮÑĥÑĢÐ°Ð±":1836,"ĠÐºÓıÐ¸Ð°Ð±Ð¸Ð»ÐµÐ±":1837,"Ð»ÑĬÑĥÐ½Ð³Ð¸":1838,"ÐµÐ¼Ð¿Ð¸Ð¾Ð½":1839,"Ð¸ÐºÓĢ":1840,"ĠÐ³ÑĮÐµÑĩÓıÐ¸Ð½":1841,"ĠÐĶÐ¸ÑĢ":1842,"ÐłÐ¾Ñģ":1843,"ĠÑħÐ°Ð´ÑĥÑĢ":1844,"ÐĹ":1845,"Ð°ÑĤÑĥÑĢ":1846,"Ð°Ð¼Ð¼":1847,"ĠÑĢÐ¸ÑħÑĮÐ¸Ð·Ð°ÑĢ":1848,"ĠÑīÑĥÐ»":1849,"ĠÐ²ÑĥÐºÓıÑĥÐ½":1850,"ĠÐ±ÑĥÑģÑģ":1851,"Ð°ÑħÑĬÐµ":1852,"ÐµÑĨÐ°":1853,"ĠÐ³ÓıÑĥÐ¼ÑĢÑĥÑıÐ»ÑĬÑĥÐ»":1854,"ĠÐ»ÑĬÑĥÐ³ÑĮÐ°":1855,"Ð¼Ð°Ð³ÑĬ":1856,"ĠÐĸÐ°ÐºÑĬÐ°":1857,"Ð¾Ñį":1858,"ÑĨÑĨ":1859,"ÑĨÐ¾ÑıÐ·":1860,"ĠÐ°Ð½ÐºÑĮ":1861,"Ð°Ð»Ð´Ð°Ð»ÑĬÑĥÐ½":1862,"Ð¸ÐºÐ°ÑıÐ»ÑĬÑĥÐ»":1863,"ĠÐ¿ÑĢÐµÐ´ÑģÐµÐ´Ð°ÑĤÐµÐ»ÑĮ":1864,"Ð°Ð»Ð°ÑĤ":1865,"Ð°Ð½Ð°Ð±":1866,"ĠÑĢÐµÐ´":1867,"ĠÐĵÓıÐ°Ð±Ð´ÑĥÑĢ":1868,"Ð¸ÑħÑĬÐµ":1869,"ĠÐ¿Ð°Ð¹":1870,"ĠÐ¼Ð°ÑħÑīÐµÐ»":1871,"ÐµÑıÐ»ÑĬÐµ":1872,"ĠÐ¼Ð°Ð´":1873,"Ð°Ð±Ð¸Ð³Óı":1874,"ĠÐĵÓıÐ°Ð»Ð¸ÐµÐ²":1875,"Ð°Ð³ÑĥÐ½":1876,"ĠÐ¼ÐµÐ´":1877,"ĠÐ·Ð°ÑħÓıÐ¼":1878,"ĠÐ°Ð¹":1879,"ÑĢÑĥÐ»":1880,"ĠÐĶÐ¸ÑĨÐ°":1881,"ÑĥÑĤÐ°Ðº":1882,"ĠÐ½Ð¸Ð»ÑĬÐµÑĨÐ°":1883,"ĠÑħÓıÐ¸ÑģÐ°Ð±Ð°Ð»Ð´Ð°":1884,"ĠÑģÐ°Ð±":1885,"Ð±ÑĢ":1886,"ĠÑģÑĥÐ°Ð»Ð°Ð»":1887,"ĠÑĢÑĥÐ³Ð¸Ð»":1888,"ĠÑĢÐµÑĤÓı":1889,"ÑıÐ±ÑĢÐ°Ð»Ð´Ð°":1890,"ĠÐĵÑĮÐµÐ»Ð´Ð°":1891,"Ð°Ð½Ð¾Ð²":1892,"ĠÐłÐ°Ð¼Ð°Ð·Ð°Ð½":1893,"ĠÑĩÐµÐ¼Ð¿Ð¸Ð¾Ð½":1894,"Ð°Ð³ÓıÐ¸ÑĢ":1895,"ĠÐºÑĥÑĩÓı":1896,"ĠÐ¶ÑĥÑĢÐ½Ð°Ð»":1897,"ĠÐ´ÑĥÑĨÐ°":1898,"ÑĥÐºÓı":1899,"ĠÐ½ÑĥÑħÐ´Ð°":1900,"ĠÑĢÐ¸ÑĩÑĩ":1901,"ĠÐĵÑĬÐ°Ð·":1902,"ÐµÑıÐ»Ð´Ð°":1903,"ÐµÑģÐµÐ»":1904,"ĠÐ³ÓıÐ°Ð¼Ð°Ð»":1905,"ĠÐ³ÓıÐ°ÑħÑĮÐ°Ð»Ð»ÑĬÐ°Ð½Ð°":1906,"ĠÑħÐ°ÑģÐ°Ð»":1907,"Ð°Ð¹Ð¾Ð½Ð°Ð»ÑĬÑĥÐ»":1908,"ĠÐ±Ð°Ñī":1909,"ĠÑħÑĬÐ²Ð°Ð¹":1910,"ĠÑĢÐ¾ÑģÐ°Ð±Ð°Ð»ÑĬ":1911,"Ð°ÑĤÐ³Ð¸":1912,"ÑĤÐ¸Ð½":1913,"Ð¸ÑģÐ°Ð½":1914,"ĠÐ¼ÑĥÐ³Óı":1915,"Ð§":1916,"ÐºÑĤ":1917,"ĠÐ¿Ð°ÑĢÑĤ":1918,"ÐļÑĬ":1919,"ĠÑĤÑĥÑĢ":1920,"ĠÐ±Ð¸ÑħÑĮÑĥÐ»ÐµÐ±":1921,"ÑĥÐ½Ð³Ð¾":1922,"Ð¸ÑıÐ½":1923,"ÐµÑĤÑĢ":1924,"ĠÐºÐ¾Ð´":1925,"Ð¾ÑĢÑĩÓı":1926,"ĠÐ±ÐµÐ³ÑĮÑĥÐ»":1927,"Ð¸ÑĨÓıÐ³Ð¾":1928,"ĠÑĢÐ°Ñħ":1929,"Ð¸Ð»Ð°Ð±":1930,"ĠÐ³ÑĮÐ°Ð±Ð¸ÑıÐ»ÑĬÑĥÐ»":1931,"ĠÐľÐ¾ÑģÐºÐ²":1932,"ĠÐĲÐ³ÑĬ":1933,"Ð¾Ð´Ð°":1934,"ÑīÐ¸Ð½Ð°Ð±":1935,"Ð°ÑģÑĢÑĥ":1936,"ĠÐ±ÑĥÑħÓı":1937,"Ð±Ð°Ñģ":1938,"Ð°Ð»ÑĬÑĥÐ»Ð³Ð¸":1939,"ĠÑıÑĩ":1940,"Ð»ÑĬÐ°Ð±Ð¸":1941,"Ġ15":1942,"ÑĨÐ°Ð³Ð¾":1943,"ĠÑĢÐµÐ´Ð°Ðº":1944,"Ð¾Ð³ÑĢÐ°Ð¼":1945,"ÑĢÐ¾Ð¿":1946,"ĠÑĥÐ½ÐµÐ»":1947,"ĠÐ³ÓıÐ°ÑĤÓı":1948,"Ð¸Ð²Ð¸ÑıÐ±":1949,"ĠÐ´Ð°ÑĢÑģ":1950,"ĠÑħÓıÐ°Ð»ÑĤÓıÑĥÐ»ÐµÐ»":1951,"Ð²Ð°ÑĢÐ¸":1952,"ÑģÐ¸ÑĢ":1953,"Ð¸Ð»Ð°ÑĢÐ¾":1954,"ÑĨÐ¸Ñı":1955,"ÐºÑĮÐµÑıÐ»ÑĬÑĥÐ»":1956,"ĠÐ±Ð¾ÑĨÓı":1957,"ĠÐ°Ð±ÑĥÐ»Ð°":1958,"ĠÑĩÓıÐ²Ð°Ð½":1959,"ĠÐºÑĥÐ»ÑĮÑĤÑĥÑĢÐ°ÑıÐ»ÑĬÑĥÐ»":1960,"ĠÐ©Ð°Ð¹":1961,"ÐĵÑĮÐµÐ»":1962,"ĠÐĵÑĮÐµÐ´Ð¸Ð½Ð»ÑĬÐ¸Ð´Ð°Ð»":1963,"Ð»ÑĮ":1964,"ÑĥÐ½Ð¸Ð±":1965,"ĠÐºÐºÐ²":1966,"ĠÐ»ÑĬÐ°Ð·Ðµ":1967,"Ð°Ð·ÑĥÐ»ÑĬ":1968,"ÑĢÐ°ÑħÑĬ":1969,"ĠÐ³ÑĥÐ³":1970,"ĠÑģÐ°Ð¹Ð³ÑĬ":1971,"Ð¸Ð½Ð°Ð±Ð¸Ð·Ðµ":1972,"ĠÑħÐ°ÑĢÐ¶":1973,"ĠÐ¸Ð½ÑĦ":1974,"ĠÐ¼Ð°ÑĨÓĢ":1975,"ĠÐĺÑģ":1976,"Ð¸Ð½Ð¸ÑģÑĤÐµÑĢ":1977,"Ð³ÑĮÐ°Ð±":1978,"ĠÑħÐ°Ð»ÐºÑĬÐ°Ð»ÑĬÑĥÐ»":1979,"Ð°Ð±Ð°Ð·Ð´Ðµ":1980,"ĠÐºÐºÐ¾Ð»Ð¸Ð½":1981,"ĠÐĵÑĮÐ°Ð½Ð¶Ðµ":1982,"ÐµÐ³Óı":1983,"Ð±Ð¸":1984,"ĠÐ±Ð¸Ñĩ":1985,"ĠÐ³ÑĮÐ¸ÑĤÓıÐ¸Ð½Ð°Ð±":1986,"Ð°Ð½Ð°Ð»ÑĬÑĥÐ»":1987,"ĠÑĢÐ°ÑħÑĮ":1988,"ĠÐ³ÑĮÐ°Ð½Ð¸Ð±":1989,"Ð¸Ð½ÑĩÓı":1990,"Ð¸ÑıÐ·Ð´Ð°":1991,"ĠÑħÓıÐ¸Ð½ÐºÑĬÐ¸":1992,"ĠÐ¼Ð°Ð»ÑĬ":1993,"ĠÐ·Ð°ÑĢÐ°Ð»":1994,"ĠÑħÑĮÐ¸ÑħÑĮ":1995,"ĠÑħÓıÐ°Ð¶Ð°ÑĤ":1996,"ĠÐ½Ð°Ñģ":1997,"ĠÑħÐ°ÑģÐ³Ð¾":1998,"ĠÐ±Ð°ÐºÓıÐ°Ð»Ð´Ðµ":1999,"ĠÑĤÓıÐµÑħÑĮ":2000,"ĠÑĨÐ¾Ð¹Ð³Ð¸":2001,"ĠÑħÐ°Ð´ÑĥÑģ":2002,"ĠÐ¶Ð¸Ð²Ð³Ð¾":2003,"ÐµÐ´Ðµ":2004,"ÐµÐ´Ð°Ð»":2005,"ĠÐºÑĥÑĤÐ°Ðº":2006,"ĠÑĤÐ°Ð»Ð¸ÑħÓı":2007,"ĠÐĿÐ¸Ð»ÑĬÐµÑĢ":2008,"ÑģÑĤÐ¸ÑĤ":2009,"ĠÐ³ÓıÐ°ÑĢÑĨÑĥÐ»":2010,"ĠÑĤÐµÐ·Ðµ":2011,"ĠÐ³ÑĮÐµÐºÑĬ":2012,"ĠÐļÐ¸Ð½":2013,"ĠÐ½Ð¸Ð»ÑĬÐµÐµ":2014,"Ð°Ð³ÑĮÐ°Ð±":2015,"Ð°Ð¹Ð¿":2016,"ÐļÓı":2017,"Ð°Ð¹Ð±":2018,"ĠÐ³ÓıÐ°Ð³Ð°ÑĢÐ°Ð±":2019,"ÑĥÑĢÑĤ":2020,"ĠÑĪÐ°Ð³ÓıÐ¸ÑĢ":2021,"ĠÐ±Ð¸Ð¶":2022,"ĠÑħÐµÑĢ":2023,"ĠÑĢÐ°ÑĩÓıÐ°ÑĢÐ°Ð»":2024,"Ð°ÐºÐ¸Ð¼":2025,"ĠÑģÐ¾Ð½Ð°Ð·Ð´Ð°":2026,"Ð´Ð°Ð¹":2027,"ÐµÐ·Ð´Ð°":2028,"ĠÐļÑĬÑĥÑĢ":2029,"ĠÐ±Ð°ÐºÓıÐ°ÑĢ":2030,"ĠÐĵÓıÐµÐ¼ÐµÑĢ":2031,"ÑĥÐ¼ÐµÐ½ÑĤ":2032,"ĠÑıÑĢ":2033,"Ð±Ð¾Ð»":2034,"ĠÑħÓıÐ°Ð»ÑĤÓıÑĥÑħÑĬÐ°Ð±Ð¸":2035,"ĠÐºÐºÐ°Ð½Ð¸":2036,"ĠÐ·Ð°ÑħÓıÐ¼Ð°ÑĤÐ°Ð±":2037,"Ð°Ñİ":2038,"ĠÐľÑĥÑħÓıÐ°Ð¼Ð°Ð´Ð¸Ð»":2039,"ĠÐ¶Ð¸Ð½Ð´Ð¸Ðµ":2040,"ĠÑĪÐ°Ð³ÑĮÐ°ÑĢÐ°Ð»ÑĬÑĥÐ»":2041,"Ð¸Ð½Ð°Ð»ÑĬÑĥÐ»":2042,"ĠÐ±ÑĥÐºÓıÐ°Ð½Ð¸Ð³Ð¸":2043,"ĠÐ³ÑĮÑĥÐ½Ð°ÑĢ":2044,"ĠÑĪÐ°Ð³ÑĮÐ°ÑĢÐ°Ð»Ð´Ð°":2045,"ĠÐ¼Ð°Ð³ÓıÐ¸ÑĪÐ°ÑĤÐ°Ð»ÑĬÑĥÐ»":2046,"Ð°ÑĢÐ°Ð»Ð´Ð°":2047,"ĠÑħÐ°Ð½":2048,"ĠÐ¿ÑĢÐµÐ·Ð¸Ð´ÐµÐ½ÑĤ":2049,"Ð»ÑĬÐ°ÑĢÐ°Ð»":2050,"ĠÐĲÑģ":2051,"ĠÐ¸ÑĪÐ°Ð»":2052,"Ð»ÐµÐºÑĤ":2053,"ĠÑĢÐ¾ÑģÐ´":2054,"ĠÐ»ÑĬÐ°Ð»Ð°ÑĢÐ¾":2055,"Ð°Ð·Ð´Ð°Ð³Ð¸":2056,"ĠÑĤÐ°Ð¼":2057,"ĠÐ³ÓıÐ°Ð´Ð°Ð¼Ð°Ð·Ð´Ð°":2058,"ĠÐºÐºÐ°ÑĢÐ°Ð»":2059,"Ð¿ÑĢ":2060,"Ð¾Ð±ÑĢÐ°Ð½":2061,"ĠÑĩÓıÑĥÐ¶":2062,"ĠÑħÐµÑħ":2063,"ĠÐ¥ÓıÐ°Ð»":2064,"ĠÑĨÐ¾ÑıÐ±":2065,"Ð°ÑĢÐ¸":2066,"ĠÐĵÑĮÐµ":2067,"ĠÐ»ÑĬÐ¸Ð¼Ð°Ð»Ð°Ð·Ðµ":2068,"Ð°Ð»Ð³ÑĥÐ½":2069,"Ð°Ð»ÑĬÐ³Ð¾":2070,"ĠÐºÐ¸Ð³ÓıÐ°Ð½":2071,"Ð¸Ð½ÑĩÓıÐ¾":2072,"Ð¸ÑĨÐ°Ð³Ð¸":2073,"ĠÐ³Ð°Ð·ÐµÑĤÐ°Ð»ÑĬÑĥÐ»":2074,"ÑıÐ·ÑĥÐ»":2075,"ĠÐ±ÐµÑĢÑĨÐ¸Ð½":2076,"Ð°Ð·ÑĥÑħÑĬ":2077,"Ð°ÑĤÓıÐ¸Ð¿":2078,"ĠÐ³Ð°ÑĢÐ°":2079,"ĠÐ·Ð°Ð²":2080,"ĠÐ½ÑĥÐ¶ÐµÑĢ":2081,"Ð»Ð°":2082,"ĠÐ¸Ð½ÑĤÐµÑĢ":2083,"ÑĥÐ½Ð³Ð¸":2084,"ĠÐ¿Ð°Ð¹Ð´Ð°":2085,"ĠÐĳÐµÑĢ":2086,"ĠÐ°Ð²ÑĤ":2087,"ÐµÐºÓı":2088,"ĠÑĢÐ°ÐºÓıÐ°Ð»Ð´Ð°":2089,"ĠÑĨÓıÐ°Ð»ÑĥÐ»":2090,"ĠÐºÐ¾":2091,"ĠÐ±Ð¸ÑĨÐ¸Ð½Ðµ":2092,"Ð²Ð°Ð³ÑĮ":2093,"ÑĩÐ¸Ð»ÑĬ":2094,"ĠÐ±Ð°ÑĤÓıÐ¸ÑıÐ±":2095,"ĠÐ¶Ð°ÐºÑĬ":2096,"Ð¾Ð²Ð°Ð»ÑĬ":2097,"ĠÑĤÓıÐ°Ð±Ð¸Ð³Óı":2098,"ĠÐ¸ÑģÐ»Ð°Ð¼":2099,"ÐºÑĥÑĢÑģ":2100,"ĠÐ¼Ð¸Ð½Ð¸ÑģÑĤÐµÑĢ":2101,"ĠÐĵÑĮÐ°Ð»":2102,"ĠÐ±ÐµÑĤÓıÐµÑĢÐ°ÑģÑĥÐ»":2103,"ÐĵÑĮÐ°Ð±":2104,"ĠÐ¶Ð¸Ð½Ð´Ð°":2105,"ÑıÑģ":2106,"Ð°Ð³ÑĮÐ¸Ð¼":2107,"Ð»ÑĬÐ°ÑĢÐ°Ð±":2108,"Ð°Ð³ÓıÐ¸Ð»":2109,"Ð°ÑĢÐ°Ð»Ð´Ðµ":2110,"ĠÐºÐ¾Ð¼Ð¸ÑģÑģ":2111,"ĠÐ³ÑĥÑĢÐµÐ±Ð³Ð¸":2112,"Ð°Ð»Ð°Ð±Ð¸":2113,"ĠÐ½Ð¾Ð¼":2114,"ĠÐ¥ÓıÐ°Ð¶Ð¸Ð¼ÑĥÑĢÐ°Ð´":2115,"Ð°ÐºÑĬÑģÐ¸ÑĢ":2116,"ĠÑħÑĬÐ²Ð°ÑĢÐ°Ð±":2117,"ĠÑĢÑĥÑģÑģ":2118,"ĠÐºÐµÑĩÓı":2119,"ĠÑĤÑĢ":2120,"ĠÐ±Ð°ÑħÑĬÐ°ÑĢÐ°Ð±":2121,"ĠÑĢÐ°ÑĩÓıÑĥÐ½":2122,"Ð½Ñĭ":2123,"ĠÑĨÐµÐ½ÑĤÑĢ":2124,"ÑĢÐ°Ð²Ð»ÐµÐ½":2125,"ĠÑħÐ°Ð´ÑĥÐ²":2126,"Ð¦Ð¾":2127,"ÑĮÐ½Ð¸Ðº":2128,"ĠÐºÐ²ÐµÑĢÐ±Ð°ÐºÑĬ":2129,"ĠÑħÓıÐ°Ð»ÑĤÓıÑĥÑħÑĬÐ°Ð½":2130,"Ð»ÑĬÐ¸ÑıÐ»Ð´Ðµ":2131,"ĠÐ±Ð¾Ð»ÑĮÐ½Ð¸ÑĨ":2132,"ĠÑĤÐ¾Ðº":2133,"ĠÐ´Ð°Ð³ÑĬÐ¸ÑģÑĤÐ°Ð½":2134,"Ð¸ÑĨÐ¸ÑıÐ»ÑĬÑĥÐ»":2135,"Ð°ÑĩÐ°Ð½":2136,"ĠÑĤÓıÐ°Ð´ÐµÐ³ÓıÐ°Ð½Ð°Ð±":2137,"ĠÑĨÐ¾ÑħÓıÐ¾":2138,"ĠÑĩÓıÐ°Ð³Ð¾":2139,"ĠÐ½ÑĥÑħÐ¼Ð°Ð»ÑĬÐ¸":2140,"ĠÐĺÐ±ÑĢ":2141,"Ð°Ð·Ð´Ð°ÑģÐ°Ð½":2142,"ĠÐ²Ð¸ÑħÑĮ":2143,"Ð¸Ð³ÓıÐ¼Ð°ÑĤ":2144,"Ð¡Ð¡":2145,"Ð°ÑĤÓıÐ°":2146,"ĠÐĵÓıÐ°Ð±Ð´ÑĥÐ»Ð°Ð³ÑĮ":2147,"ĠÑĤÓıÐ¾Ð±Ð¸ÑĤÓıÐ°ÑĢÐ°Ð±":2148,"ĠÐłÐµÑģ":2149,"ÑĥÑĢÐ½Ð¸ÑĢ":2150,"ĠÑĨÐ¾Ð½Ð¸Ð³Ð¸":2151,"Ð©":2152,"Ð°ÐºÑĬÐ¸ÐºÑĬ":2153,"ĠÐ¿ÑĢÐ¾Ð³ÑĢÐ°Ð¼":2154,"ĠÑįÐºÐ¾Ð½Ð¾Ð¼":2155,"ĠÐºÑĬÐµÑĢ":2156,"ĠÐ·Ð°ÐºÐ¾Ð½":2157,"ÑĥÑħÓıÐº":2158,"Ð²Ð°ÑĢÐ°Ð²":2159,"ĠÐļÓıÑĥÐ´Ð¸ÑıÐ±":2160,"ÑģÐ°Ð½":2161,"ĠÐ³ÓıÐ¸ÑĨÓıÐ³Ð¾":2162,"Ð»Ð°Ð´":2163,"ĠÐ±Ð°Ð¹Ð±Ð¸ÑħÑĮÑĥÐ½":2164,"Ð°ÑĢÐµÐ²":2165,"ĠÐ³ÓıÐµÐ»Ð¼":2166,"Ð±Ð°Ð»Ð°Ð³ÑĮ":2167,"ĠÑīÐ¾Ð»ÐµÐ±":2168,"Ð°ÑħÐ°":2169,"Ġ12":2170,"ĠÐ¥ÓıÐ°Ð¶Ð¸ÐµÐ²":2171,"ĠÑģÐ¾Ð²ÐµÑĤ":2172,"ĠÑĤÓıÐ°ÑģÐ°Ð½":2173,"ĠÑĢÐ¾ÑħÑĮ":2174,"ĠÐ¾ÑĤÐ´ÐµÐ»Ð°Ð»ÑĬÑĥÐ»":2175,"ĠÑĨÐ¾Ð³Ð¸Ð´Ð°Ð±":2176,"Ð»ÑĬÑĥÐ½Ð¸":2177,"Ð°Ð´Ð°ÑģÐ°":2178,"ÐµÐ´ÐµÑĢ":2179,"ÐĶÐ°Ð³ÑĬÐ¸ÑģÑĤÐ°Ð½":2180,"ĠÐºÑĬÐ²Ð°ÑĤÓıÐ¸Ð±Ðµ":2181,"ĠÐ³ÓıÐ°ÑħÑĮÐ°Ð»ÑĩÐ°Ð³Óı":2182,"Ð¾Ðµ":2183,"ĠÑĩÓıÑĥÑħÓı":2184,"Ð¾ÐºÑĬ":2185,"ÐºÐ¾Ð¼":2186,"ĠÐ°Ð¿":2187,"Ð¸Ð·Ð°Ð±ÑĥÐ»ÐµÐ±":2188,"Ð¸ÑıÐ¹":2189,"Ð´Ð¶":2190,"Ð³ÑĥÑĢ":2191,"ĠÐ±Ð°Ñģ":2192,"ĠÑħÓıÐ°Ð»ÑĤÓıÐ°Ð½Ð°":2193,"Ð¸Ð·Ð°Ð±ÑĥÐ½Ð°":2194,"ĠÑĩÐ¸ÑıÑģÑĥÐ»":2195,"ĠÐ²Ð°Ñĩ":2196,"ĠÐ¼ÑĥÑħÓıÐº":2197,"Ð°ÑĩÓıÐ¾Ð³Ð¾":2198,"ĠÑĢÐ°ÑħÑĬÐ°Ð»Ð´Ð°ÑģÐ°Ð½":2199,"ĠÐºÑĮÐ¾Ð»ÐµÐ»":2200,"Ð³ÑĮÑĥÐ½":2201,"Ð¾ÑĢÐ´Ð¾":2202,"ĠÐ»ÑĬÑĥÐ³ÓıÑĥÐ½":2203,"Ð³Ð¸Ð½":2204,"ĠÑħÓĢÐ°Ð»":2205,"Ð°ÑĤÑĢ":2206,"ÐµÐ½Ñģ":2207,"Ð¸Ð´Ð°ÑģÐ°Ð½":2208,"ĠÐ±ÑĥÐ³Ð¾Ð½Ð¸":2209,"ĠÐĶÐ¸Ð´Ð°":2210,"ĠÐ±Ð¸ÑĨÐµÐ½":2211,"Ð¾Ð½ÑĤ":2212,"ĠÐ²Ð°ÑĩÓıÑĥÐ½":2213,"Ð¸ÑħÑħ":2214,"ÐµÑĢÑģ":2215,"ĠÐ¶Ð°Ð½Ð¸ÑĢ":2216,"Ð°ÑħÓıÐ¼Ð°Ð½":2217,"ĠÑħÓıÐ°Ð»ÑĤÓıÐ°Ð±Ð¸":2218,"Ð¦Óı":2219,"ĠÑĨÓıÐ°ÑĢÐ°Ð»Ð´Ð°":2220,"ĠÐºÐ³":2221,"ĠÐ½Ð¸Ð³ÓıÐ¼Ð°ÑĤ":2222,"Ð²Ð°Ð»Ð¸":2223,"Ð°Ð½ÑĤ":2224,"ĠÑħÓıÐ°ÐºÑĬÐ¸ÐºÑĬ":2225,"ĠÐ³Ð¾Ñĩ":2226,"ĠÐ³ÓıÐ¸":2227,"ĠÑĤÐ°ÐºÑĬÑģÐ¸ÑĢ":2228,"ĠÐ¥Ð°Ð»ÐºÑĬ":2229,"Ð¾ÑģÑĤ":2230,"ĠÐºÑĮÐ²Ð°Ð³ÑĮ":2231,"Ð°Ð±Ð»ÑĬÑĥÐ½":2232,"ĠÑĢÐ¸ÑĤÓıÑĥÑħÑĬ":2233,"ÑĢÐ°ÑĤ":2234,"ĠÐ¸Ð´Ð°ÑĢ":2235,"ĠÐ»ÑĬÐ°Ð±Ð°Ð±Ð¸Ð»ÐµÐ±":2236,"ĠÐ°Ð·":2237,"ÐĵÑĮÐµÐ½":2238,"Ð¸ÐºÐ°":2239,"ĠÐĲÐ»Ð»Ð°Ð³ÑĮÐ°ÑģÑĥÐ»":2240,"ÑħÐ°Ð»":2241,"ĠÐ±Ð°Ð»ÐµÐ±":2242,"ĠÐºÓıÐ°Ð»ÑĬÐ°Ð·Ðµ":2243,"ĠÐ±ÐµÑĢÐ±Ð°Ð»Ð°Ð³ÑĮ":2244,"ĠÐ³ÑĬÐ¾ÑĢÐ»ÑĬÐµ":2245,"ĠÐºÑĬÐ°Ð¹":2246,"ĠÐ±ÐµÐ³":2247,"Ð´ÐµÑħÑĥÐ½":2248,"ÑĨÐ¸ÑıÐ»ÑĬÑĥÐ»":2249,"ĠÐ½Ð°ÑĩÐ°Ð»":2250,"ĠÐĵÓıÐ°Ð±Ð´ÑĥÐ»Ð¼":2251,"Ð°Ð·Ð´Ð°Ð»ÑĬÑĥÐ½":2252,"ĠÐ²Ð¸ÑĤÓı":2253,"ĠÐºÑĬÐ°Ð³ÓıÐ¸Ð´Ð°ÑıÐ»ÑĬ":2254,"ĠÐ»ÑĬÐµÐ·Ðµ":2255,"ĠÐ³ÑĮÐµÐ±Ð³Ð¾":2256,"ĠÑħÑĥÐ½":2257,"Ð°Ð´Ð¸Ð¾":2258,"ĠÐºÐ¸Ð½Ð°Ð·":2259,"ĠÑĤÐµÑħ":2260,"ĠÑĪÐ°ÑĢÑĤ":2261,"ÐµÐ½ÐµÐº":2262,"ĠÑģÐ²ÐµÑĢÑĥÐ½":2263,"ĠÐ³ÑĮÐ°Ð±ÑģÐ°Ð³ÓıÐ°ÑĤ":2264,"ĠÐºÑĬÐ°Ñģ":2265,"Ð°Ð·ÑĥÐ»Ð³Ð¸":2266,"ĠÑħÐ²ÐµÐ·Ð°Ð±":2267,"Ð°ÑĤÐ°Ð»ÑĬ":2268,"ĠÐ¼Ð¸Ð½Ð¸ÑģÑĤÑĢ":2269,"ĠÐºÐºÐ¾Ð»Ð°Ð°Ð½":2270,"ĠÐĵÓıÐ°Ð±Ð´ÑĥÐ»Ð°ÑĤÓıÐ¸Ð¿":2271,"ĠÐ²ÐµÑĤÐµÑĢ":2272,"ĠÐ´Ð°Ð½Ð´ÐµÐ»ÑĬÐ¸":2273,"Ð¸Ð½Ð°Ð²":2274,"ÑĢÐ°Ð±Ð¸":2275,"ĠÐºÐ¼":2276,"ÐµÑĢÐµÐ½":2277,"ĠÐĺÐ±ÑĢÐ°Ð³ÑĮÐ¸Ð¼":2278,"ĠÑĤÑĥÑĪ":2279,"Ð¸Ð»Ð°Ð»":2280,"ĠÐ±Ð°ÑħÑĬÐ¸Ð·Ðµ":2281,"Ð°ÑĢÐ´":2282,"ĠÐ±Ð°ÑĤÐ°Ð½Ð¸":2283,"ĠÐ¶Ð°Ð»Ð³Ð¾":2284,"Ð°ÑģÐ°Ð»Ð°":2285,"ĠÐ¡ÑĥÐ³ÑĬÑĢÐ°Ð»ÑĬ":2286,"ĠÐ±Ð°Ð»":2287,"Ð°Ð¼Ð¼Ð°Ð±":2288,"ĠÐºÑĮÑĥÑĩÓı":2289,"Ð°Ð±Ð¸Ð±":2290,"Ð¸Ð»Ð°Ð°Ð½":2291,"ĠÐ½Ð°ÑĩÐ°Ð»ÑĮÐ½Ð¸Ðº":2292,"Ð°ÑħÓĢ":2293,"Ð¸ÑĨÐ¸Ð¿":2294,"ĠÐ³ÓıÐ°Ð´Ð°Ð±":2295,"ĠÑħÑĬÐ²Ð°Ð·Ðµ":2296,"ĠÐºÑĮÐµÑĢ":2297,"ĠÑĢÐ¾ÐºÑĮÐ¸":2298,"ĠÑĥÐ¼ÑĥÐ¼ÑĥÐ·ÑĥÐ»":2299,"ĠÑĥÐ½Ð°":2300,"ĠÐ·Ð°Ð¼Ð°Ð½Ð°ÑıÐ»ÑĬ":2301,"ÑĩÐ¸Ð»ÑĬÐ¸":2302,"ĠÐ±ÑĥÑħÑĮÐµÐ½":2303,"Ð°Ð½Ñģ":2304,"Ð»ÑĬÐ¸ÑıÐ»ÑĬÐµ":2305,"ĠÐ±ÑĥÑģÑĥÑĢÐ±":2306,"ĠÐ´Ð¸Ð²":2307,"Ð°Ð²ÑĥÐ»":2308,"Ġ11":2309,"Ð°Ð´Ð¼Ð¸Ð½Ð¸ÑģÑĤÑĢÐ°ÑĨ":2310,"ÑħÑĬÐµ":2311,"ÑĢÑĥÐ·":2312,"ÑģÑĥÐ¿":2313,"ĠÑĨÓıÐ°ÑĢÐ°Ð»":2314,"ĠÑħÑĬÐ²Ð°Ð»ÐµÐ±":2315,"ĠÐ´Ð¾ÐºÑĥÐ¼ÐµÐ½ÑĤ":2316,"ĠÐºÑĥÑĩÓıÐ´ÑĥÐ»":2317,"ĠÐ½ÑĥÑģ":2318,"ĠÑīÐ¸Ð±Ð³Ð¾":2319,"ĠÐ»ÑĬÐ°Ð·Ð°Ð±ÑĥÐ½Ð°":2320,"ĠÐ¾Ð¿ÐµÑĢ":2321,"ĠÐ¼ÐµÐºÑĬ":2322,"Ð°Ð·ÑĥÐ»Ð³ÑĥÐ½":2323,"ĠÑıÐ»ÑĬÑĥÐ½Ð¸":2324,"ĠÐºÐ¾Ð¼Ð¿":2325,"ĠÑħÑĥÑĤÓıÑĥÐ½":2326,"ĠÑħÓıÐ°Ð»ÑĤÓıÑĥÑħÑĬÐ°Ð±Ð°Ð·":2327,"ĠÐľÐ°ÑĢ":2328,"Ð¿Ð¾ÑĢÑĤ":2329,"ÐºÓıÐ°Ð»":2330,"ĠÐ³ÑĮÐ°ÑĢÑĥÐ»Ð°":2331,"ĠÑĤÓıÐ°Ð»ÑĬ":2332,"Ð¾Ð²Ð°ÑģÐµ":2333,"ĠÑĩÓıÐµÐ·Ðµ":2334,"ĠÐ³ÓıÐµÐ»Ð¼Ñĥ":2335,"ĠÐľÐ°ÑħÓıÐ°ÑĩÑħÑĬÐ°Ð»Ð°ÑıÐ»Ð´Ð°":2336,"ĠÐ¸Ð½ÑĦÐ¾ÑĢÐ¼":2337,"ĠÑīÑĥÐ³Ð¾":2338,"ĠÐ½ÑĥÑħÐ°Ð»Ð´Ð°":2339,"ĠÑĪÐ°ÑĢÑĤÓıÐ°Ð»":2340,"Ð°Ð¿Ð°ÐºÑĬ":2341,"ĠÑĢÐ°ÐºÓıÐ°ÑĢ":2342,"ĠÑĢÐµÐ³Ð¸":2343,"ĠÐºÓıÐ¾ÑĩÐ¾Ð½":2344,"ÑĥÑģÐµÐ½":2345,"ÑĨÐ¾ÑıÐ»":2346,"ĠÑĨÓıÐ°Ð»Ð´Ð¾ÑħÑĬÐ°Ð½":2347,"Ð°Ð½Ð¸Ð»Ð°Ð½":2348,"ĠÐ³ÓıÐ¸Ñģ":2349,"ÑģÑĤÑĢ":2350,"ĠÐ³ÓıÐ°ÑĢÐ·":2351,"Ð¸ÑıÐ»Ð´Ð°Ð»ÑĬÑĥÐ½":2352,"ĠÐ¸ÑģÐ°Ð½Ð°":2353,"ĠÐ³ÑĢ":2354,"ĠÐºÐ¸Ð»":2355,"ĠÐ¼Ð°ÑĨÓıÐ°Ð»Ð´Ð°":2356,"ĠÑģÐ°Ð¿":2357,"ÐµÑĢÑħ":2358,"ĠÐ±Ð¾ÑĢ":2359,"ĠÐ±Ð°ÑĤÐ¸Ð»Ð°":2360,"ĠÐ±Ð¸ÑĤÓıÐ°ÑĢÐ°Ð±":2361,"ĠÐ¸Ñİ":2362,"ĠÐĵÓıÐ°Ð´":2363,"ĠÑħÓıÐ°ÑģÐ¸Ð»Ð°Ð»Ð´Ð°":2364,"ĠÐ¹Ð¸ÐºÓıÐ°Ð½Ð°":2365,"ĠÐºÐ°Ð½":2366,"ÑĢÑĥÐ·ÑĥÐ»":2367,"Ð°Ð»Ð´ÐµÑħÑĥÐ½":2368,"ĠÑĢÐµÑģÐ¿ÑĥÐ±Ð»Ð¸ÐºÐ°ÑıÐ»Ð´Ð°":2369,"ĠÐ±Ð°Ð»Ð°Ð³ÑĮÑĥÐ½":2370,"ĠÑħÓıÐ°Ð»Ð±Ð¸ÑħÑĮ":2371,"ÐĵÑĬ":2372,"ĠÐ½ÑĥÑħÐ°Ð»":2373,"Ð°Ð´Ð°ÑĢÑĥÑħÑĬ":2374,"ĠÐ±Ð°ÑĩÓıÐ°Ð½Ð°":2375,"ĠÑĨÓıÑĥÐ½Ð¸ÑıÐ»ÑĬÑĥÐ»":2376,"ĠÐ²ÑĥÐ³Ð¸Ð½":2377,"ĠÑĤÐµÑĢÑĢÐ¾ÑĢ":2378,"ĠÐ¢ÓıÐ°Ð´Ðµ":2379,"ĠÑĤÐµ":2380,"ÑĢÐ°Ð±":2381,"ĠÑĢÐµÐ»ÑĬ":2382,"ĠÐ¶ÑĥÑĢÐ½Ð°Ð»Ð¸ÑģÑĤ":2383,"Ð°Ð·ÐµÐ³Ð¾":2384,"ĠÐĵÑĮÐµÐ»ÑĬÐ¸Ðµ":2385,"ĠÐ´ÑĥÐµ":2386,"Ġ14":2387,"ĠÐ½Ð¸Ð»ÑĬÐµÑĢÐ³Ð¾":2388,"ĠÑĤÐ°Ð´Ð±Ð¸ÑĢÐ°Ð»":2389,"ĠÑĢÐµÐºÓıÐµÐ»ÑĬ":2390,"ĠÐºÓıÑĥÐ´Ð¸ÑıÐ²":2391,"ĠÐ¨Ð°Ð¼":2392,"ĠÑħÑĬÐ¸Ð·Ð°Ð¼":2393,"Ð´Ð°Ð±":2394,"ĠÐ®ÑģÑĥÐ¿":2395,"ĠÐ³ÑĢÐ°Ð¼":2396,"ĠÐ³ÓıÑĥÑĨÓıÑĥÐ½":2397,"ĠÑĤÓıÐ¾Ð»Ð°Ð±Ð³Ð¾":2398,"Ð¼ÐµÐ´":2399,"ĠÑĪÐ°Ð¿Ð°ÐºÑĬ":2400,"ĠÐ£Ð½":2401,"ÑĥÑĨÓĢ":2402,"ĠÐ¿ÑĢÐ¾ÐµÐºÑĤ":2403,"ÑĢÐ°ÐºÓı":2404,"ĠÑħÓıÐ°ÐºÐ¸Ð¼":2405,"ĠÐľÑĥÑħÓıÐ°Ð¼Ð°Ð´Ð¸ÑĨÐ°":2406,"ĠÐ¿ÑĢÐ¾ÑĨ":2407,"ÑĢÐ°Ð»":2408,"ĠÑĪÐ°ÑĢ":2409,"ĠÐ¸ÑĪÐ°Ð·ÑĥÐ»":2410,"ĠÑĢÐµÑħÑĥÐ½":2411,"ĠÐ³ÑĮÐ°Ð½Ð¶":2412,"ĠÑĥÐ½Ð³Ð¾":2413,"ĠÐºÐ¾Ð½ÐºÑĥÑĢÑģ":2414,"Ð·Ðµ":2415,"ĠÐ±ÐµÐ³ÑĮÑĥÐ»Ð°ÑĢÐ¾":2416,"ĠÑģÐ¾ÑĢÐ´Ð¾":2417,"ĠÐ¼Ð°ÑĨÓıÐ°Ð»ÑĬÑĥÐ»":2418,"ĠÐ³ÑĮÐ°Ð±ÑĥÐ»":2419,"ĠÐĽÑĬÐ°ÑĢ":2420,"ĠÐºÑĬÑĥÐ²Ð°ÑĤ":2421,"Ð¸Ð¼Ð½":2422,"ÑĥÑħÓĢ":2423,"Ð¸Ð»Ð¾Ð²":2424,"ĠÐĲÑħÐ¸ÑĢ":2425,"ÑĥÐºÑĮ":2426,"ĠÐļÐ¸Ð½Ð°Ð±":2427,"Ð°ÑĢÐ°Ð±Ð³Ð¾":2428,"ĠÐºÐºÐµÐ·Ðµ":2429,"ĠÐ¶Ð¸Ð½ÑĨÐ°":2430,"ĠÐ³ÑĮÐ°Ð±ÑĥÐ»ÐµÐ²":2431,"Ð½Ð¸ÑıÐ±":2432,"ĠÐ´Ð¾Ð»":2433,"ĠÐºÐ¸Ð´Ð°Ð½Ð¸Ð³Ð¸":2434,"Ð²Ðµ":2435,"ĠÑĨÓıÑĥÐ½ÑĥÐ½":2436,"ÑĤÓĢÐµÑĢ":2437,"ĠÑĢÐ°ÐºÑĬ":2438,"ĠÐºÐºÐµÐ»":2439,"ĠÑĨÓıÐ°":2440,"ĠÐ±Ð¾ÐºÑĮÐ°ÑĢÐ°Ð±":2441,"ĠÑĩÓıÐ°ÑħÓıÐ¸ÑıÐ»":2442,"ĠÐ±Ð¸ÑħÑĮÐ¸Ð·Ð°Ð±ÑĥÐ½Ð°":2443,"Ð¾ÑĨÐµÐ±ÐµÑģÐµÐ±":2444,"ĠÐ±ÐµÑĢÑĨÐ¸Ð½Ð°Ð±":2445,"ÑĢÐ¾Ñģ":2446,"ĠÐ±Ñİ":2447,"ĠÑĢÑĥÐºÓıÑĥÐ½Ð°":2448,"ĠÐĵÑĬÑĥÐ½Ð¸Ð±":2449,"ĠÑħÓıÐ°Ð»ÑĤÓıÑĥÐ»ÐµÐ²":2450,"ĠÑħÓıÐ¸ÑģÐ°Ð±Ð°Ð»Ð´Ðµ":2451,"Ð¼ÑĥÐ´":2452,"ĠÐ¿Ð¾Ñį":2453,"ĠÑĩÓıÐµÐ·Ð°ÑĢ":2454,"ÑĥÐ¿ÑĢÐ°Ð²Ð»ÐµÐ½":2455,"ĠÑĢÑĥÐ³ÑĮÑĥÐ½":2456,"ĠÐ³ÑĮÐµÑĩÓıÐ¾Ð»ÑĬÐ¸":2457,"ĠÐ°ÑħÐ¸ÑĢÐ°Ð»Ð´Ð°":2458,"ĠÑħÓıÐ°ÑģÐ¸Ð»Ð°Ð»":2459,"ĠÐºÑĬÐ°Ð³ÓıÐ¸Ð´Ð°ÑıÐ»Ð´Ð°":2460,"Ð¸Ð´Ð°ÑģÐ°":2461,"ÐºÑĢ":2462,"ĠÐ¼Ð¸Ð½Ð°":2463,"ĠÑħÓıÐ°Ð¶Ð°ÑĤÐ°Ð±":2464,"ĠÐ³ÓıÐµÐ½ÐµÐº":2465,"ÐµÑģÑĥÐ»":2466,"ĠÑĤÓıÐ°Ð´ÐµÐ³Ð¸":2467,"ÑģÑĤÐ¸ÑĤÑĥÑĤ":2468,"ĠÑĤÓıÐ¸Ð±":2469,"ĠÑĢÐ¾ÐºÑĬÐ¾Ð±":2470,"ĠÑĢÐ°ÑħÑĮÐ´Ð°Ð»":2471,"ĠÑĢÐ°ÑħÓı":2472,"ĠÐ³ÓıÐ°Ð´Ð»Ñĥ":2473,"Ð°ÑĢÐ°Ð·":2474,"Ð°Ð¼Ð¼Ð°Ð´":2475,"ĠÐ»ÑĬÑĥÑĢÐ°Ð±":2476,"ĠÐºÐ²ÐµÐ½":2477,"ĠÐ±Ð¾ÑģÐ°Ð½Ð°":2478,"Ð°Ð¸Ð½":2479,"Ð¸Ð½Ð´Ð¸ÑĢ":2480,"ĠÑĢÐ°Ð·Ð¸":2481,"ĠÐļÑĮ":2482,"ĠÑħÓıÐ°Ð»ÑĤÓıÐ¸Ð·Ð°ÑĢ":2483,"ĠÑĢÐ°Ð³ÓıÐ°Ð±Ð¸":2484,"ĠÐ±ÑĥÑĤÓıÐ°":2485,"ĠÐłÐµÑģÐ¿ÑĥÐ±Ð»Ð¸Ðº":2486,"ÑĤÓıÐ°":2487,"ĠÐºÑĬÐ²Ð°ÑĤÓıÐ¸ÑĢÐµ":2488,"ÑħÓıÐ°Ð¶Ð¸":2489,"ĠÐ¼Ð°ÑĢ":2490,"ĠÑĢÑĥÐºÓĢ":2491,"ĠÐĵÑĮÐµÐ´Ð¸Ð½Ð°Ð±":2492,"ĠÐ³ÑĮÐ¾Ð±":2493,"ĠÐ³Ð°Ð·":2494,"ĠÐĵÑĮÐµÐ·Ð´Ð°":2495,"ÑĩÓıÑĥÐ½":2496,"Ð¸ÑģÐº":2497,"Ð°Ð·ÐµÐ³Ð¸":2498,"ĠÑħÑĮÑĥÐ»":2499,"ĠÐ³Ð°Ð·ÐµÑĤÐ°":2500,"ĠÐ¥ÓĢ":2501,"ĠÐºÑĬÐ°Ð½ÑĥÐ½":2502,"ĠÐ»ÑĬÐµÐ»":2503,"ĠÐĵÓıÐ°ÑĢ":2504,"ĠÑĢÐ°Ð¹Ð°Ð´Ð¼Ð¸Ð½Ð¸ÑģÑĤÑĢÐ°ÑĨ":2505,"ĠÑĢÐ¸Ð³ÑĮ":2506,"ĠÐ´ÑĥÐ´Ð°":2507,"ĠÐ·Ð°ÑħÓıÐ¼Ð°Ð»ÑĬ":2508,"ĠÐ¥Ð°Ð´ÑĥÐ±":2509,"ĠÐ»ÑĬÐ°Ð³ÓıÐ°Ð»":2510,"ĠÐ·Ð°Ð»Ð°Ð»Ð´Ð°":2511,"Ġ194":2512,"ĠÐ³ÓıÐ¾Ð»Ð¾ÑħÑĬÐ°Ð½":2513,"ĠÐ±Ð¸ÐºÑĮ":2514,"Ð¸Ð½Ð³":2515,"ĠÐºÑĮÐµÐ¹":2516,"ĠÐ¡Ð°Ð³ÓıÐ¸Ð´":2517,"Ð°ÑĪÐ¼Ð°Ð½":2518,"ĠÑĤÓıÐ¸Ð±Ð¸ÑĤÓı":2519,"ĠÐºÑĬÐ¸Ñģ":2520,"ĠÑĢÐ°Ð´Ð¸Ð¾":2521,"Ġ17":2522,"ĠÐ³Ð¸Ð¼Ð½":2523,"ĠÐ°ÑĢÐ¼":2524,"ĠÑĤÐ°Ð¹Ð¿":2525,"ĠÐ³ÑĮÐµÐ»Ð´Ð°ÑģÐ°":2526,"ĠÐ¥ÓıÐ°ÑģÐ°Ð½":2527,"ÑĤÐ°":2528,"ÑģÐ¸ÑıÐ»ÑĬÑĥÐ»":2529,"ĠÑĢÐµÐ³Ð¸Ð¾Ð½":2530,"Ð¸ÐºÓĢÐºÓĢ":2531,"Ð°ÑıÐ·":2532,"ĠÐľÐ°ÑģÐ°Ð»Ð°":2533,"ĠÐ±ÐµÐ³Ð°Ð²ÑĥÐ»":2534,"ĠÐ³ÓıÑĥÑĨÓıÐ¸ÑıÐ»ÑĬÑĥÐ»":2535,"ÑĢÐ°":2536,"ĠÑĢÐ°Ð»Ð°Ð³ÑĮ":2537,"ÐµÐºÑģ":2538,"Ġ199":2539,"ĠÐ±Ð°ÑĩÓıÐ°ÑĢÐ°Ð±":2540,"Ð¾Ð³ÑĮ":2541,"ĠÑĥÐ½ÐºÑĬ":2542,"Ð°ÑĤÐ°Ð·ÑĥÐ»":2543,"ĠÐ¼Ð°ÑĤ":2544,"ĠÐ½Ð°Ð»":2545,"Ð¸ÑĢÐ°":2546,"ÑİÐ·":2547,"ĠÐ»ÑĬÐ°Ð¹ÐºÑĮÐµÑıÐ»ÑĬÑĥÐ»":2548,"Ð¸ÑĦ":2549,"ĠÑĢÐ¸ÐºÓıÐºÓıÑĥÐ½ÐµÐ±":2550,"Ð°Ð¹Ð¸ÑĢ":2551,"ĠÑĨÓıÐ°Ð¹":2552,"ĠÐ³ÓĢÑĥÑĨÓĢ":2553,"ĠÑĤÑĥÑĢÐ½Ð¸ÑĢ":2554,"ĠÐ³ÑĮÐ°ÑĢÐ°ÐºÑĮ":2555,"Ð°Ð»Ð´Ð°Ð³Ð¾":2556,"ĠÐ½Ð¸Ð·Ð°Ð¼":2557,"Ð±Ð¸Ð»":2558,"ĠÐ³ÓıÐ°Ð½":2559,"ĠÐ¼ÑĥÐ½Ð¸ÑĨÐ¸Ð¿":2560,"ĠÐºÐ¾ÑĢ":2561,"Ð¸ÑĢÐ·":2562,"ÑĢÐ°ÑģÑĥÐ»":2563,"ĠÐ°Ð²Ð°ÑĢÐ°Ð³":2564,"ĠÐ²Ð°ÑħÑĬÐ°Ð½Ð°":2565,"Ð³ÑĥÑģÑĤ":2566,"ÐµÑģÐµÐ´":2567,"Ð¾Ð´Ð¾ÑĢ":2568,"ĠÐ½Ð¾Ð¼ÐµÑĢ":2569,"Ð¸Ð½Ñģ":2570,"Ð¸Ð´Ð°Ð±":2571,"ĠÐĵÓıÐ°Ð»Ð¸":2572,"ĠÑīÐ¾Ð»Ð°":2573,"ĠÐ¿ÑĢÐ¾ÑĦ":2574,"ÐµÑĢÑĤ":2575,"Ð´Ð¶ÐµÑĤ":2576,"ÐµÑĢÐµ":2577,"ĠÐºÑĬÐµÑĢÐºÑĮ":2578,"Ð¸ÑĢÐ¾Ð²":2579,"Ð°ÑĢÐ°Ð»ÑĬ":2580,"ĠÐĵÑĮÐµÐ»Ð´Ð°ÑģÐ°":2581,"Ð¾Ð¿":2582,"ĠÐ³ÑĮÐ°Ð´Ð¸Ð½Ð°Ð±":2583,"ĠÑħÓĢÐ°Ð»ÑĤÓĢ":2584,"ĠÑĢÑĥÐ³ÐµÐ±":2585,"ĠÑīÐ²ÐµÐ·Ð°Ð±":2586,"ĠÐ¨Ð°Ð³ÑĮ":2587,"ĠÐºÐ°Ð»Ð°Ð¼":2588,"ĠÑıÑħÓı":2589,"ĠÐ³ÑĮÐ¾ÑĢÐºÑĮÐ¾Ñģ":2590,"ĠÐ¼Ð°Ð³ÓıÐ½Ð°":2591,"ĠÐ³ÓıÐ¾ÑĢÑħÑĬ":2592,"ÐĵÑĮÐµÐ´Ð¸Ð½Ð³Ð¾":2593,"ĠÑģÐ¾ÑĨÐ¸Ð°Ð»Ð¸ÑıÐ±":2594,"Ð¶Ð°Ð½":2595,"Ð°Ð²ÑİÑĢÑĤ":2596,"ÑĩÐ¸ÑıÑģ":2597,"ÑĥÑħÑĬÐ°":2598,"ÑĥÐ´Ð°ÑģÐ°":2599,"ĠÑģÐ¾Ð½Ð°Ð»Ð´Ð°ÑģÐ°":2600,"Ð°Ð»ÑĬÑĥÐ»Ð°Ð»":2601,"Ð¸ÑıÐ±Ð³Ð¾":2602,"ĠÐ²Ð¸Ñī":2603,"ĠÐ½Ð°ÑħÑĬÐ°":2604,"Ð°Ð³ÓıÐ°ÑĢÑĥÐ»":2605,"ÑĥÐ³ÑĮÐ°Ð»":2606,"ĠÐ°Ð±Ð¸Ð»ÐµÐ±":2607,"ĠÐ¡ÑĥÐ»":2608,"ĠÑįÑħ":2609,"ĠÐ¼ÐµÐ´Ð°Ð»":2610,"ÑĥÑģÐ¼Ð°Ð½":2611,"ÑĪÐ°Ð³ÑĮ":2612,"ĠÐ¿Ð°ÑĪÐ¼Ð°Ð½":2613,"ĠÐ³ÓıÐ°ÐºÑĬÐ»Ñĥ":2614,"ĠÐŁÑĢ":2615,"ĠÐļÐ°Ð²ÐºÐ°Ð·Ð°Ð»ÑĬÑĥÐ»":2616,"Ð¾ÑİÐ·":2617,"Ð°ÑĢÐ¸Ñī":2618,"ĠÐĵÑĮÐ°ÑĢ":2619,"Ð°Ð´Ð¸Ð½":2620,"ĠÐ¸Ð·":2621,"ĠÐ³ÑĮÐµÐ±Ð³Ð¸":2622,"ĠÐ¶ÑĥÐ±":2623,"Ð¸Ð·ÐµÐ³ÓıÐ°Ð½":2624,"ĠÐ³ÓıÑĥÑĨÓıÐ°ÑĢÐ°Ð±":2625,"ĠÑīÑĥÐ»Ð¸ÑıÐ±":2626,"Ð°ÑĢÐ°Ð»ÑĬÑĥÐ»":2627,"ĠÑĨÓıÐ¸ÑıÐ»":2628,"ĠÐ´Ð°Ð³ÑĮÐ°Ð»":2629,"ĠÐ¼ÑĥÑĢÐ°Ð´Ð°Ð»Ð´Ð°":2630,"ĠÐĵÓıÐ°Ð±Ð´ÑĥÑĢÐ°ÑħÓıÐ¼Ð°Ð½":2631,"Ð±ÑĥÐ»":2632,"ĠÑīÐ²Ð°ÑĢÐ°Ð»":2633,"ĠÐ³ÓıÐ¾Ð»Ð¾ÑħÑĬÐ°Ð±Ð¸":2634,"ÑĤÐ½Ð¸Ðº":2635,"ĠÐ²ÑĥÑģÑģ":2636,"ĠÐĳÐµ":2637,"ĠÑĤÓıÐ°Ð´ÐºÑĬ":2638,"ĠÐ±Ð°ÑħÑĬÐ°Ð½Ð°":2639,"ĠÐ¼ÑĥÑħÑĬÐ°Ð»Ð´Ð°":2640,"ĠÐ¼Ð°Ð´Ð°Ð½":2641,"Ð±Ð°ÑħÑĬÐ¸Ð½":2642,"ĠÐĲÐ³ÑĬÐ²Ð°Ð»Ð¸":2643,"ĠÑĢÐ°ÑħÑĬÑĥÐ½":2644,"Ð³ÑĬÑĥÐ»":2645,"ĠÐ°ÑħÓıÑĥÐ½":2646,"ĠÑĥÑĢÐ³ÑĬÐµÐ»":2647,"ĠÐ»ÑĬÑĥÐ½Ð°":2648,"Ð°Ð³ÓıÐ±":2649,"ĠÑĩÐ¸ÑıÑģÐµ":2650,"ĠÐºÐ²ÐµÑĪÐ°Ð±":2651,"Ð½Ñĥ":2652,"ĠÑĥÐ¿ÑĢÐ°Ð²Ð»ÐµÐ½":2653,"Ð¸Ð´Ð°Ð³Ð¾":2654,"Ð°Ð»ÑĬÐµÐ³Ð¸":2655,"Ð³ÑĥÑĢÐµÐ»ÑĬÑĥÐ»":2656,"ĠÑĥÑģÑĤ":2657,"Ð°ÑĢÐ¸ÑıÐ»ÑĬÑĥÐ»":2658,"ÑıÐ±ÑĢ":2659,"ĠÐ°ÑģÐºÓıÐ¾Ð±":2660,"ĠÐĲÐ·":2661,"Ð¸Ð½Ð°Ð»Ð³Ð¾":2662,"ĠÐ¿ÑĢÐ¾ÑĨÐµÐ½ÑĤ":2663,"Ð½Ð°ÑħÑĬ":2664,"ÑĪÐ°Ð²":2665,"ĠÐ°ÑĢÐ°Ð»":2666,"ĠÐ¢ÑĥÑĢ":2667,"ĠÐ±ÐµÑĢÐ³ÑĮÐµÐ½Ð»ÑĬÐ¸":2668,"ĠÑģÐ°Ð¹Ð³ÑĬÐ°ÑĤ":2669,"ÐµÐºÑĬ":2670,"Ð¾Ð»Ð¾":2671,"ÑĥÐ¼Ð¾":2672,"ĠÐ³ÑĮÐµÐ½Ð¸Ð²":2673,"Ġ100":2674,"ÑĢÐºÐµÐ½Ð»ÑĬÐ¸":2675,"ĠÐºÑĬÐ²Ð°ÑĢÐ¸Ð³ÓıÑĥÐ½":2676,"ĠÐºÐ¾Ð»ÑħÐ¾Ð·Ð°Ð»ÑĬÑĥÐ»":2677,"ĠÐ¿Ð°Ð¹Ð´":2678,"ĠÑĥÐ½ÑĤÐ¸":2679,"ĠÐĵÑĮÐµÐ½Ð¸ÑĢ":2680,"ĠÐ³ÑĮÐ¾Ð±Ð¾Ð»":2681,"Ð¸ÑĤÐµÐ»":2682,"ĠÑĢÐ°ÑĩÓıÑĥÐ½ÐµÐ»":2683,"Ð¸Ð»Ð¸Ð¼":2684,"Ð¸ÑĤÓĢ":2685,"ĠÐºÑĥÑĤÐ°ÐºÐ°Ð»Ð´Ð°":2686,"Ð°Ð³ÓıÐ°Ð½":2687,"ĠÐ³ÑĮÐµÐ½Ð¸ÑĢÐµ":2688,"Ð°ÑĤÐ¸ÑĨÐ°":2689,"Ġ13":2690,"ĠÐµ":2691,"ĠÑĢÐ°Ð³ÓĢ":2692,"ĠÑĤÓıÐ°Ð´Ð°Ð±":2693,"Ð°Ð¹Ð½":2694,"ĠÐ³ÓıÐ¾Ð´Ð¾Ð±Ðµ":2695,"ÑĥÑħÑĬÐ°Ð½":2696,"Ð¸ÑĩÓıÐµÐ±":2697,"ĠÐ½Ð¸Ð¶ÐµÐ´Ð°":2698,"ĠÐ¿ÐµÐ´":2699,"Ð¸Ð¼Ð°Ð»Ð¸ÑıÐ±":2700,"ĠÐºÑĬÐ¾Ð¹":2701,"ĠÐĿÑĥÑĢÐ¼":2702,"ĠÐ±ÑĥÐºÓıÐ¸Ð½ÑĩÓı":2703,"ÑĥÑĤÐ¸Ð½":2704,"ĠÐ±ÑİÐ´Ð¶ÐµÑĤ":2705,"ÐµÑĦ":2706,"Ð»Ñı":2707,"Ð°ÑħÐ°Ð½":2708,"Ð°Ð¼ÑĥÑģ":2709,"ĠÑĢÐ°ÑħÑĬÐ°Ð½Ð°":2710,"ĠÑĤÓıÐ¾Ð±Ð¸ÑĤÓıÑĥÐ»ÐµÐ±":2711,"ÑĥÑĢÐ±Ð°Ð½":2712,"Ð¸Ð·Ð°Ð²":2713,"Ð»Ð¸Ñģ":2714,"Ð¸Ð»ÑĬÐ»ÑĬ":2715,"ĠÐ°Ð±ÑĥÑĢÐ°Ð»":2716,"Ð°ÑĤÐ¾ÑĢ":2717,"Ð°Ð´ÑĥÐ»Ð°Ð±":2718,"Ð³Ð¸ÑĨÐ¸Ð½":2719,"Ð¸Ð½Ð´Ð°Ð»":2720,"ĠÐ³ÑĮÐ°Ð±Ð¸ÑĩÓıÐ¾Ð³Ð¾":2721,"ÐµÑģÑĤÐ²Ð¾":2722,"Ð°Ð½Ð´Ð°":2723,"ÐĿÐ¸Ð»ÑĬÐµÑĢ":2724,"Ð¡Ð¡Ðł":2725,"ĠÐĿÑĥÐ¶":2726,"ĠÐ´Ð¸ÑĢÐ³Ð¾":2727,"ĠÐ°Ð²Ð³ÑĥÑģÑĤ":2728,"ĠÑĤÐ°Ð½Ð°":2729,"ĠÐ±Ð°ÑĩÓıÑĥÐ½":2730,"Ð´ÐµÑĢ":2731,"ĠÐ¥ÓıÑĥÑģÐµÐ½":2732,"ĠÐ³ÑĮÐ°Ð²ÑĥÐ½Ð°":2733,"ĠÑģÐ²":2734,"ĠÑĢÐ°ÑħÑĬÐ°ÑĢÐ°Ð»":2735,"Ð¸Ð°Ð»Ð¸ÑģÑĤ":2736,"ÐµÐ³ÓıÐµÑĢ":2737,"ĠÑģÐµÐ½ÑĤ":2738,"ĠÐºÑĬÐ¾ÑıÐ»Ð´Ð°":2739,"ĠÐ±ÑĥÐºÓıÑĥÐ½ÐµÐ±":2740,"ĠÐ¥ÑĮ":2741,"ĠÐĶÐ¾Ð±":2742,"Ð»Ð°Ð¼":2743,"ĠÐºÑĢ":2744,"Ð²Ð°Ñħ":2745,"ĠÐ¿ÑĢÐ¾Ð³ÑĢÐ°Ð¼Ð¼":2746,"ĠÑħÓıÐ°Ð»Ð°Ð»Ð´Ð°":2747,"ĠÐ±ÐµÐ³ÑĮÑĥÐ»ÐµÐ±":2748,"ĠÐ±Ð°ÐºÓĢ":2749,"ÐĲÐ»":2750,"ĠÑĨÓıÐ°Ð»Ð´Ð¾ÑħÑĬÐ°Ð±Ð¸":2751,"ĠÐ½Ð°Ð»Ð¾Ð³":2752,"ÐºÐ°Ð±Ð¸":2753,"ĠÐ³ÓıÐµÐ¼ÐµÑĢÐ¸ÑģÐµÐ»":2754,"ĠÐ±ÑĥÐºÓıÑĥÐ½Ð°ÑĢÐ¾":2755,"ĠÐºÑĬÐ¾ÑıÐ·Ð´Ð°":2756,"ĠÑĩÐ¾ÑĢÑħ":2757,"ĠÑħÓıÐ°Ð»ÑĤÓıÑĥÐ»ÑĬ":2758,"Ð°Ð¶Ð°Ð¸Ð±":2759,"Ð°Ð»ÑĮ":2760,"ĠÑĢÐ¾ÑħÐµÐ»":2761,"ĠÑıÑĨ":2762,"ÐĶÐ°Ð½Ð´Ðµ":2763,"ĠÐ±Ð°ÑħÑĬÑĥÐ»ÐµÐ±":2764,"Ð°ÑĤÐ¸Ð»":2765,"ĠÐ¼Ð°ÑĢÑĤ":2766,"ĠÐľÑĥÑĢÑĤ":2767,"ĠÐºÐºÐ¾Ð»Ð°ÑĢÐ¾":2768,"ĠÐ¼ÑĥÐ·":2769,"ĠI":2770,"Ð»ÑĬÑĥÐ»Ð°":2771,"ĠÐ»ÑĬÐ°Ð·Ð°Ð±ÑĥÐ½":2772,"ĠÐ±ÑĥÐºÓĢÐ°Ð½Ð°":2773,"ÐĵÑĮÐ°Ð»":2774,"ĠÐ´ÑĥÐ½ÑıÐ»Ð°Ð»ÑĬÑĥÐ»":2775,"18":2776,"ĠÑĦÐ¸Ð»":2777,"ĠÐ¿Ð¾Ð»Ð¸ÑĨÐ¸ÑıÐ»ÑĬÑĥÐ»":2778,"ĠÐ±ÑĥÐºÓıÐ¸Ð½Ð°":2779,"ĠÐºÓıÐ°Ð»ÑĬÐ°Ð¹":2780,"ĠÐ³ÑĬÑĥÑĤ":2781,"ĠÐ³ÑĬÐ²Ð°ÑĢ":2782,"Ġ25":2783,"ÐłÑıÐ»ÑĬÑĥÐ»":2784,"ĠÐºÓıÐ°Ð½ÑĨÓı":2785,"ĠÐľÑĥÑħÓıÐ°Ð¼Ð°Ð´Ð¾Ð²Ð°Ñģ":2786,"ĠÐľÑĥÐ½":2787,"Ð¸ÑıÐ»ÑĬÑĥÐ»ÑĬ":2788,"Ð¥ÓıÐ°ÐºÑĬÐ¸ÐºÑĬ":2789,"ĠÐķÐ²":2790,"Ð³ÑĮÐ°Ð»":2791,"ĠÐ²ÑĥÐ³Ð¸Ð»":2792,"ĠÑģÐµÐº":2793,"ĠÐ±Ð°ÑĨÓıÑĨÓıÐ°Ð´":2794,"ÐµÑģÐº":2795,"ĠÐ¶Ð¸Ð´ÐµÑĨÐ°":2796,"ĠÑĥÑĩÐ°ÑģÑĤ":2797,"Ð¸Ð¼ÑĥÑħÓıÐ°Ð¼Ð°Ð´":2798,"Ð¸ÑıÐ»ÑĬÑĥÑħÑĬ":2799,"Ð¾ÑĤÐµÐº":2800,"ĠÐºÐ¸ÑĢ":2801,"ÐºÐ¾Ð²":2802,"ĠÑĦÐ¾Ð½":2803,"ÐµÑĢÐ³":2804,"ĠÐ¼ÑĥÐ½Ð°Ð³ÑĮÐ°Ð»":2805,"Ð¸ÐºÐ°Ð»":2806,"ĠÐ³ÑĮÐ°ÑĢÐ¸":2807,"ÑĥÐ³ÓıÐ°Ð´Ð°Ð½":2808,"ĠÐ´Ð°Ð½Ð´ÐµÐ»ÑĬÐ¸ÑıÐ»Ð´Ð°":2809,"ĠÐ³ÑĮÐµÑĩÓıÐ¸Ð»Ð°Ð½":2810,"ÐĸÐ°ÐºÑĬÐ°":2811,"ĠÑħÑĥÑĤÓıÐ°Ð½Ð°":2812,"Ð°ÑĢÐ°Ð·Ð´Ð°":2813,"Ð°ÑģÐ°ÑĢ":2814,"ĠÐ¡Ð¸ÑĢ":2815,"ĠÐ¢ÓıÐ°Ð´":2816,"ĠÐ¥Ð°ÑģÐ°Ð²ÑİÑĢÑĤ":2817,"ÑĥÐºÑĥÐ¼":2818,"ĠÐļÑĬÑĥÑĢÑĬ":2819,"ĠÑħÓıÑĥÑħÑĮ":2820,"ĠÐ³ÑĥÑĢÐµÐ»":2821,"ĠÐ¼Ð°Ð´ÑĥÐ³ÑĮÐ°Ð»":2822,"ĠÐ±Ð¸Ñī":2823,"ĠÑĢÐ°Ð»ÑĬ":2824,"ÑĥÑħÑĥÐ¼":2825,"Ð¸Ð½Ð°Ð±ÑĥÐ½":2826,"ĠÐ±Ð¸ÑħÑĮÐ¸Ð·Ð°Ð±ÑĥÑĢÐ°Ð±":2827,"ĠÐºÐºÑĥÐ½Ð°":2828,"ÐµÐºÐºÑĥÐ½":2829,"ĠÐ³ÑĢÐ°Ð¼Ð¾ÑĤ":2830,"ÑħÓĢ":2831,"ĠÐ²ÑĥÐºÓĢ":2832,"ĠÑĤÓıÐ¾ÑĨÐµÐ±Ðµ":2833,"ĠÑħÓıÐ°Ð¹":2834,"ĠÑĢÐµÑĩÓı":2835,"ĠÐĳÐ°ÑĢÐº":2836,"ĠÑĢÐ°Ð³ÑĮÑĥÐ½":2837,"ĠÐ³ÑĮÑĥÐºÑĬ":2838,"ĠÑħÓıÐ°Ð»ÑĤÓıÐ¸Ð³Ð¸":2839,"âĢĵ":2840,"ÑĨÓĢ":2841,"ĠÑĥÐ»ÐºÐ°ÑıÐ»ÑĬÑĥÐ»":2842,"ĠÐ±Ð°Ð³ÑĬ":2843,"ĠÑĢÐ¾ÑģÑĥÐ½":2844,"ĠÐ±Ð°ÑĩÑĥÐ½":2845,"ĠÑĢÐ°Ð³ÓıÐ°Ð»Ð´Ðµ":2846,"ĠÐºÑĬÐ¸ÑģÐ¼Ð°ÑĤ":2847,"ĠÑĢÑĥÐ³Ð¸Ð»Ð°Ð½":2848,"Ð°ÑĢÐ±":2849,"ĠÐ³ÓıÐ°Ð¼Ð¼Ð°Ð±":2850,"Ð¸ÐµÐ²Ð°Ñģ":2851,"ĠÑĤÐµÑħÐ½Ð¸Ðº":2852,"Ð»ÑĬÑĥÐ»ÐµÐ±":2853,"Ð°ÑĢÐ°Ð»Ð³Ð¸":2854,"ĠÐłÐ¾ÑģÑģÐ¸ÑıÐ»Ð´Ð°":2855,"Ð°ÑıÐ²":2856,"ĠÐ¼Ð¸Ð»Ð»Ð¸Ð¾Ð½":2857,"ÑħÑĬÐ²Ð°Ð³Óı":2858,"ĠÐºÐ¸Ð½Ð°Ð·ÐµÐ³Ð¾":2859,"ĠÐ³ÑĮÑĥÐ¼":2860,"ĠÐ½Ð¸Ð¶ÐµÐµ":2861,"Ð¾Ð±ÑĢÐ°Ð½Ð¸ÑıÐ»ÑĬÑĥÐ»":2862,"Ð°Ð½Ð°Ð·ÑĥÐ»":2863,"ĠÐĲÐ´":2864,"ÐĲÐ¼":2865,"ĠÐ¼Ð°ÑĪÐ¸Ð½":2866,"ĠÑħÓıÑĥÐºÑĥÐ¼Ð°ÑĤÐ°Ð»ÑĬÑĥÐ»":2867,"ÑĤÓıÑĥÐ½":2868,"ÐµÐ´ÑĥÑħÑĬ":2869,"Ġ30":2870,"ÐĶÑĥÐ½":2871,"ĠÑģÐ¿Ð¾ÑĢÑĤÐ°Ð»ÑĬÑĥÐ»":2872,"ĠÐĴÐ°ÑĤÓıÐ°Ð½Ð¸ÑıÐ±":2873,"ĠÐ°ÑħÓıÐ¸":2874,"ĠÐ»Ð¸ÑĤ":2875,"ÑĥÑģÐ»Ð¸Ð¼":2876,"ĠÑĢÐ°ÐºÓıÐ±":2877,"Ð»ÐµÐºÑĤÐ¸Ð²":2878,"ĠÐ¼Ð°ÑħÓı":2879,"ÐµÐ½ÐµÑĢ":2880,"ĠÐ¾ÑĢÐ³":2881,"Ð¾ÐºÑĥÑĢ":2882,"ĠÑĨÐ¸Ð½":2883,"ĠÑĤÓıÐ¾Ð±Ð¸ÑĤÓıÐ¸Ð·Ðµ":2884,"ĠÐ½ÑĥÐ¶ÐµÐ´Ð°":2885,"ĠÐºÐ°Ð¿":2886,"Ð¸Ð±Ð»Ð¸":2887,"Ð°Ð³Ð¾Ð¼ÐµÐ´":2888,"ĠÐ³ÑĮÐ¾ÑĢÐºÑĮÐ¾Ð²":2889,"ĠÐ¦Ð¾Ð³Ð¸":2890,"ĠÐ³ÓıÑĥÐ½Ð³ÑĥÑĤÓı":2891,"ĠÐ¸Ð½ÑĤÐµÑĢÐ½":2892,"ĠÐ´ÐµÐº":2893,"ĠÐ°ÑħÓıÐ°Ð½Ð°":2894,"ĠÐºÑĬÐ°Ð´ÑĢÑĥ":2895,"Ð½ÑĭÐ¹":2896,"ĠÑħÐ°Ð»Ð°ÑĤ":2897,"ĠÑĤÑĥÑĪÐ¼Ð°Ð½":2898,"ĠÐĿÑĥÑĢÐ¼ÑĥÑħÓıÐ°Ð¼Ð°Ð´":2899,"ĠÑħÐ¸ÑģÐ°":2900,"ÐµÐ¹Ð³Ð¸":2901,"ĠÑĢÐ¸ÐºÑĮ":2902,"ĠÐĵÑĮÐ¸ÑĤÓı":2903,"ĠÐ±Ð°ÑĩÑĩ":2904,"Ð¸Ð±Ð»Ð¸Ð¾ÑĤÐµÐº":2905,"ĠÑĥÐ½ÐºÑĬÐ¾":2906,"ÑĥÐ»Ð°ÑĢÐµÐ±":2907,"Ð·Ð°Ð±Ð°Ð·Ðµ":2908,"ĠÑĨÐµÐ±ÐµÑģÐµÐ±":2909,"ĠÐ¼Ð¾ÑĨ":2910,"ÑĢÐ°Ð½Ñģ":2911,"ĠÐĵÑĮÐ°Ð±ÑģÐ°Ð³ÓıÐ°ÑĤ":2912,"ĠÐ³ÓıÐ°ÑģÑĢÑĥ":2913,"ĠÐ³ÓıÐ°Ð´Ð°Ð»":2914,"ĠÑĤÓıÐ¾ÑĢÐ¸ÑĤÓıÑĥÐ»ÐµÐ»":2915,"ĠÑħÑĥÑĢÑħÐ°ÑĢÐ°Ð»":2916,"Ð¸ÑĤÐµÑĤÐ°Ð»ÑĬÑĥÐ»":2917,"ÑħÑĬÐ°Ð½":2918,"ĠÐĵÑĮÐµÐ´Ð¸Ð½Ð°Ð»":2919,"ĠÐ±Ð°Ð½Ð°":2920,"ĠÐ±ÑĥÐ³Ð¾Ð°Ð½":2921,"Ð°ÐºÑĤ":2922,"ĠÐ¼Ð»":2923,"ĠÐ¹Ð¸Ð³":2924,"ĠÑħÐ¸Ð½":2925,"ĠÐĳÐ°Ð¹":2926,"ĠÐ¸Ð½ÑģÑĤÐ¸ÑĤÑĥÑĤ":2927,"ĠÐ»ÑĬÐ¸ÐºÓıÐ°Ð²":2928,"ĠÐ³ÑĮÐµÐ»Ð´Ðµ":2929,"ĠÑĢÐ°ÑĩÑĥÐ½":2930,"ĠÐ±Ð¸ÑħÑĮÑĥÐ½":2931,"ĠÐĵÑĬÐ¾ÑĢÐºÑĮ":2932,"ĠÐ³ÓıÑĥÑĢÐ°Ð±":2933,"Ð°Ð¼Ð°":2934,"ĠÐłÐ¾ÑģÐ´Ð°Ð»":2935,"ĠÑīÐ¸Ð±Ð½Ð¸Ð³Ð¸":2936,"ĠÐĵÑĥÑĢ":2937,"ĠÐ±Ð°ÐºÓıÐ°Ð·Ð´Ð°":2938,"ĠÐ±Ð°ÑĤÐ°Ð½Ð°":2939,"ĠÐ¶Ð°Ð¼Ð³ÓıÐ¸ÑıÐ±":2940,"ĠÐ³Ð¾ÑĢ":2941,"ĠÑĩÐ²Ð°Ñħ":2942,"Ð¸ÑĩÓıÐ¾Ð½Ð¸":2943,"Ð°Ð»Ð³Ð¾":2944,"ĠÐºÑĮÐ°Ð±":2945,"ĠÐ´ÑĥÐ½ÑıÐ»Ð°Ð»Ð´Ð°":2946,"Ð´Ð°Ð³ÑĮ":2947,"ĠÑĤÐ°Ñħ":2948,"ĠÐ¿Ð»Ð°Ð½":2949,"ĠÑħÑĬÐ²Ð°Ð´Ð°ÑĢÑĥÑħÑĬ":2950,"ĠÐľÐ°ÑħÓıÐ¼ÑĥÐ´":2951,"Ð²Ð¾ÑĢ":2952,"ĠÐ³ÑĮÐ°Ð±ÑĥÐ»Ð°Ð°Ð½":2953,"ĠÑģÑĥÐ³ÑĬÑĥÐ»":2954,"ĠÑīÐ°Ðº":2955,"ĠÑģÐ¾Ð½Ð°Ð»":2956,"ĠÑĤÓıÑĥÐ±Ð°Ð·Ð°Ð±":2957,"ĠÐ±Ð°Ð»ÑĬÐ³Ð¾":2958,"Ð²ÑĥÑģÑģ":2959,"ĠÑģÐ¾Ð½Ð°Ð»Ð´Ðµ":2960,"ĠÐ±Ð¸ÑĤÓıÑĥÐ½":2961,"ĠÐ¼Ð°ÑĢÐº":2962,"ĠÐ¾ÐºÑĤ":2963,"Ð»ÓĢ":2964,"ĠÐºÐ°ÑĢ":2965,"ÑĩÓıÐ²Ð°ÑĢ":2966,"ĠÐĵÓıÑĥÑģÐ¼Ð°Ð½":2967,"ĠÐ±Ð¸ÑħÑĮÐ¸Ð·Ð°Ð±ÑĥÐ½":2968,"ĠÐĳÐ°ÐºÑĬ":2969,"ĠÑĢÐ°ÐºÑĮÐ°Ð»Ð´Ð°":2970,"ÐĿÐ¸Ð¶":2971,"ĠÐ³ÓıÐ¾Ð»Ð¸Ð»Ð°Ð·ÑĥÐ»":2972,"ĠÐºÐ°Ð¼Ð¸Ð»":2973,"Ð°ÐµÐ²Ð°ÑģÑĥÐ»":2974,"ĠÐ¨Ð°Ð¼Ð¸Ð»Ð¸Ð»":2975,"ÑĢÐµÑĤ":2976,"ĠÑĩÐ¸Ð³Ð¸":2977,"ĠÑĢÐ°Ñģ":2978,"Ð¸ÑıÐ»Ð³Ð¸":2979,"ĠÐ¼ÐµÐ´Ð¸ÑĨÐ¸Ð½":2980,"ĠÐ±ÐµÑĤÓıÐµÑĢÐ³ÑĮÐ°Ð½":2981,"ĠÐ¸Ð½ÑģÑĥÐ»":2982,"ĠÑģÐ¸Ñı":2983,"ĠÐºÑĮÐ¾":2984,"ĠÐĵÓıÐ¸Ñģ":2985,"ĠÐ¿Ð°ÑĩÐ°Ð»Ð¸ÑħÑĬÐ°Ð»ÑĬÑĥÐ»":2986,"ĠÐ¼Ð¸Ð»Ð»Ð¸ÑıÐ±":2987,"ĠÐ²Ð°ÐºÐ¸Ð»Ð·Ð°Ð±Ð¸":2988,"ÐµÑĢÐ±ÐµÐ½ÑĤ":2989,"ĠÐºÐºÐ²ÐµÐ·Ðµ":2990,"ĠÐ½Ð¾":2991,"Ð½ÑĥÑģ":2992,"ĠÐŁÑĥÑĤÐ¸Ð½":2993,"Ð°ÐµÐ²Ð°":2994,"Ð°ÑĤÐ¸Ð²Ð¸ÑıÐ±":2995,"ĠÐ±ÑĥÐºÓıÐ°Ð½Ð¸Ð½":2996,"ĠÐ³ÑĮÐµÑĩÓıÐ¾Ð½Ð¸":2997,"ĠÑĤÓıÑĥÐ±Ð°Ð½Ð³Ð¾":2998,"ĠÐºÐ¾Ð»Ð»ÐµÐºÑĤÐ¸Ð²":2999,"ĠÑĩÐ°Ð½":3000,"ĠÐ¿Ð¸ÐºÑĢÑĥÑıÐ»Ð´Ð°":3001,"Ð»Ð°ÑģÑĤ":3002,"ĠÐ³ÑĮÐ°Ð´Ð¸Ð½":3003,"Ð¾ÑĦ":3004,"Ð·Ð°Ð¼":3005,"Ð°Ð´ÐµÑĢÐ¸Ð»":3006,"ĠÐ³ÑĮÐ°Ð±ÑĥÑĢÐ°Ð»":3007,"Ð±Ð¾ÑĨÓı":3008,"Ð°Ð»ÑĬÑĥÐ»Ð°":3009,"ĠÐ³ÑĮÐ¾ÑĢÐºÑĮÐ¾ÑģÐ°":3010,"ĠÑĩÐµÑĢÑħ":3011,"ÑģÐºÐ¸Ð¹":3012,"Ð°Ð¹ÑĪ":3013,"ĠÑħÓıÐ°Ð»ÑĤÓıÑĥÐ»ÐµÐ±":3014,"ĠÐ±Ð¸ÑħÑĮÐ¸Ð½":3015,"ĠÐ¼Ð°ÐºÑĬÐ°Ð»":3016,"Ð²ÐµÐ½":3017,"ĠÑĨÓıÐ¾ÑĢ":3018,"ĠÐĲÐ±Ð°ÐºÐ°ÑĢ":3019,"ĠÑĥÑģÑĤÐ°ÑĢ":3020,"ĠÑģÐ¿ÐµÑĨ":3021,"ĠÑĩÐ¸ÑıÑģÐ´Ð°":3022,"ĠÑĢÐµÐº":3023,"Ð°Ð»Ð´ÐµÐ³Ð¸":3024,"ĠÐºÐ²Ð°Ð»":3025,"ĠÐ³ÑĮÐ°Ð½Ð¸ÑĢ":3026,"ĠÐĿÐ¸Ð¶ÐµÑĢ":3027,"ĠÐ±ÐµÑĩÐµÐ´":3028,"ĠÐ³ÐµÐ½":3029,"ÐºÑĢÐ°Ð¸Ð½":3030,"Ð¸Ð»ÐµÐ»":3031,"ĠÐ¿ÐµÐ½Ñģ":3032,"ĠÐ½ÑĥÐ¶ÐµÐµ":3033,"ĠÐ°Ð½ÑĨÓıÐ³Ð¾":3034,"ĠÑįÑĢÐºÐµÐ½Ð°Ð±":3035,"Ð»ÑĬÑĥÐ»ÐµÐ»":3036,"ĠÐłÐ°Ð¹Ð¾Ð½Ð°Ð»ÑĬÑĥÐ»":3037,"ĠÐ¡Ð°Ð³Óı":3038,"ĠÐ³ÓıÐ¾Ð»ÐµÐ±":3039,"ĠÐĵÑĬÐ¸Ð·":3040,"ĠÑĨÐµÐ±ÐµÑĤÓıÐµÐ·Ð°Ð±":3041,"ĠÑĢÐ°Ð¹Ð°Ð´Ð¼Ð¸Ð½Ð¸ÑģÑĤÑĢÐ°ÑĨÐ¸ÑıÐ»ÑĬÑĥÐ»":3042,"ÓıÐ°Ð»Ð´Ð°":3043,"ĠÑĥÑĩÑĢ":3044,"ĠÑĢÐµÑħÑģÐ°ÑĢÐ°Ð±":3045,"Ð±ÐµÐº":3046,"ĠÐºÑĮÑĥÑĢÐ°Ð»":3047,"ÑĥÑģÐ½Ð°ÑħÑĬ":3048,"Ð°Ð´Ð¶":3049,"ĠÐ³ÑĬÑĥÐ½":3050,"ÐµÐ²Ð°Ñģ":3051,"ĠÐĶÐłÑıÐ»ÑĬÑĥÐ»":3052,"ĠÑĢÐ°Ð³ÓıÑĥÐ»Ð°":3053,"ĠÐ³ÑĮÐ°Ð»Ð¼Ð°Ð³ÑĬ":3054,"ĠÐ±ÐµÑĤÓıÐµÑĢÐ°Ñģ":3055,"ĠÑĤÑĥÑħÑĥÐ¼":3056,"ÑīÐ¸Ð½Ð°Ð»":3057,"ĠÑĤÓıÑĥÐ±Ð°ÑĢÐ°Ð±":3058,"ĠÐľÐ°ÑħÓıÐ°ÑĩÑħÑĬÐ°Ð»Ð°ÑıÐ»ÑĬÑĥÐ»":3059,"ÐľÑĥÑħÓıÐ°Ð¼Ð°Ð´":3060,"ÐŃÑĢÐºÐµÐ½Ð»ÑĬÐ¸":3061,"ĠÑİÐ±Ð¸Ð»":3062,"ĠÐ±Ð°ÑıÐ½Ð°Ð»":3063,"ĠÐ±Ð°ÑıÐ½Ð°Ð·Ð´Ð°":3064,"ĠÐ³ÑĮÑĥÐ¼ÐµÑĢ":3065,"ĠÐ¿ÑĢÐ¾ÐºÑĥÑĢ":3066,"ĠÑĢÐµÑħÑģÐ°ÑĢÐ°Ð»":3067,"ĠÐ³ÓıÐµÐ½ÐµÐºÐº":3068,"Ð¾Ð»ÐµÐ¹":3069,"ÑħÑĬÐ¸Ð½":3070,"ÐĶÐ¸ÑĢ":3071,"ĠÐ´Ð¸Ð²Ð°Ð½":3072,"ÑĤÐ°Ð½":3073,"Ð¸ÑģÐµÐ·ÑĥÐ»":3074,"ÐĵÑĮÐ°Ð½":3075,"Ð°Ð±Ð¸Ð»ÐµÐ»":3076,"ĠÐļÐ°Ð¼Ð¸Ð»":3077,"ĠÑģÑĥÑĢÐ°ÑĤ":3078,"ĠÐłÐ°Ð¶":3079,"ĠÐĽÐµÐ½":3080,"ĠÑĢÐ°Ð³ÑĮÐ°Ð½Ð°":3081,"ĠÐ³Ð¸Ð¼Ð½Ð°Ð·":3082,"ĠÐĲÐ¼Ð¸Ð½":3083,"ĠÐºÑĬÐ¾ÑĤÓıÐ¸":3084,"ĠÐ³ÓıÐ°Ð»Ð°Ð¼":3085,"ĠÑĤÐ°ÑĢÐ°Ð±":3086,"ĠÑĩÑĥ":3087,"ĠÐ±Ð¸Ð±Ð»Ð¸Ð¾ÑĤÐµÐº":3088,"ĠÑĩÓıÐ°ÑĢÐ°Ð»":3089,"ĠÐºÑĬÐ¾ÑıÐ»":3090,"ĠÐ±ÐµÑĤÓıÐµÑĢÐ°Ð²":3091,"ĠÐĲÐ²Ð°ÑĢÐ°Ð³":3092,"ĠÐ¼Ð°ÑĢÐºÐ°Ð·":3093,"Ð·Ð°Ð±":3094,"ĠÑĩÓıÑĥÐ¶ÑĥÐ³ÓıÐ°Ð´Ð°Ð½":3095,"ÑĢÑĥÑģÑģ":3096,"Ð±ÑĥÐ·":3097,"ĠÐ¿ÐµÑĢ":3098,"ĠÑĢÐ°ÑĩÓıÐ°Ð½Ð°":3099,"Ð°Ð½ÑĩÓı":3100,"ĠÑĨÓıÑĥÐ½ÑĥÐ»":3101,"ĠÐ»ÑĬÐ°Ð·Ð°Ð±ÑĥÐ»ÐµÐ±":3102,"ÑĩÐ°Ð³ÓıÐ¸":3103,"Ġ16":3104,"ĠÐ³ÓıÑĥÐ¼ÑĢÑĥÑıÐ»Ð´Ðµ":3105,"ĠÐ±ÐµÑĢÐ±Ð°Ð»Ð°Ð³ÑĮÐ¸":3106,"ĠÐºÓıÐ¸ÑıÐ±Ð³Ð¾":3107,"ĠÐ´ÑĥÐ½Ð³Ð¸":3108,"ĠÐ±Ð¸":3109,"ĠÐľÐ°Ð»":3110,"ÐĲÑħ":3111,"ĠÐºÑĥÐ¼ÐµÐºÐ°Ð»ÑĬÐµ":3112,"ĠÑĥÐ¼ÑĥÐ¼ÑĥÐ·":3113,"ĠÐ´Ð°Ð½Ð´ÐµÐ»ÑĬ":3114,"ĠÐ´Ð°Ð½Ð´ÐµÑĩÓı":3115,"ĠÐ¥Ð°Ð´Ð¸Ð¶":3116,"ÐµÑĢÐ¼":3117,"ĠÐ¸ÑĢ":3118,"ÐĵÑĮÐµÐ´Ð¸Ð½":3119,"ĠÐ³ÓıÐ¸Ð»Ð»Ð°":3120,"ĠÐºÐ»":3121,"ĠÐĽÑĬÐ¸ÐºÓı":3122,"ĠÐ±Ð¸ÑħÑħ":3123,"ĠÑĢÐµÑĨÑĨ":3124,"ĠÐļÐ°Ð·":3125,"ĠÑħÐ°ÑģÐ¸ÑıÑĤ":3126,"Ð°Ð»Ð¸ÑıÐ»":3127,"Ð°Ð´Ð°Ð±":3128,"ĠÐ±ÑĥÐºÓıÐ¸Ð½Ð°Ð»ÑĬ":3129,"ĠÐ¡Ð°Ð»":3130,"ĠÐ¸Ð½ÑģÐ°Ð½Ð°ÑģÑĥÐ»":3131,"ĠÐ°Ð²ÑĤÐ¾Ð¼":3132,"Ð°Ð»Ð»ÑĬÑĥÐ½":3133,"Ð°Ð½Ð·":3134,"ĠÐ¿Ð°Ñģ":3135,"ĠÐ¥ÓıÐ°Ð¶Ð¸":3136,"ĠÐ¶Ð¸Ð³Ð°ÑĢ":3137,"ĠÐ±Ð¾ÑĨÓıÐ¸":3138,"ÑĨÐ¸ÑıÐ»Ð´Ð°":3139,"ĠÐ±Ð°Ð¶Ð°ÑĢÑĥÐ»":3140,"ĠÐºÑĬÐ°Ð¹Ð¸":3141,"ĠÐĶÐ¸Ð±Ð¸ÑĢ":3142,"ĠÑĦÐµÐ²":3143,"ĠÐ½ÑĥÑħÐ¼Ð°Ð»ÑĬÐ¸ÑıÐ»Ð´Ð°":3144,"Ð°Ð´ÐµÑĢ":3145,"ĠÐ³ÑĮÐµÑĩÓıÐµÐ²":3146,"ĠÑĤÓıÐ°Ð¼ÑĥÐ½":3147,"ÐµÐ¶Ð´ÐµÐ½":3148,"ÑĢÐ°Ñĩ":3149,"Ð°Ð³ÓıÐµÐ»":3150,"ĠÐ¿Ð¾Ð´":3151,"ĠÐĳÑĥÐ¹":3152,"ĠÐľÑĥÑĢÑĤÐ°Ð·":3153,"ĠÐĳÐ¾ÐºÑĮ":3154,"ĠÐºÐ²Ð°ÑĤÓı":3155,"ĠÐ»ÑĬÐ°Ð»ÐµÐ»":3156,"ĠÑĢÐµÐ´Ð°ÐºÑĤÐ¾ÑĢ":3157,"ĠÐ¢ÓıÐ°Ð´ÐµÐ³ÓıÐ°Ð½":3158,"ĠÐ³ÑĥÑĢÐ¾Ð³Ð¾":3159,"ĠÑĢÐ°Ð³ÑĬÐ´Ð°":3160,"ĠÐ¿Ð°ÑĩÐ°Ð»Ð¸ÑħÑĬÐ¸ÑıÐ±":3161,"ÑĢÐ°ÑĦ":3162,"Ð°Ð³Ð°ÑĢ":3163,"ĠÑĤÐ°Ð²":3164,"ĠÐ³ÓıÑĥÐ¼ÑĢÑĥÐ´ÑĥÐ»":3165,"ĠÑıÑĢÐ°Ð³ÑĬ":3166,"Ġ50":3167,"Ð½Ð°Ðº":3168,"ĠÑĤÑĥÑģÐ½Ð°ÑħÑĬ":3169,"ĠÐ³ÓıÐ°Ð´Ð°Ð¼Ð°Ð»Ð³Ð¸":3170,"ĠÐ¿ÑĢÐ¸Ð·":3171,"Ðķ":3172,"ĠÑĢÐ°ÑħÑĬÐ°Ð»Ð´Ð°":3173,"ĠÐ²ÑĥÐºÓıÐ¸Ð½Ðµ":3174,"ĠÐ±Ð°ÑĩÐ¸Ð½Ðµ":3175,"ĠÐ§Ð°ÑĩÐ°Ð½":3176,"ĠÐºÑĥÑĨÐ°Ð»Ð´Ð°":3177,"ĠÐºÑĬÐ¾ÑıÐ»Ð´Ðµ":3178,"ÐºÐ¾Ð»Ð°":3179,"ĠÑĨÓĢÐ°ÑĢ":3180,"Ð±Ð°ÐºÐº":3181,"ĠÑĢÐ¸Ñĩ":3182,"Ð¾Ð»ÐµÐ²":3183,"ĠÐ¾ÑĢ":3184,"ĠÑıÑĩÓı":3185,"Ð¸Ð·Ð°Ð±Ð¸":3186,"ĠÑĢÑĥÐºÑĬÐ°Ð»ÑĬÑĥÐ»":3187,"ĠÐ¼Ð¾ÑĨÓıÐ°Ð»ÑĬ":3188,"ĠÐ¥ÓıÐ°Ð»ÑĤÓı":3189,"ÑĥÑĢÑĥÑģ":3190,"ĠÐ±ÐµÐºÑĮ":3191,"ÑĦÐ¸ÑĨ":3192,"ĠÐ»ÑĬÐ¸Ð¼Ð°Ð»Ð°Ð·Ð´Ð°":3193,"ĠÑģÐ¿ÐµÑĨÐ¸Ð°Ð»Ð¸ÑģÑĤ":3194,"ĠÐ³ÑĮÑĥ":3195,"ĠÐľÐ°Ð³Ð¾Ð¼ÐµÐ´":3196,"Ð°ÑĢÑĮ":3197,"ÐµÑĢÐµÑģ":3198,"ÐµÑıÐ»Ð´Ðµ":3199,"ĠÐ±ÑĥÐ³Ð¸Ñī":3200,"ĠÐ±Ð¾ÑģÐ°ÑĢÐ°Ð±":3201,"ĠÐ°Ð¿ÑĢ":3202,"Ð°ÑĢÐ¸Ð»Ð°Ð½":3203,"ĠÑĤÓıÐ°ÑĤ":3204,"Ð¸ÑĤÐ¾ÑĢ":3205,"ÐµÐ¹Ð¸Ð½":3206,"ĠÑħÑĬÐ²Ð°ÑĢÐ°Ð»":3207,"ĠÐ³ÓıÐ¾Ð»Ð¸Ð»Ð°Ð»":3208,"ĠÐ±Ð°ÑħÓıÐ°ÑĢÑĩ":3209,"ĠÐ´ÐµÐºÐ°Ð±":3210,"Ð°ÑĤÑĤÐ°":3211,"ĠÑĨÐ¾ÑıÐ²":3212,"ĠÐłÐµÑģÐ¿ÑĥÐ±Ð»Ð¸ÐºÐ°ÑıÐ»ÑĬÑĥÐ»":3213,"Ð¸ÑıÐ»Ð´Ð°Ð³Ð¸":3214,"ĠÐ¸Ð¼Ð°Ð½":3215,"ĠÐ³Ð°Ð·ÐµÑĤÐ°Ð»Ð´Ð°":3216,"ĠÐ©Ð¸Ð±Ð°Ð±":3217,"ĠÐ³Ð¾":3218,"ĠÑħÓıÐ°Ð»ÑĤÓıÑĥÐ´Ðµ":3219,"ĠÐ¥ÓıÐ°Ð±Ð¸Ð±":3220,"ĠÐ±Ð¸ÑħÑĮÐ°Ð½Ð°":3221,"Ġ197":3222,"Ð¸Ð°Ð»Ð¸ÑıÐ»":3223,"ÑħÑĥÐ»":3224,"Ð°Ð»ÑĬÐ°":3225,"ĠÐ³ÓıÐ°Ð¶Ð°Ð¸Ð±":3226,"ĠÐ±ÑĥÐ³ÐµÐ±Ð°Ð»Ð¸":3227,"ĠÐ¸ÑĢÐ³Ð°Ð´ÑĥÐ»Ð°Ð±":3228,"ĠÑĢÐµÐºÓıÐµÐ»":3229,"ÐµÑĢÐ°ÑĤÑĥÑĢ":3230,"Ð°Ð¶Ð¸Ð´":3231,"ĠÐłÐ¾ÑģÑĥ":3232,"Ð°Ð»Ð°Ð»":3233,"ĠÐ¿Ð¸ÑĪ":3234,"ĠÑħÓıÐ°ÑĢ":3235,"Ð°Ð±Ð°Ð·Ð´Ð°ÑģÐ°":3236,"ĠÐ±Ð¸ÑĩÑĩÐ°Ð½":3237,"ĠÐ£ÐºÑĢÐ°Ð¸Ð½":3238,"ĠÐ³ÓıÐ°Ð»":3239,"ĠÐ¦ÓıÐ¸ÑıÐ±":3240,"ĠÑħÐ¸ÑĢÐ¸ÑıÐ±":3241,"Ð·Ð°Ð±Ð°Ð·Ð´Ð°":3242,"ÑĢÐ°ÐºÑĮ":3243,"ĠÐĺÐ¼":3244,"ĠÐºÐ°Ð³ÑĬÐ°ÑĤ":3245,"ĠÑħÐµÑħÐ³Ð¾":3246,"Ð¸ÐºÐ¸ÑıÐ»":3247,"ÑĥÑĤÓĢ":3248,"ĠÑĥÑĩÑĢÐµÐ¶Ð´ÐµÐ½":3249,"Ð°Ð³ÑĬÐ°Ð»":3250,"ĠÐ¸Ð½ÐºÐ°ÑĢ":3251,"ĠÐºÓıÑĥÐ´Ð¸ÑıÐ»":3252,"ÑĥÐ»ÑĮÑĤ":3253,"ÐµÐ´ÐµÑĢÐ°Ð»Ð¸ÑıÐ±":3254,"ÐµÑĦÐ¾Ð½":3255,"ĠÐ£Ð¼":3256,"Ð¸Ð»Ð³Ð¸":3257,"ĠÐ°ÑģÐºÐ°ÑĢ":3258,"Ð¸ÑģÑĤÐµÐ¼":3259,"ĠÐ»ÑĬÐ°Ð»ÐµÐ²":3260,"ĠÐ¼Ð°ÑģÑĬÐ°Ð»":3261,"ĠÐºÐ²Ð°ÑĢ":3262,"ÐµÑĢÐ½":3263,"ÐµÑģÐµÐ²":3264,"ÐµÐ¹Ð¸Ð»Ð°Ð½":3265,"ĠÐ¼Ð¸Ð»Ð»Ð°ÑĤ":3266,"ĠÐķÐ²ÑĢÐ¾Ð¿":3267,"ĠÓı":3268,"Ð°Ð³ÓıÐ°ÑĢÐ°Ð±":3269,"ĠÑĢÐ°ÐºÑĮÐ°Ð»":3270,"ĠÐĵÓıÐ°Ð»Ð¸Ð±":3271,"10":3272,"Ð²Ð°":3273,"Ð»ÑĬÐ¸Ð¼Ð°Ð»":3274,"ĠÑĢÑĥÐºÓıÐ°":3275,"ĠÐ¼ÑĥÑģÑĤÐ°ÑħÓıÐ¸ÐºÑĬÐ»ÑĬÐ°Ð½Ð°":3276,"Ð¸Ð¼Ð¸ÑĢ":3277,"ÑĢÑĥÐ´Ð¸Ð½":3278,"ĠÐĸÐ°Ð¼":3279,"ÑĥÐ»ÐµÐ¹Ð¼Ð°Ð½":3280,"ĠÐ¾ÑĢÐ³Ð°Ð½":3281,"Ð°ÑĢÐ³":3282,"ĠÐ³ÑĮÐ°Ñİ":3283,"ĠÐ½ÑĥÐ³Óı":3284,"ĠÑĢÑĥÑħÓıÐ¸ÑıÐ±":3285,"ĠÐºÐ¸Ð½Ð°Ð·Ð´Ð°Ð³Ð¾":3286,"ĠÐ³ÓıÐ°Ðº":3287,"Ð¸Ð»Ð¸Ñī":3288,"ĠÐ³ÑĮÐµÑĩÓĢ":3289,"Ð°ÑĤÓıÐ°Ð»ÑĬ":3290,"ĠÐłÐ°Ð³ÑĬ":3291,"ĠÐ¶Ð¸Ð´ÐµÐµ":3292,"ĠÐ³ÑĬÐ¾ÑĢÐ»ÓĢ":3293,"ĠÑįÐºÑģ":3294,"ĠÑıÑĩÑĥÐ½":3295,"ÑĥÐ½Ð¸":3296,"ĠÐĸÐ¸Ð½Ð´Ð¸ÑĢ":3297,"Ð³ÓĢÐ°Ð½":3298,"Ð¸Ð±Ð³Ð¾":3299,"ĠÑĤÓıÐ°Ð´ÐµÑħÑĥÐ½":3300,"ĠÐ»ÑĬÑĥÐ³ÑĮÐ¸Ð½Ðµ":3301,"ĠÐ¼Ð°Ð³ÓĢ":3302,"ĠÐ³ÓıÐ°ÑħÑĮÐ°Ð»Ð»ÑĬ":3303,"ÑģÐ¼ÐµÐ½":3304,"ĠÐ²Ð°Ñħ":3305,"ĠÐ¸ÑĢÑģ":3306,"ÐµÑıÐ»":3307,"ĠÑħÐ°Ð»ÐºÑĬÐ°Ð»ÑĬÐµ":3308,"ĠÐ°Ð½Ð»ÑĬ":3309,"ĠÐ¸ÑħÑĤÐ¸ÑıÑĢÐ°Ð»":3310,"ÐºÐº":3311,"ĠÐ°Ð²ÑĤÐ¾ÑĢ":3312,"ĠÐĶÐµÑĢÐ±ÐµÐ½ÑĤ":3313,"ĠÐ³ÓıÑĥÑĨÓıÐ¸Ð·Ðµ":3314,"000":3315,"ĠÐ¾ÑĤÐ´ÐµÐ»ÐµÐ½":3316,"ĠÐŁÐ°ÑĩÐ°Ð»Ð¸ÑħÑĬ":3317,"ĠÑħÑĬÐ²Ð°Ð½Ð°":3318,"ĠÑħÐ°Ð»ÐºÑĬÐ°Ð»Ð´Ð°":3319,"Ð°Ð»ÑĬÑĥÐ»Ð³ÑĥÐ½":3320,"ÐµÐ·Ð°Ð²":3321,"ĠÑĤÓıÐ¾ÑĨÐµÐ²":3322,"ĠÐ¥ÓıÐ°Ð¼Ð·Ð°ÑĤÐ¾Ð²":3323,"ÑģÑĤÐ²Ð¾ÑıÐ»ÑĬÑĥÐ»":3324,"ĠÐľÑĥÑĢÐ°Ð´":3325,"ĠÐĴÐ»Ð°Ð´":3326,"ĠÐ¿Ð¸ÐºÑĢÐ°Ð±Ð¸":3327,"ĠÑģÐ¸ÑģÑĤÐµÐ¼":3328,"ĠÐ³ÑĮÐ°ÑĢÑĥÐ»ÐµÐ±":3329,"ĠÐ¦Ð¸Ð½Ð³Ð¸":3330,"ĠÐ³ÓıÐ¾Ð´Ð¾ÑĢ":3331,"ĠÐ³ÑĮÐ°Ð»Ð±":3332,"Ð°Ð»Ð¸Ð½":3333,"Ð±ÐµÐ³":3334,"ĠÑĢÐ°ÑĨÓıÑĨÓı":3335,"ĠÑĢÐµÑī":3336,"ĠÐ¼Ð°Ð³ÓıÐ°ÑĢÑĥÐ»Ð°Ð·ÑĥÐ»":3337,"ĠÑĢÑĥÐ³Ð¸Ð»Ð°":3338,"Ð¸Ð²ÐµÑĢÑģ":3339,"ÐºÐ²Ð°Ð»":3340,"ĠÐ²Ð°Ð»Ð°Ð³ÑĮ":3341,"ÐłÐ°Ð¹Ð¾Ð½Ð°Ð»ÑĬÑĥÐ»":3342,"ÑĢÐ°Ñģ":3343,"ĠÑĩÐ°Ð½Ð³Ð¸":3344,"ĠÐ¼Ð¸ÐºÑĮ":3345,"ÑĢÑĥÐ¿":3346,"ÑīÐ¸Ð½":3347,"ĠÐ¢ÓĢ":3348,"ĠÐ¸ÑĢÐ³Ð°ÑıÐ»Ð´Ð°":3349,"Ð³ÑĮÐ°Ðº":3350,"Ð³ÑĮÐµÐ½":3351,"ĠÑĨÐ¾Ð³Ð¾":3352,"Ġ196":3353,"ĠÐ½ÑĥÑħÐ¼Ð°Ð»ÑĬÑĥÐ»ÐµÐ»":3354,"ĠÐ³ÓıÐ°ÑĢÐ°ÑĨÐ³Ð¸":3355,"ÐµÐ»Ð°Ð»Ð´Ð°":3356,"ĠÐĶÐ¸Ð»Ð¸Ð¼":3357,"ĠÐĳÐ¸ÑīÑĥÐ½":3358,"ĠÐ³ÑĬÑĥÑĤÓı":3359,"ĠÐ²Ñĭ":3360,"ĠÑĩÐ°ÑĢÐ°":3361,"ĠÐ²Ð°ÑħÑĬÐ°ÑĢÐ°Ð²":3362,"ĠÐ½ÑĥÐ¶ÐµÑĨÐ°":3363,"ÑĥÐ»Ð°Ð»":3364,"ÐĶÑıÐ»ÑĬÑĥÐ»":3365,"ĠÑĢÐ°ÑĩÓıÐ¸Ð½Ðµ":3366,"ĠÑħÑĥÑĢÑħÐ°ÑĢÐ°Ð±":3367,"Ð¸Ð»ÑİÑĢÑĤ":3368,"ĠÑħÑĬÐ°Ð»":3369,"ĠÐĽÑĬÐ°ÑĢÐ°ÑĤÓıÐ°":3370,"ĠÑģÐµÐºÑĢÐµÑĤ":3371,"ĠÐĲÑģÐ»":3372,"ĠÐłÐ°ÐºÓıÐ°Ð»":3373,"ĠÐ³ÓıÑĥÐ¼ÑĢÑĥÑıÐ»Ð´Ð°":3374,"Ð²Ð¾ÑĢÑĩ":3375,"ĠÐºÓıÐ¸":3376,"Ġ202":3377,"ĠÐºÐ°Ð³ÑĬÑĤ":3378,"ĠÐĵÑĬÐ°Ð·Ð¸Ð¼ÑĥÑħÓıÐ°Ð¼Ð°Ð´":3379,"ĠÑĢÐ¸":3380,"Ð·Ð°Ð±Ð¸Ð³Ð¸":3381,"Ð¾ÑİÐ·Ð°Ð»ÑĬÑĥÐ»":3382,"ĠÐĵÓıÐ°Ð¹ÑĪ":3383,"ÑħÓıÐ°Ð±":3384,"ĠÑĢÐ°Ð´Ð°Ð»":3385,"ĠÐľÑĥÑħÓĢ":3386,"ĠÐ¡ÑĥÐ»ÐµÐ¹Ð¼Ð°Ð½":3387,"ĠÐ³ÑĥÑĢÑħÓı":3388,"ĠÑĢÐ°Ð³ÑĮÐ°ÑĢÐ°Ð±":3389,"30":3390,"ĠÑĤÑĥÐº":3391,"ĠÐĶÐ¸Ðµ":3392,"ĠÐľÑĥÑħÓıÐ°Ð¼Ð°Ð´ÑĢÐ°ÑģÑĥÐ»":3393,"ĠÐ¶Ð¸Ð½ÑĨÐ°Ð³Ð¾":3394,"ĠÐ²Ð°ÑħÑĬÑĥÐ½":3395,"Ð³ÑĥÑĤÓıÐ¸":3396,"Ð¸Ð½ÑĩÓıÐ¾Ð³Ð¾":3397,"ÐĶÐ°Ð³ÑĬÐ¸ÑģÑĤÐ°Ð½Ð°Ð»ÑĬÑĥÐ»":3398,"ÐºÑģ":3399,"ÑĤÓıÐ°Ð½":3400,"ĠÐ³ÓıÐ°ÑħÑĮÐ°Ð»Ð»ÑĬÐ¸Ð·Ðµ":3401,"ĠÑĪÐºÐ¾Ð»Ð°Ð»Ð´Ðµ":3402,"ĠÐ³ÓĢÐµÐ¼ÐµÑĢ":3403,"Ð°Ð·Ñĥ":3404,"ĠÐ³ÑĬÐ°Ð»":3405,"Ð°Ð·Ð´ÐµÑħÑĥÐ½":3406,"ĠÑıÑģÐ»Ð¸":3407,"ÑĢÐ¸":3408,"ĠÐ±Ð°Ðº":3409,"ĠÐĳÐ°ÑĤ":3410,"ĠÐ¢ÓıÐ¾Ð»":3411,"ĠÐ¼Ð°ÑĤÐµÑĢ":3412,"ĠÑĤÓıÑĥÑĢÐ°Ð·Ð°ÑĢ":3413,"ĠÐ¡Ð¡Ð¡Ðł":3414,"ĠÐ»ÑĬÑĥÐºÑĬ":3415,"ĠÐĵÑĮÐµÐ±Ð³Ð¾":3416,"ĠÐ±ÐµÑĢÑĨÐ¸Ð½Ð³Ð¾":3417,"ĠÐ¿ÐµÐ´Ð°Ð³Ð¾":3418,"Ð°ÑĢÐ¾Ð²":3419,"ĠÐ¥ÑĥÑĪ":3420,"Ð¹Ð¸Ñī":3421,"ĠÐĶÐ¶":3422,"ĠÐĺÑģÐ»Ð°Ð¼":3423,"ĠÐºÐ²Ð°Ð½Ð¸Ð»":3424,"Ð»Ð¸Ð¼Ð¿":3425,"ĠÐ¡Ð¾Ð²ÐµÑĤÐ°Ð»ÑĬÑĥÐ»":3426,"ĠÐĳÐµÑĤÓıÐµÑĢ":3427,"ÐĲÐ¼Ð¼Ð°":3428,"Ð½Ð°ÐºÑģÐº":3429,"ĠÐ»ÑĬÐ°ÑĢ":3430,"ĠÑħÓıÐ°Ð»ÑĤÓıÑĥÑħÑĬÐ°Ð±Ð°Ð·ÑĥÐ»":3431,"ĠÐ¼Ð»Ð½":3432,"ĠÐĳÐ¾Ð»ÑĬ":3433,"ĠÐ±Ð¸ÑħÑĮÐ¸Ð·Ðµ":3434,"ĠÐ³ÓĢÐ°Ð´":3435,"ĠÑħÑĥÑĤÓıÐ°ÑĢÐ°Ð»":3436,"ĠÐºÐ»Ð°ÑģÑģÐ°Ð»ÑĬÑĥÐ»":3437,"ĠÐ´Ð°ÑĢÑģÐ°Ð»":3438,"ĠÑĢÐ°ÑħÓıÐ°ÑĤ":3439,"ÑĮÑı":3440,"ĠÐ¿Ð°Ñĩ":3441,"ĠÑĨÐµÑĢÐµÑĤÓı":3442,"ĠÐľÑĥÑħÓıÐ°Ð¼Ð¼Ð°Ð´":3443,"Ð°Ð²Ð°ÑĤ":3444,"Ð°Ð½Ð´Ð¸Ð´":3445,"Ð¯":3446,"Ð¸Ð³ÑĥÐ½":3447,"Ð°ÑĢÐ°ÑĤ":3448,"ĠÐ¦ÓıÐ°Ð»":3449,"ĠÐ¸Ð·Ð½Ñĥ":3450,"ĠÐ³ÓıÑĥÐ¶":3451,"ĠÐ»ÑĬÑĥÐ»":3452,"ĠÐ·Ð°Ð¼Ð°Ð½Ð°Ð»ÑĬ":3453,"Ð¾Ð»ÐµÐ¹Ð±Ð¾Ð»":3454,"Ð¾ÐºÐ¾Ð»":3455,"ĠÐ³ÑĬÑĥÑĢÑī":3456,"ĠÑĢÐ°Ð·Ð¸Ð»ÑĬ":3457,"ĠÑĤÐµÐ»ÐµÑĦÐ¾Ð½":3458,"ĠÐ¼Ð¸ÑģÐº":3459,"ĠÑĩÐ»ÐµÐ½":3460,"ĠÐ¶Ð¾Ð³Ð¸":3461,"ÑģÑĤÑĢÐµÐ¼":3462,"ÐĲÑħÐ¸ÑĢ":3463,"Ð°Ð±Ð´ÑĥÐ»":3464,"Ð°ÑĢÐ¾Ð°Ð½":3465,"ĠÐ³ÑĥÑĢÐµÐ»ÑĬÑĥÐ»":3466,"ÑĥÑĨÐ°Ð»":3467,"Ð¸Ð½Ð°ÑĥÐ»":3468,"ĠÐ²Ð°ÑĩÓıÐ°Ð½Ð°":3469,"Ð°Ð±Ð°Ð·Ð´Ð°Ð»ÑĬÑĥÐ½":3470,"ĠÑĢÑĥÐºÓıÐ¸Ð½ÑĩÓıÐ¾":3471,"ĠÑĦÐ¾Ð½Ð´":3472,"Ð¸Ð½Ð¸Ð»":3473,"ÑĥÐ³Ðµ":3474,"ĠÐ³ÓıÐ¾Ð»Ð¸Ð»Ð°Ð·Ð´Ð°":3475,"15":3476,"Ð°Ð¼Ð¸ÑĢ":3477,"ĠÐ¼Ð¾Ð½":3478,"Ð°ÑĪÐ¸Ð´":3479,"ĠÐ´Ð°Ð½Ð´ÑĩÓı":3480,"ĠÐ»ÑĬÐ°Ð³ÓıÐµÐ»":3481,"ĠÐºÓıÐ¾Ð»Ð°ÑĢÐ¾":3482,"Ð°ÑĨÐ¸ÑıÐ»Ð´Ð°":3483,"ĠÐºÐºÐ¾Ð»ÐµÐ²":3484,"ĠÐ¶Ð¸Ð³Ð°ÑĢÐ°Ð±":3485,"ĠÑĤÐ²Ð¾ÑĢÑĩ":3486,"Ð¾Ð»Ð´":3487,"Ð¾Ð»Ð°ÑĢÐµÐ±":3488,"ĠÐºÐºÐµÐ»Ð°":3489,"Ġ198":3490,"ĠÐ¼Ð°Ð³ÓıÐ°ÑĢÑĥÐ»Ð°Ð»":3491,"ÐĲÐ»Ð»Ð°Ð³ÑĮ":3492,"ĠÑĢÐ¸ÐºÓĢÐºÓĢ":3493,"Ð¸ÑĤÓıÐ°Ð±":3494,"\",":3495,"12":3496,"ĠÑıÑħÑĬ":3497,"ĠÑĢÐµÐºÓıÐµÐµ":3498,"ĠÐºÐ°Ð½Ð´Ð¸Ð´":3499,"ĠÐ»ÑĬÑĥÑĢÐ°Ð»":3500,"ÑĩÓıÐ²Ð°ÑĢÐ¸":3501,"ĠÑĨÓıÐ¸Ð´Ð°ÑģÐ°Ð½":3502,"ĠÑĤÓıÑĥÐ±Ð°Ð½":3503,"ĠÐĺÑģÐ¼":3504,"ĠÐºÑĬÐ²Ð°ÑĢÐ¸Ð»ÑĬÐ¸":3505,"ĠÑĢÑĥÑĩÑĩÐ°Ð±Ð°Ð·ÑĥÐ»":3506,"ĠÐ»Ð¸ÑĤÐµÑĢÐ°ÑĤÑĥÑĢ":3507,"Ð°Ð³ÓıÐ¸Ð´Ð°":3508,"ĠÑĤÓıÑĥÐ±Ð°Ð·Ðµ":3509,"ĠÑĢÐ¸ÐºÓıÐºÓıÑĥÐ½Ð°":3510,"ĠÐ¶Ð¸Ð±Ð³Ð¾":3511,"ĠÐºÑĥÐ¼ÐµÐºÐ°Ð»Ð´Ð°Ð»ÑĬÑĥÐ½":3512,"ĠÐ±ÑĥÑģÑģÐ¸Ð½Ð°Ð±":3513,"ÐºÐ°ÑıÐ»ÑĬÑĥÐ»":3514,"Ð°ÑģÑĢ":3515,"Ð¸ÑģÑĤÐ°Ð·ÑĥÐ»":3516,"Ð°ÐºÓıÐºÓı":3517,"ĠÑĢÐ°ÐºÑĮÑĥÐ»":3518,"ĠÑħÐ²Ð°Ð½Ð°":3519,"ĠÐ¼Ð°ÑģÑĬÐ°Ð»Ð°":3520,"Ð°ÑģÐ¿":3521,"ĠÑĨÓıÐ°Ð´":3522,"ĠÐ³ÑĮÐ°ÑĢÐºÑĮ":3523,"Ð²Ð°Ð»ÐµÐ»":3524,"ÑįÐ¼ÐµÐ½":3525,"ÑĩÐ°Ð³ÓıÐ°Ð·":3526,"ĠÑħÓıÑĥÑħÑĮÐ±Ð°ÑħÑĬ":3527,"Ð»ÑĥÐ»":3528,"Ð²Ð°ÑĤÓı":3529,"ĠÑĤÐµÐ¼":3530,"Ð¿Ð¾Ð»":3531,"ĠÑħÐ°Ð´ÑĥÐ±ÐºÐºÑĥÐ½":3532,"ĠÐ±Ð¸ÑħÑĮÐ¸Ð·Ð°Ð±ÑĥÐ»ÐµÐ±":3533,"ĠÑģÐ°Ð´":3534,"ĠÐĺÑģÐ°Ð½Ð°":3535,"ĠÐ³ÑĮÐµÐ½Ð¸ÑģÐ°":3536,"ÐµÐ³Ð¾Ð²":3537,"ÑĬÐµÐºÑĤ":3538,"Ð°ÑģÑĥÑħÑĬÐµ":3539,"ĠÑģÑĥÐ±":3540,"Ð¾ÑĨÐµÐ±Ðµ":3541,"ĠÐ£Ð·":3542,"Ð°ÑĢÑĥÑħÑĬÐ°Ð½":3543,"ĠÑĪÐ°Ð¿Ð°ÐºÑĬÐ°ÑĤ":3544,"ĠÐ¼ÑĥÐ½Ð¸ÑĨÐ¸Ð¿Ð°Ð»Ð¸ÑıÐ±":3545,"ĠÑĥÐ¿ÑĢÐ°Ð²Ð»ÐµÐ½Ð¸ÑıÐ»ÑĬÑĥÐ»":3546,"ĠÐ¼ÐµÑģÐµÐ´":3547,"ĠÑģÐ°Ð»Ð°Ð¼":3548,"ĠÑīÐ²ÐµÐ·Ð°ÑĢ":3549,"ĠÑĨÓıÐ°Ð»Ð´Ð¾ÑħÑĬÐ°Ð±Ð°Ð·":3550,"ĠÑģÐ¿Ð¾ÑĢÑĤÑģÐ¼ÐµÐ½":3551,"Ð¸Ð½Ð°Ð»Ð´Ð°":3552,"ĠÑĢÐ¾ÑģÐ°Ð±Ð¸":3553,"ĠÑĩÓıÐ°Ð½Ð°":3554,"ĠÐ¼ÑĥÐ³ÓıÑĢÑĥÐ·ÑĥÐ»":3555,"ĠÑħÐ¾Ð±":3556,"ĠÐ³ÑĮÐ°Ð±ÑĥÑĢÐ°Ð²":3557,"ĠÐ°Ð³":3558,"ĠÑħÓıÐ°Ð»ÑĤÓıÑĥÐ´Ð°":3559,"ÐµÑĤÐ°Ð»Ð´Ð°":3560,"ĠÐ¥ÓıÐ°Ð¼Ð·Ð°ÑĤÐ¾Ð²Ð°ÑģÑĥÐ»":3561,"Ð¹Ð¸Ð»Ð°Ð½":3562,"Ð°ÑģÐ´":3563,"ĠÑĤÓıÑĥÑĢÐ°Ð»":3564,"ĠÑĤÓıÐ°ÑħÑĮÐ°Ð»":3565,"ĠÐ¿ÑĥÐ»":3566,"ĠÑĦÐ¸Ð·":3567,"ĠÐŃÐ±ÐµÐ»":3568,"ĠÑģÑĤÐ°ÑĤ":3569,"ĠÐºÑĬÐ°Ð³ÓıÐ¸Ð´Ð°":3570,"ĠÑħÓıÐ°Ð»ÑĤÓıÐ¸Ð·Ð°Ð±":3571,"ĠÑĢÐµÐºÑĬÐ°ÑĢÐ°Ð±":3572,"Ġ195":3573,"ĠÐ½ÑĥÑħÐ¼Ð°Ð»ÑĬÐ¸ÑıÐ»ÑĬ":3574,"ĠÐ¸ÑİÐ½":3575,"ĠÐ³ÑĮÐ¾ÑĢÐºÑĮÐ¾ÑģÐµÐ±":3576,"ĠÐ¾ÑĦÐ¸ÑĨ":3577,"ĠÐ²Ð°ÑģÐ°ÑģÑĥÐ»":3578,"ĠÐ±Ð°ÑĢÐºÐ°Ð»":3579,"ĠÑĤÓıÐ¾ÑĢÐ¸ÑĤÓıÐ°Ð½Ð°":3580,"ĠÑĥÐ»ÐºÐ°ÑıÐ»Ð´Ð°":3581,"ĠÐ¾ÑĢÐ´ÐµÐ½":3582,"ĠÐ¿ÑĢÐ¾ÑĦÐµÑģÑģ":3583,"ĠÐ¼Ð°Ð½Ð·":3584,"ĠÐ¼Ð°Ð³ÓıÐ°ÑĢ":3585,"ÑĨÐ¾ÑıÐ²":3586,"ĠÐ¶Ð¸Ð´ÐµÐ´Ð°":3587,"ÐŀÑıÐ»ÑĬÑĥÐ»":3588,"ĠÑĨÐµÐ±ÐµÑħÑĥÐ½":3589,"Ð¼ÑĥÐ½":3590,"ÐµÐ»Ð°Ð»":3591,"ÑĥÐ¼Ð°Ð´Ð°":3592,"Ð¸Ð´Ð°Ð³Ð¸":3593,"ĠÐºÐ¸Ð½Ð°Ð±Ð³ÓıÐ°Ð³Ð¸":3594,"ĠÑĨÐµÑĢÐµÑģÐµÐ»":3595,"ĠÑħÐ²Ð°ÑģÐ°ÑĢ":3596,"ĠÐ¸Ð´Ð°ÑĢÐ°Ð±Ð°Ð·ÑĥÐ»":3597,"ĠÐ½Ð°ÑĢÐº":3598,"ĠÐ¿Ð¸ÑħÑĬ":3599,"ĠÐĲÐ¹":3600,"ĠÐ°Ð±ÑĥÑħÑĬÐµ":3601,"Ð°Ð»Ð¸Ð»Ð°Ð±":3602,"ĠÑĨÐ¸Ð½Ð³Ð¸":3603,"ĠÐ·Ð°ÑħÓıÐ¼Ð°ÑĤÐ°Ð»ÑĬÑĥÐ»":3604,"ĠÐ³ÑĥÐ³Ð°ÑĢÐ¸ÑıÐ»ÑĬÑĥÐ»":3605,"Ð´Ð°ÑģÐ°Ð³Ð¾":3606,"ĠÐ±Ð°Ð³ÑĮÐ°":3607,"ĠÐĴÐ»Ð°Ð´Ð¸Ð¼Ð¸ÑĢ":3608,"ĠÑĤÓıÐ°Ð´Ð²ÑĥÑģÑģ":3609,"ĠÐ±Ð¾ÑģÑĥÐ»ÐµÐ±":3610,"ĠÑĢÐ°Ð³ÓıÐ°Ð±Ð°Ð·Ð´Ð°":3611,"Ð¼Ð¸Ð½Ð¸ÑģÑĤÑĢÐ°ÑĤÐ¸Ð²Ð¸ÑıÐ±":3612,"ĠÐ¶Ð°Ð¼Ð°Ð³ÓıÐ°ÑĤÐ°Ð»ÑĬÑĥÐ»":3613,"ĠÐ¼Ð°ÑĪÐ³ÑĮÑĥÑĢÐ°Ð²":3614,"ĠÐºÐ¾ÑĩÓıÐ¾":3615,"ĠÐ²Ð¾Ð»ÐµÐ¹Ð±Ð¾Ð»":3616,"ĠÐ±ÑĥÐ³ÐµÐ»ÑĬÑĥÐ»":3617,"ĠÑĢÐ°Ð¹Ð¾Ð½Ð°Ð»Ð´Ð°ÑģÐ°":3618,"ĠÐłÐ¾ÑģÑĥÐ»ÑĬ":3619,"ĠÐ´Ð°Ð½Ð´ÑĩÓıÐ²Ð°Ð¹":3620,"ĠÑĢÐµÑĩÓıÑĩÓı":3621,"ĠÑĢÐ°ÐºÓıÐ±Ð°ÑĨÓıÑĨÓıÐ°Ð´":3622,"ĠÑĤÐµÑĩÓıÐ¾Ð³Ð¾":3623,"ĠÐļÐ¸Ð½Ð°Ð»Ð³Ð¾":3624,"ĠÐ°ÑģÐ°ÑĢÐ°Ð»":3625,"ĠÐĴÐ°":3626,"ĠÐºÐ¸ÑģÐ°":3627,"ĠÑĤÑĢÐ°Ð½Ñģ":3628,"Ð¾Ð½Ð¾":3629,"Ð°ÑħÓıÐ¼Ð°ÑĤ":3630,"ĠÐļÐ°ÑĢ":3631,"ĠÐ±Ð¸ÑĨÑĥÐ½Ð°":3632,"ĠÑĢÐ¾ÑĢÑħ":3633,"ĠÐ¼Ð°Ð³ÓıÐ½":3634,"ĠÑģÑĥÐ°Ð»Ð°Ð»Ð´Ð°":3635,"ĠÐĲÐ»Ð»Ð°Ð³ÑĮÐ°ÑģÐµ":3636,"ĠÐ³ÑĮÐµÐ´Ð¸Ð½Ð»ÑĬÐ¸Ð´Ð°Ð»":3637,"ÑĤÓĢÐµÑĢÑħÑĮ":3638,"Ð³ÑĮÐ°Ð»Ð¼Ð°Ð³ÑĬ":3639,"Ð°Ð»ÑĬÑĥÐ»ÐµÐ±":3640,"ĠÑĤÓıÐ¾ÑĢÐ¸ÑĤÓıÐ¸Ð·Ðµ":3641,"ĠÐºÑĬÐµÑĨÐ°Ð»":3642,"17":3643,"ĠÐ³ÑĮÐ°Ð²ÑĥÐ½":3644,"ĠÐ²Ð°ÑĩÓıÐ°ÑĢÐ°Ð²":3645,"Ð¸Ð·Ð¼Ð°Ð»ÑĬÑĥÐ»":3646,"Ð¥ÓıÐ°ÐºÑĬÐ¸ÐºÑĬÐ°ÑĤ":3647,"ĠÑĤÓıÐ°Ñģ":3648,"ĠÑĢÐ°Ð³ÑĬÑĥÑħÑĬ":3649,"ÐµÑĩÓıÐµÐ±":3650,"ĠÑĢÑĥÑĩÑĩÐ°Ð±Ð¸":3651,"Ð´ÑĥÐ·":3652,"ÑģÐ°Ð»":3653,"ĠÐ³ÓıÑĥÐ¼ÑĢÑĥÑıÐ»Ð´Ð°ÑģÐ°":3654,"ĠÐ¶Ð°Ð½Ð¸Ð²":3655,"ĠÐ¶Ð¸Ð´ÐµÐµÐ³Ð¾":3656,"ĠÐĳÑĥÐ¹Ð½Ð°ÐºÑģÐº":3657,"ĠÑĦÐ¾ÑĢ":3658,"ĠÐºÑĬÐ¾ÑĤÓıÑĥÐ½":3659,"ĠÐ¼Ð°ÑĪÐ¸Ð½Ð°":3660,"ĠÐ³ÓıÐ°ÑĢÐ°Ð±":3661,"Ð¸ÑıÐ±Ð°Ð·ÑĥÐ»":3662,"ĠÑĢÐµÐ¼":3663,"ĠÑĢÐ°Ð¹Ð¾Ð½Ð°Ð»Ð´Ðµ":3664,"Â»,-":3665,"ĠÐ¼ÑĥÑģÑĤÐ°ÑħÓıÐ¸ÐºÑĬÐ°Ð²":3666,"ĠÐ±Ð°ÐºÐº":3667,"ĠÑĢÐ°Ðº":3668,"ĠÐ³ÑĮÐ°Ð±ÑĥÑĢ":3669,"ĠÐ¨Ð¸Ð¼Ð°Ð»Ð¸ÑıÐ±":3670,"ĠÐ²ÑĥÐ³ÐµÐ±":3671,"ĠÐ´Ð°ÑĢÐ°Ð¶Ð°ÑıÐ»Ð´Ð°":3672,"ĠÐ²ÑĥÐ³Ð¸Ð»Ð°Ð½":3673,"ĠÐ±Ð¸ÐºÑĬ":3674,"Ð°ÑģÐ´Ðµ":3675,"Ð³ÑĮÐ°Ð¹":3676,"ÑĥÑħÑĬÐ´Ð°":3677,"ĠÑĪÐºÐ¾Ð»Ð°Ð·Ð´Ð°":3678,"ĠÑĤÓıÐ°Ð¼ÑĥÐ½Ð°":3679,"ÐŁÐļ":3680,"ĠÑĤÓıÐ¾ÐºÓıÐ°Ð±":3681,"ÑĥÐ³Ð¸":3682,"ĠÐ±ÑĢ":3683,"ÑĨÓıÑĨÓı":3684,"ĠÐ³ÑĬÐ¸ÑĢÐ°":3685,"ĠÐļÑĬÑĥÑĢÐ±Ð°Ð½":3686,"ĠÐ°Ð½Ð¸Ñī":3687,"ĠÑĢÐ¸ÐºÓıÐºÓıÑĥÐ½":3688,"Ð´ÑĥÑĢ":3689,"ĠÑĢÐ°ÑħÑĬÐ°Ð»":3690,"ĠÐ³ÑĮÐ°Ð±ÑĥÐ½Ð¸":3691,"ĠÐ»ÑĬÑĥÐ³ÑĮÑĥÐ½Ð°":3692,"ĠÑħÓıÐ°Ð¶Ð°ÑĤÐ°Ð»":3693,"ĠÑħÐ°Ð»Ð³ÑĮÐ°Ð±":3694,"ĠÑĨÐ°Ð´Ð°ÑħÑĬÐ³Ð¾":3695,"Ð¸Ð·Ð°ÑĢÐ¸Ð·Ðµ":3696,"ĠÑģÐ°Ð±Ð°Ð±Ð»ÑĬÑĥÐ½":3697,"ĠÐ¥Ð°Ð»ÐºÑĬÐ¸ÑıÐ±":3698,"ĠÐłÐ°Ð¶Ð°Ð±":3699,"ĠÐ¥Ð°ÑĢ":3700,"ĠÑĢÐµÑĤÓıÐµÐ»":3701,"Ð¹Ð¸Ð½":3702,"ĠÑįÐºÑģÑĤÑĢÐµÐ¼":3703,"ĠÐ¿Ð¾ÑįÑĤ":3704,"ĠÐ±Ð°ÑĢ":3705,"ĠÐ±Ð°ÐºÑĮ":3706,"ĠÐ´Ð¾Ð²":3707,"ĠÑħÓıÐ°Ð»Ð°Ð»ÑĬ":3708,"ĠÐĶÐ°Ð½Ð´Ðµ":3709,"ĠÐ¼Ð°Ð½Ð·Ð¸Ð»":3710,"II":3711,"ĠÐ³ÑĮÐµÑĢÐµÑģ":3712,"ĠÑħÑĥÑĤÓıÐ°ÑĢÐ°Ð±":3713,"ĠÑĤÓıÐ°ÑħÑĮ":3714,"ĠÐ½ÑĥÑħÐ¼Ð°Ð»ÑĬÑĥÐ»ÐµÐ·":3715,"ĠÐ±ÐµÑĢÐ³ÑĮÐµÐ½Ð»ÑĬÐ°Ð±Ð¸":3716,"ĠÑĤÓıÐ¾Ð»Ð³Ð¾":3717,".),":3718,"ĠÐĽÑĬÐ¸Ð¼Ð°Ð»":3719,"ĠÐ³ÑĮÐ°Ð»Ð±Ð°Ð»":3720,"ĠÑıÐ½Ð²Ð°ÑĢ":3721,"ĠÑĨÓıÐ°Ð¹Ð¸ÑıÐ»Ð´Ð°":3722,"Ð¾ÑĤÓı":3723,"ĠÐ°Ð±ÑĥÐ»Ð°Ð°Ð½":3724,"ÑħÐ°Ð½Ð¾Ð²":3725,"ĠÐ¶Ð°Ð¼Ð³ÓıÐ¸ÑıÐ»":3726,"ĠÐ³ÑĬÐ¾ÑĢÐ»ÓĢÐµ":3727,"ĠÐĳÐ¾Ð»ÑĬÐ¸ÑħÑĬ":3728,"ĠÐ¼ÐµÑĤÑĢ":3729,"ĠÐ¿Ð¾Ñģ":3730,"Ġ22":3731,"ĠÐ±Ð°ÑĤÓĢ":3732,"ĠÑĢÐ¾ÑģÐ´Ð°Ðµ":3733,"ĠÐ°":3734,"Ð³Ð¾Ð³Ð¸":3735,"Ð°Ð¼Ð¸Ð´":3736,"Ð¾ÑĢÐ¾Ðº":3737,"Ð°Ð½Ð°Ð½Ð¸":3738,"Ð°Ð·ÑĥÑħÑĬÐµ":3739,"ĠÐ¥Ð¸Ð·":3740,"Ð°Ð¹Ð¸Ð»":3741,"ĠÐ¿Ð°ÑĢÑĤÐ¸ÑıÐ»ÑĬÑĥÐ»":3742,"ĠÑħÓıÐµÑħÑĮ":3743,"Ð°Ð¶Ð´":3744,"ĠÐ¼ÑĥÐ³ÑĬ":3745,"ĠÑħÐ°Ð»ÐºÑĬÐ°Ð»ÑĬ":3746,"ĠÐ±Ð°ÑīÐ´Ð°Ð±":3747,"ÑħÑĬÐ°Ð»Ð°":3748,"ĠÐ¦ÓıÐ°ÐºÑĬ":3749,"ĠÑĩÓıÐ²Ð°Ð·Ðµ":3750,"ĠÐ¼ÐµÐ´Ð¸ÑĨÐ¸Ð½Ð°ÑıÐ»ÑĬÑĥÐ»":3751,"ÑħÑĬÐ²Ð°Ð¹":3752,"ĠÐ±ÐµÑĩÐµ":3753,"ĠÐ²Ð¸ÑĩÑĩ":3754,"ĠÑħÐ°Ð»Ð°ÑĤÐ°Ð±":3755,"ĠÐ±Ð°ÑĤÐ°Ð½Ð¸Ð³Ð¸":3756,"ÑİÑĢ":3757,"Ġ192":3758,"ĠÐºÑĬÑĥÐ»":3759,"ĠÐºÑĮÑĥÑĢÐ´":3760,"ÐµÐ³ÑĮ":3761,"Ð°Ð¼Ñı":3762,"ĠÐ³ÑĮÐ°Ð±Ðµ":3763,"ĠÐļÐ¾Ð½":3764,"ĠÐ¶Ð°ÐºÑĬÐ°ÑģÐµÐ±":3765,"ÐºÐ¾Ð¼Ð°Ð»ÑĬÑĥÐ»":3766,"ĠÐ³ÓıÐ¸ÑģÐ¸Ð½Ð°Ð»":3767,"ĠÐ²Ð¸Ð´Ðµ":3768,"ĠÐ½Ð°Ð¸Ð±":3769,"Ð¿ÑĥÑģ":3770,"ĠÑıÑĪÐ°Ð²":3771,"Ð»Ð¾":3772,"ĠÑħÐ¸ÑĤÓıÐ°Ð±":3773,"ĠÐĶÑĥÑĢ":3774,"ĠÐ¾Ðº":3775,"ĠÐ³ÑĮÐ°Ð±Ð¸Ð·ÐµÐ³Ð¸":3776,"Ð°ÑĤÐ°Ð»Ð´Ð°Ð³Ð¸":3777,"ĠÐ³ÓıÐ°ÑĤÓıÐ¸Ð´":3778,"ĠÐĵÓıÐ°Ð±Ð´ÑĥÐ»Ð°ÑĤÓıÐ¸Ð¿Ð¾Ð²Ð°Ñģ":3779,"ĠÐ¼Ð°Ð³ÓıÐ°ÑĢÑĥÑħÑĬ":3780,"ĠÐ±ÑĥÐºÓıÐ¸Ð½Ð°Ð»Ð´Ð°":3781,"ĠÐ´Ð°Ð½Ð´ÑĩÓıÐ²Ð°Ð½Ð°":3782,"Ð³ÓıÐ¸ÑıÐ±":3783,"ÑĥÐ¼Ð±":3784,"Ð¾Ð±Ð¸Ð»":3785,"ĠÐ³ÓıÐ¾Ð´Ð¾Ð²":3786,"ĠÑīÐ¸Ð²Ð°Ð²":3787,"ĠÐ¼Ð°Ð¹Ð´":3788,"Ð¸ÑĩÐµÑģÐº":3789,"ĠÐĵÓıÑĥÐ¼Ð°ÑĢÐ¾Ð²":3790,"ĠÐľÐ¾ÑģÐºÐ²Ð°ÑıÐ»Ð´Ð°":3791,"Ð©Ð¸Ð±":3792,"ÑĤÑĢ":3793,"ÐµÑĢÐ°ÑħÑĬ":3794,"ĠÐ³ÑĮÐ°Ð±Ð¸ÑıÐ»ÑĬÐµ":3795,"ĠÐĵÑĮÐµÐ¹":3796,"ĠÐ°ÑĢÐ°Ð²":3797,"ÑĩÐµÐ½":3798,"Ð°ÑıÐ»Ð´Ð°Ð³Ð¸":3799,"ÐµÑĤÐ°Ð»ÑĬÑĥÐ»":3800,"ĠÐ±Ð¸ÑħÑĮÑĥÐ»Ð°":3801,"ÐĶÐ¸ÑĨÐ°":3802,"ĠÐļÑĬÐ°Ð´":3803,"ĠÑĨÓıÐ°ÑĢÐ³Ð¸":3804,"ĠÐ±ÑĥÑĤÓıÑĢÑĥÐ»":3805,"ĠÐ¥Ð°Ð´Ð¸Ð¶Ð°ÑĤ":3806,"ĠÑĢÐ°Ð½":3807,"ĠÐºÐºÐ¾Ð»Ð¸Ð»Ð°Ð½":3808,"Ð°ÑħÓıÐ°Ð±":3809,"ĠÑĥÐ½Ð¸Ð²ÐµÑĢÑģ":3810,"ĠÐºÑĬÐµÑĨÐ°Ð·Ð´Ð°":3811,"ÐµÑĢÐµÑģÐµÐ»":3812,"Ð°Ð·ÑĥÐ»Ð³Ð¾":3813,"200":3814,"ĠÑħÓıÐ°Ð»ÑĥÑĨ":3815,"ĠÑĢÐ¾ÑģÐ°ÑĢÐ°Ð»":3816,"ĠÐĳÐ¸ÑĨ":3817,"ĠÐ±Ð°Ð¶Ð°ÑĢÐ¸":3818,"ĠÐľÑĥÑģÐ°ÐµÐ²":3819,"ĠÑģÐµÐ½ÑĤÑıÐ±ÑĢÐ°Ð»Ð´Ð°":3820,"ĠÑĤÐ°ÑħÑĪÐ°Ð³ÑĮ":3821,"ĠÐ³ÑĮÐ°Ð±ÑĥÐ»Ð°Ð³Ð¾":3822,"ĠÑĢÐµÑģÐ°Ð»":3823,"Ð°ÑĪÐ°":3824,"ĠÐĵÑĮÐ°Ð»Ðµ":3825,"Ð¸Ð½Ð°Ð»ÑĬÐµ":3826,"ĠÐ³ÓıÑĥÐ½ÑĤÓı":3827,"ĠÐ°Ð½ÑĨÓıÐ¸Ð»Ð°":3828,"ĠÑĤÓıÐ°Ð±Ð¸Ð³ÓıÐ°ÑĤ":3829,"ĠÐĵÓıÐ°Ð±Ð´ÑĥÐ»Ð¼ÑĥÑģÐ»Ð¸Ð¼":3830,"ĠÑģÐ°Ð±ÑĢÑĥ":3831,"ĠÐ¶Ð¸Ð¹":3832,"ĠÑĢÐ°ÑħÑĬÐ¸Ð½Ð°ÑĢ":3833,"ĠÑĥÐ½ÐµÐ²":3834,"ĠÐ±Ð¸ÑĨÐ°ÑĢÐ°Ð±":3835,"ĠÐ³ÑĬÐ¾ÑĢÐºÑĮÐµ":3836,"ÑĥÐ´ÐµÐ½ÑĤ":3837,"ĠÐºÑĬÐ°Ð½Ð°Ð³ÓıÐ°ÑĤ":3838,"ĠÐ¡ÑĥÑĢ":3839,"Ð¾Ð³ÑĢÐ°ÑĦ":3840,"ĠÐ³ÓıÐ¾Ð´Ð¾Ð±":3841,"Ð°Ð¹Ð³Ð¸Ð´":3842,"Ð»ÑĬÐ¸ÑıÐ»Ð´Ð°ÑģÐ°":3843,"Ð¸ÑıÐ»Ð´Ð°ÑģÐ°Ð½":3844,"ĠÑĨÓıÐ¾Ð´Ð¾ÑĢ":3845,"Ġ193":3846,"ĠÑĩÑĥÑĢÐ°ÑıÐ²":3847,"ĠÐ±Ð°ÑħÑĩ":3848,"Ð°Ð»Ð´":3849,"Ð²Ð°ÑĤ":3850,"ĠÐĵÐµÑĢ":3851,"ĠÐºÐºÐµÑĩÓıÐ¾":3852,"Ð¸ÑģÑĤÐ°Ð»":3853,"ĠÐ¡Ð¾Ð±ÑĢÐ°Ð½Ð¸ÑıÐ»ÑĬÑĥÐ»":3854,"ĠÐ·Ð°Ð¼Ð°Ð½Ð°ÑıÐ»Ð´Ð°":3855,"ÑĨÐ¾ÑıÐ·ÑĥÐ»":3856,"Ð¿ÐµÑĢÑĤ":3857,"ĠÑĢÐ°ÐºÐº":3858,"ĠÐ³ÑĮÐ°ÑĢÐ°Ð½Ð°":3859,"ĠÐ³ÑĮÐµÑĩÓıÐ¸Ð»Ð°":3860,"ĠÐºÐ¸Ð½Ð°Ð»Ð½Ð¸Ð³Ð¸":3861,"ĠÐ°ÑģÐºÓıÐ¾ÑĢ":3862,"ĠÐºÐ¾Ð´Ð¾Ð±":3863,"ĠÐľÑĥ":3864,"ĠÑĤÓĢÐ°Ð´":3865,"ĠÐ±Ð°Ð´":3866,"ĠÐ±Ð¾Ð»":3867,"ĠÐ½ÐµÐºÓı":3868,"ĠÐľÐ°Ñħ":3869,"ĠÑĨÓıÐ¸Ð³ÑĮ":3870,"ĠÐºÓıÐ¾Ð»ÐµÐ±":3871,"ĠÐ»ÑĬÐ¸Ð¼Ð°Ð»Ð³Ð¸":3872,"ĠÐĹÐ°Ð³ÑĮ":3873,"ĠÐ³ÓıÐµÐ»Ð°Ð»ÑĬÐµ":3874,"ĠÐ´Ð°ÑĢÑĥ":3875,"Ð¼ÑĥÑħÓıÐ°Ð¼Ð°Ð´":3876,"ĠÑĨÓıÐ°Ð»ÑĥÐ»ÐµÐ»":3877,"Ð¡ÑĥÐ³ÑĬÑĢÐ°Ð»ÑĬ":3878,"ĠÐ¼Ð°Ð¶Ð»Ð¸Ñģ":3879,"ÑħÐ°Ñģ":3880,"ÐºÑĬÐ°Ð´":3881,"ĠÐ°ÑħÐ¸ÑĢÐ¸ÑģÐµÐ±":3882,"ĠÐ½Ð¸Ð³ÓıÐ¼Ð°ÑĤÐ°Ð»":3883,"Ð°Ð½ÐºÓı":3884,"ĠÑĢÐ¸Ð¶":3885,"ĠÐ¼Ð¸Ð»":3886,"ĠÑīÐ²Ð°ÑĢÐ°Ð²":3887,"ĠÑĢÐ¾ÑģÐ¸Ð·Ðµ":3888,"ĠÐ³ÓıÐ°Ð³Ð°":3889,"ÑĢÐ°Ð´":3890,"Ð°Ð·Ð´":3891,"ĠÑħÓıÐ°ÑĤÑĤÐ°":3892,"Ð¸Ð´ÑĥÐ»":3893,"ĠÐ²Ð°ÑģÐ°Ð»":3894,"ĠÐ¼Ð¸Ð½Ð°Ð±Ð¸":3895,"ĠÐ´Ð°Ð³ÓıÐ±":3896,"ĠÐ¦ÓĢ":3897,"ĠÐ°ÑĢÑħ":3898,"ĠÐ¼Ð°ÑģÑĬÐ°Ð»Ð°Ð±Ð¸":3899,"ĠÐºÑĬÐ°ÑģÐ¸":3900,"ĠÐ°Ð²Ð³ÑĥÑģÑĤÐ°Ð»Ð´Ð°":3901,"ĠÐĺÐ¼Ð°Ð¼":3902,"ÑĥÐ´Ð¾Ð¶":3903,"ĠÐľÐ°Ð³ÓıÐ°ÑĢÑĥÐ»":3904,"ĠÑĨÐ¾ÑıÐ»":3905,"ĠÐ¥ÓıÑĥÐºÑĥÐ¼":3906,"ĠÑıÑĢÐ³ÑĬ":3907,"ĠÐĺÑģÐ¼Ð°Ð³ÓıÐ¸Ð»":3908,"Ð½Ð°Ð»":3909,"ĠÐ·ÑĥÐ»":3910,"ĠÑĩÓıÐµÐ³ÓıÐµÑĢ":3911,"ĠÐ³ÑĮÐ°ÑĢÐ¸ÑıÐ»ÑĬÑĥÐ»":3912,"ĠÐ°ÑħÐ¸ÑĢÐ°Ð±":3913,"ĠÐºÑĮÐµÐ³Ð¸":3914,"ĠÐ±ÐµÑĤÓıÐµÑĢÐ³ÑĮ":3915,"ĠÐ¶Ð¸Ð´ÐµÑĨÐ°Ð³Ð¾":3916,"ĠÐĲÑħÓıÐ¼Ð°Ð´Ð¸Ð»":3917,"Ġ70":3918,"Ð´ÑĢ":3919,"ÑĥÐ»Ð¸Ð½":3920,"ĠÑħÐ°Ð¹Ð¸ÑĢ":3921,"Ð°Ð´Ð°ÑĤ":3922,"ĠÐŁÐ°ÑĤ":3923,"Ð°ÑĤÐ°Ð»Ð´Ð°Ð»ÑĬÑĥÐ½":3924,"ĠÐ±Ð¸ÑĩÑĩÐ°ÑĢÐ°Ð±":3925,"ĠÑħÐ¸ÑĢÐ¸ÑıÐ»":3926,"ÑģÐ°Ð»Ð°Ð¼":3927,"ÐµÑħÐ°":3928,"ĠÑĤÓıÐ°Ð´ÑĢÑĥÑģÑģ":3929,"ĠÑħÓıÐ°Ð´Ð¸Ñģ":3930,"ÐĵÑĮÐµÑģ":3931,"ĠÐŃÐł":3932,"ĠÐ¼Ñį":3933,"Ð¸Ð·Ð°ÑĨ":3934,"ĠÑĨÓıÐ°Ð»Ð´Ð¾ÑħÑĬÐ°Ð±Ð°Ð·ÑĥÐ»":3935,"Ð°Ð¼ÑıÑĤÐ½Ð¸Ðº":3936,"ĠÐ¼ÑĥÑħÑĮ":3937,"Ð´ÐµÐ³Ð¸":3938,"Â»-":3939,"ĠÑĨÓıÐ°Ð»Ð°Ð½Ð°":3940,"ĠÐ»ÑĬÑĥÐ³ÓıÐ¸Ð·Ð°Ð±ÑĥÐ½":3941,"ĠÑĤÐµÐ»ÐµÐ²":3942,"ĠÐ°Ð½ÐºÑĮÐ³Ð¾":3943,"ÑĤÐ°ÑĢ":3944,"Ð¸ÑīÑħÐ°":3945,"ĠÐ±Ð°Ð»Ð°Ð³ÑĮÐ¸Ð·Ðµ":3946,"ÐĵÓıÐµÐ¼ÐµÑĢ":3947,"Ð¸ÑģÐ°Ð»Ð°Ð»ÑĬÐµ":3948,"ĠÐĿÐ¸Ð¶ÐµÑĨÐ°":3949,"ĠÑģÑĥÑĢÐ°ÑĤÐ°Ð»":3950,"ĠÐ¼Ð°ÑĪÐ³ÑĮÑĥÑĢÐ°Ð»":3951,"ĠÑĤÐµÑĢÑĢÐ¸ÑĤÐ¾ÑĢ":3952,"ĠÑģÐ°Ð¿Ð°ÑĢ":3953,"ĠÑĢÐµÑīÑĤÓı":3954,"ÑĨÐ¸ÑıÐ»Ð´Ðµ":3955,"ĠÐĵÑĮÐµÐ±Ð³Ð¸":3956,"ĠÐ°ÑģÐ»Ð¸ÑıÐ»":3957,"Ð¸ÑıÐ³Ð¸":3958,"ĠÑĩÓıÐµÐ·Ð°Ð±ÑĥÐ½":3959,"Ð»Ð¾Ð²":3960,"ĠÑĢÐ°Ð»ÐµÐ»":3961,"ÑĤÑĥÐ½":3962,"ÐµÐ²ÐµÑĢ":3963,"ĠÐĹÐ°Ð¹Ð½":3964,"ĠÐºÓıÐ¾ÑĩÐµÐ½":3965,"ĠÑģÑĥÐ½Ð´":3966,"ĠÐ¸Ð´Ð°ÑĢÐ°ÑıÐ»ÑĬÑĥÐ»":3967,"Ð»Ð¾Ð¼":3968,"Ð°Ð±Ð¸Ð·Ðµ":3969,"Ġ24":3970,"ĠÑĥÐ½ÑĤÑĥÐ½":3971,"ĠÑĢÐµÐ¼Ð¾Ð½ÑĤ":3972,"ĠÐ³ÓıÐµÐ·Ð°ÑĢ":3973,"ĠÐ³ÑĮÐµÑĩÓıÐ¾Ð½Ð¸Ð³Ð¸":3974,"ĠÐĵÓıÐ°Ð´Ð°Ð¼":3975,"ĠÐĵÑĮÐ¸Ð³ÑĮ":3976,"Ð³ÓıÐµÑĢ":3977,"ĠÐ³Ð°Ð¼":3978,"ĠÑĤÓıÐ¸ÑĢ":3979,"ĠÐ¸ÐºÑĬ":3980,"ĠÐ±ÐµÑĨÓı":3981,"ĠÑīÐ²ÐµÐ»":3982,"ĠÑĨÓıÐ°Ð»ÑĥÐ½":3983,"ĠÐ´ÐµÐ¿ÑĥÑĤÐ°ÑĤÐ°Ð·ÑĥÐ»":3984,"ĠÐ°ÑĢÑĤ":3985,"ĠÐĳÐ°Ð³ÑĮ":3986,"Ġ23":3987,"ĠÑĦÐµÐ´ÐµÑĢÐ°Ð»Ð¸ÑıÐ±":3988,"ĠÐ¨Ð°Ð¼ÑħÐ°Ð»":3989,"Ð°Ð´ÐµÐ¼":3990,"ĠÑĩÓıÐ°ÑĢÐ°Ð±":3991,"Ð¸ÑĩÓıÐµÐ»":3992,"ÑĥÐ¶Ñĥ":3993,"Ð¥Ð°Ð´":3994,"ĠÐ¼ÑĥÑħÓıÐºÐ°Ð½Ð³Ð¾":3995,"ĠÐºÐ¸Ð±":3996,"ĠÑĨÓıÐ¸":3997,"ĠÑģÑĤÑĥÐ´ÐµÐ½ÑĤ":3998,"Ġ90":3999,"ĠÐ°Ð´Ð°Ð±Ð¸ÑıÑĤ":4000,"ĠÑĪÐ°ÑĢÑĤÓı":4001,"Ð¾ÑıÐ»Ð´Ð°":4002,"ĠÑĢÐ°Ð·Ðµ":4003,"ĠÑħÐ²Ð°Ð»":4004,"ĠÐ±Ð¸ÑĩÓıÑĩÓıÑĥÐ»ÐµÐ±":4005,"ĠÐ²ÐµÑĤÐµÑĢÐ°Ð½":4006,"Ð½ÐµÑģ":4007,"ĠÑħÐ°Ð´ÑĥÑģÐµÐ±":4008,"\".":4009,"ĠÑĤÐ°ÑĢÐ°Ð»":4010,"ĠÑĩÑĩ":4011,"Ð¸ÐµÐ³Ð¸":4012,"Ġ40":4013,"ĠÐĳÐµÑĢÐ³ÑĮÐµÐ½":4014,"ĠÐ¢ÓıÐ°Ð´ÐµÐ³ÓıÐ°Ð½Ð°Ð²":4015,"16":4016,"ĠÐ¢ÓıÐ°Ð»":4017,"ĠÑģÑĤÐ¾Ð»":4018,"ĠÐľÑĥÑģÐ°":4019,"Ð»ÐµÐ±":4020,"ÑĥÐ»Ð³Ð¾":4021,"ÑĩÐ¸ÑıÑģÑĥÐ»":4022,"ĠÐ³ÓıÑĥÑĨÓıÐ¸":4023,"ĠÑĩÓıÑĥÐ¶Ñĥ":4024,"ĠÐºÐ»ÑĥÐ±":4025,"Ð¸Ð±Ð¸Ð»":4026,"ÐµÐ¼Ð¸ÑĢ":4027,"ĠÐ¡ÐŁÐļ":4028,"ĠÐ±Ð°Ð¹ÑĢÐ°ÑħÑĬ":4029,"ĠÐ´Ð¸Ð½Ð°Ð»ÑĬÑĥÐ»":4030,"Ð´Ð°ÑĢ":4031,"ĠÐºÐºÐµÐ·Ð°Ð±":4032,"ĠÐ½ÑĥÑħÐ»ÑĥÐ»":4033,"ĠÐºÑĬÐ²Ð°ÑĤÓıÐ¸ÑĢ":4034,"ÐºÑĬÐ¾ÑĤÓı":4035,"ĠÐ±Ð°ÑħÑĥÐ½":4036,"ĠÑħÓıÑĥÐ¶Ð°Ð±Ð¸":4037,"ĠÐ³ÑĮÐ°Ð±ÑģÐ°Ð³ÓıÐ°ÑĤÐ°Ð»Ð´Ð°":4038,"ĠÑĤÐµÐ°ÑĤÑĢ":4039,"ĠÐ½Ð¾ÑıÐ±ÑĢÐ°Ð»Ð´Ð°":4040,"Ð°ÐºÑĢ":4041,"Ð¾ÑĨÐ°":4042,"ÐĲÐ±":4043,"ĠÐ±Ð°ÑĤÐ¸Ð·Ðµ":4044,"Ð¥ÑĬ":4045,"ĠÐ¢ÓıÐ¸Ð½Ð´":4046,"ĠÑħÐ°ÑĢÐ±Ð°Ð»":4047,"ĠÐºÐ²Ð°Ð½Ð°Ð·Ðµ":4048,"Ð¼Ð¸Ð½":4049,"ĠÐļÐ°ÑģÐ¿":4050,"ÑīÐµÐ»":4051,"ĠÐĶÐ°Ð³ÑĬÐ¸ÑģÑĤÐ°Ð½Ð°Ð»Ð´Ðµ":4052,"Ð¾Ð²Ð°ÑģÐ´Ð°":4053,"ĠÑĩÐ°Ð³ÓıÐ°Ð·":4054,"ĠÐ¼Ð°ÑĢÑĤÐ°Ð»Ð´Ð°":4055,"Ð¾ÐºÓı":4056,"ĠÐ»ÑĬÐµ":4057,"ĠÐ¢ÓıÐ¾ÑĨÐµÐ±ÐµÑģÐµÐ±":4058,"ĠÐ½ÑĥÑħÐ¼Ð°Ð»ÑĬÑĥÐ»ÐµÐ¹":4059,"ĠÑĤÐ°Ð´Ð±Ð¸ÑĢÐ°Ð»Ð´Ð°":4060,"ĠÑĨÐµÑĢÐµÑħÑĬ":4061,"ĠÐ¥Ð°ÑģÐ³Ð¾":4062,"ĠÐ¼Ð°ÑĪÐ³ÑĮÑĥÑĢ":4063,"Ð¸Ð»Ð°Ð²":4064,"ĠÑĦÐ°Ðº":4065,"ĠÐ¶Ð°Ð½Ð¸ÑģÐµÐ»":4066,"ĠÑįÐ±ÐµÐ»Ð°Ð»ÑĬÑĥÐ»":4067,"ĠÑīÐ°Ð¹Ð³ÑĥÑĢÐµÐ»ÑĬÑĥÐ»":4068,"Ð»ÑĬÑĥÑħÑĬ":4069,"ĠÐ³ÓıÐµÐ·Ð°Ð±":4070,"ĠÐĵÑĮÐ¾ÑĨÓı":4071,"ĠÐ³ÓıÐµÐ¼ÐµÑĢÐ³Ð¾":4072,"ĠÑĤÓıÐ¾ÑĨÐµÐ²ÐµÑģÐµÐ²":4073,"ÐºÐ°Ð»ÑĬÑĥÐ»":4074,"Ð°Ð±Ð¸Ð½":4075,"ĠÐ³ÑĮÑĥÑĢÐ¼":4076,"ĠÐ»ÑĬÐ°Ð½":4077,"ĠÑģÑĥÑĢÑģ":4078,"ĠÐ±Ð¾ÐºÑĮÑĥÐ»ÐµÐ±":4079,"ĠÐĹÐ°Ðº":4080,"ĠÐ³ÑĮÐ¸ÑĤÓıÐ¸Ð½Ð°Ð±Ð³Ð¾":4081,"ĠÐ¼ÐµÐºÑĬÐ¸":4082,"ĠÐ°Ð½Ð»ÑĬÐ³Ð¾":4083,"ĠÐĵÓıÐ°Ð¹ÑĪÐ°ÑĤ":4084,"Ð¾Ð³Ð¸":4085,"ĠÑħÓıÐ°Ð»ÑĤÓıÑĥÑħÑĬÐ°Ð±Ð°Ð·Ðµ":4086,"ĠÑĤÐ¾ÐºÐ°Ð»ÑĬÑĥÐ»":4087,"Ð°ÑĤÐ¸Ð²":4088,"Ð¸ÑĤÐ°Ð»":4089,"ĠÑħÓıÐ°Ð»ÑĤÓıÑĥÐµ":4090,"ÑĢÑĥÐ³":4091,"ĠÑīÐ²ÐµÐ´Ð°Ð»":4092,"ĠÐ¶Ð°Ð½Ð¸ÑĢÐµ":4093,"ĠÐ³ÓĢÑĥÐ¼ÑĢÑĥ":4094,"ĠÑħÓıÑĥÐºÑĥÐ¼Ð°ÑĤÐ°Ð»ÑĬ":4095,"ĠÐ¾Ð±ÑĬÐµÐºÑĤ":4096,"Ð¸ÑıÐ»ÑĬÐ³Ð¸":4097,"Ġ27":4098,"ĠÑģÐ¾ÑĨÐ¸Ð°Ð»Ð¸ÑıÐ»":4099,"ĠÐ¶Ð¸Ð½Ð´Ð¸ÐµÐ³Ð¾":4100,"ĠÑĢÐ°ÐºÑĬÐ»":4101,"ĠÐ¾ÐºÑĤÑıÐ±ÑĢÐ°Ð»Ð´Ð°":4102,"ĠÐ±ÑĥÑĤÓĢ":4103,"ĠÐ±ÑĥÐºÓıÐ¸Ð½Ð°Ð»ÑĬÑĥÐ»":4104,"ÐµÐ½ÑĤÑĢÐ°Ð»Ð´Ð°":4105,"ĠÑģÑĥÐ³ÑĬÑĥÐ»Ð´ÐµÑĢÐ¸Ð»":4106,"ĠÐ»ÑĬÐ¸ÐºÓıÐ»ÑĬ":4107,"ĠÑĥÐ¼ÑĥÐ¼ÑĥÐ»":4108,"âĦ":4109,"ÐºÑĬÐ°Ð¹":4110,"ĠÐĳÑĥÐºÓı":4111,"ĠÐ³ÑĥÑĢÐ¶":4112,"ÐľÐ°ÑħÓı":4113,"ĠÐºÐ¾Ð¼Ð°Ð½Ð´Ð°":4114,"Ð°Ð¸Ð¼":4115,"Ð°Ð·Ð°ÑĢÐ³Ð¾":4116,"ĠÐ¼Ð°ÑħÑģ":4117,"ĠÐ±Ð°ÑģÐ¼":4118,"âĦĸ":4119,"13":4120,"Ð±Ð°ÐºÓı":4121,"ĠÑĢÑĥÐ³ÑĬ":4122,"ĠÐºÐºÐµÑıÐ»ÑĬÑĥÐ»":4123,"ÑħÓıÐ°ÑĤ":4124,"Ð°Ð»Ð°Ð°Ð½":4125,"ĠÐĵÓıÐ°Ð±Ð´ÑĥÐ»Ð°Ð³ÑĮÐ¸Ð»":4126,"ĠÐ´Ð¾ÐºÑĥÐ¼ÐµÐ½ÑĤÐ°Ð»":4127,"Ð°ÑģÐ´Ð¸ÐºÑĬ":4128,"Ð³ÓıÐ°":4129,"ĠÑĩÐ¾ÑĢÐ¾Ðº":4130,"ĠÐ±ÐµÑĤÓĢÐµÑĢ":4131,"ĠÐ»ÑĬÑĥÐ³ÑĮÐ°ÑĢÐ°Ð±":4132,"Ġ60":4133,"ĠÑīÐ°ÐºÐ»ÑĬÐ¸":4134,"ĠÑıÑĩÑĥÐ½ÐµÐ¹":4135,"Ñĳ":4136,"Ð°Ð±Ð°ÑĢ":4137,"ĠÑģÑĥÐ´":4138,"Ð¸ÑħÓıÐ°Ð»":4139,"ĠÐľÐµÐ»":4140,"ĠÑįÐºÐ¾Ð½Ð¾Ð¼Ð¸ÐºÐ¸ÑıÐ±":4141,"Ð»ÐµÐºÑģ":4142,"ÑģÐ¾ÐºÐ¾Ð»":4143,"Ð°Ð³Ð°Ð³ÑĮ":4144,"Ð°ÑģÐ³Ð¸":4145,"ĠÐ³ÓıÐ¸ÑıÐ»":4146,"ĠÐ°Ð±ÑĥÐ»ÐµÐ»":4147,"ĠÐ¨ÐºÐ¾Ð»":4148,"ĠÑĦÐµÑĢÐ¼":4149,"ĠÐ±Ð°ÑĩÓıÐ¸Ð½":4150,"ĠÐ£Ð»":4151,"ÐĺÐ½":4152,"ĠÑģÐµÐºÑĢÐµÑĤÐ°ÑĢÑĮ":4153,"50":4154,"ĠÑĢÐ¸ÑĪ":4155,"ĠÐ²Ð¾Ñģ":4156,"Ð¸ÑĢÑĥÑģ":4157,"ĠÐ¿Ð°Ð¼ÑıÑĤÐ½Ð¸Ðº":4158,"ĠÐļÐ¸Ð³ÓıÐ°Ð½":4159,"Ð¸ÑĤÓıÑĥÐ½":4160,"ĠÐŁÐ°ÑĢ":4161,"ĠÑĨÐµÐ±ÐµÐ³Ð¾":4162,"Ð¸Ð¿Ð°ÑĤ":4163,"ĠÑĢÐ¸ÐºÓıÐºÓıÐ°Ð´":4164,"ĠÐĲÑĢÐ°Ð±":4165,"ÐµÑĢÐ³Ð¾":4166,"ĠÐºÑĬÐ²Ð°ÑĤÓıÐ¸Ð²Ðµ":4167,"Ð¸ÑıÐ·Ðµ":4168,"ÑĥÑĢÐ³":4169,"ÐµÐ½Ð´":4170,"ĠÐłÐ°Ð¹Ð¾Ð½":4171,"Ð°Ð¶Ð¸":4172,"ĠÐºÑĬÐ¾ÑıÐ»ÑĬÑĥÐ»":4173,"ĠÐ±Ð°ÑĩÐ°Ð½Ð°":4174,"ÐłÐ¾ÑģÐ´Ð°Ð»":4175,"ĠÑħÓıÐ°Ð»Ð±Ð¸ÑħÑĮÐ¸":4176,"14":4177,"ĠÐ³ÑĮÐ°Ð¹Ð±":4178,"ÑģÐ¸ÑıÐ±":4179,"ĠÐ»ÑĬÐ°ÑĩÓıÐ¾Ð³Ð¾":4180,"ĠÐ½Ð°Ñħ":4181,"Ð¾ÑĢÐ°Ð»ÑĬÑĥÐ»":4182,"ĠÐļÓĢ":4183,"ĠÐĿÐ°ÑħÑĬ":4184,"ĠÑĪÐºÐ¾Ð»Ð°Ð·ÑĥÐ»":4185,"ĠÐºÑĬÐ°ÑĩÓıÐ°Ð·Ðµ":4186,"?!":4187,"ÑĢÐ°Ð»Ð°Ð»Ð´Ð°":4188,"ĠÐ³Ð²Ð°Ð½":4189,"Ð±Ð°Ð½":4190,"Ð¸Ð½Ð¾Ð²":4191,"Ð¸Ð·Ð½ÐµÑģ":4192,"ÑĦÑĤ":4193,"ĠÐĵÑĮÐµÑģÐ´Ð°":4194,"Ð±Ð°ÑĤÓıÐ¸ÑıÐ±":4195,"ÑĢÐ°ÐºÓıÐ°Ð»ÑĬÑĥÐ»Ð°Ð±":4196,"ÑĥÐ¼Ð±ÐµÑĤ":4197,".-":4198,"Ð¸Ð³ÑĬ":4199,"Ð°Ð½ÑĥÑģ":4200,"ĠÐ¡Ð°Ð¹Ð³Ð¸Ð´":4201,"ĠÑĨÓıÑĥÐ½Ð¸":4202,"ĠÐ²Ð°ÑĩÑĥÐ½":4203,"ĠÑĢÐ°Ð´Ð¸Ð¾ÑıÐ»ÑĬÐµ":4204,"ĠÐ¿Ð°Ð¹Ð´Ð°ÑıÐ±":4205,"ÑĩÓıÐµÐ¹":4206,"ĠÐ±Ð¸ÑĨÐ°Ð½Ð¸":4207,"ĠÐ¿ÑĢÐµÐ¼":4208,"ĠÐ±Ð¸Ð³ÑĮÐ°ÑıÐ±":4209,"ĠÐ·Ð°Ð²Ð¾Ð´":4210,"ĠÐ³ÓıÐµÐ»Ð¼Ð°Ð±Ð°Ð·ÑĥÐ»":4211,"ÐµÑĤÓı":4212,"ĠÑĢÐ¸ÑĨ":4213,"ĠÑĩÐ°ÑĩÐ°Ð½":4214,"ÐµÑģÐ´Ð°Ð»":4215,"ĠÐ·Ð°Ð¼Ð°Ð½Ð°Ð»ÑĬÑĥÐ»":4216,"ĠÑĢÐ¾ÐºÑĬÐ¾Ð²Ðµ":4217,"ÑĥÐ´ÐµÑħÑĥÐ½":4218,"ÑĥÑİ":4219,"ĠÐ²Ð°ÑĤÓıÐ°Ð½":4220,"ĠÑĤÐ°ÑģÐ´Ð¸ÐºÑĬ":4221,"ĠÐĲÐ²":4222,"Ð¸Ð¿Ð»Ð¾Ð¼":4223,"ĠÐ¸Ð½ÑģÑĥÑĨÐ°":4224,"ĠÐ¼ÐµÑĤ":4225,"ĠÐ³ÑĮÐ°Ð±Ð¸Ð»ÐµÐ±":4226,"Ð¸ÑıÐ»ÑĬÑĥÐ»Ð°Ð±":4227,"ĠÐ³ÓıÑĥÑĨÓıÐ°Ð½Ð°":4228,"ĠÑĤÑĢÐµÐ½ÐµÑĢ":4229,"ĠÐ±ÐµÑĩÐµÐ´Ð°Ð±":4230,"ĠÑĤÐ¾Ð»ÐµÐ±":4231,"ĠÐĵÓıÐ°Ð¼Ð¸ÑĢ":4232,"ĠÐ¶Ð°Ð½Ð¸Ð±Ðµ":4233,"ĠÑĨÓıÐ°Ð»Ð´Ð¾ÑħÑĬÐ°Ð±Ð°Ð·Ðµ":4234,"ÐĴÐĶÑıÐ»ÑĬÑĥÐ»":4235,"ĠÐ³Ð¸Ð¼Ð½Ð°Ð·Ð¸ÑıÐ»ÑĬÑĥÐ»":4236,"Ð¾Ð²Ð³Ð¸":4237,"ĠÑħÓıÐ°Ð»ÑĤÓıÑĥÐ½":4238,"ĠÑĢÐ°Ð¹Ð¾Ð½Ð°Ð·ÑĥÐ»":4239,"ĠÐ±Ð¾ÐºÑĮÐ¸Ð»Ð°Ð°Ð½":4240,"ĠÑĨÓıÑĥÐ½Ð¸ÑıÐ»ÑĬÐµ":4241,"ĠÑħÐ¸ÑģÑĥÐ½":4242,"Ð¸ÑĨÐ°Ð³Ð¾":4243,"ĠÑĨÓıÐ¸ÐºÓı":4244,"ĠÑħÓıÐ°Ð»ÑħÑĮ":4245,"ĠÐ³ÓıÑĥÑĨÓıÐ°Ð±Ð°Ð·ÑĥÐ»":4246,"Ð¸ÐµÐ²Ð°":4247,"ĠÑħÑĥÐ´Ð¾Ð¶":4248,"ĠÐ¼Ð°ÑıÐ»Ð´Ð°":4249,"ĠÐ»ÑĬÐ°Ð»Ð°ÑĢÐµÐ±":4250,"ĠâĦĸ":4251,"Ð°Ð»Ð°ÑĢÐ¾":4252,"Ð°Ð±ÑĢ":4253,"ĠÑĤÐ¾Ð½":4254,"Ð¸ÑģÐµÐ·":4255,"Ð°ÑĩÓıÐ¾":4256,"ĠÐ²ÑĥÐºÓıÐ¸Ð½ÑĩÓıÐ¾":4257,"ĠÐ°Ð¿ÑĢÐµÐ»Ð°Ð»Ð´Ð°":4258,"ĠÐ³ÑĮÐ°Ð¹":4259,"ĠÑĢÐ°ÑħÑĬÐ°Ð»Ð´Ðµ":4260,"ĠÐ´Ð°Ð½Ð´ÐµÐºÐºÑĥÐ½":4261,"ÑģÑĤÐ²":4262,"ĠÑĨÐ¾ÑıÐ±Ð»ÑĬÑĥÐ½":4263,"Ð¾ÑħÑĮ":4264,"ĠÐ³ÐµÐºÑĤ":4265,"ĠÐ¸ÑĨÑĨ":4266,"ĠÐ±Ð°ÐºÓıÐ°Ð»ÑĬÑĥÐ»":4267,"ÑĭÐº":4268,"ĠÑĢÐ°Ð³ÑĮÐ¸Ð·Ðµ":4269,"ĠÐ³ÓıÐ°ÑĢÐ·Ð°":4270,"ĠÐľÑĥÑĢÑĤÐ°Ð·Ð°Ð³ÓıÐ°Ð»":4271,"Ð½Ð¸Ð·Ð°Ð¼":4272,"ĠÐ¥ÓıÑĥÑĢÐ¼Ð°ÑĤ":4273,"ĠÐľÑĥÑħÓıÐ°Ð¼Ð°Ð´Ð¾Ð²Ð°":4274,"ÐĲÑĢÐ°Ð±":4275,"ĠÑģÐ¿Ð¾ÑĢÑĤÐ¸Ð²Ð¸ÑıÐ±":4276,"ĠÐ¼Ð°ÐºÑĬÐ°Ð»Ð°":4277,"Ð»Ð°Ð¼ÐµÐ½ÑĤ":4278,"ĠÐļÑĬÑĥÑĢÑĬÐ°Ð½":4279,"Ð°Ð»ÑĬÐ°Ð±Ð¸":4280,"Ð°ÑħÓıÐ°Ð»":4281,"ĠÐ³ÑĮÐµÐ»Ð³Ð¸":4282,"ĠÐ¸Ð½Ð¶":4283,"ĠÐ½Ð°ÑħÑĬÐµÐ³Ð¸":4284,"ĠÐ³ÑĢÐ°Ð¶Ð´":4285,"ÑĥÑĢÐ¸":4286,"ĠÐºÐºÐµÑĩÓıÐ¾Ð³Ð¾":4287,"ĠÐĲÑĦ":4288,"ĠÐ¶Ð¸Ð½Ð´Ð°Ð³Ð¾":4289,"ĠÐ³ÓĢÐ°ÑģÑĢÑĥ":4290,"ÑĩÐ°Ð³ÓıÐ°Ð·ÑĥÐ»":4291,"ĠÐ³ÐµÐ½ÐµÑĢÐ°Ð»":4292,"ĠÐ³ÑĥÑĢÐ¸Ñī":4293,"Ð¸Ð³ÓĢ":4294,"ĠÐ±Ð°ÐºÑĬÐ±Ð°ÐºÐº":4295,"Ð°Ð»Ð¸Ð´Ð°":4296,"ĠÐ²Ð°ÑħÓı":4297,"Ð°Ð¼Ð°Ð½":4298,"ĠÐ»ÑĬÐ¸Ð¼Ð°Ð»Ð°Ð·":4299,"ĠÑĨÓıÐ¸ÐºÓıÐºÓıÐ°ÑĢÐ°Ð»":4300,"ĠÑħÓıÑĥÐ¶Ð°":4301,"ĠÐ¶Ð°ÐºÑĬÐ°Ð³Ð¸":4302,"ĠÐ´ÐµÐºÐ°Ð±ÑĢÐ°Ð»Ð´Ð°":4303,"Ð¼Ð°ÑħÑĬ":4304,"ĠÐľÐ°Ð´":4305,"ĠÐĳÐ°ÐºÑĮ":4306,"ĠÐĿÐ°Ð¶":4307,"ĠÐ±Ð°ÑħÑĬÑĥÐ»Ð°":4308,"ĠÑħÐ²ÐµÐ»":4309,"ĠÑģÐ°Ð¹Ð³ÑĬÐ°ÑĤÐ°Ð»":4310,"ĠÐºÐ¾Ð¼Ð¸ÑģÑģÐ¸ÑıÐ»ÑĬÑĥÐ»":4311,"ĠÐºÐ¸Ð»Ð¾Ð¼":4312,"ĠÐ°ÑĤ":4313,"ĠÐ³ÑĮÐ¸Ð¼":4314,"Ð¼Ð°Ð»":4315,"ĠÐºÑĮÐµÐ»":4316,"ÑĥÑĤÐ±Ð¾Ð»":4317,"Ð°Ð½Ð´Ð¸":4318,"Ð°Ð¸Ð´":4319,"ĠÐ±Ð¸ÑħÑĮÐ¸Ð·Ð°Ð±Ð¸Ð·Ðµ":4320,"ĠÑĢÑĥÐºÑĬÐ·Ð°Ð»":4321,"ĠÐ¿Ð°ÑĢÐ°Ñħ":4322,"ĠÑħÓıÑĥÑĢÐ¼Ð°ÑĤÐ°Ð»Ð´Ð°":4323,"ĠÑĢÐ¾ÑģÐ´Ð°Ð´Ð°":4324,"ĠÐºÐ°Ð½Ð»ÑĬÐ¸":4325,"11":4326,"ĠÐ³ÓıÐ°Ð»Ð¸Ð¼ÑĩÐ¸":4327,"ĠÐ¼Ð¾ÑĨÓıÐ°Ð»Ð´Ð°":4328,"ĠÑĦÐµÐ²ÑĢÐ°Ð»Ð°Ð»Ð´Ð°":4329,"Ġ*":4330,"ÐµÑıÐ»ÑĬ":4331,"Ð±Ð°ÑĢ":4332,"ĠÐºÐ°Ð½Ð°Ð»":4333,"ĠÑģÐ°Ð»":4334,"ĠÑħÓıÐ°ÑĢÐ°Ðº":4335,"ĠÑĢÐ¾ÐºÑĬÐ¾ÑĢÐµ":4336,"ĠÐ´Ð¸Ð½Ð¸ÑıÐ»":4337,"ÑģÐµÐ±":4338,"Ð¾Ð»Ð¾ÑħÑĬ":4339,"ĠÑĪÑĤ":4340,"ĠÐ¸ÑİÐ»":4341,"Ð¸Ð½Ð°Ð»ÑĬ":4342,"ĠÐ²ÐµÑħÑĮ":4343,"ĠÐ²ÑĢÐ°Ñĩ":4344,"ĠÑģÐ°Ð¼":4345,"ĠÑĨÓıÑĥÐ¼":4346,"ĠÐĶÐ°Ð²":4347,"ĠÐ¦ÐµÐ±Ðµ":4348,"ĠÐºÓıÐ°Ð»ÑĬÐ°ÑıÐ»":4349,"ĠÐºÓıÐ²Ð°ÑĢÐ°Ð±":4350,"ĠÐºÑĬÑĥÐ²Ð°ÑĤÐ°Ð»ÑĬÑĥÐ»":4351,"ĠÐ³ÑĬÐ²Ð°ÑĢÐ¸Ð´Ð°Ð±":4352,"ĠÐ¼Ð°Ð»":4353,"Ð°Ð¹Ð¸Ñħ":4354,"ĠÑĤÐ°ÑĢÐ¸ÑħÐ°Ð»ÑĬÑĥÐ»":4355,"ĠÐ³ÓıÐ°ÑĢÑĨÑĥÐ»Ð°Ð»":4356,"ĠÑħÓıÐ°Ð¹Ð²Ð°Ð½":4357,"ĠÐ±ÑĢÐ¸Ð³":4358,"ĠÐºÐ°ÑĢÑĤ":4359,"ĠÐºÑĥÑĢÑģ":4360,"ĠÑĢÐ°ÑĢÐ°Ð»":4361,"ĠÐ»Ð°ÑħÓı":4362,"Ð°ÑıÐ·ÑĥÐ»":4363,"ĠÐłÐ°ÐºÓı":4364,"ĠÐ¶Ð°Ð²Ð°Ð±Ð¸ÑıÐ»":4365,"ĠÑĩÓıÐµÐ·Ð°Ð±Ð¸Ð·Ðµ":4366,"ĠÐĲÑģÐ»Ð¸ÑıÐ±":4367,"ĠÑĢÐ¸Ð¸Ð´Ð°Ð»":4368,"ĠÐ¼Ð°ÑĤÐµÑĢÐ¸Ð°Ð»":4369,"ĠÐ²Ð°Ð³ÑĬ":4370,"Ð¸ÐºÐ°ÑıÐ»Ð´Ð°":4371,"ĠÐ¼Ð¸Ð»Ð»Ð°ÑĤÐ°Ð»ÑĬÑĥÐ»":4372,"ĠÐĵÑĬÐ¸Ð·Ð¸Ð»ÑİÑĢÑĤ":4373,"ĠÑĦÐ°ÐºÑĥÐ»ÑĮÑĤ":4374,"ĠÐºÑĮÐ²Ð°ÑĢ":4375,"ĠÐĸÐ°Ð½":4376,"ĠÐ½ÑĥÑħÐ¼Ð°Ð»ÑĬÑĥÐ»ÐµÑģÑĥÐ»":4377,"ĠÐ±Ð°ÑģÑĢ":4378,"Ð°Ð½Ð¸Ñī":4379,"ĠÐ´Ð¸Ð¿Ð»Ð¾Ð¼":4380,"ĠÐ½ÑĥÑĨÓı":4381,"ĠÑħÓıÐ°Ð»ÑĤÓıÐ¸Ð·Ð°Ð±Ð¸Ð·Ðµ":4382,"ĠÐĶÐ°Ð³ÑĬ":4383,"ĠÑĢÐ¾ÑģÑĥÑĨÐ¾ÑıÐ·":4384,"ĠÐ³ÓıÐ°Ð´Ð°ÑĤÐ¸ÑıÐ»":4385,"Ð§Óı":4386,"ÑĥÐ»Ð°ÑĢÐµÐ»":4387,"Ð¸Ð·Ð°Ð±ÑĥÐ»Ð°":4388,"ÐĶÐ¸Ð´Ð°":4389,"ĠÑĦÑĢ":4390,"ĠÐ°ÑħÓıÑĥÐ»ÐµÐ»":4391,"ĠÑĢÐ¾ÐºÑĬÐ¾ÑĢ":4392,"ĠÑĤÐ°ÑĢÐ¸ÑħÐ°Ð»Ð´Ð°":4393,"ĠÐ±Ð¸ÑĩÑĩÐ°Ð·Ðµ":4394,"ĠÑıÑĩÐ°Ð½Ð°":4395,"ÐµÑĢÐ³ÐµÐ¹":4396,"ĠÐ¼ÐµÑĤÐµÑĢ":4397,"ĠÐ»ÑĬÐ°Ð´Ð¸":4398,"ĠÐľÐ¸ÑģÐ°Ð»Ð°Ð»ÑĬÐµ":4399,"ĠÐĳÐ¸ÑħÑĮ":4400,"ĠÐ±Ð¸ÑħÑĮÐ°ÑĢÐ°Ð±":4401,"Ð¸ÑħÓıÐ°ÑĤ":4402,"Ð°ÑıÐ·Ð´Ð°":4403,"ĠÐ¢ÑĥÑĢÐº":4404,"ÑĥÐµÐ²":4405,"Ð¾ÑĩÓı":4406,"ĠÐĸÐ¸Ð²":4407,"ĠÑĢÐ¾ÑħÐ°Ð»Ð¸Ð»Ð°Ð±":4408,"ĠÐ±Ð¸Ð·Ð½ÐµÑģ":4409,"Ð°Ð½Ñĩ":4410,"Ð²Ð°ÑĢÐ°Ð±":4411,"Ð²Ð¾Ðº":4412,"Ð¸Ð½ÑģÑĥÐ»":4413,"ĠÐ³ÓıÐ°Ð´Ð°ÑĤÐ°Ð»":4414,"ĠÑħÓıÐ°Ð´ÑĥÑĢÑĥÐ½":4415,"ĠÐºÑĬÐ¾ÐºÑĬÐ°":4416,"ĠÐ²Ð°ÑĨÐ°Ð»":4417,"ĠÑįÑħÐµÐ´Ðµ":4418,"ĠÐľÑĥÑħÓĢÐ°Ð¼Ð°Ð´":4419,"ÑĥÑİÑī":4420,"Ð°Ð¼ÑĥÑħÓıÐ°Ð¼Ð°Ð´":4421,"ĠÐļÑĬÐ¾":4422,"ĠÑĨÐµÑĢÐµÑĢÐ°ÑħÑĬ":4423,"Ð¸Ð·Ð°ÑĢÑĥÐ½":4424,"ĠÑĨÐµÑĢÐµÐ³ÓıÐ°Ð½":4425,"ĠÑĤÐµÑĢÑĢÐ¾ÑĢÐ¸Ð·Ð¼":4426,"ĠÐ±ÑĥÐºÓıÐ°Ð½Ð¸Ð»Ð°":4427,"ĠÐ³ÑĥÑĢÐµÐ»Ð³Ð¸":4428,"ĠÑĢÐ°ÑħÑĬÐ°Ð»ÑĬÐ°Ð½":4429,"ÐĵÑĮÐµÐ½Ð¸Ð±":4430,"Ð¸Ð°Ð´":4431,"ĠÐ»ÑĬÐ¾Ð»ÐµÐ±":4432,"ÐºÑĬÑĥÐ»":4433,"ĠÑħÑĬÑĥÑĤ":4434,"ĠÐ³ÑĬÑĥÑĤÓıÐ±Ð¸":4435,"ÑģÐ°":4436,"ĠÑīÑĥ":4437,"ĠÑĢÑĥÐ³Ð¾Ð½Ð¸":4438,"ĠÐ¿ÑĢÐµÑģÑģ":4439,"ĠÐ§ÓĢ":4440,"ĠÐ±Ð°ÑĩÓıÑĥÐ½Ð°":4441,"ĠÐ¼Ð°ÑĨÓıÐ³Ð¸":4442,"ÑĥÐ»ÑĮÑĤÑĥÑĢÐ°ÑıÐ»ÑĬÑĥÐ»":4443,"ĠÐºÑĮÐ¸Ð¶":4444,"Ð°Ð³ÑĬÐ°Ð·":4445,"ĠÐ°ÑħÓıÐ¸Ð·Ðµ":4446,"ÐłÐ¾ÑģÑģÐ¸ÑıÐ»ÑĬÑĥÐ»":4447,"ĠÐ£Ð½ÑģÐ¾ÐºÐ¾Ð»":4448,"Ð³ÑĮÐ°ÐºÐ²Ð°ÑĢÐ¸":4449,"ĠÑħÓıÐ¾ÑĢ":4450,"ĠÐ¥ÓıÐ°Ð¹Ð±":4451,"ĠÐ±Ð¸ÑĩÓıÑĩÓıÐ°Ð½Ð°":4452,"ĠÑĢÐ°ÑĩÐ¸Ð½Ðµ":4453,"ĠÐĲÐ½Ð²Ð°ÑĢ":4454,"ĠÐ³ÑĬÑĥÐ½Ðº":4455,"ĠÐ¼Ð¸ÐºÑĮÐ³Ð¾":4456,"ÐµÑıÐ»Ð´Ð°ÑģÐ°":4457,"Ð°Ð¹Ð¸Ð½":4458,"ĠÑīÐ²ÐµÐ¹":4459,"Ġ26":4460,"ĠÐ¼ÑĥÐ³ÓıÑĢÑĥÐ»":4461,"ĠÐ½Ð¾Ð¼ÐµÑĢÐ°Ð»Ð´Ð°":4462,"Ð°Ð»ÐµÐ²":4463,"ĠÐ´Ð°ÑĢÐ°Ð±":4464,"ĠÑıÑĤ":4465,"ĠÐ½ÑĥÑħÐ´Ðµ":4466,"ĠÐĵÓıÐ°Ð±Ð´ÑĥÐ»Ð°ÐµÐ²":4467,"ÑģÐ¾Ð½":4468,"ĠÑĢÐ¸ÑĩÓıÑĩÓı":4469,"ĠÐ½Ð°Ð¼ÑĥÑģ":4470,"ĠÑĤÓıÑĥÐ½":4471,"ĠÐºÑĬÑĥÐ½":4472,"ĠÐ±Ð¾ÑģÐ°Ð½Ð¸":4473,"ĠÐ¼ÑĥÑħÑĬÐ°Ð»":4474,"ĠÐ¥ÑĬÐ²":4475,"ĠÐ±Ð¾Ð¶Ð¸Ð»ÑĬÐ¸":4476,"Ð±Ð°ÑģÐ¸ÑıÐ»":4477,"ĠÐĵÑĥÑĢÐ¶":4478,"Ð°Ð´ÑĥÑĢ":4479,"ĠÑĤÑĥÐ¼":4480,"Ð°Ð¶ÑĥÐ´Ð¸Ð½":4481,"ĠÐ¡ÑĤÐ°Ð»":4482,"ÑĥÐ´Ð¸ÑıÐ²":4483,"ĠÐ±Ð°ÑĤÐ°Ð³Ð¸":4484,"ĠÑħÐ°Ð»ÐºÑĬÐ°Ð·Ð´Ð°":4485,"ĠÑįÐ±ÐµÐ»Ð°Ð»ÑĬ":4486,"ĠÑĥÐ»ÐºÐ°":4487,"ĠÐºÐ¸Ð½Ð°Ð·Ð³Ð¾":4488,"ĠÐ±Ð°ÐºÑĮÑĥÐ»ÑĬ":4489,"ĠÐ±Ð°Ð³Óı":4490,"Ð°Ð´Ð°ÑĢ":4491,"ĠÐ»ÑĬÐ°Ð·Ð°ÑĢ":4492,"ĠÐ³ÓıÐ¾Ð»Ð°ÑĢÐ¾":4493,"ĠÑĩÓıÐ²Ð°Ð½Ð°":4494,"Ġ80":4495,"ĠÐºÓĢÑĥÐ´Ð¸ÑıÐ±":4496,"ĠÐºÑĬÐ¾Ð¹Ð¸Ð»":4497,"Ġ%":4498,"ĠÐºÑĬÐ°Ð·Ðµ":4499,"ÑĩÐ¸Ðº":4500,"ÐµÑĩÐµÐ´":4501,"ĠÑħÓıÑĥÐºÑĥÐ¼Ð°ÑĤ":4502,"ĠÐºÐ°Ð³ÑĬÑĤÐ°Ð»":4503,"ĠÐļÐ°Ð²ÐºÐ°Ð·Ð°Ð»Ð´Ð°":4504,"ĠÑħÓıÐ°ÐºÑĬÐ¸ÐºÑĬÐ°ÑĤ":4505,"ĠÑįÐºÑģÐ¿ÐµÑĢÑĤ":4506,"ĠÐ¾ÐºÑĢÑĥÐ³":4507,"ÑĥÐ´Ð°Ð»":4508,"Ð°Ð½ÑħÑĬ":4509,"ĠÑħÓıÐ¸Ðº":4510,"ĠÑĢÐ°Ð³ÑĬÑĥÐ»ÑĬ":4511,"ĠÐºÑĬÐ²Ð°ÐºÓı":4512,"ĠÑģÐ°Ð¹ÑĤ":4513,"ĠÐºÑĮÐ¾Ð»Ð°Ð°Ð½":4514,"ĠÐ¿ÑĢÐ¾ÐºÑĥÑĢÐ°ÑĤÑĥÑĢ":4515,"ÑĮÐµÑĢ":4516,"ÐµÑĢÐº":4517,"ĠÐĵÐµÐ½":4518,"ĠÐ³ÑĬÐ¸ÑĢ":4519,"ĠÐ»ÑĬÐ°Ð»Ð°ÑĢÐµÐ»":4520,"ĠÐ»ÑĬÑĥÐ³ÓıÐ¸Ð·Ð°Ð±ÑĥÐ½Ð°":4521,"ĠÐ³ÓıÐ°Ð´Ð°ÑĤÐ¸ÑıÐ±":4522,"ĠÐ¼ÑĥÐ³ÓıÑĢÑĥÐ·":4523,"ĠÐ±Ð°ÑĢÐ°ÐºÐ°ÑĤ":4524,"ĠÑģÐ¾Ð»Ð´":4525,"ĠÑĢÐµÐºÑĮ":4526,"ĠÐĳÐ°ÑħÓıÐ°ÑĢ":4527,"ĠÑħÐ°Ð´ÑĥÐ±Ð³Ð¸":4528,"ĠÑħÐ²ÐµÐ·Ð°ÑĢ":4529,"ĠÐ³ÓıÐ¾Ð»Ð¾ÑħÑĬÐ°Ð±Ð°Ð·":4530,"ÑĢÐ°ÐºÓıÐ°Ð»ÑĬ":4531,"Ð·Ð°Ð¼ÐµÐ½":4532,"Ð¸Ð»Ð¸Ð»Ð°Ð½":4533,"ÑĨÐµÐ½":4534,"ĠÑħÐ°Ð»ÐºÑĬÐ¸ÑıÐ±":4535,"ĠÐ»ÑĬÐ°Ð·Ð°Ð±Ð¸Ð·Ðµ":4536,"ĠÑĤÓıÐ°Ð¼Ð¸Ð·Ðµ":4537,"ĠÐ»ÑĬÐ°Ð»Ð°Ð°Ð½":4538,"ĠÑĢÐ¸ÑħÑĮÐ¸Ð·Ð°ÑĢÑĥÑĢÐ°Ð»":4539,"ĠÐļÐ°ÑģÐ¿Ð¸Ð¹":4540,"ÐºÐºÐ²":4541,"ĠÐ»Ð°Ð³ÑĬ":4542,"Ð°Ð¹Ð¸Ð»Ð°Ð½":4543,"ĠÐ´Ð°Ð¸Ð¼":4544,"Ð¸ÑĩÓıÐ¾Ð½Ð¸Ð³Ð¸":4545,"ĠÐ³ÑĮÐµÐ½Ð¸Ð²Ðµ":4546,"ĠÐ°ÑħÐ¸ÑĢÐ°Ð»Ð´Ðµ":4547,"ĠÐ¸ÑħÐ´Ð°Ð»":4548,"ÐĵÑĮÐ°Ð½Ð¶Ðµ":4549,"ĠÐĲÐ¼Ð¸Ð½Ð°ÑĤ":4550,"Ð°ÑĢÐ°Ñģ":4551,"ĠÐºÐºÑĥÑĢÐ°Ð»":4552,"ÐµÐ¼ÑĨ":4553,"ĠÐ¡ÐµÑĢÐ³ÐµÐ¹":4554,"ĠÑıÑģÐ°Ð»":4555,"ĠÑĥÐ½ÑĤÐ°ÑĢÐ°Ð»":4556,"ÑħÓıÐ°Ð»Ð°Ð»ÑĬÑĥÐ»":4557,"ĠÐĺÐ½Ñħ":4558,"ĠÑĢÑĥÐ³Ð¾Ð½Ð¸Ð³Ð¸":4559,"ĠÐĶÐ°Ð³ÑĬÐ¸ÑģÑĤÐ°Ð½Ð°Ð»Ð´Ð°ÑģÐ°":4560,"ÐĲÐ½":4561,"ĠÑħÑĬÑĥÐ»ÑĥÑħÑĬÐ°Ð»Ð´Ð°":4562,"ÑĥÐ»Ð°ÑĢÐ¾Ð°Ð½":4563,"ĠÑĤÓıÐ¾ÑĢÐ¸ÑĤÓıÐ°ÑĢÐ°Ð»":4564,"Ð±ÑĥÐ·ÑĥÐ»":4565,"ĠÐ¨Ð°Ð¼Ð¸Ð»Ð¸ÑĨÐ°":4566,"ĠÐ±Ð°ÑĨÓıÑĨÓıÐ°Ð´Ð°Ð±":4567,"ÐºÐ¾":4568,"ĠÐĸÐµÐ³Ð¸":4569,"ĠÐ²ÑĥÐ³Ð¾Ð½Ð¸Ð³Ð¸":4570,"ĠÐ©Ð¸Ð²":4571,"ĠÐ¿ÑĢÐµÐ´Ð¿ÑĢ":4572,"ĠÐ½Ð°ÑĢÐºÐ¾ÑĤ":4573,"ĠÑĢÐ¾ÑĢÑĩÓı":4574,"ĠÑģÐ¾Ð½Ð°Ð·ÑĥÐ»":4575,"ĠÐ±ÐµÑĢÑĤÐ¸Ð½":4576,"ÑĦÐµÑĢÐµÐ½":4577,"ĠÐ³ÓıÐ°ÑħÑĮÐ°Ð»Ð»ÑĬÐ°ÑĢÐ°Ð»":4578,"ĠÐ»ÑĬÐ°Ð»Ð°ÑĢÐµÐ²":4579,"ĠÐ»ÑĬÐ°Ð¹Ð³Ð¸":4580,"ĠÐ±Ð°Ð¶Ð°ÑĢÐ°ÑĢÐ°Ð±":4581,"ĠÐºÐ»Ð°ÑģÑģÐ°Ð·ÑĥÐ»":4582,"ĠÐ¸Ð½ÑĦÐ¾ÑĢÐ¼Ð°ÑĨÐ¸Ñı":4583,"ĠÑĩÐ¾ÑĢÑħÐ¾Ð»ÑĬ":4584,"ÑħÑĬÐ²Ð°Ð³ÓıÐ°Ð¹":4585,"ÐºÐ°ÑıÐ»Ð´Ð°":4586,"Ð¸ÑħÑĬÐ°Ð½":4587,"ĠÐłÐ¾ÑģÑģÐ¸Ñı":4588,"ÐĿÑĥÐ¶":4589,"ĠÐ¶Ð°Ð¼Ð³ÓıÐ¸ÑıÑĤ":4590,"Ð¾Ð²Ð½Ð°":4591,"Ð¸Ð·Ð°Ð±ÑĥÑĢÐ°Ð±":4592,"ĠÑħÐ²ÐµÐ·Ðµ":4593,"ĠÐ¼ÑĥÐ³ÓıÐ°Ð»Ð¸Ð¼Ð·Ð°Ð±Ð¸":4594,"ĠÑĨÐµÐ±ÐµÐºÐºÑĥÐ½":4595,"ĠÐ³ÓıÐµÐ»Ð¼Ð¸ÑıÐ±":4596,"ĠÐºÐ°Ð±Ð¸Ð½":4597,"ĠÐ¿Ð°Ð»Ð°ÑĤ":4598,"ÐµÐ·Ð°Ð±Ð¸":4599,"ĠÐ°Ð±ÑĥÐ»ÐµÐ²":4600,"ÑģÑĤÐ°Ð½":4601,"ÑħÓıÐ°Ð»Ð°Ð»Ð´Ð°":4602,"ĠÑħÑĮÐ²Ð°Ð´Ð°":4603,"ĠÐ±Ð°ÑĢÐ°Ð²":4604,"ÑıÐ¹":4605,"Ð¾ÑĢÐ°":4606,"Ð³ÑĬÐ°Ð½":4607,"ĠÐ·Ð°ÑħÓıÐ¼Ð°ÑĤÐ°Ð»":4608,"ĠÐ¨Ð°Ð¼Ð¸Ð»ÑĮ":4609,"ĠÐ¿ÑĢÐµÐ´ÑģÐµÐ´Ð°ÑĤÐµÐ»":4610,"ĠÑĨÐµÐ²ÐµÑħÑĬÐ°Ð½":4611,"ĠÐ³Ð²Ð°Ð½Ð³ÑĬ":4612,"ÑħÐµÑĢ":4613,"ĠÐ²Ð¾ÐºÑĮ":4614,"ĠÐ»ÓĢ":4615,"ĠÐļÐºÐ¾Ð»Ð°":4616,"Ð¸ÑģÑĤÐ°Ð½Ð°Ð»ÑĬÑĥÐ»":4617,"ĠÑĢÐ°Ð³ÑĬÑĥÐ»Ð°Ð»":4618,"ĠÐ³ÑĮÐ°Ð´Ð¸Ð½Ð°Ð»":4619,"ĠÑĢÐ¾ÑģÐ°Ð±Ð°Ð»ÑĬÐµ":4620,"ĠÐºÐ¾Ð´Ð¾Ð±Ðµ":4621,"Ð¸Ð¾ÑĤ":4622,"ĠÐ²Ð¾Ñħ":4623,"ĠÑīÑĥÑī":4624,"Ð³ÓıÐ°Ð»Ð¸ÐµÐ²":4625,"ÐĵÑĮÐµÐ½Ð¸ÑĢ":4626,"ĠÐ½ÑĥÑģÐ³Ð¾":4627,"ĠÐŁÐ°ÑĩÐ°Ð»Ð¸ÑħÑĬÐ¸ÑıÐ±":4628,"ĠÐ¥Ð°ÑĢÐ°ÑħÑĮ":4629,"Ð´ÑĥÐ·ÑĥÐ»":4630,"Ð°Ð»ÑĬÐ°Ð·Ðµ":4631,"Ð¸Ð»Ð°Ð»Ð´Ðµ":4632,"ĠÐ³ÑĮÐ°Ð±Ð¸ÑıÐ»Ð´Ð°":4633,"ĠÐ³ÑĮÐ°Ð±Ð¸Ð»Ð°":4634,"ĠÑģÐ¾Ð²ÐµÑĤÐ°Ð»ÑĬÑĥÐ»":4635,"ĠÐ¼Ð¸ÑģÐºÐ¸Ð½":4636,"Ð¾Ð½Ð°Ð²":4637,"ĠÐºÐºÐ°Ð½Ð¸Ð³Ð¸":4638,"ĠÐ¿Ð°ÑĤÑĢ":4639,"Ð¸ÑıÐ»ÑĬÑĥÐ»Ð³Ð¸":4640,"Ð¥Ð°Ð»":4641,"Ð¤ÑıÐ»ÑĬÑĥÐ»":4642,"ĠÑħÐ°Ð´ÑĥÑģÐµÐ»":4643,"ĠÐ³ÑĥÑĢÐ¸Ð½":4644,"ĠÐĸÐ¸Ð½":4645,"Ð½Ð°Ð¼ÑĥÑģ":4646,"Ð°Ð´Ð°Ð¹":4647,"ĠÐ³ÓıÐ¸Ð½":4648,"ĠÐ³ÑĮÐ°Ð±ÐµÑıÐ½":4649,"ĠÐ¡ÐĴ":4650,"ĠÑĢÑĥÐºÓıÐ°Ð½Ð¸Ð³Ð¸":4651,"Ð¾ÑĪ":4652,"Ð³ÓıÑĥÐ½":4653,"ĠÐºÑĮÐµÑĩÓıÐ¾Ð³Ð¾":4654,"ĠÐłÑĥÐºÑĬ":4655,"ĠÐłÑĥÐ³Ð¾":4656,"ĠÑĢÐ°Ð¹Ð¾Ð½Ð°Ð»ÑĬÐµ":4657,"Ð¸ÑıÐ·Ð´Ðµ":4658,"ĠÐ´Ð°ÑĢÐ°Ð¶Ð°":4659,"ĠÑĤÐ²Ð¾ÑĢÑĩÐµÑģÑĤÐ²Ð¾":4660,"Ð½Ð°Ð»ÑĬÑĥÐ»":4661,"ĠÐ¡ÑĥÐ³ÑĬ":4662,"ĠÑįÐ½":4663,"ÑĥÐ¶ÑĥÐ¼":4664,"ĠÐ°Ð´Ð¼Ð¸Ð½Ð¸ÑģÑĤÑĢÐ°ÑĨÐ¸ÑıÐ»ÑĬ":4665,"ĠÑħÐ¸ÑģÐ¸Ð·Ðµ":4666,"ÑĢÐµÑħÐ°Ð»ÑĬÑĥÐ»":4667,"ĠÐ¼ÐµÐºÑĬÐ°Ð±":4668,"ĠÐ³ÓıÐ°ÑģÑĢÑĥÑıÐ»ÑĬÑĥÐ»":4669,"ĠÐĸÐ¸Ð½Ð´Ð¸ÑĢÐ³Ð¾":4670,"Ð°ÐºÑĢÐ°ÑĢ":4671,"Ð»ÐµÐ¼":4672,"ÐºÐºÐ¾Ð»":4673,"ĠÑĨÐ¾Ð»ÑĬ":4674,"Ð¾Ð±Ð¾Ð³Ð¾":4675,"ĠÑĢÑĥÐ³Ð¾Ð°Ð½":4676,"Ð¸Ð½ÐµÐ³ÓıÐ°Ð½":4677,"Ð¥ÓıÐ°Ð»":4678,"ĠÑħÐ°ÑĢÐ±":4679,"ĠÐ¿ÐµÐ´Ð°Ð³Ð¾Ð³":4680,"ĠÑĥÐ½Ð°Ð°Ð½":4681,"Ð¸Ð·Ð°ÑĨÐ¸Ñı":4682,"Ð°Ð²Ð»":4683,"ĠÐ·Ð¸Ð³":4684,"ĠÐĵÑĮÐ°Ð½Ð¶":4685,"ĠÐ¼ÑĥÑģÑĤÐ°ÑħÓıÐ¸ÐºÑĬÐ°Ð±":4686,"ĠÐ³ÓıÐ¸Ð»Ð»Ð°Ð»ÑĬÑĥÐ½":4687,"ĠÐ±ÑĥÐºÓıÐ¸Ð½ÑĩÓıÐµÐ±":4688,"ĠÐĸÐ°Ð¼Ð³ÓıÐ¸ÑıÐ±":4689,"ĠÐľÐµÐ»Ð¸Ðº":4690,"ĠÐ±Ð°ÑĨÓı":4691,"ĠÐºÑĥÐ»":4692,"ĠÑīÑĥÐ»Ð°":4693,"Ð°Ð±Ð¸Ð³ÑĥÐ½":4694,"ĠÐĳÑĥÐ³Ð¾":4695,"ĠÐ°Ð²Ð°Ð»":4696,"ĠÐ°Ð´Ð¼Ð¸Ð½Ð¸ÑģÑĤÑĢÐ°ÑĤÐ¸Ð²Ð¸ÑıÐ±":4697,"ĠÐ»ÑĬÑĥÐ³ÓıÐ°Ð½Ð°":4698,"ĠÐ±Ð°ÑĩÑĥÐ½ÐµÐ±":4699,"ĠÐ³ÑĮÐ¸ÑĤÓıÐ¸Ð½Ð°Ð²":4700,"ĠÑģÐ°Ð½Ð°Ð³ÓıÐ°ÑĤ":4701,"ĠÐĲÑĤ":4702,"ĠÐ±Ð°ÑĢÐºÑĥÐ»Ð°":4703,"ĠÐ¿Ð¾Ð»Ð¸ÑĨ":4704,"ĠÐ¿Ð°ÑĢÐ»Ð°Ð¼ÐµÐ½ÑĤ":4705,"ĠÐ©Ð°Ð¹Ð³ÑĥÑĢÐµÐ»ÑĬÑĥÐ»":4706,"Ð°Ð³Ð°ÑĢÐ³Ð¾":4707,"ĠÐ´Ð¾":4708,"ĠÐ³ÑĮÐ°Ð±Ð¸ÑĩÓıÐ¾":4709,"ĠÑĢÑĥÐ·":4710,"ĠÑħÓıÐµÐ¶":4711,"ĠÑĩÐ¸ÑıÑĢ":4712,"ĠÐºÑĮÐ°Ð»":4713,"Ġ28":4714,"ĠÑħÐ°Ð»ÐºÑĬÐ°Ð·ÑĥÐ»":4715,"ĠÐĵÑĮÐ°Ð½Ð¸Ð±":4716,"ĠÑĤÑĥÑĢÐº":4717,"ĠÐ¥ÑĥÑĪÑĤ":4718,"ĠÐ±ÐµÑģÐ´Ð°Ð»":4719,"ĠÑħÑħ":4720,"ĠÐľÑĥÑħ":4721,"ĠÐ¿Ð¸ÑĢ":4722,"ÑĥÐ±Ð°ÐºÐ°ÑĢ":4723,"ĠÐĳÐ°Ñħ":4724,"Ð¸ÑĩÓıÐµÐ²":4725,"ĠÐ°Ð¼ÑĢÑĥ":4726,"ĠÐ±Ð¸ÑĩÑĩÐ°Ð»ÐµÐ±":4727,"ĠÐ¶Ð°Ð¼Ð°Ð³ÓıÐ°ÑĤÐ°Ð»ÑĬ":4728,"ĠÑĢÐ¸ÑĤÓıÑĥÐ½":4729,"ĠÐ°Ð´Ð°Ð±Ð¸ÑıÑĤÐ°Ð»ÑĬÑĥÐ»":4730,"ĠÐĵÑĮÐ°Ð±ÑģÐ°Ð³ÓıÐ°ÑĤÐ°Ð»Ð´Ð°":4731,"ĠÑıÑĢÐ³ÑĬÐ¸Ð´":4732,"ĠÐ³ÓıÐ°Ð´Ð¸Ð½Ð°Ð±":4733,"ĠÐºÑĬÐ°Ð´Ð°ÑĢÐ°Ð»Ð´Ðµ":4734,"ĠÑĥÑĩÐ¸ÑĤÐµÐ»":4735,"ĠÐ±Ð°ÐºÑĬÑĤÓĢÐµÑĢÑħÑĮ":4736,"Ð°Ñį":4737,"ĠÐ¥Ð°Ð»Ð¸Ð»":4738,"âĢĶ":4739,"ĠÑĢÐ¾ÑģÑĥÐ»ÑĬÑĥÐ½":4740,"ÑĭÑĪ":4741,"ĠÑĢÐ°ÐºÓıÐ°Ð»Ð´ÐµÑī":4742,"ĠÐ½ÑĥÐ³ÓıÐ»ÑĬÐ¸":4743,"Ð´Ð¸":4744,"Ð°Ð·Ð°Ð±Ð¸":4745,"Ð°Ð´Ð³Ð¾":4746,"Ð°Ð³ÓıÐ¸Ð¿":4747,"ĠÑĢÐ°Ð¹ÑĨ":4748,"Ð¸Ð²Ð¸ÑıÐ»":4749,"ĠÐ¢ÐµÐ¼Ð¸ÑĢ":4750,"ÐĳÐ°ÑĢÐº":4751,"ĠÑĩÐ°Ð³ÓıÐ°Ð·ÑĥÐ»":4752,"ĠÑĨÐ¾Ð³Ð¸Ð´Ð°Ð·Ð³Ð¸":4753,"ĠÐ°ÑĢÐ¼Ð¸ÑıÐ»Ð´Ðµ":4754,"ÑıÐ±ÑĢÑĮ":4755,"ĠÐ³ÑĮÑĥÐ¶ÑĥÐ¼":4756,"Ð°Ð³ÑĮÐµÑĩÓı":4757,"ĠÑĦÐ¸Ð½":4758,"ĠÐºÑĬÐ²Ð°ÑĤÓıÐ¸Ð±":4759,"ĠÑıÑģÐ°Ð»ÑĬÑĥÐ»":4760,"ĠÐºÓıÐ²Ð°ÑĢÐ°Ð»ÑĬÑĥÐ»":4761,"ĠÑĢÐ°Ð³ÓıÐ°Ð»Ð´Ð°":4762,"ĠÑĨÐµÐ½ÑĤÑĢÐ°Ð»ÑĬÑĥÐ»":4763,"ĠÐ²Ð¸ÑħÑĮÐ¸Ð·Ð°Ð²":4764,"Ð°ÑıÑĤ":4765,"ĠÐ³ÑĮÐµÐ·Ð´Ð°ÑģÐ°":4766,"ĠÐĺÐ»ÑĮ":4767,"ĠÑĢÐ°Ð³ÑĬÐ´Ðµ":4768,"ĠÑĦÑĥÑĤÐ±Ð¾Ð»":4769,"ÐĺÑģÐ°Ð½Ð°":4770,"ÑĮÑİ":4771,"Ð²ÐµÐ»":4772,"Ð¿Ð°Ð½":4773,"ĠÐĵÓıÐ°Ð·":4774,"ĠÐ³ÑĮÐµÑĩÓıÐ¾Ð»ÑĬÐ¸ÑıÐ»ÑĬ":4775,"ĠÐĵÑĮÐµÐ½Ð¸Ð²":4776,"ĠÐ±ÐµÑĩÐµÐ»ÑĬÐ¸":4777,"Ð¿ÑĥÑģÐº":4778,"ĠÐ±ÑĥÐºÓıÐ°ÑĢÐ°Ð±Ð°Ð½Ð¸":4779,"ĠÐķÐ²ÑĢÐ¾Ð¿Ð°ÑıÐ»ÑĬÑĥÐ»":4780,"ĠÐºÓıÐ¾Ð»Ð°":4781,"ĠÑħÓıÐ°Ð»ÑĤÓıÑĥÐ´Ð°ÑģÐ°":4782,"ĠÐľÑĥÑħÓıÐ°Ð¼Ð°Ð´Ð¸Ðµ":4783,"ĠÑįÐ»ÐµÐºÑĤ":4784,"ĠÐ±Ð°Ð¹Ð±Ð¸ÑħÑĮÑĥÐ»":4785,"ĠÐºÐ¸Ð½Ð°Ð·ÑĥÐ»Ð³Ð¾":4786,"ÑĤÐ½Ð¸ÐºÐ¸ÑıÐ±":4787,"Ð±ÐµÑĢ":4788,"Ð¼Ð¸Ð»":4789,"ĠÑĨÑĨ":4790,"ĠÐ»ÑĬÐ¸Ð»":4791,"ÐµÐ½Ð¸Ð³Ð¸":4792,"Ð¿Ð¸Ñģ":4793,"ĠÑħÓıÐ°Ð»ÑĤÓıÐ¸Ð·Ð°Ð±ÑĥÐ»ÐµÐ±":4794,"Ð¸Ð´Ð°Ð½Ð¸Ð³Ð¸":4795,"ĠÐ±Ð¾Ñħ":4796,"ĠÑħÓıÐ°Ð¶Ð°Ð»ÑĬÐ¸":4797,"ĠÐ¿Ð°ÑĩÐ°Ð»Ð¸ÑħÑĬÐ°Ð»ÑĬ":4798,"ĠÑĪÐ°Ð¿Ð°ÐºÑĬÐ°ÑĤÐ°Ð»":4799,"ĠÑıÐ½Ð²Ð°ÑĢÐ°Ð»Ð´Ð°":4800,"ĠÑĦÑĢÐ¾Ð½ÑĤ":4801,".,":4802,"ĠÐ°Ð³ÑĮ":4803,"ĠÐºÐºÑĥÑĢÐ°Ð±":4804,"ĠÐ³ÓıÐ°ÑħÑĮÐ°Ð»ÑĩÐ¸":4805,"ĠÐ±Ð°Ð¹Ð±Ð¸ÑħÑĮÑĥÐ´Ð°":4806,"ĠÐ½Ð¸Ð¶ÐµÑħÑĬÐµ":4807,"ĠÐĵÓıÑĥÐ¼Ð°ÑĢÐ¾Ð²Ð°Ñģ":4808,"ĠÑģÐ°Ð½Ð°Ð³Óı":4809,"ĠÐ´Ð°ÑĢÐ°Ð¶Ð°ÑıÐ»ÑĬÑĥÐ»":4810,"ĠÐ¿Ð¾Ð»Ð¸ÑĤÐ¸ÐºÐ¸ÑıÐ±":4811,"Ð»Ð¸Ð½":4812,"ĠÑģÐ°ÑĢÐ´":4813,"ÑĥÐ¼Ð°ÑĢ":4814,"ĠÑĢÐ°Ð¹Ð¾Ð½Ð°Ð·Ð´Ð°":4815,"Ð¸ÑĩÓĢ":4816,"ĠÐ°Ð´Ð²Ð¾Ðº":4817,"ĠÐ½ÑĥÑħÐ¼Ð°Ð»ÑĬÑĥÐ»ÐµÑģ":4818,"ĠÐĵÓıÐ°Ð»Ð¸Ð»":4819,"ĠÑĤÓıÑĥÑĢÐ°Ð·Ðµ":4820,"ĠÐºÐ²Ð°Ð»ÐºÐ²Ð°Ð»":4821,"ĠÑĤÑĢÐ°Ð½ÑģÐ¿Ð¾ÑĢÑĤ":4822,"Ð°Ð·ÑĥÐ»Ð°Ð±":4823,"ĠÐĶÑĥÑĨÐ°":4824,"ĠÑĨÓıÐ°Ð»Ð¸":4825,"ĠÐ±Ð°ÐºÓıÐ°Ð»ÑĬÐµ":4826,"ÐĲÐ²Ð°ÑĢ":4827,"ĠÐ±Ð°ÑĤÑĥÐ½":4828,"ĠÐĵÓıÑĥÐ¼Ð°ÑħÐ°Ð½":4829,"ĠÐ°Ð»Ð°ÑĤ":4830,"ĠÐ³ÑĮÐ¸ÐºÑĬÐ°Ð½Ð°":4831,"ĠÐ·Ð°Ð²ÐµÐ´":4832,"ĠÐļÐ¸Ð½Ð°Ð±Ð³Ð¾":4833,"ĠÐ³ÓıÑĥÐ½Ð³ÑĥÑĤÓıÐ°Ð±Ð¸":4834,"ĠÐºÐºÐ¾Ð»Ð¸Ð»Ð°":4835,"ÐµÐ¹Ð½":4836,"ÐļÐ¸Ð½":4837,"ĠÐ¿Ð¸ÐºÑĢ":4838,"ĠÐ±ÐµÐ³ÑĮÑĥÐ»Ð°ÑĢÐµÐ±":4839,"ĠÐ¼Ð°Ð´Ð°Ð½Ð¸ÑıÑĤ":4840,"ĠÐ´ÐµÐ»":4841,"ĠÑĨÓıÑĥÑĢÐ°Ð±":4842,"ÑĢÑĥÐº":4843,"ĠÐ²ÑĥÐºÓıÑĥÐ½Ð°":4844,"ĠÐ±Ð°ÐºÓıÐ³Ð¸":4845,"ĠÐ±Ð°ÑĤÓıÐ¸ÑıÐ»":4846,"ĠÐ¼ÑĥÐ½Ð°Ð³ÑĮ":4847,"ĠÑħÐ¸ÑĢÐ¸ÑıÐ²":4848,"ĠÐ¼ÐµÑģÐµÐ´Ð¸Ð»":4849,"Ð°ÑĢÐ¸Ð»Ð°":4850,"ĠÑīÐ¾Ð»ÐµÐ»":4851,"ĠÐ·Ð¾Ð½":4852,"ĠÐļÐ°Ð¼Ð°Ð»":4853,"Ð¸Ð½Ð°Ð»Ð´Ð°ÑģÐ°":4854,"ĠÐ±Ð°ÑĢÐºÐ°Ð½Ð°":4855,"ĠÑįÐºÐ·Ð°Ð¼ÐµÐ½":4856,"ĠÐľÑĥÑģÐ°Ð»":4857,"ĠÐ¼Ð¸Ð½ÑĥÑĤ":4858,"ĠÐ±Ð¾Ð»ÑĮÐ½Ð¸ÑĨÐ°ÑıÐ»Ð´Ð°":4859,"ĠÐ²ÑĥÐºÓĢÐ°Ð½Ð°":4860,"ĠÑģÐ¸ÑıÑħÓı":4861,"ĠÐ¼ÑĥÑħ":4862,"ĠÑħÓıÐµÑĢÐµÐ½":4863,"ĠÐ¸ÑģÐ°Ð½":4864,"ĠÐ¡ÑĤ":4865,"ĠÐ¦Ð°Ð´Ð°ÑħÑĬ":4866,"ĠÐ±Ð°ÑĤÓıÐ°":4867,"ĠÑĨÐµÑĢÐµÑħÑĥÐ½":4868,"ĠÑĢÐµÑħÑģÐµÐ·Ðµ":4869,"ĠÐ²Ð°ÐºÐ¸Ð»Ð·Ð°Ð±Ð°Ð·":4870,"ĠÐ¾Ð±Ñī":4871,"ĠÐ¸Ð´Ð°ÑĢÐ°Ð±Ð°Ð·":4872,"ĠÐ°ÐºÐ°Ð´ÐµÐ¼":4873,"ĠÐ¹Ð¸Ð³ÐµÐ¹":4874,"ĠÐ³ÑĮÐ¾ÑĢ":4875,"Ð¶Ð¸Ð´ÐµÑĢ":4876,"ÑħÑĬÐ¸":4877,"ÐĵÐŃ":4878,"ĠÐ³ÑĮÐ°ÑĢÐ·":4879,"ĠÐ¥ÓıÐ°Ð¼Ð·Ð°ÑĤÐ¸Ð»":4880,"ĠÐĵÓıÐ°Ð±Ð´ÑĥÐ»Ð°":4881,"ĠÐºÐ²ÐµÑĢÐ±Ð°ÐºÑĬÐ¸":4882,"ĠÐºÐ¾Ð¼Ð¿Ð»ÐµÐºÑģ":4883,"ĠÑįÑħÐµÑĤ":4884,"ÑĥÐ±Ð°":4885,"ĠÐ°ÑģÐ¸ÑĢ":4886,"ĠÐ²Ð°ÑģÐ³Ð¸":4887,"Ð¸Ð·Ð°ÑĢÑĥÐ»ÐµÐ»":4888,"ĠÑĢÐ°ÑĤÐ°Ð½Ð°":4889,"ĠÑĢÐ°ÑĤÐ¸Ð»Ð°":4890,"ĠÐºÐ¾Ð¼Ð°Ð½Ð´Ð¸ÑĢ":4891,"ĠÐ¼ÑĥÑħÓıÐºÐ°Ð½":4892,"ĠÐĵÑĮÐ°ÑĢÑĥÐ»Ð°":4893,"ĠÐĲÐ·ÐµÑĢÐ±":4894,"ĠÐ¾ÑĢÐ³Ð°Ð½Ð¸Ð·Ð°ÑĨ":4895,"ĠÐ³ÑĮÐµÑĢÐµÑģÐ¸":4896,"ĠÐ¢ÓıÐ°Ð»ÑħÓıÐ°ÑĤ":4897,"Ð¾Ð´Ðµ":4898,"ĠÐ³Ð°Ð½ÑĩÓı":4899,"ÑĩÓıÑĥÐ¶Ñĥ":4900,"Ð¸Ð½Ð°Ð±ÑĥÐ»ÐµÐ±":4901,"ĠÐ¸Ð½ÑĩÓıÐ¾":4902,"Ð¡Ð°Ð»ÑĬÑĥÐ»":4903,"Ð¸Ð¾Ð½ÐµÑĢ":4904,"ĠÑĢÐµÐºÓıÑĥÐ½":4905,"ĠÐ±Ð¾ÑĢÑħÐ°Ð»ÑĬ":4906,"ĠÐ±Ð°Ð³ÑĬÐ°ÑĢ":4907,"ĠÐ·ÑĥÐ»Ð¼Ñĥ":4908,"Ð°ÑĢÐ°Ð´Ð°":4909,"ĠÑĤÐµÑĩÓıÐ¾":4910,"ĠÐ´Ð¾Ñģ":4911,"ĠÐ¸Ð´Ðµ":4912,"ÐĵÓıÐ°Ð»":4913,"ĠÐ¢Ð°ÑĢ":4914,"ĠÐĿÑĥÑĢ":4915,"ĠÑĨÓıÐ°Ð»ÑĥÐ»ÐµÐ±":4916,"ĠÐ¢ÓıÐ¾ÑĨÐµÐ±Ðµ":4917,"ĠÐ³ÓıÐ°Ð³Ð°ÑĢÐ°Ð»":4918,"ĠÑĩÐ°Ð³ÓıÐ¸Ð³Ð¸":4919,"Ð³ÓıÐ°Ð»Ð¸":4920,"ĠÑĢÑĥÐºÓıÐ¸Ð½Ð°Ð»ÑĬ":4921,"ĠÐĵÑĮÐµÐ·Ð¸Ðµ":4922,"ĠÐºÑĬÐ°Ð³ÓıÐ¸Ð´Ð°Ð±Ð¸":4923,"ĠÐ¸Ð¼Ð°Ð¼Ð°ÑģÑĥÐ»":4924,"ĠÐ³ÑĮÐ°Ð½Ð¶ÐµÑģÐµÐ±":4925,"ĠÐºÐ°Ð½Ð´Ð¸Ð´Ð°ÑĤ":4926,"Ð°Ð´Ð¸Ñģ":4927,"ĠÑĤÐ¸ÑĢ":4928,"ĠÑĤÐ°ÐºÑĢÐ°ÑĢ":4929,"ÑĢÑĥÐºÑĬ":4930,"ĠÑįÐ±":4931,"ĠÐ¦ÐµÐ½ÑĤÑĢ":4932,"Ġ21":4933,"ĠÑħÑĬÑĥÐ»ÑĥÑħÑĬÐ°Ð»Ð´Ðµ":4934,"ĠÐºÑĬÐ²Ð°ÑĢÐ¸Ð»ÑĬ":4935,"ĠÐºÑĬÐ¾ÑĤÓıÐ½":4936,"ĠÐºÑĬÐ¾ÑĤÓıÐ¸Ð·Ðµ":4937,"ĠÐ´Ð°Ð³ÓıÐ±Ð°":4938,"ĠÐ»Ð°ÑħÓıÐ·":4939,"ĠÑĢÑĥÐ·Ð¼Ð°Ð½":4940,"ĠÑĤÐ¾Ð»Ð°ÑĢÐ¾":4941,"ÐµÐ½Ð¸Ðµ":4942,"ĠÐ¸Ð»Ð°Ð½":4943,"ĠÐ±Ð°ÑĩÓĢ":4944,"ĠÐ±Ð°Ð¶Ð°ÑĢÑĥÐ»ÐµÐ±":4945,"ĠÐ¥ÑĥÐ½Ð·Ð°ÑħÑĬÐ°":4946,"ĠÑīÑĥÐ»Ð°Ð»ÑĬ":4947,"Ð²ÐµÑĤÓı":4948,"ĠÐ¿Ð°ÑĩÐ°Ñı":4949,"ĠÐ²Ð°ÑħÓıÑĪ":4950,"ÐºÐ»":4951,"ĠÐ±Ð°Ð·Ð°ÑĢ":4952,"ĠÐ»ÑĬÐ¸":4953,"ĠÑĤÓıÑĥÐ³ÑĮ":4954,"ĠÐ·Ð°Ð»":4955,"ĠÐ³ÑĬÐ¾Ð±":4956,"ĠÑĨÓıÑĥÐ½ÑĥÐ»ÐµÐ»":4957,"Ġ190":4958,"ÐľÐ°Ð³ÓıÐ°ÑĢÑĥÐ»":4959,"ĠÐºÐ¾Ð¼Ð¼ÑĥÐ½":4960,"ÑģÐºÑĥÑģ":4961,"ĠÑħÑĮÐ²Ð°Ð´Ð¸Ð·Ðµ":4962,"ĠÑģÐ¾ÑĢÐ´Ð¾ÑıÐ»ÑĬ":4963,"ĠÑĨÓıÑĥÐ½ÑĥÐ»ÐµÐ·":4964,"ĠÑĢÐ¸Ñħ":4965,"Ð»ÑĬÑĥÐ´Ð°":4966,"ĠÐ·Ð¸ÑıÑĢ":4967,"ĠÐ·Ð°Ð³ÓıÐ¸Ð¿":4968,"âĢ¦":4969,"ĠÐ±ÑĥÐºÓıÐ¸Ð½ÐµÐ±":4970,"ĠÐºÑĬÐ²Ð°ÑĤÓıÐ¸ÑģÐµÐ»":4971,"ĠÐłÐ°ÑģÑĥÐ»Ð¸Ð»":4972,"ĠÐĲÑĢÐ¼":4973,"ĠÑĨÐ¾Ð³Ð¸Ð´Ð°Ð±Ð³Ð¸":4974,"ĠÐ·Ð°Ð²ÐµÐ´ÑĥÑİÑī":4975,"ĠÐ´Ð¸ÑħÑĬÐµ":4976,"ĠÐ±ÑĥÐºÓıÐ°":4977,"ĠÐ¸ÑĩÓı":4978,"ĠÐ±Ð°Ð¹Ð±Ð¸ÑħÑĮÐ°ÑĢÐ°Ð±":4979,"ĠÑĨÐµÐ±ÐµÑĤÓıÐµÑıÐ»ÑĬÐµ":4980,"ĠÐ¡Ð¡Ð¡ÐłÐ°Ð»ÑĬÑĥÐ»":4981,"Ð»Ð¸Ð¼Ð¿Ð¸Ð°Ð´":4982,"Ð°ÑĢÐ°Ð»ÑĬÑĥÑħÑĬ":4983,"ĠÐĳÐ°ÑĤÓı":4984,"ĠÐ¶Ð°Ð½ÑĥÐ±":4985,"ĠÐĲÐ±ÑĥÐ±Ð°ÐºÐ°ÑĢ":4986,"ĠÐľÑĥÑģÐ»Ð¸Ð¼":4987,"ĠÑĤÓıÐ°Ð´ÐµÐ³ÓıÐ°Ð½Ð°Ð»":4988,"Ð¸ÑĤÐ¸Ð½Ð³":4989,"ĠÐĵÓıÐ¾Ð±":4990,"ÑħÓıÑĥÑĢÐ¼Ð°ÑĤ":4991,"ĠÐĿÑĥÑħ":4992,"Ð¸Ð´ÐµÐ½":4993,"ĠÐĲÐ»ÐµÐºÑģ":4994,"ĠÑħÐ²Ð°ÑĢÐ°Ð±":4995,"ÑıÐ·Ð´Ð°":4996,"ĠÐ´Ð¸Ð½Ð¸ÑıÐ±":4997,"ĠÑİÑĢ":4998,"ĠÐ¡Ð¾Ð²ÐµÑĤÐ¸ÑıÐ±":4999,"Ð¾ÑįÑĤÐ½Ð¸ÐºÐ¸ÑıÐ±":5000,"ĠÐ¼Ð¾Ð½Ð¾ÑįÑĤÐ½Ð¸ÐºÐ¸ÑıÐ±":5001,"ĠÑħÐ°ÑĢÐ°Ð±":5002,"ĠÑĤÐ¾Ð»Ð°":5003,"ĠÐ¼Ð°ÐºÑĮ":5004,"ĠÑħÓıÐ°Ð¼":5005,"ÐµÐ¼Ð°ÑĤ":5006,"ĠÐ±Ð¾ÑĤÓı":5007,"ÐĵÑĮÐµÐ²":5008,"ĠÑĢÐ°ÑĩÓıÑĥÐ½Ð°":5009,"ĠÐ¶Ð°Ð²Ð°Ð±ÑĩÐ¸Ð»ÑĬÐ¸":5010,"ĠÑħÐ¸ÑģÐ°Ð½Ð°":5011,"ĠÐ°Ð²Ð°ÑĢÐ°Ð·ÑĥÐ»":5012,"ĠÐºÑĬÐ²Ð°ÑĢÐ¸Ð³ÓıÐ°ÑĢÐ°Ð±":5013,"ĠÑĢÐ¸ÑīÐ¸ÑıÐ»":5014,"ĠÐ¿Ð¾Ð»Ð¸ÑĤÐ¸Ðº":5015,"ĠÑħÑĮÐ¸ÑħÑĮÐ¸Ð·Ðµ":5016,"ĠÐ£Ð½ÑģÐ¾ÐºÐ¾Ð»Ð¾":5017,"ÑĥÐ»Ð°Ð±":5018,"ĠÐ¶ÑĥÑĢ":5019,"Ð°ÑĨÐ¸Ð½":5020,"ĠÐłÐ°ÐºÑĮ":5021,"ÐµÑĤÐ°Ð»":5022,"Ð¥Ð°Ñģ":5023,"ĠÐ³ÑĮÐµÐ½Ð¸Ð±Ðµ":5024,"ĠÐ¼Ð°Ð´Ð°Ð½Ð¸ÑıÑĤÐ°Ð»ÑĬÑĥÐ»":5025,"ĠÐºÑĥÐ½":5026,"Ð¿Ð°ÑĢ":5027,"ĠÐ³ÓıÑĥÐ¼ÑĢÑĥÑıÐ»ÑĬ":5028,"ĠÑĢÐ¸ÐºÓıÐºÓıÐ¸Ð½Ðµ":5029,"ĠÐ³ÑĮÑĥÐ´ÑĥÐ»Ð»ÑĬÐ¸":5030,"ĠÐ¥ÓıÐ°Ð¶Ð¸Ð¼ÑĥÑħÓıÐ°Ð¼Ð°Ð´":5031,"ĠÐ½Ð°ÑģÐ»":5032,"ĠÑĢÐ°Ð»ÑĬÐ´Ð°Ð»":5033,"?Â»":5034,"Ð°ÑĤÓıÐ°Ð»":5035,"ĠÐ½Ð°Ð»ÑĬÐ¸":5036,"ĠÐ³ÑĮÐ°Ð±Ð¸ÑıÐ»Ð´Ðµ":5037,"ĠÐļÐ¾Ð¼":5038,"ĠÐ¥ÓıÐ°Ð¼Ð¸Ð´":5039,"ĠÑĥÐ½Ð°Ð³Ð¾":5040,"ĠÑįÑĤ":5041,"ĠÐ°ÑħÓıÑĥÐ»ÐµÐ±":5042,"ĠÑĢÐ¸ÐºÓıÐºÓıÐ°Ð½Ð°":5043,"ÐµÑĩÓıÐµÐ»":5044,"ĠÐ±Ð°ÑħÓıÐ°ÑĢÑĩÐ¸Ð»ÑĬ":5045,"ĠÐ¥ÓıÑĥÐºÑĥÐ¼Ð°ÑĤÐ°Ð»ÑĬÑĥÐ»":5046,"23":5047,"ĠÐ±Ð°Ð·":5048,"Ð¸ÑıÐ±Ð¸":5049,"ĠÐ¥Ð°Ð½":5050,"ÑĥÑĢÐ°Ð»Ð´Ð°ÑģÐ°":5051,"ĠÐ¼ÑĥÑĦÑĤ":5052,"ĠÐºÑĬÐ°ÑĩÓıÐ°Ð½":5053,"ĠÐ±Ð¾Ð»ÑĮÐ½Ð¸ÑĨÐ°ÑıÐ»ÑĬÑĥÐ»":5054,"ĠÑħÑĬÐ²Ð°Ð´Ð°ÑĢÑĥÑħÑĬÐ°Ð½":5055,"ĠÐ¼ÑįÑĢ":5056,"Ð¸Ð½Ð°Ð»Ð´Ðµ":5057,"ĠÐļÑĢ":5058,"ĠÐ³ÓıÐµÐ»Ð°Ð»Ð´Ð°":5059,"ĠÐ±Ð°Ð»Ð°Ð³ÑĮÐ¸ÑĩÓıÐ¾Ð³Ð¾":5060,"Ð¥ÓıÐ°Ð¶":5061,"ĠÐĵÓıÑĥÐ¼Ð°ÑĢÐ¸Ð»":5062,"Ð¾Ð»Ð¾Ð³Ð¸ÑıÐ»ÑĬÑĥÐ»":5063,"ĠÐ±Ð¸ÑĩÑĥÐ½":5064,"ĠÐĵÑĮÐ¾ÑĨÓıÐ°Ð»ÑĬ":5065,"Ð°ÑĥÑĢ":5066,"Ð¸Ð»ÑĮ":5067,"ĠÐ±Ð°ÑĤÐ°ÑĢÐ°Ð±":5068,"ĠÐĵÑĮÐµÐ»Ðµ":5069,"ĠÐ°Ð´Ð¼Ð¸Ð½Ð¸ÑģÑĤÑĢÐ°ÑĨÐ¸ÑıÐ»Ð´Ð°":5070,"25":5071,"Ð°Ð±Ð°ÑħÑĬ":5072,"ĠÐ»ÑĬÐµÐ±":5073,"ĠÐĵÑĮÐ°Ð²":5074,"ĠÐºÓıÐºÓıÐ°Ð»":5075,"ĠÐ²ÑĥÐºÑĬ":5076,"ĠÑĩÓıÐ¾ÑĢ":5077,"ĠÐ³ÓĢÐµÐ»":5078,"ĠÐĿÐ¸Ð»ÑĬÐµÐ´Ð°":5079,"ĠÐ³ÑĮÐ°Ð»Ð±Ð°Ð´ÐµÑĢ":5080,"ĠÐ»Ð¸ÑĨ":5081,"ĠÐ»ÑĬÐ¸ÐºÓĢ":5082,"Ð°ÑĢÐ°Ð²ÑĥÐ»":5083,"ĠÐºÐ¾Ð½ÑĨ":5084,"ĠÐ¼Ð°ÐºÑĬÐ°Ð»Ð°ÑıÐ»Ð´Ð°":5085,"Ð°Ð½Ð¸ÑıÐ»":5086,"Ð¼ÐµÑħ":5087,"ĠÐ²Ðµ":5088,"Ð°Ð¹Ðº":5089,"Ð¾ÑģÐµÐ±":5090,"ĠÐ¸ÑģÐºÑĥÑģ":5091,"ĠÑĩÓıÐ¾Ð±Ð¾Ð³Ð¾":5092,"Ð¸ÑĤÓıÐ°ÑĢÐ°Ð±":5093,"ĠÐĲÐ¼ÐµÑĢ":5094,"ĠÐ¢ÓıÐ°Ð³ÑĮÐ¸ÑĢ":5095,"Ð°Ð¸ÑĢ":5096,"ĠÐĲÑħÓıÐ¼Ð°Ð´Ð¸ÑĨÐ°":5097,"ĠÑħÑĮÐ²Ð°Ð´ÑĥÐ»ÐµÐ»":5098,"ĠÐ³ÓıÐ¾Ð»Ð¾ÑħÑĬÐ°Ð½ÑĩÐ¸":5099,"Ð°Ð»Ð°Ð±":5100,"ĠÐ³ÑĮÐ±":5101,"Ð°Ð³Ð°ÑĢÐ°Ð±":5102,"ĠÐ»ÑĬÐ¾Ð»Ð°":5103,"ĠÐĿÐ°Ð´Ð¸ÑĢ":5104,"ĠÑħÓıÐ°Ð¶Ð°Ð»ÑĬ":5105,"ĠÐ¦ÓıÑĥÐ¼Ð°Ð´Ð°":5106,"Ð»ÑıÑĢ":5107,"ÑĢÑĥÐ¿Ð¿":5108,"ĠÐ¸ÑİÐ½Ð°Ð»Ð´Ð°":5109,"Ð°Ð»Ð¸Ð´Ðµ":5110,"ĠÐ±Ð¾ÑĢÑĤ":5111,"ÐµÐ²Ð°ÑģÑĥÐ»":5112,"ĠÑĢÐ¾Ð³ÑĮ":5113,"Ð¸ÑıÐ²Ð³Ð¾":5114,"ĠÐ£Ð½Ð°":5115,"ĠÐ¹Ð¸ÐºÓıÐ°ÑĢÐ°Ð¹":5116,"ĠÑĤÓıÐ°Ð»Ð°Ð±Ð°Ð»":5117,"ĠÐ¿ÑĢÐ¾Ð³ÑĢÐ°Ð¼Ð¼Ð°":5118,"ĠÐĵÐµÑĢÐ¼Ð°Ð½":5119,"ĠÐĳÐ°ÐºÑĮÐ°Ð³ÑĮÐµÑĩÓı":5120,"Ð±Ð°Ñĩ":5121,"ĠÑĤÓıÐ¾Ñħ":5122,"Ð¿Ð°ÑĪÐ°":5123,"ĠÐºÓıÐ¾Ð»":5124,"ĠÐłÐ°Ð¸":5125,"ÑĪÐ°Ð³Ð°ÑĢÐ³Ð¾":5126,"ĠÐ±Ð¾ÐºÑĮÐ°ÑĢÐ°Ð»":5127,"ĠÑħÑĥÑĤÓıÐ¸Ð·Ðµ":5128,"ĠÐºÑĬÐ¾ÐºÑĬÐ°Ð±":5129,"ĠÐ±ÑĥÐºÓĢÐ°ÑĢÐ°Ð±":5130,"ĠÐ¸Ð½ÑĦÐ¾ÑĢÐ¼Ð°ÑĨÐ¸ÑıÐ»ÑĬÑĥÐ»":5131,"Ð½Ð¾":5132,"ĠÐ³ÓıÐ¸Ð±":5133,"ĠÐĵÑĢ":5134,"ĠÐĵÑĮÐ¾ÑĢÐºÑĮ":5135,"ĠÐĽÑĬÐ°Ð±":5136,"ĠÐ³ÓıÑĥÐ¼ÑĢÑĥÑıÐ»ÑĬÑĥÐ»ÑĬ":5137,"ĠÐ¸Ð½ÑĤÐµÑĢÐµÑģ":5138,"ĠÐ¸ÑģÐ»Ð°Ð¼Ð¸ÑıÐ±":5139,"Ð®":5140,"Ð°Ð·Ð°ÐºÑĬ":5141,"ĠÑĨÓıÐ°Ð·Ðµ":5142,"ĠÐ°Ð±Ð¸Ð»Ð°":5143,"ÑıÐ»Ð´Ð°ÑģÐ°Ð³Ð¸":5144,"Ġ29":5145,"ĠÐ½Ð°ÑģÐ»Ñĥ":5146,"ĠÐºÐ°ÑĤ":5147,"Ð¸Ð½Ð°Ð±Ð¸":5148,"ĠÐ²Ð°ÑĤÓıÐ°Ð»ÑĬ":5149,"ÑĥÐ´Ð°Ð»ÑĬÑĥÐ½":5150,"Ð¸Ð³ÑĮÐµÑĩÓıÐ¾":5151,"ĠÐ¶Ð¸Ð´ÐµÐ´Ð°Ð³Ð¾":5152,"ĠÑĢÐ°ÑĤÐ°Ð½Ð¸":5153,"ÑĥÐ½Ð³Ð¾ÑıÐ±":5154,"ĠÐºÐ¸Ð»Ð¾Ð¼ÐµÑĤÑĢ":5155,"ÑģÐ°Ð»Ð´Ð°":5156,"Ð¶Ð¸Ð±":5157,"ÐµÐ²Ð°":5158,"Ð¸Ð½Ð°Ð±ÑĥÐ½Ð°":5159,"ĠÑĨÐ°Ð´Ð°ÑħÑĬÐ°Ð±":5160,"ĠÐ³ÓıÐ¾Ð»Ð¾ÑħÑĬÐ°Ð½Ð°Ð±":5161,"ÑĥÑĢÑĤÑĥÐ½":5162,"ĠÐ¼ÑĥÑħÐ±Ð¸ÑĢ":5163,"ÐµÑĪ":5164,"ÑĥÐ»Ð°ÐµÐ²":5165,"ĠÑĩÐµÐ´":5166,"Ð°ÑıÐ»Ð´Ð°ÑģÐ°Ð½":5167,"Ð°ÑıÐ»Ð´Ð°Ð»ÑĬÑĥÐ½":5168,"ĠÑĩÓıÐ²Ð°Ð»":5169,"ĠÐļÑĬÐ°Ñģ":5170,"ĠÐĵÑĬÑĥÐ½":5171,"ĠÐĹÑĥÐ±":5172,"ĠÐºÐ¾Ð¼Ð¸ÑĤÐµÑĤÐ°Ð»ÑĬÑĥÐ»":5173,"ÐµÑģÑĤÐ¸Ð²":5174,"ĠÐľÑĥÑħÓıÐ°Ð¼Ð°Ð´Ð¾Ð²Ð¸Ñĩ":5175,"ĠÐºÐ¾Ð¼Ð°Ð½Ð´Ð°ÑıÐ»ÑĬ":5176,"Ð¦Ð¾Ð³Ð¸":5177,"ĠÑĢÐ¸ÑĤÓıÑĥÑħÑĬÐ»ÑĬÐ¸":5178,"ĠÑģÑģ":5179,"ÑĥÑģÐ»Ð°Ð½":5180,"ĠÐ±Ð°Ð¹Ð±Ð¸ÑħÑĮÐ¸Ð·Ðµ":5181,"Ð°Ð·Ð´ÐµÐ³Ð¸":5182,"ĠÐ³ÑĮÐ°Ð²Ð°":5183,"ĠÐ¼Ð°ÐºÑĬÐ°Ð»Ð°Ð±Ð¸":5184,"ÑģÑĤÐ¸ÑĤÑĥÑĨ":5185,"ĠÐºÐ¾Ð½ÐºÑĥÑĢÑģÐ°Ð»Ð´Ð°":5186,"ĠÐ¢ÓıÐ¾Ð»Ð³Ð¾":5187,"ÐµÐ²ÐµÑĢÐ¸ÑıÐ±":5188,"Ðª":5189,"ĠÑģÐ¾Ð½Ð¸Ð»":5190,"ĠÑĢÐ°ÑħÑĬÐ¸Ð½Ðµ":5191,"ĠÐ·Ð°Ð¼Ð°Ð½Ð³Ð¸":5192,"ĠÑģÑĤÐ°Ð½":5193,"ĠÐ°Ð²ÑĤÐ¾Ð¼Ð¾Ð±Ð¸Ð»":5194,".).":5195,"ĠÐºÑĥÑĢ":5196,"Ð²Ð°Ð½Ð°":5197,"ÑĥÑģÐ°":5198,"ĠÑĢÑĥÐºÓıÑĥÐ½ÐµÐ»":5199,"ĠÑĪÐ°Ð³ÑĮÐ°ÑĢÐ°Ð»Ð´Ðµ":5200,"Ġ35":5201,"ĠÐ±Ð¸ÑĩÓıÑĩÓıÑĥÐ½":5202,"ĠÐ³ÓıÐ°Ð³Ð°ÑĢÐ»ÑĬÐ¸":5203,"ĠÑĨÐ¾ÑĨÐ°Ð·Ð´Ð°":5204,"ĠÐ³Ð°Ð»Ð¸":5205,"ĠÐ±ÑĥÐºÓıÑĥÐ½Ð°Ð°Ð½":5206,"ĠÑīÐ°Ð»":5207,"ĠÐ¸Ð½Ð²Ð°Ð»":5208,"ÐĵÑĮÐµÐ·":5209,"ĠÐĺÑĢÐ°Ð½":5210,"ĠÐ³ÓıÑĥÐ¼ÑĢÑĥÐ³Ð¸":5211,"ĠÑĢÐ°Ð³ÓıÑĥÐ»":5212,"ĠÐĶÑĥÐ½ÑıÐ»":5213,"ĠÐ³ÓıÐ°Ð»Ð¸Ð¼Ð·Ð°Ð±Ð¸":5214,"ĠÐ¼Ð¸Ð½Ð¸ÑģÑĤÐµÑĢÑģÑĤÐ²Ð¾":5215,"ÑĢÐ¾ÑģÑģÐ¸ÑıÐ»ÑĬÑĥÐ»":5216,"ĠÑĦÐ¾ÑĢÑĥÐ¼":5217,"ÑĢÐ¾Ð»":5218,"ÑıÐ´":5219,"ĠÐĵÓıÑĥÐ¼ÑĢÑĥ":5220,"ĠÐĵÓıÐ°Ð±Ð°ÑĪ":5221,"ĠÐ¶Ð¾ÑıÐ»ÑĬÑĥÐ»":5222,"ĠÐ³ÓıÐ¾Ð»Ð¾ÑħÑĬÐ°Ð±Ð°Ð·ÑĥÐ»":5223,"ĠÐºÑĬÐ°Ð´Ð°ÑĢÐ°Ð»Ð´Ð°":5224,"ÐĶÐ°Ð½Ð´ÐµÐ»ÑĬÐ¸ÑıÐ»ÑĬÑĥÐ»":5225,"Ð´Ð¾ÑħÑĬ":5226,"Ð±Ð¾ÑĤ":5227,"ĠÐ³ÓıÑĥÐ·":5228,"ĠÐ¿Ð¾Ñĩ":5229,"ĠÑĩÐ°Ð±":5230,"ĠÐłÑĥÐºÓı":5231,"ÐµÐ·ÐµÐ³Ð¸":5232,"ĠÐĲÐ»Ð»Ð°Ð³ÑĮÐ°ÑģÐ´Ð°":5233,"Ð°Ð¸Ð»":5234,"ĠÐ¼Ð°ÑħÑħÑĥÐ»":5235,"ĠÑĩÓıÐ²Ð°Ð¹":5236,"ĠÐ´ÐµÐ¿ÑĥÑĤÐ°ÑĤÐ°Ð»":5237,"ĠÐ¼Ð°Ð¶Ð³Ð¸ÑĤÐ°Ð»ÑĬÑĥÐ»":5238,"ĠÑĨÐ¾Ð¹Ð³Ð¸Ð´Ð°Ð»":5239,"Ð³Ð¸Ð¿":5240,"Ð¶Ð°ÑĢ":5241,"ÑıÐ»Ð´Ð°Ð»ÑĬÑĥÐ½":5242,"ĠÑīÐ²ÐµÑĩÓıÐ¾":5243,"ĠÐ±Ð¾ÐºÑĮÑĥÐ»Ð°":5244,"ĠÐ¦ÓıÐ°Ð´Ð°ÑģÐ°":5245,"Ð°Ð³ÓĢÐ¸Ð´":5246,"ĠÑĤÓıÐ¾Ð³ÑĮ":5247,"ĠÐ±ÑĥÐºÓıÐ¸Ð½Ð°Ð°Ð½":5248,"Ð´Ð°Ð³ÑĮÐºÐºÑĥÐ½":5249,"ĠÐłÐ°ÐºÓıÐ°Ð»Ð´Ðµ":5250,"ĠÑģÑĤÐ°ÑĤÑĥÑģ":5251,"ĠÐĶÐ°Ð²ÑĥÐ´":5252,"Ð°Ð±ÑĥÐ½":5253,"Ð°Ð½Ð°Ð»Ð´Ðµ":5254,"ÐµÐ»Ð»":5255,"Ð¸Ð»Ð°Ð·ÑĥÐ»":5256,"ÑıÑĤ":5257,"ĠÐºÑĬÑĥÑĢ":5258,"Ð°ÐºÑĬÐ°ÑĤ":5259,"ĠÐĶÑĥÐ¼":5260,"ĠÐ´ÑĥÐ½Ð³Ð¾":5261,"ĠÐºÑĬÐ²Ð°ÑĢÐ¸Ð³ÓıÐµÐ»":5262,"ĠÑĩÐµÐ¼Ð¿Ð¸Ð¾Ð½Ð»ÑĬÑĥÐ½":5263,"ĠÐ¿ÑĢÐ¾Ð³ÑĢÐ°Ð¼Ð¼Ð°ÑıÐ»Ð´Ð°":5264,"ĠÐ¢ÓıÐ¸Ð½Ð´Ð¸":5265,"Ð½Ð¸ÑĨÐ°":5266,"ÑĥÐ½ÐºÑĤ":5267,"ĠÐ²Ð°Ð³Óı":5268,"ĠÑĩÐ°Ð¹":5269,"ĠÐ¡Ð°Ð½":5270,"ĠÐ³ÑĬÐ²ÐµÑĤÓı":5271,"ĠÑĦÐ°ÑĪ":5272,"ĠÐºÑĥÐ¼ÐµÐºÐ³Ð¸":5273,"ÑĢÐ¾ÑĦ":5274,"ĠÐ½ÑĥÑħÐ¼Ð°Ð»ÑĬÐ¸ÑıÐ»ÑĬÑĥÐ»":5275,"ĠÐ¾Ð¿ÐµÑĢÐ°ÑĨÐ¸Ñı":5276,"ĠÐ´Ð°Ð½Ð´ÑĩÓıÐ²Ð°Ð»ÐµÐ»":5277,"Ð¾Ð½Ð°Ð²Ð¸ÑĢÑĥÑģ":5278,"ĠÐ±ÑĥÑħ":5279,"ĠÐºÑĬÐ°ÑĢ":5280,"ĠÑĨÐ¾Ð»ÑĬÐ¸":5281,"Ð°ÑıÐ»Ð´Ð°Ð³Ð¾":5282,"ĠÑĢÐ°ÑħÑĬÐ¸Ð·Ðµ":5283,"ĠÑħÓıÐ°ÑĢÐ°ÐºÐ°ÑĤÑĩÐ¸":5284,"ĠÑĤÓıÐ¾Ð»Ð°Ð»Ð³Ð¾":5285,"ĠÐŁÑĢÐµÐ·Ð¸Ð´ÐµÐ½ÑĤ":5286,"ĠÐ±Ð°ÑħÓı":5287,"ĠÐ½ÐµÐ¼ÑĨ":5288,"ĠÑħÓıÐ°Ð»ÑĤÓıÐ°Ð±Ð°Ð·ÑĥÐ»":5289,"ĠÐ·Ð¾Ð±":5290,"ĠÑħÐ²Ð°ÑĢÐ°Ð»":5291,"ĠÐ´Ð°Ð³ÑĮÐ°Ð±Ð³Ð¸":5292,"ĠÑĢÐ¸ÑħÑĮÐ¸Ð·Ð°ÑĢÑĥÐ½Ð°":5293,"Ð¾Ð´Ð°Ð»":5294,"ĠÑħÐ²Ð°ÑĢ":5295,"ĠÐľÐ¸ÑĢÐ·":5296,"ĠÐºÐºÐ¾Ð»Ð°ÑĢÐµÐ±":5297,"ĠÐ±Ð¾ÑıÐ»Ð´Ðµ":5298,"ĠÐ³ÑĥÑĢÐµÐ²":5299,"ĠÐ»ÑĬÐ¸ÐºÓıÐ»ÑĬÐ¸":5300,"ĠÐ°Ð±ÑĥÐ½Ð¸Ð»Ð°":5301,"ĠÐ±Ð¾ÐºÑĮÐ°ÑĢÐ°Ð²":5302,"ĠÐĹÐ°Ð»":5303,"ĠÐ³ÑĮÐµÐ»ÑĬÑĥÑħÑĬ":5304,"ĠÐ´Ð¾Ð±Ð°":5305,"Ð¾Ð¹Ð³Ð¸":5306,"ĠÐ¾Ð±Ð»Ð°ÑģÑĤ":5307,"ĠÑģÑĥÐ½Ð½":5308,"ĠÐĵÓıÐµÐ¼ÐµÑĢÐ°Ð»":5309,"ĠÐ±ÑĥÑģÑĥÑĢÐ±Ð°Ð±Ð°Ð·ÑĥÐ»":5310,"ĠÑĢÐµÐºÐµÑĢ":5311,"ĠÑİÐ±Ð¸Ð»ÐµÐ¹":5312,"Ð¾Ð»Ñİ":5313,"ĠÑģÐ¸Ð¿Ð°ÑĤ":5314,"ĠÐľÐ¾":5315,"ĠÑħÑĬÐ°ÑĢÐ°Ð²ÑĥÐ»":5316,"ĠÐ¢ÓıÐ°Ð½ÑĥÑģ":5317,"ÐĵÓıÐ°Ð±Ð´ÑĥÐ»":5318,"ĠÑĤÓĢÐ°Ð´Ðµ":5319,"Ð´ÑĢÐ¸Ñģ":5320,"ĠÐºÐ¸Ð½Ð³Ð¾":5321,"ĠÑĢÐ¾ÑĢ":5322,"Ð¼Ð°ÑĢ":5323,"ĠÐ³ÑĮÐµÐ½Ð¸ÑģÐ°Ð½":5324,"Ð°ÑıÐ»ÑĬÑĥÑħÑĬ":5325,"ĠÐļÓıÐ¸Ð³Ð¾":5326,"ĠÐ°ÑħÐ¸ÑĢÐ°Ð»":5327,"ĠÐ³ÑĮÐµÑĩÓıÐµÐ±Ð»ÑĬÐ¸":5328,"ÐµÐ³ÓĢ":5329,"Ġ2015":5330,"ĠÑĤÐ°Ð¼Ð¸ÑħÓı":5331,"ÐĨ":5332,"Ð»Ð°ÑĤ":5333,"Ð¾ÑıÐ»ÑĬÑĥÐ»":5334,"ĠÐ³ÑĥÑĩ":5335,"ÐµÑĢÐ²":5336,"Ð°Ð¼Ð¸":5337,"ĠÑħÓıÑĥÑĢ":5338,"Ð³ÑĮÐµÐ±":5339,"ĠÑīÐ¾Ð»":5340,"Ð°ÑıÐ»ÑĬÑĥÐ»ÑĬ":5341,"ĠÐ¨Ð°Ð¿":5342,"ĠÐ±ÐµÑĢÑĨÐ¸Ð½Ð°Ð»":5343,"ĠÐĳÐµÑĤÓıÐµÑĢÐ³ÑĮÐ°Ð½":5344,"ĠÐ³ÑĥÐ»":5345,"ĠÐºÐµÐ¿":5346,"ĠÐĵÑĥÐ¼Ð±ÐµÑĤ":5347,"ĠÐ»ÑĬÐ°Ð´":5348,"ĠÐ»ÑĬÐ¸ÑĨ":5349,"ĠÑħÓıÑĥÐ±":5350,"ĠÐºÑĬÐ¾Ð³Ð¾":5351,"ĠÑĢÐ°Ð³ÓıÐ°Ð½Ð°":5352,"ĠÐĵÑĮÐµÐ»Ð´Ðµ":5353,"ĠÐĳÐ°ÑĢÐºÐ°Ð»Ð°":5354,"ÑĥÐ»ÐµÐ·":5355,"Ð°ÑģÐ´Ð°ÑģÐ°":5356,"ĠÐ»Ð°Ð³":5357,"ĠÐľÐ°Ð³Óı":5358,"ĠÐºÑĬÐ¾ÑıÐ»Ð´Ð°ÑģÐ°":5359,"ÐĵÑĮÐµÐ»ÑĬÑĥÐ»":5360,"ÐľÑĥÐ½":5361,"ĠÐºÐ¸Ð½Ð°Ð±Ð½Ð¸Ð³Ð¸":5362,"ĠÐ¹Ð¸ÐºÓıÑĥÐ½":5363,"ĠÐ³ÓıÐ°Ð»Ð¸Ð¼Ð·Ð°Ð±Ð°Ð·":5364,"ĠÐĹÐ°Ð³ÑĮÐ¸Ð´":5365,"Ð»Ð°ÑħÑĬ":5366,"Ð±Ð¾Ð¶":5367,"Ð°ÑĢÐ°ÑģÑĥÐ»":5368,"ÐµÑĢÑħÑĮ":5369,"ĠÑĢÑĥÐºÓıÐ°Ð½Ð¸Ð½":5370,"ĠÑħÑĮÐµÐ·Ð°ÑĢ":5371,"Ð¸Ð³Ð°ÑĤ":5372,"ĠÐ³ÓıÐµÐ»Ð°Ð»ÑĬÑĥÐ»":5373,"ĠÐ³ÑĮÐ°Ð²Ð¸Ð·Ðµ":5374,"ĠÐĲÑħÓıÐ¼Ð°Ð´Ð¾Ð²":5375,"ĠÑĨÓıÐ¾Ð³ÑĮ":5376,"ĠÐ¡Ð°Ñħ":5377,"ĠÑĢÐ°ÐºÑĮÑĨÐ¾ÑıÐ²":5378,"ĠÐ¼Ð¾ÑĨÓıÐ°Ð»ÑĬÑĥÐ»":5379,"ĠÐĲÑģÐ¸ÑıÑĤ":5380,"ĠÐºÐ¾Ð¼Ð¿Ð°Ð½":5381,"ĠÐ¿ÑĢÐ¾ÐºÑĥÑĢÐ¾ÑĢ":5382,"ĠÑĦÐ°ÐºÑĥÐ»ÑĮÑĤÐµÑĤ":5383,"Ġ,":5384,"Ð°ÑĢÐ¸Ð·Ðµ":5385,"ĠÑĢÐ°ÑĤÓı":5386,"ĠÑĤÐ°ÑĢÐ°Ð²":5387,"ĠÑģÐ¾Ð±ÑĢÐ°Ð½":5388,"ĠÐĶÐ°Ð³ÑĮ":5389,"ĠÐ¼Ð¸Ð»Ð»Ð¸ÑıÐ»":5390,"ĠÑĢÑĥÐºÓıÐ¸Ð½ÑĩÓı":5391,"ĠÑĢÐ¸ÑīÐ¸ÑıÐ·Ð´Ð°":5392,"ĠÐ±Ð°Ð»Ð°":5393,"ĠÐºÑĬÐ¾Ñģ":5394,"ĠÐºÐºÐ°ÑĢÐ°Ð²":5395,"ĠÐłÐ¤ÑıÐ»ÑĬÑĥÐ»":5396,"ĠÐ¥ÓıÐ°Ð¹Ð´":5397,"ĠÑĢÐ°ÑħÑĬÐ°Ð»Ð´ÐµÑħÑĥÐ½":5398,"ÐµÐ±ÐµÐ´Ðµ":5399,"ĠÑħÓıÐ°Ð»ÑĤÓıÑĥÐ»ÐµÐ¹":5400,"ĠÐ½Ð°Ð»Ð¾Ð³Ð°Ð»":5401,"ĠÑħÑĬÐ°Ð»Ð¸ÑıÐ½":5402,"ĠÐ³Ð°Ð¼Ð°ÑĩÓı":5403,"Ð³Ð°Ð»":5404,"Ð°Ð»ÑĬÑĥÐ±":5405,"ĠÐ±Ð°ÑĤÑĥÐ»Ð°":5406,"ĠÐ±ÑĥÑĤÓıÑĢÑĥÐ·":5407,"ĠÐºÐ°Ð¼ÑĥÐ½":5408,"Ð¸ÑħÐ°":5409,"Ð°ÑĩÑħÑĬÐ°Ð»":5410,"ĠÐ±ÐµÑĨÑĨ":5411,"ÑĪÐ°Ð»":5412,"ĠÐ±Ð¾ÐºÑĮÑĥÐ»ÐµÐ»":5413,"Ð½Ð¸ÐºÐ°Ð»":5414,"Ð¸Ð½Ð°ÑĢÐ¸Ð·Ðµ":5415,"ĠÐ¼ÐµÐ³ÓıÐµÑĢ":5416,"ĠÐ¿ÑĢÐ¾ÑĨÐµÐ½ÑĤÐ°Ð»ÑĬ":5417,"ĠÐºÓıÐ¾ÑĩÐµÐ½Ðµ":5418,"ĠÐ³ÑĢÑĥÐ¿Ð¿":5419,"Ð°Ð½Ð¸Ðµ":5420,"ĠÐºÑĥÐ±":5421,"Ð¼ÑĥÐ´Ð¸Ð½":5422,"ĠÐ°Ð±Ð¸":5423,"ĠÐ³ÓıÐ°Ð´Ð°Ð´Ð°":5424,"ĠÑĤÓıÐ°Ð´ÑĩÓıÐµÐ¹":5425,"ĠÐĴÐµÑĩÐµÐ´":5426,"ĠÐºÐ¸Ð½Ð°Ð²":5427,"ĠÑĥÑĩÐ¸ÑĤÐµÐ»ÑĮÐ·Ð°Ð±Ð¸":5428,"ĠÑĢÐ°ÐºÓıÐ°ÑĢÑĥÐ½":5429,"ĠÑĢÐ°ÐºÑĬÐ»Ð¸Ð»Ð°Ð±":5430,"Ð¼Ð°ÐºÑĬ":5431,"ĠÐºÐºÐµÐ¹":5432,"ĠÑĩÓıÐ°Ð»":5433,"ÐĳÐ°Ð¹":5434,"ĠÑĤÐ°ÑĢÐ¸ÑħÐ¸ÑıÐ±":5435,"Ð±Ð°ÑħÑĬÐ¸Ð½Ð°Ð»":5436,"ĠÑĨÐ¾ÑĨÐ°Ð´Ð°":5437,"ĠÐ±Ð°ÐºÓıÐ°ÑĢÑĥÐ½":5438,"ĠÐ°Ð·Ð±":5439,"ĠÐĵÓıÐ°Ð±Ð´ÑĥÐ»Ð¼Ð°Ð¶Ð¸Ð´":5440,"ĠÐ³ÓıÐ°Ð»Ð°Ð¼Ð°ÑĤ":5441,"Ð¸ÑĩÐµÑģÐºÐ¸ÑıÐ±":5442,"Ð¾ÑĢÐ¾Ð»":5443,"ĠÐ³ÑĮÐ°Ð±ÑĥÐ»Ð°ÑĢÐ¾":5444,"ÑĩÑĥÐ½":5445,"ĠÐ³ÑĮÐµÑģÑĥÑħÑĬÐµ":5446,"ĠÑĨÓıÑĥÐ½ÑĥÐ»ÐµÐ±":5447,"ĠÐļÑĬÐ°Ð´Ð¸ÑĢ":5448,"ĠÑĢÐ°ÐºÑĮÐ°Ð»Ð´Ðµ":5449,"ÐĺÑģÐ»Ð°Ð¼":5450,"ĠÐ°ÑģÐºÓıÐ¾Ð²":5451,"ĠÐ±ÑĥÑħÓıÐ°ÑĢÐ°Ð±":5452,"Ð²Ð°ÑħÑĬ":5453,"ĠÐ¼Ð¸ÑĤÐ¸Ð½Ð³":5454,"ĠÐłÑĥÑģÐ»Ð°Ð½":5455,"ĠÐ±Ð°ÑĤÐ¸Ð»Ð°ÑĢÐ¾":5456,"ĠÐ±Ð°ÑĢÐºÐ¸Ð·Ðµ":5457,"ÐĿÐ¸Ð»ÑĬÐµÐ´Ð°":5458,"ĠÑĢÐ¸ÑĩÑĩÐ°Ð½":5459,"ĠÐ²ÑĥÑģÑģÑĥÐ½":5460,"ĠÑģÐ²Ð°Ðº":5461,"ĠÐĵÓıÐ¸ÑģÐ°ÐµÐ²":5462,"ĠÐ³ÑĮÐµÑĩÓĢÐ¾":5463,"ĠÐ»ÑĬÐ°ÑĢÐ°Ð³Óı":5464,"ĠÐ²ÐµÐº":5465,"Ð¸Ð·Ð°Ð½":5466,"ÐµÐ½Ð°Ð»":5467,"ĠÐļÐ¸Ð´Ð°Ð³Ð¾":5468,"ÑħÓıÐ°Ð±Ð¸Ð±":5469,"ĠÐ¾ÑĨ":5470,"ĠÑħÑĬÑĥÐ»ÑĥÑħÑĬÐ°Ð»Ð´Ð°ÑģÐ°":5471,"ĠÐ¿Ð°ÑĩÐ°Ð»Ð¸ÑħÑĬÐ¸ÑıÐ»":5472,"ĠÐ¿ÑĢÐµÐ·Ð¸Ð´ÐµÐ½ÑĤÐ°ÑģÑĥÐ»":5473,"ĠÑħÐ²ÐµÐ·Ð°Ð±ÑĥÐ½":5474,"ĠÐ·Ð°ÑħÓıÐ¼Ð°Ð»ÑĬÐ°Ð±Ð¸":5475,"Ð°Ð½Ðº":5476,"ĠÐ°Ð±ÑĥÑĢÐ°Ð²":5477,"ĠÐĵÓıÐ°ÑħÑĮÐ°Ð»":5478,"ĠÑĢÐµÑģÐ³Ð¸":5479,"ĠÐĺÐ´ÑĢÐ¸Ñģ":5480,"ĠÐ³ÑĮÐ°Ð½Ð¸Ð²":5481,"ĠÑĨÓĢÐ¸ÐºÓĢÐºÓĢ":5482,"ĠÐĵÑĮÐ¸Ð³ÑĮÐ°Ð»ÑĬ":5483,"ÑģÐ¸ÑıÐ»":5484,"ĠÑģÑĨÐµÐ½":5485,"ĠÐ±ÑĥÐºÓıÐ°ÑħÑĬÐµ":5486,"ĠÐ¡ÑĥÐ½":5487,"ĠÑĢÐ°ÑħÑĬÐ°Ð»Ð´Ð°ÑģÐ°":5488,"ĠÑĢÐ°ÐºÓıÑĩÓı":5489,"ĠÑĤÓıÑĥÐ±Ð°ÑıÐ»ÑĬÑĥÐ»":5490,"ĠÐ³ÑĮÐ°Ð²ÑĥÑĢÐ°Ð±":5491,"ĠÑħÑĬÐ¸Ð·Ð°Ð½Ð°Ð»Ð´Ð°":5492,"ĠÐ±Ð°ÑħÓıÐ°ÑĢÑĩÐ¸":5493,"ĠÐ±ÐµÑĢÐ³ÑĮÐµÐ½Ð»ÑĬ":5494,"ĠÐ³ÑĥÐ³Ð°ÑĢÑĥÑħÑĬ":5495,"ĠÑĩÓıÐµÐ·Ð°ÑĢÑĥÐ½":5496,"ĠÐ¥ÑĮÐ°ÑĢÐ³":5497,"ĠÐĵÓıÐ°Ð»Ð¸Ð±ÐµÐ³":5498,"ĠÐ±Ð¾Ð»Ð¶":5499,"ĠÐºÐ°Ð²":5500,"ĠÑĨÓıÐ°Ð½":5501,"ĠÑĨÐ¾Ð³":5502,"ĠÑĢÑĥÐºÓıÑĥÐ½Ð°Ð°Ð½":5503,"ĠÐ½ÑĥÑħÐ°Ð·ÑĥÐ»":5504,"ÐºÐ¾Ð»Ð¾Ð³":5505,"ĠÐ±ÑĥÐºÓıÐ¸Ð½Ð°Ð»ÑĬÐµ":5506,"ĠÐĺÐ·":5507,"ĠÐ±ÐµÑĤÓıÐµÑĢÐ»ÑĬÑĥÐ½":5508,"ĠÑħÐ°Ð»ÐºÑĬÐ¸ÑıÐ²":5509,"ĠÑĨÓıÐ¸ÐºÓıÐºÓıÑĥÐ½ÐµÐ±":5510,"ĠÐ±Ð°Ð¹Ð±Ð¸ÑħÑĮÑĥÐ»Ð°":5511,"ĠÑĤÓıÑĥÐ±Ð°Ð¹":5512,"Ġ300":5513,"ĠÐ±Ð¸ÑĩÓıÑĩÓıÐ¸Ð·Ðµ":5514,"ĠÐ¼Ð°ÑģÑĤÐµÑĢ":5515,"ĠÐĵÓıÐ°Ð±Ð´ÑĥÑģ":5516,"ĠÐ¼Ð°Ð´ÑĢÐ°Ñģ":5517,"ĠÑĢÐ¾ÑģÐ°Ð±Ð°Ð»ÑĬÐ°":5518,"Ð¸Ð½ÑģÑĥÑĨÐ°":5519,"ĠÐ¼Ð°ÑģÑĬÐ°Ð»Ð°Ð±Ð°Ð·ÑĥÐ»":5520,"ĠÐĳÐ¸ÑīÑĥÐ½Ð³Ð¾":5521,"ĠÑĦÐ¾Ð½Ð´Ð°Ð»ÑĬÑĥÐ»":5522,"ĠÐļÐ°ÑģÐ¿Ð¸Ð¹ÑģÐº":5523,"ĠÐ¿Ð°ÑĤÑĢÐ¸Ð¾ÑĤ":5524,"Ð±ÑĥÑģÑģ":5525,"ĠÑĢÐ¸ÑħÑħ":5526,"Ð¼Ð°Ð±Ð¸":5527,"Ð°ÑĤÐ³Ð¾":5528,"ĠÐ¼Ð¸Ð½Ð°Ð±":5529,"ĠÑĨÐ¾ÑıÑģ":5530,"Ð°ÑĨÐ¸Ð¾Ð½":5531,"ÑħÓıÑĥÑĢ":5532,"ÐĶÐ°Ð³ÑĮÐ°Ð»":5533,"ĠÐ»ÑĬÐ°Ð»ÐºÓı":5534,"ĠÐºÑĬÐ²Ð°ÑĤÓĢ":5535,"ÑĢÐ°Ð½ÑĥÑħ":5536,"ĠÑĢÐ¾ÐºÑĬÐ¾Ð²":5537,"ĠÐ»ÑĬÐ°Ð³ÓıÐ°Ð»Ð¸Ð»":5538,"ĠÐĽÑĬÐ¸ÐºÓıÐ°Ð±":5539,"ĠÑĢÐ¸ÑĪÐ²Ð°ÑĤ":5540,"Ð°Ð±ÑĥÑĢ":5541,"ĠÐ³ÓıÐ¸Ñı":5542,"ĠÐºÓıÐºÓı":5543,"ĠÑĤÓıÐ¾ÑĨÐµÑĢÐµÑģÐµÐ»":5544,"ĠÐ¼Ð°ÑĨÓıÐ°Ð»ÑĬ":5545,"ĠÐ¼ÑĥÑĢÐ°Ð´Ð°Ð»":5546,"190":5547,"ÑħÓıÐ°Ð¶Ð¸ÑıÑģÑĥÐ»":5548,"ĠÐ¼Ð°Ð¶Ð³Ð¸ÑĤÐ°Ð»Ð´Ð°":5549,"ĠÐ°ÐºÑĤ":5550,"ÑĨÐ¾ÑıÐ·Ð´Ð°":5551,"ĠÐ³ÑĮÑĥÐ¸Ð½":5552,"ÑĥÐ»ÐµÐ»ÑĬÑĥÐ»":5553,"ĠÐ±Ð¸Ð»ÑĬÐ»ÑĬ":5554,"ÐºÓıÐ¸Ð³Ð¾":5555,"Ð¾ÑĢÐ¼Ð°ÑĤ":5556,"Ð¸Ð¼Ð¾Ð²":5557,"ĠÐ¸Ð¼Ð¿ÐµÑĢ":5558,"ĠÐ´Ð°Ð½Ð´ÑĩÓıÐ²Ð°Ð·Ðµ":5559,"ĠÐ´ÑĥÑĢÐ³Ð¾":5560,"ĠÐ³ÓıÐµÐ·ÐµÐ³ÓıÐ°Ð½Ð³Ð¾":5561,"ĠÐ´Ð¾ÐºÑĤÐ¾ÑĢ":5562,"Ð±Ð¾ÑĨÓıÐ¸":5563,"ĠÑĦÐ¸Ð·Ðº":5564,"ÑĥÐ»ÐµÐ·ÑĥÐ»":5565,"Ð°Ð»ÑĬÐ¸Ð³Ð¸":5566,"ÑıÑģÑĥÐ»":5567,"ĠÑĩÓıÐµÑĩÓıÐ¾Ð³Ð¾":5568,"ĠÐ¿ÑĢÐ¾Ð´":5569,"ĠÐ§Ð°Ð½Ð³Ð¾":5570,"ĠÑģÑĥÐ°Ð»Ð°Ð·Ðµ":5571,"Ġ500":5572,"ĠÐºÓıÐ²ÐµÑĩÓıÐ¾":5573,"ĠÐºÐ²ÐµÑĪÐ°Ð»":5574,"ĠÑīÐ¸Ð²Ð°ÑģÑĥÐ»":5575,"ĠÐ³ÓıÐ¾ÑĢÑħÑĬÐ¸":5576,"ĠÐ³ÑĮÐ°ÑİÐ½Ð°":5577,"ĠÐ¼Ð°Ð³ÓĢÐ°ÑĢÑĥÐ»":5578,"ĠÑĤÐ¾Ð½Ð½Ð°":5579,"ĠÐ°Ñį":5580,"ÑĢÐ¾Ð½":5581,"ĠÐ±Ð¸Ð´":5582,"Ð°Ð·Ð´Ð°Ð³Ð¾":5583,"ĠÐ»ÐµÐ±":5584,"ĠÑĪÐºÐ¾Ð»Ð°Ð»ÑĬÐµ":5585,"ĠÑĢÐµÐºÑĬÐµÐ»":5586,"ĠÐĸÐ°Ð¼Ð°Ð»":5587,"ĠÐ°Ð²Ð°Ð´Ð°Ð½":5588,"ĠÑģÑĥÐ°Ð»Ð°Ð·ÑĥÐ»":5589,"Ð¸Ð·Ð°ÑĢÑĥÐ½Ð°":5590,"ĠÐŃÐ»ÑĮ":5591,"ÑĥÐ³ÓĢ":5592,"ĠÑħÓıÐ¸Ð½ÐºÑĬÑĥÐ½":5593,"ĠÐĵÓıÐ°Ð±Ð´ÑĥÑĢÐ°Ð·Ð°ÐºÑĬ":5594,"ĠÐ°Ð²Ð°ÑĢÐ°Ð³Ð°ÑģÑĥÐ»":5595,"Ð´ÑĥÐ½":5596,"ÑģÐµÐ½":5597,"ĠÐ²Ð»Ð°ÑģÑĤ":5598,"ĠÐ»ÑĬÐ°Ð½Ð°":5599,"Ð¾ÑĢÐ°Ð±":5600,"Ð³ÑĮÑĥÑĢ":5601,"ÐµÐ·Ð°Ð±ÑĥÐ½":5602,"ĠÑģÑĥÐ°Ð»Ð°Ð»ÑĬÐµ":5603,"ĠÐ±Ð°ÑĤÓıÐ°Ð³Ð¾":5604,"ĠÐ·Ð°ÑħÓıÐ¼Ð°ÑĤÐ³Ð¾":5605,"ĠÐ·Ð°Ð¼ÐµÑģÑĤÐ¸ÑĤÐµÐ»":5606,"Ð¢ÓıÐ¾ÑĨÐµÐ±ÐµÑģÐµÐ±":5607,"ĠÑħÓıÑĥÑĢÐ¼Ð°ÑĤÐ¸ÑıÐ»":5608,"ÐĵÑĮÐ°Ð±ÑģÐ°Ð³ÓıÐ°ÑĤ":5609,"ĠÑĤÐµÑħÐ½":5610,"ĠÐºÑĬÐ°ÑģÐ´":5611,"ĠÐ³ÑĢÐ°Ð¼Ð¾ÑĤÐ°Ð±Ð¸":5612,"ĠÐĿÐ°Ð¶Ð¼ÑĥÐ´Ð¸Ð½":5613,"ĠÑħÓıÐ°ÑĢÐ°ÐºÐ°ÑĤÐ°Ð»Ð´Ð°Ð»ÑĬÑĥÐ½":5614,"ĠÑĢÐ¸Ð»ÑĬÐ»ÑĬ":5615,"Ð°Ð»ÑĬÑĥÐ»Ð³Ð¾":5616,"Ð°Ð²Ð³Ð¸":5617,"ĠÐ¿ÐµÑĩ":5618,"ĠÐĳÑĥÐ»":5619,"ĠÐ»ÑĬÑĥÐ³ÑĮÑĥÐ½ÐµÐ±":5620,"ĠÐĴÐ°Ñģ":5621,"ÐĵÓıÐ°Ð´":5622,"ĠÑĢÐµÑħÑģÐ¾Ð½":5623,"ĠÐ°Ð»Ð°ÑĤÐ°Ð»":5624,"ĠÐ»ÓĢÑĥÐ³ÑĮ":5625,"ĠÑħÑĬÐ¸Ð»":5626,"ĠÐ¢Ð¸Ð¼":5627,"ĠÐ³ÓĢÐ°ÑĤÓĢ":5628,"ĠÐ°Ð²Ð»Ð°ÑħÑĬ":5629,"ĠÐ¶Ð°Ð²Ð°Ð±Ð°Ð»":5630,"ĠÑħÓıÐ°Ð´ÑĥÑĢÐ»ÑĬÐ¸":5631,"ĠÐ¶Ð°Ð¼Ð°Ð³ÓıÐ°ÑĤÐ°Ð»Ð´Ð°":5632,"ĠÐ³ÓıÐ°ÑĤÓıÐ¸Ð´Ð°Ð±":5633,"Ð°Ð»Ð¸Ð½Ð¸Ð½Ð°ÑĥÐ»":5634,"ĠÑħÐ°Ð´ÑĥÐ±ÐºÐºÑĥÐ½Ð³Ð¸":5635,"ÑħÐ°ÑģÐ¸ÑıÑĤ":5636,"ĠÐ³Ð¾Ñģ":5637,"ĠÐ±Ð¸Ñħ":5638,"ĠÑĢÐµÐ²":5639,"ĠÑģÐ¸ÑıÑģ":5640,"ĠÑħÓıÐ°ÑĤÓı":5641,"ĠÐ¨Ð°ÑĢ":5642,"ÐłÐ°ÐºÓı":5643,"ĠÐĸÐ°ÐºÑĬ":5644,"ĠÐºÐ²ÐµÑĢÐ°Ð»":5645,"Ð¾Ð»ÑĮÑĪ":5646,"ĠÐ¼Ð¸Ð½Ð°ÑıÐ»Ð´Ð°":5647,"ĠÐ±Ð¸Ð³ÑĮÐ°Ð³Ð¾":5648,"ÑĩÓıÐ²Ð°ÑĢÐ¸ÑıÐ»Ð´Ð°":5649,"ĠÐ¿Ð¾Ð´Ð¿Ð¸Ñģ":5650,"ĠÐ¿Ð¾ÑģÐµÐ»":5651,"ĠÐ¸ÐºÑĬÐ±Ð°Ð»":5652,"ĠÐ¥Ð°ÑĢÐ°ÑħÑĮÐ¸":5653,"ÑĢÐ°Ð·":5654,"Ð±Ð°ÑĨÓı":5655,"ĠÐ³ÑĮÐ°":5656,"Ð°ÑĤÐ°Ð»Ð´Ðµ":5657,"Ð¾Ð²Ð¸ÑıÐ±":5658,"ĠÐłÐ¸Ð·":5659,"ÑĥÑĤÓıÐ°Ð»":5660,"ĠÐ¶Ð°Ð¼Ð°Ð³ÓıÐ°ÑĤÐ°Ð»ÑĬÐµ":5661,"ĠÐ³ÑĮÐ¸ÑĤÓıÐ¸Ñĩ":5662,"ĠÐ²Ð°ÑĩÓıÑĥÐ½ÐµÐ²":5663,"ĠÐ®ÑģÑĥÐ¿Ð¾Ð²":5664,"ĠÐ¼Ð°ÑĢÑħÑĮ":5665,"ĠÑĢÑĥÐºÓĢÐ°Ð½Ð°":5666,"Ð±ÑĥÐ»Ð°ÑĤ":5667,"ĠÐºÐ°Ð¿Ð¸ÑĤ":5668,"ĠÐ³ÑĮÐ°ÑĢÐºÑĮÐ°Ð»":5669,"ĠÐ°Ð³ÑĮÐ»Ñĥ":5670,"ÑĢÑĥÐ¼":5671,"Ð°Ð½Ð¸Ð»":5672,"Ð°Ð½Ð°Ð²":5673,"Ð°ÑĢÐ¸ÑıÐ±":5674,"Ð°ÑģÐ¸ÑĢ":5675,"ĠÐ¼Ð°Ð¹":5676,"ĠÐ´Ð¸Ð±Ð¸ÑĢ":5677,"Ð°Ð³ÑĮÐ¼Ñĥ":5678,"ĠÑĨÓıÐ°Ð»ÑĥÐ»ÐµÐ²":5679,"ĠÐ²Ð°ÑĩÓıÐ¸Ð½Ðµ":5680,"ĠÐ³ÓıÐ¾Ð»Ð¾ÑħÑĬÐ°Ð½Ð°Ð»":5681,"ĠÑħÐµÑħÐ°Ð±":5682,"ÐĵÑĬÑĥÐ½Ð¸Ð±":5683,"ĠÐļÐ°Ð·Ð±ÐµÐº":5684,"ĠÐ»ÑĬÐµÑıÐ²":5685,"ÑĢÐµÑģ":5686,"ĠÐºÐ¸Ð´Ð°":5687,"ĠÐ³ÓıÐ°Ð´Ð¸Ð½Ð°Ð»":5688,"ĠÐ¡Ð°Ð¹":5689,"ĠÐ²ÑĥÐºÓıÐ°Ð½Ð¸Ð½":5690,"ĠÐ¼Ð°Ð³ÓıÑĥ":5691,"Ð¾Ð²Ð°ÑģÐ³Ð¸":5692,"ĠÐ¼ÑĥÐºÓı":5693,"ĠÑĩÐ°Ð³ÓıÐ°Ð·Ðµ":5694,"ĠÐ³ÑĮÐ¸ÑĤÓıÐ¸Ð½":5695,"ĠÐºÓıÐ²Ð°ÑħÓı":5696,"Ð£Ð½":5697,"ĠÐ¿ÑĢÐµÐ´ÑģÐµÐ´Ð°ÑĤÐµÐ»ÑĮÐ»ÑĬÑĥÐ½":5698,"ĠÐ¸Ð´Ð°ÑĢÐ°ÑıÐ»ÑĬ":5699,"ĠÐ²ÐµÑĤÐµÑĢÐ°Ð½Ð°Ð·ÑĥÐ»":5700,"ĠÑĥÐ½ÐºÑĬÐ³Ð¾":5701,"ĠÐ¼Ð°Ð´ÑĥÐ³ÑĮÐ°Ð»Ð¸ÑħÑĬ":5702,"ĠÐ±Ð¾ÑĢÑĩÓı":5703,"ÑģÐ°Ð±":5704,"Ð°Ð»ÑĬÐ¸ÑıÐ»ÑĬÑĥÐ»":5705,"ĠÑĨÑĨÐ¸Ð½":5706,"Ð¾ÑĢÐ°Ð»":5707,"ĠÐĶÐ¾Ð»":5708,"ĠÐ¡Ð°Ð¹Ð¿":5709,"ĠÐ°Ð¼Ð¾":5710,"ĠÑħÑĬÑĥÐ»ÑĥÑħÑĬÐ°Ð»ÑĬÑĥÐ»":5711,"ĠÐ´ÑĥÐ³ÓıÐ°":5712,"ĠÐºÓıÐ°Ð»ÑĬÐ°Ð½Ð°":5713,"ĠÐļÓıÐ¸Ð°Ð±Ð¸Ð»ÐµÐ±":5714,"ĠÑĤÐ°Ð´Ð±Ð¸ÑĢÐ°Ð·ÑĥÐ»":5715,"ĠÑĩÓıÐ²Ð°ÑĢÐ°Ð»":5716,"ÑħÑĬÐ²Ð°Ð³ÓĢ":5717,"ĠÐ´Ð¾ÐºÐ»Ð°Ð´":5718,"ĠÐºÑĥÑĤÐ°ÐºÐ°Ð±":5719,"ĠÐĲÐ½Ð²Ð°ÑĢÑħÓıÐ°Ð¶Ð¸":5720,"ĠÐĺÐ»ÑĮÑıÑģ":5721,"ĠÐłÐ°Ð¸Ñģ":5722,"ĠÐĵÑĮÐ°Ð¹":5723,"ĠÐļÐ¾Ð»":5724,"ĠÐ»ÑĬÑĥÐ³ÑĮÐ¸Ð½":5725,"ĠÐ±Ð°ÑĢÐºÑĥÐ½":5726,"ĠÐ³ÑĮÐ¾ÑĢÐºÑĮÐ¾ÑĢÐµ":5727,"ĠÑĥÑĩÑĢÐµÐ¶Ð´ÐµÐ½Ð¸ÑıÐ±":5728,"ĠÑĥÐ½Ð¸Ð²ÐµÑĢÑģÐ¸ÑĤÐµÑĤ":5729,"ĠÐ¼Ð°ÑħÑģÐ°ÑĢÐ¾":5730,"Ð»ÑĬÑĥÐ´Ðµ":5731,"ĠÐ³ÓıÐµÐ´Ðµ":5732,"ÑĩÐ¸Ð»ÑĬÑĥÐ½":5733,"ĠÐ¥ÑĥÑĢ":5734,"ÑĩÓıÐ²Ð°Ð´":5735,"ĠÑĢÐ°Ð·Ð¸ÑıÐ±":5736,"ĠÐ¼Ð°ÑħÑīÐ°Ð»Ð¸Ð»":5737,"Ġ2014":5738,"Ð¢ÓıÐ°Ð´Ðµ":5739,"Ð¸Ð½ÑĩÓıÐµÐ»":5740,"ĠÐ±ÐµÑĢÑĨÐ¸Ð½Ð»ÑĬÐ¸":5741,"ĠÐ¸ÑģÐ»Ð°Ð¼Ð°Ð»ÑĬÑĥÐ»":5742,"ĠÐ¾ÑĦÐ¸ÑĨÐ¸Ð°Ð»Ð¸ÑıÐ±":5743,"ÎĻ":5744,"Ð¾ÑģÐ°Ð½":5745,"ĠÑĪÐ¸Ð³Óı":5746,"ĠÐĳÐ°Ð»Ð°Ð³ÑĮ":5747,"ĠÐĲÐ¼Ð¸ÑĢ":5748,"ĠÐ³ÓıÐ¾Ð´Ð¾ÑĢÐµ":5749,"ĠÐ¼ÑĥÑģÑĤÐ°ÑħÓıÐ¸ÐºÑĬÐ°Ð»":5750,"ĠÑĨÐ¾ÑĨÐ°Ð»ÑĬ":5751,"ĠÐ¼Ð°Ð»ÑĬÐ°":5752,"ĠÑĤÓıÐ°Ð»ÑĬÐ¸ÑıÐ»ÑĬ":5753,"ĠÑĨÐµÐµ":5754,"ĠÐ´Ð¸ÑĨÐ°Ð³Ð¸":5755,"ĠÑĪÐ¸Ð¼Ð°Ð»Ð¸ÑıÐ±":5756,"ĠÐ³ÓıÐµÐ¼ÐµÑĢÐ¸ÑģÐµÐ±":5757,"ÐłÐ°Ð³ÑĬ":5758,"ĠÑīÐ¸Ð±ÑħÐ°":5759,"ĠÐ¼ÑĥÐºÑĬ":5760,"ĠÑĪÐ°Ð³ÑĮÑĢÐ°Ð½ÑĥÑħ":5761,"ĠÐ´Ð°Ð½Ð´Ð±":5762,"ĠÑĢÐ¸ÑīÐ¸ÑıÐ·ÑĥÐ»":5763,"ĠÐĳÐ°Ð¹Ð±Ð¸ÑħÑĮ":5764,"ĠÐ°ÑĢÑĤÐ¸ÑģÑĤ":5765,"ĠÐ°Ð´Ð²Ð¾ÐºÐ°ÑĤ":5766,"22":5767,"ĠÐĵÐŃ":5768,"ĠÐĶÐĵ":5769,"ĠÑĦÐ¾ÑĢÐ¼":5770,"ĠÐĵÑĮÐµÑģÐ¸Ðµ":5771,"ĠÐ¦ÓıÑĥÐ½":5772,"ĠÑĤÐ°Ð¼Ð¸ÑħÓıÐ°Ð»":5773,"ĠÑĦÐ¸Ð½Ð°Ð½Ñģ":5774,"Ð°Ð¼Ð±":5775,"ĠÐ¼Ð°Ð³ÑĬ":5776,"Ð¸Ð´Ð³Ð¾":5777,"ÐłÐ°Ð¹Ð¾Ð½":5778,"ĠÑĢÐ°Ð³ÓıÑĥÐ½":5779,"ĠÑħÑĬÐ¸Ð·Ð°Ð½Ð°Ð»ÑĬÑĥÐ»":5780,"ĠÐ¼Ð°ÑĤÐµÐ¼Ð°ÑĤ":5781,"Ð½Ð¾ÑģÑĤ":5782,"Ð´Ð¸Ð±Ð¸ÑĢ":5783,"ÐºÐ³":5784,"ĠÑĢÐ°ÑĤÓıÐ°Ð»ÑĬ":5785,"ĠÐ±ÑĥÑİÑĢ":5786,"ĠÐ¼ÑĥÑĤÓı":5787,"ĠÐĶÐ°Ð³ÑĮÐ°Ð±":5788,"ĠÑıÐ»":5789,"ĠÐ¥ÓıÐ°ÐºÑĬÐ¸ÐºÑĬ":5790,"ĠÑĨÓıÐ°Ð»Ð´Ð¾ÑħÑĬÐ°Ð±Ð°Ð·Ð´Ð°":5791,"ĠÐºÓıÐ²Ð°Ð½Ð°":5792,"ĠÐĵÓıÐ°ÑĢÐ°Ð½Ð¸":5793,"ĠÐ¸Ð½ÑĤÐµÑĢÐ½ÐµÑĤ":5794,"ĠÑĤÐ°ÑħÑĪÐ°Ð³ÑĮÐ°ÑĢ":5795,"Ð»ÑĬÐ°Ð¹":5796,"Ð¼Ð°Ñģ":5797,"ĠÑħÑĥÑĤÓĢ":5798,"Ð°ÑģÐ¸ÐºÑĮ":5799,"Ð¸Ð»Ð³ÑĥÐ½":5800,"ĠÐ¸Ð»":5801,"ĠÐ¡Ð¾ÑİÐ·Ð°Ð»ÑĬÑĥÐ»":5802,"ĠÐºÑĬÐ¾Ð³Ð¸":5803,"Ð¾Ð´ÑĥÐ»":5804,"ĠÐĴÐ°Ð»":5805,"ĠÐĹÐ°ÑħÓıÐ¼Ð°ÑĤ":5806,"ĠÑıÑģÐ³Ð¸":5807,"ĠÑĢÐ¾ÑģÑĥÐ³Ð¸":5808,"ĠÐ±ÑĥÑĤÓıÐ°ÑıÐ»Ð´Ð°":5809,"ĠÑĢÐ°Ð·Ð¸Ð»ÑĬÐ¸":5810,"ĠÐĳÐµÑĢÑĤÐ¸Ð½":5811,"ĠÑĤÐµÑħÐ½Ð¸ÐºÐ°":5812,"Ð¸Ð³ÑĮÐµÑĩÓıÐ¾Ð»ÑĬÐ¸":5813,"ÑĥÑĢÐ°":5814,"ĠÐºÑĮÑĥÑĢÐ°Ð²":5815,"ĠÐ³ÑĬÑĥÐ»":5816,"ĠÐ³ÑĮÐµÑģÐ´Ðµ":5817,"ĠÐ¥ÓıÐ°ÑĢ":5818,"ĠÐ±Ð°Ð»ÑĬÐ³Ð¾Ð»ÑĬÐ¸":5819,"ĠÐ³ÑĥÑĢÑħÓıÐµÐ»":5820,"ĠÑĤÓıÐ¸ÑĢÐ¸ÑĤÓı":5821,"ĠÐ¿ÑĢÐ¾Ð´ÑĥÐº":5822,"ĠÐ²Ð¾":5823,"ĠÐºÑĬÐ°Ð²":5824,"Ð³ÓıÐ°Ð±":5825,"ĠÐĿÑĥÑĨÐ°Ð»":5826,"ĠÐ±ÑĥÐºÓıÐ¸Ð½Ð³Ð¸":5827,"ĠÐ´ÑĥÐ½ÑıÐ»Ð°Ð»Ð´Ð°Ð³Ð¾":5828,"ĠÐ°ÑģÐºÓıÐ¾Ð²Ðµ":5829,"ĠÐ³ÓıÐ°ÑħÑĮÐ°Ð»ÑĩÐ°Ð³ÓıÐ¸":5830,"Ð°Ð¹ÐºÑĥÐ¼":5831,"ÑĥÐ´Ð°ÑģÐ°Ð½":5832,"ĠÐ±Ð¸Ð»":5833,"ĠÑħÐ¸Ð½Ð°Ð±":5834,"ĠÐ³ÓıÐ°Ñģ":5835,"Ð°Ð¼Ð°Ð±":5836,"ĠÐ½ÑĥÑħÐ°Ð·Ð´Ð°":5837,"ĠÐ³ÑĮÐµÐ·Ð´Ðµ":5838,"ĠÐ´ÑĥÐ½Ð¸ÑıÐ»":5839,"ĠÐ±Ð°ÑħÑĬÐ¸Ð½Ð°Ð±Ð¸Ð·Ðµ":5840,"ÐµÑģÑĤÐ²":5841,"ĠÐ³ÑĬÑĥÑĢÑīÐ¸Ð´Ðµ":5842,"ĠÐ¼Ð°Ð½Ð·Ð¸Ð»Ð°Ð»Ð´Ð°":5843,"ĠÑĤÐµÐ»ÐµÐ²Ð¸Ð´ÐµÐ½":5844,"ĠÐĳÐ°Ð³ÑĮÐ°Ð²":5845,",-":5846,"ĠÐºÐ°Ð·":5847,"ÐµÑĢÐ°Ð·ÑĥÐ»":5848,"Ð¾Ð²Ð°Ð»ÑĬÑĥÐ»":5849,"ĠÑĥÐ½ÑĤÐ°Ð±Ð¸":5850,"ĠÑĢÐ¾ÑģÑĥÑĨÐ¾ÑıÐ»":5851,"ĠÐ¼Ð°ÑģÐ°Ð»Ð°":5852,"ĠÑĢÐ°Ð»Ð°Ð³ÑĮÑĥÐ½":5853,"ĠÐ£ÐºÑĢÐ°Ð¸Ð½Ð°Ð»Ð´Ð°":5854,"Ð°Ð»Ð¸Ðº":5855,"ĠÐºÐ°ÑĦ":5856,"Ð°Ð·Ð°":5857,"ĠÑģÐ¸ÑħÓı":5858,"Ð¸ÑĢÐ¼":5859,"Ð°Ð³ÓıÐ¸":5860,"ĠÐ¿ÑĢÐ¾Ð±":5861,"ĠÑĪÐºÐ¾Ð»Ð°Ð³Ð¸":5862,"ĠÐ³ÑĮÐµÐ´Ð¸Ð³ÓıÐ°Ð½":5863,"ĠÐ¸Ð½ÑģÐ¿":5864,"ĠÐ²Ð¸ÑĤÓıÐ°Ð½Ð°":5865,"ĠÑĤÐ°Ð¹Ð¿Ð°ÑıÐ»ÑĬÑĥÐ»":5866,"ĠÐ±Ð¾ÑĤÓıÑĢÐ¾":5867,"Ð°Ð»Ð°Ð³Ð¾":5868,"Ð³ÑĢ":5869,"ÑģÑĥ":5870,"Ð¾Ð½Ð°Ð»ÑĬÑĥÐ»":5871,"ĠÐ»ÑĬÐ¸ÑĨÐ°":5872,"ĠÐ´Ð¸":5873,"ĠÑĤÓıÐµÐ³ÑĮ":5874,"ÑĩÓıÐ¾Ð»":5875,"ĠÐľÐ°Ð³ÑĮ":5876,"ĠÐ¥ÓıÐ°Ð¼Ð·":5877,"Ð¸ÑħÑĬÐ°":5878,"ĠÐ±ÐµÑĢÑĤ":5879,"Ð¾ÐºÑĢÐ°ÑĤ":5880,"ĠÐ¢ÓıÐ¸ÑģÑģ":5881,"ĠÐ½Ð¸Ð»ÑĬÐµÐ´Ð°ÑģÐ°":5882,"ĠÐ»ÑĬÑĥÐ³ÓıÐ¸Ð·Ðµ":5883,"ĠÐ³ÑĮÐ°Ð²ÑĥÑĢÐ°Ð²":5884,"ĠÐŃÑĩ":5885,"ĠÑĨÓĢÐ°Ð»":5886,"ĠÐ¥ÓıÐ°Ð¼Ð·Ð°ÑĤÐ¾Ð²Ð°Ñģ":5887,"ĠÐ³ÓıÐ°ÑħÑĮÐ°Ð»ÑĩÐ°Ð³ÓıÐ°Ð·Ðµ":5888,"ĠÑĤÑĥÑĪÐ±":5889,"ĠÑĤÓıÑĥÑĢÐ°Ð»ÐµÐ²":5890,"Ð°ÑĢÐµÐ»ÑĬÑĥÐ»":5891,"ĠÐ±ÑĥÐºÓıÐ¸Ð½Ð°Ð±":5892,"ĠÑīÐ²Ð°ÑĢ":5893,"ĠÐºÓıÐ¸ÑıÐ²Ð³Ð¾":5894,"ĠÐ¼ÑĥÐ³ÓĢ":5895,"ĠÐĵÑĬÐ°Ð»":5896,"Ð¾Ð½Ð¸Ð³":5897,"ĠÑĢÐµÐ»ÑĬÐ»ÑĬ":5898,"ĠÑħÓıÐ°Ð»ÑĤÓıÐ¸Ð·Ð°ÑĢÑĥÐ»ÐµÐ»":5899,"Ð½Ð°Ñı":5900,"ĠÐ³ÑĮÐ¸Ð½":5901,"Ð°Ð·Ð°Ð²":5902,"Ð´ÐµÐ³Ð¾":5903,"ĠÐĳÐ°Ð´":5904,"ĠÐĳÐµÐ»":5905,"ĠÐĳÑĥÑĢÑĤÑĥÐ½":5906,"ĠÑīÐ²ÐµÐ·Ð°Ð²":5907,"ÑĥÐ»ÑĬÐµ":5908,"ÐļÐ¸Ð½Ð°Ð±":5909,"ĠÐ¸ÑĪÐ°Ð»ÑĬÑĥÐ»ÑĬ":5910,"Ð¥ÑĥÐ½Ð·Ð°ÑħÑĬ":5911,"ĠÐ°Ð²Ð°Ð»Ð°Ð»Ð´Ð°":5912,"ĠÐĲÐ±Ñĥ":5913,"ĠÑĥÑĢÐ³ÑĬÑĥÐ½":5914,"ĠÐľÐ°Ð´Ð¸Ð½Ð°":5915,"21":5916,"Ð°Ð¾":5917,"Ð±Ð°ÑĤÓĢ":5918,"Ð°Ð¹Ñģ":5919,"ÑĩÐµÑĤ":5920,"ĠÐŁÐ¾Ð»":5921,"ĠÐ¸ÑĪÐ°Ð»Ð´Ð°":5922,"ĠÐ³ÓĢÐ¾ÑĢ":5923,"Ð³Ð¸Ð»Ð¸Ñģ":5924,"ĠÐ¦Ð¾ÑħÓıÐ¾":5925,"ĠÐĲÐ±Ð´ÑĥÐ»":5926,"ĠÐłÐ°ÑģÑĥÐ»Ð¸ÑĨÐ°":5927,"ĠÐ¼Ð°ÑĨÓĢÐ°Ð»Ð´Ð°":5928,"Ð°Ð»Ð°Ð²":5929,"ĠÐ³ÑĮÑĥÐ½":5930,"ĠÑĢÑĥÑħ":5931,"ÑģÐµÐ»":5932,"Ð¼ÐµÑĤ":5933,"ÑıÑĢ":5934,"Ð¸ÑģÐ°ÑĤ":5935,"ÐĳÐµÑĢ":5936,"ĠÐ±Ð°ÑĤÓıÐ°Ð»ÑĬÐ¸":5937,"ĠÑĤÓıÐ¾ÑĢÐ¸ÑĤÓıÑĥÐ»Ð°":5938,"ĠÐĿÐ¸Ð»ÑĬÐµÑĨÐ°":5939,"ĠÐ±ÑĥÐºÓĢÑĥÐ½":5940,"ĠÑĤÓıÐµÑħÑĮÐ°Ð»Ð´Ð°":5941,"ĠÐ¡ÑĥÐ³ÑĬÑĢÐ°Ð»ÑĬÐ°":5942,"ĠÐ±Ð¾ÑĢÑĨ":5943,"ĠÐ»ÑĬÐ°Ð³ÓıÐ°Ð»Ð¸Ð´Ð°":5944,"ĠÐ³ÓĢÐ°Ð´Ð°Ð¼":5945,"Ð°Ð½Ð¸ÑıÐ±":5946,"ĠÐ½Ð°ÐºÑĬ":5947,"ÑĩÓıÐ¸":5948,"ĠÐľÐ°Ð¶":5949,"ĠÑĤÓıÐ°Ð´Ð³Ð¸":5950,"ÐĲÑħÓı":5951,"ĠÐĴÐ°ÑĢ":5952,"ĠÑĥÐ½ÑĤÐ°ÑĢÐ°Ð±":5953,"ĠÐķÐĵÐŃ":5954,"Ð·Ð°Ð±Ð°ÑħÑĬ":5955,"ĠÐ±Ð°ÑĢÐºÐ°Ð»Ð°Ð³Ð¸":5956,"ĠÐ¿ÑĢÐ¾ÑĦÐµÑģÑģÐ¸Ð¾Ð½":5957,"ĠÑĢÐ°ÐºÓıÐ±Ð°ÑĨÓıÑĨÓıÐ°Ð´Ð³Ð¾":5958,"Ð°ÑĤÐµÐ»ÑĮ":5959,"ĠÐºÓıÐ¸ÐºÑĬ":5960,"ĠÐ¡ÐµÐ²ÐµÑĢÐ¸ÑıÐ±":5961,"ĠÐ±ÐµÑĢÐ°Ð»":5962,"ĠÐĸÐ¸Ð´ÐµÑĢ":5963,"ĠÐ¤Ð°Ð·Ñĥ":5964,"ĠÐ¥Ð°Ð´ÑĥÑģ":5965,"ĠÐºÓĢÐ¸Ð³Ð¾":5966,"Ð¨Ð°Ð¼Ð¸Ð»":5967,"ÑĢÐ°ÑħÑĬÐ¸Ð½":5968,"ĠÐºÑĮÐµÑĢÐ´Ð°":5969,"ĠÐ¶ÑĥÐ±Ð°Ð½Ð°":5970,"ĠÐ°ÑįÑĢÐ¾Ð¿":5971,"Ġ.":5972,"ĠÐ³ÑĢÐ°Ð½":5973,"ĠÐ¿Ð°ÑĢÐº":5974,"ĠÐ±ÑĥÐ³ÐµÐ¹":5975,"ÑĥÐ±Ð°ÑĢÐ°Ð±":5976,"ÐµÐºÓĢ":5977,"ÐĶÐ°Ð³ÑĮÐ°Ð±":5978,"ĠÐ±Ð°ÑĤÐ¸Ð»":5979,"ĠÐ£Ð½ÑĤ":5980,"ĠÐºÑĬÐ°ÑĩÓıÐ°Ð½Ð°":5981,"ÐĽÑĬÐ¸ÐºÓı":5982,"ĠÑħÓıÐ°ÐºÑĬÐ¸ÐºÑĬÐ¸ÑıÐ±":5983,"ĠÐ³ÓıÐµÐ»Ð¼ÑĥÑıÐ»ÑĬÑĥÐ»":5984,"ĠÐ¡Ð°Ð»Ð¼Ð°Ð½":5985,"ĠÐ³ÑĬÐ°Ð»Ð°ÑĤÓı":5986,"ĠÐ¿ÑĢÐ¾ÑĦÐµÑģÑģÐ¾ÑĢ":5987,"ĠÐ¶Ð°Ð½ÑĥÐ±Ð¸ÑıÐ±":5988,"Ð»Ð°Ð²":5989,"ÐºÐµÐ½ÑĤ":5990,"Ð¸ÑĢÐ°Ð»":5991,"Ð¾Ð²Ð½":5992,"ÐĵÓĢ":5993,"ĠÐĳÐ°Ð±":5994,"ĠÐ³ÓıÑĥÑĨÓıÐ°ÑĢÐ°Ð»":5995,"ĠÐ²Ð°ÑģÐ°Ñģ":5996,"Ð¾ÑĤÑĢ":5997,"ÑĭÐ»":5998,"ĠÐ³ÓıÑĥÐ½ÑĤÓıÑĥÐ½":5999,"ĠÑħÐ°ÑĢÐ¶Ð°Ð»":6000,"ĠÑĢÑĥÑģÑģÑĥÐ½":6001,"ĠÑĥ":6002,"ĠÐ³ÓıÐ°ÐºÓı":6003,"ĠÐľÐ°ÑħÓĢ":6004,"ĠÐ¿Ð°Ð³ÑĮÐ¼Ñĥ":6005,"ĠÑĢÐµÐ³":6006,"ĠÑĨÐ¾ÑħÓı":6007,"Ð¸Ð»ÑĬÐµ":6008,"ĠÑħÑĬÐ°ÑĢ":6009,"ĠÑĪÐ°Ð¹Ð¸Ñħ":6010,"ĠÐ¦ÐµÐ±":6011,"ĠÐ±Ð°ÐºÓıÐ°Ð·Ð´Ðµ":6012,"ĠÐ¹Ð¸ÑħÑĮ":6013,"ĠÐ³ÓĢÐ°Ð»Ð¸Ð¼":6014,"ĠÐļÑĬÐ¾ÐºÑĬ":6015,"Ð¾Ð·Ð¸ÑĨ":6016,"Ð½ÑĤÐµÑĢÐ½":6017,"ÐĵÑĮÐµÐ´Ð¸Ð½Ð°Ð±":6018,"ĠÑħÐ°Ð´ÑĥÑģÐ°Ð½":6019,"ĠÐ³ÑĮÐµÐºÑĬÐµÐ·Ðµ":6020,"ĠÐ¼ÐµÐ´Ð°Ð»ÑĮ":6021,"ĠÐ¸ÑİÐ»Ð°Ð»Ð´Ð°":6022,"ĠÑħÐ°Ð·":6023,"Ð³ÑĮÐµÐ»":6024,"ÑĥÑħÑĬÐ³Ð¸":6025,"ĠÐłÐ°ÑĩÓı":6026,"ĠÐ½ÑĥÑħÐ´Ð°ÑģÐ°Ð½":6027,"ĠÑīÐ²ÐµÑĩÓıÐ¾Ð³Ð¾":6028,"ÑīÐ°Ð´":6029,"ĠÐ¨Ð°Ð³ÓıÐ±":6030,"ĠÑĦÐµÑģÑĤÐ¸Ð²":6031,"ĠÑĨÓıÐ°Ð»Ð´Ð¾Ð»":6032,"ĠÐĲÐ±Ð´ÑĥÑĢ":6033,"ĠÑħÓĢÐ¸ÑģÐ°Ð±":6034,"ĠÐľÐ°ÑħÓıÐ°ÑĩÑħÑĬÐ°Ð»Ð°":6035,"ĠÑĨÐµÐ±ÐµÑĤÓıÐµÑıÐ»ÑĬÑĥÐ»":6036,"ĠÐºÐ¾ÑĩÓıÐ¾Ð»":6037,"ĠÐ¿Ð¾ÑįÐ·":6038,"ĠÐ²Ð¸ÑīÐ°Ð½Ð°":6039,"ĠÐ¡ÑĥÐ»ÑĤÐ°Ð½":6040,"ĠÐ¡ÑĥÐ»ÑĤÓıÐ°Ð½":6041,"ÐºÐ¾Ð²Ð½Ð¸Ðº":6042,"ÐĿÐ¸Ð¶ÐµÑĢ":6043,"ĠÐłÐ°Ð¹Ð¾Ð½Ð°Ð»Ð´Ð°":6044,"ĠÐ¢Ð¸Ð¼ÑĥÑĢ":6045,"ĠÐºÐ°Ð»":6046,"ÑģÐ²ÐµÑĢ":6047,"ĠÑģÐµÑģÑģ":6048,"ĠÑīÐ¾Ð»Ð°ÑĢÐ¾":6049,"Ð¸Ð»ÑĬÐ»ÑĬÑĥÐ½":6050,"ĠÑĩÓıÐ¾Ð»Ð°":6051,"ĠÑĤÓıÑĥÐ±Ð°Ð½Ð°":6052,"ĠÑĢÐµÑģÐ¿ÑĥÐ±Ð»Ð¸ÐºÐ°":6053,"ĠÐºÐºÐ¾Ð»ÐµÐ±Ð»ÑĬÐ¸":6054,"ÐµÑĩÓıÐ¾Ð½Ð¸":6055,"ĠÐ±Ð°Ð½Ðº":6056,"ĠÐºÓıÐ°Ð»Ð´":6057,"ĠÐķÐ³Ð¸Ð¿":6058,"ĠÐ²Ð¸ÑĤÓıÑĥÐ½":6059,"ĠÐ¥ÓıÑĥÑĢÐ¼Ð°ÑĤÐ°Ð»ÑĬÑĥÐ»":6060,"Ð°ÑħÑĮÐ´Ð°Ð»":6061,"ĠÐ´Ð°Ð³ÑĮÐ°Ð±Ð³Ð¾":6062,"ĠÑĢÐ°ÑĤÐ¸Ð·Ðµ":6063,"ĠÐľÐ¾ÑģÐºÐ²Ð°ÑıÐ»ÑĬÑĥÐ»":6064,"Ð³ÑĮÐ°Ð±ÑĥÐ½":6065,"ĠÑīÐ¾Ð»Ð°Ð°Ð½":6066,"ĠÑģÐ¸ÑıÑħÓıÐ°Ð»":6067,"ĠÑĦÐµÐ²ÑĢÐ°Ð»":6068,"ĠÐ¿ÑĢÐµÐ´ÑģÐµÐ´Ð°ÑĤÐµÐ»Ð°ÑģÑĥÐ»":6069,"ĠÐ¥ÑĥÑĪÑĤÐ°Ð´Ð°":6070,"40":6071,"ĠÐ°Ð½Ð¸Ð³Ð¸":6072,"ĠÐºÑĬÑĥÐºÑĬ":6073,"ÑĥÐ¼Ð³ÑĮÑĥÑĢ":6074,"ĠÐ¥Ð°Ð±Ð°ÑĢ":6075,"ĠÑħÓıÐ°Ð»ÑĤÓıÐ°ÑĢÐ°Ð²":6076,"ĠÐ±Ð¸ÑĨÐ¸Ð½":6077,"Ð°ÑħÑĮÐ²Ð°ÑħÑĬ":6078,"ĠÐ±ÑĥÐºÓıÐ¸Ð½ÐµÑģÐµÐ±":6079,"ĠÑĥÐ»Ð±ÑĥÐ·":6080,"ĠÑīÐ²ÐµÐ·ÐµÐ³ÓĢÐ°Ð½":6081,"ĠÐ³Ð¾Ð´Ðµ":6082,"ĠÐ³Ð°ÑĢÐ³":6083,"Ð¾Ð½Ð°Ð»":6084,"ĠÐĵÑĮÐ°Ð´":6085,"ĠÐºÑĮÐµÐ»Ð°":6086,"ĠÐ³ÑĮÐµÐ»Ð´Ð°Ð»ÑĬÑĥÐ½":6087,"ÑĥÐ»ÐµÐ»Ð³Ð¸":6088,"ĠÐ»ÑĬÐ¸ÐºÓıÐ³Ð¾":6089,"ĠÐ¾Ð»Ð¸Ð¼Ð¿Ð¸Ð°Ð´":6090,"ĠÐĵÓıÐ°Ð±Ð°ÑģÐ¸Ð»":6091,"ÐľÑĥÑģ":6092,"ĠÐ±Ð°ÑĩÓıÐ¸Ð½Ðµ":6093,"ĠÑģÐ¿Ð¾ÑĢÑĤÐ¸Ð²Ð¸ÑıÐ»":6094,"ĠÑĢÐ¾ÑħÑħ":6095,"ĠÐ¼Ð°Ð³ÓıÐ¸ÑĪÐ°ÑĤÐ°Ð»Ð´Ð°":6096,"ĠÐľÑĥÑħÓıÑĥ":6097,"ĠÐ´ÐµÐ¿ÑĥÑĤÐ°ÑĤÐ°Ð·":6098,"Ð°Ð±Ð¸Ð»ÐµÐ²":6099,"ĠÐ¼Ð¸Ð½Ð¸ÑģÑĤÐµÑĢÑģÑĤÐ²Ð¾ÑıÐ»ÑĬÑĥÐ»":6100,"ĠÐ²ÑĥÐ³Ð¸Ð»Ð°":6101,"ĠÐ¼ÑĥÑĤÓıÐ¸Ð³Óı":6102,"Ð°Ð»Ð¸Ð³Ð¾":6103,"ĠÑĩÑĥÑĩ":6104,"ĠÐłÐ°ÑĪÐ¸Ð´":6105,"ÐµÐ·Ð°Ð±Ð¸Ð·Ðµ":6106,"ĠÐºÐ²ÐµÑĢÑīÐµÐ»":6107,"ĠÐ¼Ð¸Ð»Ð»Ð°ÑĤÐ°Ð·ÑĥÐ»":6108,"ÑģÑģÐ°Ð»Ð°Ð¼":6109,"ĠÐ¿Ð¾Ð»Ð¸ÑĤÐ¸ÐºÐ°ÑıÐ»ÑĬÑĥÐ»":6110,"ĠÑĤÐ°Ð¹Ð¿Ð°":6111,"ĠÐĵÑĮÐ¸ÑĤÓıÐ¸Ð½":6112,"ĠÑģÑĥÐ±Ð±Ð¾ÑĤ":6113,"ĠÐ¡ÑĥÑĢÑħ":6114,"ĠÐ»ÑĬÐ¸ÑĨÐ°Ð½Ð¸Ð³Ð¸":6115,"28":6116,"Ð³Ð¸Ðº":6117,"Ð°ÑĤÑĮ":6118,"ĠÐ»ÑĬÐ°ÑıÐ»ÑĬÑĥÐ»":6119,"ĠÐ»ÑĬÐ¸Ðµ":6120,"ĠÐ½ÐµÑĩ":6121,"ĠÑĩÐ°ÑħÑĬ":6122,"ĠÐĲÐº":6123,"Ð´Ð°Ð»Ð°":6124,"ÑĥÑģÐ³Ð¾":6125,"ĠÐ³ÑĮÐµÐ»Ð´Ð°Ð³Ð¾":6126,"Ð¸ÑıÐ»ÑĬÐµÐ³Ð¸":6127,"ĠÐĸÐ¸Ð´Ðµ":6128,"ÐĳÐ¾ÐºÑĮ":6129,"ĠÑħÑĬÑĥÐ»ÑĥÑħÑĬÐ°Ð·Ð´Ð°":6130,"ĠÐºÓıÐ°Ð»ÑĬÐ°ÑıÐ»Ð´Ð°":6131,"ĠÐ¼Ð°ÑĪÐ³ÑĮÑĥÑĢÐ°Ð±":6132,"Ð´ÐµÑĢÐ¸ÑĨÐ°":6133,"ĠÐ·Ð¸Ð³Ð°ÑĢÐ°":6134,"99":6135,"Ð½Ð¸ÑıÐ»":6136,"Ð±ÐµÐ³Ð¾Ð²":6137,"ĠÐ³ÑĮÐ°Ñģ":6138,"Ð°Ð»ÑĬÐ¸ÑıÐ»Ð´Ð°":6139,"Ð°ÐºÑĤÐ¾ÑĢ":6140,"Ð´ÐµÐ·Ðµ":6141,"ĠÑģÐº":6142,"ĠÐĵÓıÐ°ÑĪ":6143,"ĠÑħÑĬÐ°ÑĤ":6144,"ĠÐ±Ð°ÑĤÐ¸Ð»Ð¸Ð½":6145,"ĠÐĵÑĮÐµÐ½Ð¸ÑĢÐµ":6146,"ĠÑħÐ°ÑĢÐ¸Ð»":6147,"ĠÐ³ÓıÐ°Ð´Ð°Ð½Ð»ÑĬÐ¸":6148,"ĠÑħÐ°ÑģÐ°Ð»Ð¾":6149,"ĠÐºÑĬÐµÑĢÐºÑĮÐµÑıÐ»ÑĬÑĥÐ»":6150,"ĠÐ·Ð°ÐºÐ¾Ð½Ð°Ð»Ð´Ð°":6151,"ÐµÐ´ÐµÑĢÐ°ÑĨÐ¸ÑıÐ»ÑĬÑĥÐ»":6152,"ĠÑĢÐµÐºÓıÐµÐ»ÑĬÐµ":6153,"ĠÑħÓıÐ¸ÐºÐ¼Ð°ÑĤ":6154,"Ð±ÑĥÑĢÐ³":6155,"ĠÐľÐµÐ´":6156,"ĠÑĨÓıÑĥÐ»":6157,"Ð°ÑĩÐ¸":6158,"ĠÐ±Ð¸ÑĨÑĥÐ½ÐµÐ»":6159,"ĠÐ±ÐµÐ³ÑĮÐ¸Ð»Ð°":6160,"ÑĭÑĢ":6161,"ĠÑħÓıÐ°Ð´ÑĥÑĢÐ°Ð»":6162,"ĠÑģÐ°ÑħÐ»ÑĬÐ¸Ð³Ð¸":6163,"ĠÑħÑĮÐ¸ÑħÑĮÑĥÐ½":6164,"ĠÐ²Ð¾Ð»ÐµÐ¹Ð±Ð¾Ð»Ð°Ð»ÑĬÑĥÐ»":6165,"ĠÐłÐ¸Ð·Ð²Ð°Ð½":6166,"Ð°ÑĢÑĥÐ½":6167,"ĠÐ³ÓıÐµÐ±ÐµÐ´Ðµ":6168,"ĠÐĵÑĮÐ¸Ð¼Ð°ÑĤ":6169,"Ð°ÑħÑĬÐµÐ³Ð¾":6170,"ÐµÐ´Ð°Ð³Ð¾":6171,"ĠÐĵÓıÑĥÑĢÑĥÑģ":6172,"ĠÐ±Ð¸ÑĨÑĥÐ½Ð°Ð°Ð½":6173,"ĠÐ³ÑĮÐµÑĩÓıÐµÐ»ÑĬÑĥÐ»":6174,"Ð°Ð½Ð´ÑĢ":6175,"ĠÐ½ÑĥÑħÐ¼Ð°Ð»ÑĬÑĥÐ»ÐµÐ²Ð»ÑĬÑĥÐ½":6176,"ĠÐºÑĥÐ»ÑĮÑĤÑĥÑĢÐ°":6177,"ĠÐ±Ð°ÑħÓıÐ°ÑĢÑĩÐ¸Ð»ÑĬÐ¸":6178,"ĠÐ±Ð¸ÑĨÑĥÐ½Ð°Ð³Ð¾":6179,"ĠÐľÐ°ÑĢÑĮÑı":6180,"ĠÐ±Ð°Ð³ÑĬÐ°":6181,"ĠÐ¼Ð°ÑħÓıÑĢÑĥÐ¼":6182,"ĠÐŁÑĥÑĤÐ¸Ð½Ð¸ÑĨÐ°":6183,"ĠÐºÐ²Ð°ÑĤÓıÐ¸ÑĩÓıÐ¾Ð³Ð¾":6184,"ĠÐ³ÓıÐ°Ð»Ð°Ð¹ÐºÑĥÐ¼":6185,"ĠÐ¿ÑĢÐ¾Ð±Ð»ÐµÐ¼":6186,"Ġ000":6187,"ÑģÐ¾Ð¼":6188,"ĠÑħÐ²Ð°ÑĢÐ°Ð²":6189,"ÑĨÐ°Ð³Ð¸":6190,"ĠÐľÑĥÐ³Óı":6191,"Ð³ÑĮÐ°Ð±Ð¸":6192,"ĠÑħÓıÐ°Ð»Ð°Ðµ":6193,"ĠÑĨÐ¾Ð»ÑĬÐ¸ÑıÐ»ÑĬÑĥÐ»":6194,"ĠÐĵÓıÐ¾ÑĢ":6195,"ÑĨÓıÑĥÐ»":6196,"ÑĥÐ»ÑĬÐ³Ð¾":6197,"ĠÐĿÐ°ÐºÓıÐºÓı":6198,"ĠÑĪÐºÐ¾Ð»Ð°Ð»":6199,"ĠÑĢÐ°Ð³ÓıÐ¸Ð³Ð¸":6200,"ĠÐºÐ¾Ð½ÑĤÑĢ":6201,"ĠÐ¿Ð¾Ð´Ð¿Ð¸ÑģÐºÐ°":6202,"ĠÐľÐ¸Ð»Ð»":6203,"ÑĥÐ¼Ð°Ð»ÑĬÑĥÐ»":6204,"ĠÐºÐ¾Ð¼Ð¸ÑĤÐµÑĤ":6205,"ĠÐĽÑĬÐ°Ð¹":6206,"ÑĭÐ¹":6207,"ĠÑĢÐ°ÑĩÓĢ":6208,"ĠÑĥÑĩÐ°ÑģÑĤÐ¾Ðº":6209,"ĠÐ¼ÑĥÐºÓıÑĥÑĢ":6210,"Ð´Ð°Ð³ÑĥÐ½":6211,"ÑĥÐ»Ð¸Ð»Ð°":6212,"ĠÐ³Ð°ÑĢ":6213,"ĠÑĤÓıÐ°ÑĢ":6214,"ĠÐ»ÑĬÑĥÑĤ":6215,"ĠÐ¸Ð½Ð²":6216,"Ð¸Ð»Ð°Ð½Ð³Ð¸":6217,"ĠÐ±Ð¾ÑģÑĥÐ»Ð°":6218,"ĠÐ±ÐµÐ³ÑĮÑĥÐ»ÐµÐ»":6219,"Ð¥ÓĢ":6220,"ĠÑĤÓıÐ°Ð´ÐµÑĨ":6221,"ĠÐ³ÑĮÐ°Ð½Ð¸ÑĢÐµ":6222,"ĠÑħÓıÐ°ÐºÑĬÐ°Ð±":6223,"ĠÐŁÐ°ÑĤÓıÐ¸Ð¼Ð°ÑĤÐ¸ÑĨÐ°":6224,"ĠÐ±Ð¸Ð³ÑĮÐ°Ð»ÑĬ":6225,"ĠÐ³ÓıÐ¸ÑģÐ¸Ð½":6226,"ĠÐĸÐ¸Ð²Ð³Ð¾":6227,"70":6228,"Ð¼Ð¾Ñģ":6229,"Ð·Ð°":6230,"Ð¸Ð½Ð¸ÑĨÐ°":6231,"Ð¸Ð½Ð¸Ð¼Ð°ÑĤ":6232,"ĠÐ¼Ð°Ð³ÑĬÐ°Ð»":6233,"ĠÑģÐµÐ¼":6234,"Ð°Ð²ÑĤ":6235,"ĠÐĵÑĮÐ°Ð¼":6236,"ĠÐ¿Ð»":6237,"Ð¿Ð¾Ð½":6238,"ĠÑħÑĬÐ°ÑħÓı":6239,"ĠÐ¡Ð°Ð¸Ð´":6240,"ĠÑīÐ²ÐµÑıÐ»ÑĬÐµ":6241,"Ð¾Ð¼Ð¾":6242,"ÐĶÐ¾Ð±":6243,"ĠÐ³ÓıÑĥÑĨÓıÐ¸ÑıÐ»Ð´Ð°":6244,"ÑģÐºÐ°Ñı":6245,"ĠÑĨÐ¾ÑĨÐ°Ð·Ðµ":6246,"ĠÐ¼Ð°ÑĨÓıÐ°Ð»Ð´Ðµ":6247,"ĠÐ¼Ð¸ÑģÐ°Ð»Ð°Ð»ÑĬÐµ":6248,"Ð¾Ð²Ð¸ÑĩÐ°Ñģ":6249,"ĠÐ¼Ð°Ð»ÑĬÐ¸Ð·Ðµ":6250,"ĠÑĤÓıÐ°Ð»ÑĬÐ¸ÑıÐ»ÑĬÑĥÐ»":6251,"ĠÐ³ÑĮÐ°Ð½Ð¶ÐµÐ³Ð¸":6252,"Ð¸Ð½Ð³ÑĢÐ°Ð´":6253,"ĠÐºÓıÐ°Ð½ÑĨÓıÑĥÐ½":6254,"ĠÑħÐ°Ð»Ð°ÑĤÐ±Ð°ÑħÑĬ":6255,"ĠÐľÐ°Ð»Ð¸Ðº":6256,"Ð»Ð¾ÑīÐ°Ð´":6257,"ĠÑģÐ¾Ð»Ð´Ð°ÑĤ":6258,"ĠÐ¿Ð°ÑĩÐ°ÑıÑģÑĥÐ»":6259,"24":6260,"ĠÐ²Ð¾ÑĢÑĩÓı":6261,"ÑĥÑĢÐ°Ð¹":6262,"ĠÑĨÓıÐ²":6263,"ĠÐ°Ð±Ð°Ð´":6264,"ĠÐ³ÑĮÐµÑĩÓıÐ¾Ð»ÑĬÐ¸ÑıÐ»ÑĬÑĥÐ»":6265,"Ð¸Ð·Ð°Ð±Ð¸ÑıÐ»ÑĬÐµ":6266,"ĠÐŁÐ¸ÑĢ":6267,"ĠÐ³ÓıÑĥÐ¼ÑĢÑĥÑıÐ»ÑĬÐµ":6268,"ĠÐ³ÑĮÐµÐ²Ð³Ð¸":6269,"ĠÐ±Ð°ÐºÓıÐ°Ð»Ð´Ð°ÑģÐ°":6270,"ĠÑĨÐµÐ±ÐµÑĤÓıÐµÐ¹":6271,"ĠÐ³ÓıÐ°ÐºÑĬÐ¸Ð»":6272,"ĠÐ¼Ð¸ÑģÐ°Ð»Ð»ÑĬÑĥÐ½":6273,"Ð©Ð°Ð¹":6274,"ĠÐĵÓıÐ°Ð±Ð´ÑĥÐ»Ð¼Ð°Ð»Ð¸Ðº":6275,"ĠÐ±ÑĥÑģÑĥÑĢÐ±Ð°Ð±Ð¸":6276,"ĠÐºÐ°Ð¿ÑĥÑĢ":6277,"ĠÑģÐ°Ð´Ð°ÐºÑĬÐ°":6278,"ĠÑĤÐµÑĢÑĢÐ¸ÑĤÐ¾ÑĢÐ¸Ð°Ð»Ð¸ÑıÐ±":6279,"ĠÑĢÐ°ÐºÓĢ":6280,"Ð¾Ð»Ð³Ð¾":6281,"Ð¸ÑģÑĥÐ»":6282,"ĠÐ¸ÑģÑĤ":6283,"ĠÑĨÐ¾ÑıÐ·":6284,"ĠÑĪÐ¾ÑĦ":6285,"Ð¸ÑīÐ°Ð»Ð¸":6286,"Ð°Ð±Ð°Ð·Ð´Ð°ÑģÐ°Ð½":6287,"ÑįÐ½":6288,"ÐĴÐ°ÑĤÓıÐ°Ð½":6289,"ĠÐ³ÓıÐ°Ð³Ð°ÑĢÐ»ÑĬÐ¸ÑıÐ»ÑĬ":6290,"ĠÐ¯ÑĢ":6291,"ĠÑĪÐ°Ð³ÓıÐ¸ÑĢÐ°ÑģÑĥÐ»":6292,"ÐĵÑĮÐ°Ð»Ðµ":6293,"ĠÐ¼Ð°ÑĪÐ¸Ð½Ð°Ð±Ð¸":6294,"ĠÐ²ÑĭÑģÑĤ":6295,"ĠÐ²ÑĭÐ¿ÑĥÑģÐº":6296,"ĠÑĤÓıÐ°ÑģÐ¸ÑıÐ±":6297,"ĠÐĳÐµÑĢÐ³ÑĮÐµÐ½Ð»ÑĬÐ¸ÑıÐ»ÑĬÑĥÐ»":6298,"ĠÐºÐ¾Ð½ÑĨÐµÑĢÑĤ":6299,"ĠÐ¥ÑĮÐ°ÑĢÐ³Ð°Ð±Ð¸":6300,"ĠÐ³Ð¾Ð´ÐµÐºÓı":6301,"ĠÐ³ÓıÑĥÑħÑĮ":6302,"ĠÐ¼ÑĥÑĢ":6303,"ĠÐºÓıÐ¾Ð»Ð°ÑĢÐµÐ±":6304,"ĠÐĳÐ°Ð³ÓıÐ°ÑĢÐ°Ð±":6305,"ÐĵÑĮÐµÐ»ÑĬ":6306,"Ð°Ð±Ð°Ð·Ð³Ð¸":6307,"ÑĥÑĩÓĢ":6308,"ĠÑĪÐ°Ð³ÑĮÐ°ÑĢÐ°Ð·Ð´Ð°":6309,"ĠÑĤÑĥÐ½ÐºÐ°":6310,"ĠÑĤÐ°ÑĢÐ¸ÑħÐ¸ÑıÐ»":6311,"ĠÐ²Ð°ÑħÑĬÐ¸Ð½Ðµ":6312,"ĠÐĽÑĬÐ°ÑĢÐ°ÑĤÓĢ":6313,"ĠÐĵÑĬÐ¸Ð·Ð»ÑıÑĢ":6314,"Ð©Ð¸Ð±Ð°Ð±":6315,"ÑĢÐ°Ð±Ð°Ð·ÑĥÐ»":6316,"ÑĢÐ°Ð¿":6317,"ÑĢÐ¸Ð¹":6318,"Ð¾Ð´Ð°ÑģÐ°":6319,"ĠÐºÑĬÐ¸Ð¼":6320,"Ð¸Ð´Ð°Ð»ÑĬÑĥÐ»":6321,"Ð°ÑıÐ»Ð³Ð¸":6322,"ĠÑĢÑĥÐºÓıÐ°Ð»Ð¸Ð´Ðµ":6323,"ĠÐ¿ÑĢÐ°Ð²":6324,"ÐłÐ°Ð»ÑĬÑĥÐ»":6325,"Ð¸ÐµÐ²Ð°ÑģÑĥÐ»":6326,"ÐľÐ¸Ð»Ð»":6327,"Ð°ÑıÐ»Ð´ÐµÐ³Ð¸":6328,"ÑĥÐ´Ð¸Ð½Ð¾Ð²":6329,"Ġ2016":6330,"ÐļÓıÑĥÐ´Ð¸ÑıÐ±":6331,"ĠÐ¨Ð°Ð³ÑĮÑĢÑĥÐ´Ð¸Ð½":6332,"ĠÐ±Ð°ÑĤÓĢÐ¸":6333,"ĠÐľÑĥÑħÑĤÐ°ÑĢ":6334,"ĠÑĤÐ°Ð¼Ð¸ÑħÓıÐ°Ð»Ð´Ðµ":6335,"ĠÐ±Ð°ÑĨÓıÑĨÓı":6336,"Ð°Ð½Ð°Ð³ÓıÐ°Ð½":6337,"ĠÐºÐ¸Ñģ":6338,"ĠÐ´Ð¸Ð´Ðµ":6339,"ÐµÑħÑģ":6340,"ĠÐ¸Ð½Ð°Ð»Ð´Ðµ":6341,"ĠÐºÑĮÐ¾Ð»Ð°Ð³Ð¾":6342,"ĠÐ»ÑĬÐ¸ÐºÓıÐ°Ð±Ð»ÑĬÑĥÐ½":6343,"ÐµÑĨÑĨ":6344,"ĠÑĥÑĢÐ³ÑĬÐ¸Ð·Ðµ":6345,"ĠÐ¶Ð°Ð¼Ð³ÓıÐ¸ÑıÐ²":6346,"ĠÐ´Ð°Ð³ÑĬÐ¸ÑģÑĤÐ°Ð½Ð¸ÑıÐ·ÑĥÐ»":6347,"ĠÐ±Ð¸ÑīÐ°ÑĢÐ°Ð±":6348,"Ð¥Ð°Ð»ÐºÑĬ":6349,"ĠÐ³Ð°Ð»":6350,"Ð°Ð´Ð¸Ð»":6351,"ĠÐ³ÓıÐ°ÑģÑĢ":6352,"ÐµÐ»Ð°Ð»ÑĬÑĥÐ»":6353,"ÑĪÐºÐ¾Ð»":6354,"ÐµÑĤÓĢ":6355,"Ð°Ð±Ð°Ð·Ð´Ð°Ð³Ð¸":6356,"Ð¸Ð»Ð»Ð°":6357,"ĠÑħÓıÐ°Ð»ÑĤÓıÑĥÑħÑĬÐ°Ð±Ð°Ð·Ð´Ð°":6358,"ÐµÑĩÓĢ":6359,"ĠÐ²Ð°ÑĤÐ°Ð½Ð°":6360,"ĠÐ±ÐµÐ³ÑĮÑĥÐ»Ð¸Ð½":6361,"ÐĵÑĮÐµÐ»Ð´Ð°":6362,"ĠÐ³ÓıÐµÐ½ÐµÐºÐºÑĥÐ½":6363,"ĠÐ»ÑĬÐ°Ð³ÓıÐ°Ð»Ð¸Ðµ":6364,"ĠÐ¸Ð½ÑģÑĤÐ¸ÑĤÑĥÑĤÐ°Ð»ÑĬÑĥÐ»":6365,"ĠÐ£Ð·ÑĥÑħÑĬÐ´Ð°":6366,"ĠÑįÐºÑģÑĤÑĢÐµÐ¼Ð¸Ð·Ð¼":6367,"ĠÐľÐ°ÑĢÑĮÑıÐ¼":6368,"ĠÐ±Ð°ÑĢÐ°Ðº":6369,"Ð°ÑĢÐ°ÑħÑĬ":6370,"ÑĥÐ½Ð³ÑĥÑĤÓı":6371,"Ð¼Ð¸ÑĢÐ·":6372,"Ð°Ð»ÑĬÑĥÑħÑĬÐµ":6373,"ĠÐ¿Ð¸ÑĤ":6374,"ĠÐ·Ð°ÑĢ":6375,"ĠÐļÐ¸Ð½Ð°Ð»":6376,"ÑħÑĬÑĥÐ½":6377,"ÑıÐ»Ð´Ð°ÑģÐ°Ð½":6378,"Ð¸ÑĩÓıÐ¸Ð½":6379,"Ð°Ð»ÑĬÐµÐ³Ð¾":6380,"ĠÑįÐ»":6381,"ĠÑĢÑĥÐ³ÐµÐ·Ðµ":6382,"ĠÐ±Ð°ÑħÑĬÐ¸Ð½Ð°Ð±":6383,"ĠÐ°ÑħÐ°Ð»":6384,"ĠÑĢÐ°ÐºÑĮÐ°Ð»ÑĬÑĥÐ»":6385,"ĠÑĩÐ°Ð³ÓıÐ°Ð·Ð´Ð°":6386,"ĠÐ¼ÑĥÐ³ÓıÐ°Ð»Ð¸Ð¼Ð·Ð°Ð±Ð°Ð·ÑĥÐ»":6387,"ĠÐ³ÓıÐ°Ð³Ð°ÑĢÑĥÐ½":6388,"ĠÑģÐ¾ÑĨÐ¸Ð°Ð»Ð¸ÑıÐ±Ð³ÑĥÐ½":6389,"ÑĥÑıÐ»Ð´Ð°":6390,"Ð°Ð»ÑħÓı":6391,"ĠÐľÐ°ÑĪ":6392,"ĠÑĨÓıÑĥÐ»Ð°Ð»":6393,"ÑĥÐ¼Ð°Ð´":6394,"ĠÐºÑĮÐµÑıÐ»Ð´Ð°":6395,"Ð°ÑĨÓĢ":6396,"ĠÑĢÐ¾ÑģÐ°Ð½Ð°":6397,"ĠÐ³ÓĢÑĥÑĢÑĥÑģ":6398,"ĠÑģÑĥÐ°Ð»Ð°Ð·Ð´Ð°":6399,"Ð¸Ð½Ð°ÑĢÑĥÐ½":6400,"ĠÐ´Ð°Ð³ÑĬÐ¸ÑģÑĤÐ°Ð½Ð¸ÑıÐ»":6401,"Ð´Ð°Ð³ÑĮÐ¾ÑĢÐºÑĮ":6402,"ĠÐ¸Ð½ÑĩÓıÐ¾Ð³Ð¾":6403,"Ð±Ð°":6404,"ĠÑĢÐ¾ÑĨ":6405,"Ð¸ÑĢÐ°ÑħÑĬ":6406,"ĠÐºÐºÐµÐ´Ð°Ð»":6407,"ĠÑħÓıÐ°Ð»ÑĤÓıÐ°ÑĢÐ°Ð»":6408,"ĠÐ¡Ð°Ð³":6409,"ÑīÐ¸Ðº":6410,"Ð³ÓıÐ°Ð½Ð°ÑģÐµÐ±":6411,"ÐĵÑĮÐµÐ·ÑĥÐ»":6412,"ÑĥÐ»ÑĬÑĥÐ½":6413,"ĠÐ´Ð°Ð½Ð´ÐµÐ»ÑĬÐ°Ð±Ð¸":6414,"ĠÐ³ÓĢÐ°ÑĢÐ°Ð±":6415,"ÐĸÐ¸Ð½Ð´Ð¸ÑĢ":6416,"ĠÑģÐ°Ð¼Ð¾Ð»":6417,"60":6418,"Ð°Ð±Ð°Ð»":6419,"ĠÐ±Ð»":6420,"ĠÐĵÐ°Ð´Ð¶":6421,"ÑĨÐ¸ÑıÐ»":6422,"Ð¶Ð¾":6423,"Ð³ÓıÑĥÑģ":6424,"ĠÐĶÐ°Ð½Ð¸ÑıÐ»":6425,"Ð´Ð°Ð»Ð´Ðµ":6426,"ÐµÑģÐ°":6427,"ĠÐ°ÑģÐº":6428,"ĠÐ¶Ð¾ÑıÐ»Ð´Ð°":6429,"Ð°ÐµÐ²Ð°Ð»ÑĬ":6430,"ĠÑĤÐ°ÑĢÐ¶":6431,"ĠÐĽÑĬÐ¸Ð¼":6432,"ÐĵÓıÐ°Ð±":6433,"ÑĩÓıÐ²Ð°Ð¹":6434,"ĠÑĨÓĢÑĥÐ½":6435,"ĠÐ´Ð¾Ð±Ð³Ð¾":6436,"ĠÐ°Ð½ÐºÑĮÐ°Ð»ÑĬ":6437,"ĠÑĢÐµÐ´Ð°ÐºÑĨÐ¸ÑıÐ»Ð´Ðµ":6438,"ĠÑĤÐ°Ð»Ð¸ÑħÓıÐ°Ð±":6439,"ĠÐ±Ð¸Ð¶Ð°ÑĢÐ°Ð±":6440,"ĠÐĺÐ±ÑĢÐ°Ð³ÑĮÐ¸Ð¼Ð¾Ð²":6441,"ĠÐ°Ð²Ð°ÑĢÐ°Ð³Ð°Ñģ":6442,"ĠÑģÐ°ÑĢÐ´Ð¸Ð»ÑĬ":6443,"Â²":6444,"ĠÑĥÐ·":6445,"Ð°Ð±Ð³Ð¸":6446,"Ð°ÑģÑħÓıÐ°Ð±":6447,"ĠÐĵÐ°Ð·ÐµÑĤ":6448,"ĠÐ»ÑĬÐ°Ð·Ð°Ð±Ð¸":6449,"ÐµÐ´Ð¸":6450,"ĠÑıÐºÑĬ":6451,"ĠÐ³ÑĬÐ¾Ð»":6452,"ÐĵÑĮÐµÑģÑĥÐ»":6453,"ÑĥÐ»ÑĬÐ°":6454,"ĠÐ¨Ð¸Ñħ":6455,"ĠÐĵÓıÐ°Ð±Ð´ÑĥÐ»ÑħÓı":6456,"ĠÐ³ÑĮÑĥÐ´ÑĥÐ»Ð·Ð°Ð±Ð¸":6457,"ĠÐłÐ°ÐºÓıÐ°Ð»Ð´Ð°":6458,"ÐĲÐ»Ð»Ð°Ð³ÑĮÐ°Ñģ":6459,"ĠÐ¼ÐµÑĤÐ¾Ð´":6460,"ĠÐºÑĥÐ±Ð¾Ðº":6461,"ĠÐ³ÑĮÐ¾ÑĨÓı":6462,"Ð·Ð°Ð·ÑĥÐ»":6463,"Ð°ÑħÐ°Ð½Ð¾Ð²":6464,"ĠÐ±ÑĥÐ³Ð¾Ð»ÑĬÐ¸":6465,"ĠÐ¥Ð¸ÑĢ":6466,"Ð°ÑıÐ»Ð¸Ð³Ð¾":6467,"ÐĲÐ³ÑĬ":6468,"ĠÑĢÐ°ÐºÓıÐ°Ð·ÑĥÐ»ÑĬ":6469,"ÐĳÐ¸ÑīÑĥÐ½":6470,"ÐµÑģÑĤÐ²ÐµÐ½":6471,"ĠÐ³ÑĮÐ¾ÑĢÐºÑĮÐ¾Ð±Ð»ÑĬÐ¸":6472,"ĠÐĵÓıÐ°Ð»Ð¸ÑħÓı":6473,"ĠÐ½Ð°ÑģÐ¸ÑħÓıÐ°ÑĤ":6474,"ÐĶÐ°Ð½Ð´ÐµÐ»ÑĬÐ¸ÑıÐ»Ð´Ð°":6475,"ĠÑĦÐ¸Ð»ÑĮ":6476,"ĠÐ±Ð°ÑħÓıÐ°ÑĢÑĩÐ¸ÑıÐ»":6477,"ĠÐ¸Ð½Ð²Ð°Ð»Ð¸Ð´":6478,"ĠÐ³ÑĬÑĥÐ»Ð±Ð°Ñģ":6479,"Ð°Ð½Ð´Ð°Ð»":6480,"ÑĥÐ½ÑĤ":6481,"ĠÐ³ÓıÑĥÐ½Ð°":6482,"ĠÐ³ÑĮÐ°Ð±Ð¸Ð´Ð°Ð»":6483,"ĠÐļÐ°Ð»Ð¸Ð½Ð¸Ð½Ð°ÑĥÐ»":6484,"ĠÐ±ÐµÐº":6485,"ÐļÑĮ":6486,"ĠÐ¼ÑĥÐ³ÑĮ":6487,"ĠÐ§Ð°Ð½":6488,"ĠÐ¼Ð¸Ð»Ð»Ð¸":6489,"ĠÑħÓıÐ°Ð»ÑĤÓıÑĥÐ»Ð°Ð³Ð¾":6490,"ĠÑħÑĥÑĢÑħÐµÐ½":6491,"ÐłÐ¾ÑģÑģ":6492,"ĠÐļÑĬÑĥÑĢÐ°Ð¼ÑĥÑħÓıÐ°Ð¼Ð°Ð´":6493,"ĠÐ±Ð°ÐºÓıÐ°ÑĢÐ¸Ð·Ðµ":6494,"ĠÐ³ÓıÐ°ÐºÑģÐ°Ð»Ð´Ð°":6495,"ĠÐºÐ°Ð±Ð¸Ð½ÐµÑĤ":6496,"ĠÐ¸Ð´ÐµÐ¾Ð»Ð¾Ð³":6497,"ÑĢÐ¾ÑĢ":6498,"ÐºÐ¾Ð½":6499,"ĠÑĢÐ°":6500,"ÑħÐ²":6501,"Ð¾Ð»Ð±":6502,"ÑĤÓıÐ°Ð¼":6503,"ĠÑĢÐ°Ð¹ÐºÐ¾Ð¼Ð°Ð»ÑĬÑĥÐ»":6504,"ĠÑĢÐ°ÑħÑĬÑĥÐ»ÐµÐ»":6505,"Ð¾Ð´Ð¾Ð±":6506,"ĠÑħÑĬÐ²Ð°Ð»Ð°":6507,"ĠÐ¸ÑĪÐ°Ð»ÑĬÐµ":6508,"ÐŁÑĢ":6509,"ĠÐ³ÑĮÐµÐ´Ð¸Ð½Ð°Ð±Ð³Ð¾":6510,"Ð°ÑİÑĢÑĤ":6511,"ĠÐ¼ÑĥÑħÓıÐºÐ°Ð½Ð°Ð±":6512,"Ð°Ð½ÑĤÐµ":6513,"ĠÐĵÓıÐ°Ð±Ð´ÑĥÐ»Ð°ÑĤÓıÐ¸Ð¿Ð¾Ð²":6514,"ĠÑĢÐ°Ð»ÑĬÐ´":6515,"ĠÑĩÑĩÑĥÐ³Óı":6516,"ĠÐ²ÐµÐºÐµÑĢ":6517,"Ð²Ð°Ñģ":6518,"ÑĨÐ¸ÑıÐ»ÑĬ":6519,"ĠÐºÑĬÐµÐ´":6520,"Ð¶Ð°Ð½Ð°Ð»ÑĬÑĥÐ»":6521,"Ð¸Ð»ÑĬÐ°":6522,"ĠÑĢÑĥÐºÓıÐ°ÑĢÐ°Ð±":6523,"ĠÐĿÐ°Ð±Ð¸":6524,"ĠÑĨÐµÐ±ÐµÐ³ÓıÐ°Ð½":6525,"ĠÑĥÑĩÑĥÐ·":6526,"ÑįÐ±ÐµÐ»":6527,"ĠÐ°ÑģÐºÓıÐ¾ÑĢÐµ":6528,"ĠÐ±ÑĥÐºÓĢÑĥÐ½Ð°":6529,"ĠÐºÓıÐ°Ð»Ð³Óı":6530,"ĠÐ¼ÐµÐ´Ð°Ð»Ð°Ð»":6531,"ĠÐ³ÑĮÐ¾Ð±Ð¾Ð»Ð»ÑĬÑĥÑħÑĬ":6532,"ĠÑģÐ¸ÑģÑĤÐµÐ¼Ð°":6533,"ÐµÑħÑĬÐµ":6534,"Ð°Ð»Ð°ÑıÐ»ÑĬÑĥÐ»":6535,"ÑĥÐ»Ð´ÐµÑĢÐ¸Ð»":6536,"ĠÐ³Ðµ":6537,"ÐºÓıÑĥÐ½":6538,"ĠÐ»ÑĬÐ¸Ð´Ð°Ð½Ð¸Ð³Ð¸":6539,"Ð°Ð²Ð»ÑĬÑĥÐ½":6540,"ĠÑĢÐµÑħÑĬ":6541,"ÐµÐ¼Ð¾ÑĢ":6542,"ĠÑĤÓıÐ°Ð´Ð°Ð»":6543,"ĠÑĢÐ°Ð¹Ð¾Ð½Ð°Ð»Ð´Ð°Ð³Ð¸":6544,"ĠÐ³ÓıÑĥÑĨÓıÐ°ÑĢÑĥÑħÑĬÐ°Ð½":6545,"ĠÐ°Ð·Ð°ÑĢÑħÐ°Ð½":6546,"ÑĥÐºÑĮÐ°":6547,"ĠÐĲÐ±Ð°ÐºÐ°ÑĢÐ¾Ð²":6548,"ĠÐĲÐ²Ð°ÑĢÐ°Ð³Ð°Ñģ":6549,"ĠÐĲÑĦÐ³ÑĬÐ°Ð½":6550,"ĠÐĵÐŃÐ¡":6551,"80":6552,"Ð°Ð»Ð¸Ð³Ð¸":6553,"Ð²Ð°Ð¹":6554,"ĠÐ³ÓıÐµÐ¹":6555,"ÑĤÓıÐµÑħ":6556,"ĠÐ¸Ñģ":6557,"ÑĢÑĥÑĤ":6558,"Ġ(Â«":6559,"ĠÐ¸ÑĪÐ°Ð·ÑĥÐ»ÑĬ":6560,"ĠÐ°ÑħÓıÑĥÐ»Ð°":6561,"ĠÐ±Ð°Ð¹Ð±Ð¸ÑħÑĮÐ¸":6562,"ĠÐĽÑĬÐ°Ð±Ð³Ð¾":6563,"ĠÐ³ÓıÐ¾Ð»Ð¾ÑħÑĬÐ°Ð±Ð°Ð·Ðµ":6564,"ĠÑĢÐ°ÑĩÐ°Ð½Ð°":6565,"ĠÐ¤Ð°ÑĤ":6566,"ĠÐ±Ð¾ÑĢÑħÐ°ÑĤÐ°Ð±":6567,"ĠÐ±Ð°ÑīÐ°Ð´Ð°Ð±":6568,"ĠÑĨÐµÐ½ÑĤÑĢÐ°Ð»Ð¸ÑıÐ±":6569,"ĠÐºÐ¾ÑĢÑĢÑĥÐ¿":6570,"ĠÐ³ÓıÐ°ÑĤÓıÐ¸Ð´Ð³Ð¾":6571,"ĠÐ¿ÑĢÐµÐ´Ð¿ÑĢÐ¸Ð½Ð¸Ð¼Ð°ÑĤ":6572,"Ð°Ð½ÐºÑĬ":6573,"Ð°ÑģÐµÐ»":6574,"ĠÐ¼Ð°Ð·":6575,"ĠÐ½Ð°":6576,"ĠÐºÐºÐ¾Ð»Ð°ÑĢÐµÐ»":6577,"ĠÐ¡Ð°Ð¿":6578,"ĠÐ¥ÓıÐ¸ÑģÐ°Ð±":6579,"Ð¾Ð¼ÑĭÑĪ":6580,"ÐłÐµÑģ":6581,"Ð°ÑıÐ»ÑĬÐ³Ð¸":6582,"ĠÑĢÐµÑħÑħ":6583,"ĠÐ±Ð¸ÑĩÓıÑĩÓıÐ¸":6584,"ĠÐ¡Ð°Ð³ÓıÐ¸ÑĤ":6585,"Ð»ÐµÑĤ":6586,"Ð°Ð»Ð´Ð°ÑģÐ°Ð³Ð¸":6587,"ĠÐ³ÐµÑĢ":6588,"Ð°ÑĢÐ¸ÑıÐ»":6589,"ÑħÐ¸Ñģ":6590,"ĠÐ³ÓıÐ°Ð·Ñĥ":6591,"Ð¾Ð½Ð´Ð¾":6592,"Ð¸ÑģÐ¾":6593,"ĠÑĩÐµÑħÑĮ":6594,"ĠÐ½ÑĥÑħÐ³Ð¸":6595,"ĠÐ³ÑĮÐ°ÑĢÑĥÐ»Ð°Ð°Ð½":6596,"ĠÐ¥ÓıÐ°ÑģÐ¸Ð»":6597,"Ð¾Ð³Ðµ":6598,"ĠÑħÑĥÑĤÓıÐ¸ÑĩÓıÐ¾":6599,"ÐºÑĬÐ¾ÑıÐ»Ð´Ð°":6600,"ĠÑĢÐ¾ÐºÑĮÐ¸Ð³Ð¸":6601,"ĠÑįÑĢÐºÐµÐ½Ð»ÑĬÐ¸":6602,"ĠÐ¸ÑĩÓıÐ³Ð¾":6603,"Ð»Ð°ÑĢ":6604,"Ð°Ð»Ð¸Ðµ":6605,"ĠÑĨÐµÐ½ÑĤ":6606,"ĠÐ»ÑĬÐ¾Ð»ÐµÐ»":6607,"Ð¸ÑĤÐ»":6608,"Ð´Ð°Ð»Ð°Ð±":6609,"ĠÐ¡Ð°ÑĢ":6610,"ĠÐľÑĥÑħÓıÐ°Ð¼Ð°Ð´ÑħÓıÐ°Ð±Ð¸Ð±":6611,"ĠÐ¢Ð°Ð´Ð±Ð¸ÑĢ":6612,"ÐĲÑģÑģÐ°Ð»Ð°Ð¼":6613,"ĠÑĨÓıÑĥÐ½Ð¸ÑıÐ»Ð´Ð°":6614,"ÑĥÑĨÐ°Ð³Ð¸":6615,"ĠÑħÐ°Ð±Ð°Ð»":6616,"ĠÑĢÐ¸ÑĤÓıÐ¸Ð·Ðµ":6617,"Ġ2010":6618,"ĠÐ±ÑĥÑģÑģÐ¸Ð½Ð°Ð±Ð¸Ð·Ðµ":6619,"ĠÐ®ÑģÑĥÐ¿Ð¾Ð²Ð°Ñģ":6620,"ĠÐ¼Ð°ÑĢÑĪ":6621,"ĠÐ²Ð°Ð»Ð°Ð³ÑĮÑĥÐ½":6622,"ĠÐºÑĬÐ¸Ð¼Ð°ÑĤÐ°Ð»":6623,"ĠÐ¼ÑĥÑģ":6624,"ĠÐ´ÐµÐ¼":6625,"ĠÐ³ÑĮÐµÐ·Ð´Ð°ÑģÐ°Ð½":6626,"ĠÐ£ÑĢ":6627,"ĠÐŃÐ½":6628,"ĠÐ½Ð¸Ð¶ÐµÑĢÐ³Ð¾":6629,"ĠÐľÑĥÑģÐ°ÐµÐ²Ð°Ñģ":6630,"ĠÐºÑĬÐ¸Ð¼Ð°ÑĤÐ³Ð¸":6631,"ĠÐ±Ð°ÑħÑĥÐ½Ð°":6632,"ĠÐ³ÓıÐ°ÐºÑĬÑĥÐ±Ð°":6633,"ĠÐ¥Ð°Ð»Ð¸Ð´":6634,"ĠÑĢÐ¸ÑħÑĮÐ¸Ð·Ð°ÑĢÑĥÐ½":6635,"ĠÐ³ÑĮÐµÐºÑĬÐ¾Ð»ÐµÐ±":6636,"ÑĩÐ¸Ð»ÑĬÐ¸ÑıÐ»Ð´Ð°":6637,"ĠÐºÐ¾ÑĢÐ¾Ð½Ð°Ð²Ð¸ÑĢÑĥÑģ":6638,"ĠÐ¼ÑĥÐ·ÑĭÐº":6639,"ĠÐ¿ÑĥÐ»Ð°Ð½Ð°Ð±":6640,"ĠÐ³ÓıÐ¸Ð±Ð°Ð´Ð°ÑĤ":6641,"ÑĢÐ°ÑħÓı":6642,"Ð±Ð½":6643,"Ð±Ð°ÐºÓĢ":6644,"ÑĥÑĢÐ¼Ð°Ð½":6645,"Ð°ÑģÑĥÐ»Ð³Ð¸":6646,"ĠÐ³ÓıÐµÐ¼ÐµÑĢÐ°Ð²":6647,"ĠÐ±ÐµÑĤÓıÐµÑĢÐ°Ð»Ð´Ðµ":6648,"ĠÐ±Ð¾ÐºÑĮÑĥÐ»ÐµÐ²":6649,"ĠÐĵÑĬÐ°Ð¹Ð¸ÑĢ":6650,"ĠÐĹÐ°ÐºÐ°ÑĢ":6651,"ĠÑħÑĥÑĤÓıÑĥÐ»Ð°":6652,"ĠÐ½ÑĥÑħÐ¼Ð°Ð»ÑĬÑĥÐ»ÐµÐ·ÑĥÐ»":6653,"ĠÐ¿Ð°ÑĩÐ°Ð»Ð¸ÑħÑĬÐ°Ð»Ð´Ð°":6654,"ĠÐ±ÐµÑĢÐ³ÑĮÐ°Ð½Ð°":6655,"ĠÑĢÐ¸ÑħÑĮÐ¸Ð·Ðµ":6656,"ĠÐĴÐ°ÑĤÓıÐ°Ð½Ð°Ð»Ð´Ðµ":6657,"ĠÑģÐ°Ð¹Ð¸Ð³ÑĬ":6658,"ĠÑĩÓıÑĥÑħÓıÐ¸":6659,"ĠÑĩÐ¾ÑĢÑħÐ¾Ð»":6660,"ĠÐ¿Ð°ÑģÐ¿Ð¾ÑĢÑĤ":6661,"ĠÐ³ÓıÐ°Ð¶Ð°Ð¸Ð±Ð°Ð±":6662,"ĠÐĶÐµÑĢÐ±ÐµÐ½ÑĤÐ°Ð»ÑĬÑĥÐ»":6663,"ĠÐ±ÑĥÑİÑĢÑĥÑħÑĬ":6664,"Ð¾Ð¼ÑĭÑĪÐ»ÐµÐ½":6665,"ÐµÐºÑĮ":6666,"Ð¾ÐµÐ²":6667,"ĠÐ±ÑĥÐºÑĬ":6668,"ĠÐ´Ð¾Ð·":6669,"ĠÐºÐºÑĥÑĢÐ°Ð²":6670,"ĠÐĵÓıÐ¾Ð»Ð¾ÑħÑĬ":6671,"ĠÐ±Ð¾ÐºÑĮÐ°Ð½Ð¸":6672,"ĠÐ¶Ð°Ð½Ð¸Ð²Ðµ":6673,"Ð°ÐµÐ²Ð¸Ñĩ":6674,"ĠÐ³ÓıÐ°ÑħÑĮÐ°Ð»Ð»ÑĬÑĥÐ»":6675,"ĠÐ¼Ð°ÑĨÓıÐ°Ð·ÑĥÐ»":6676,"ĠÑĢÐ¸ÑĩÑĩÐ°Ð»ÐµÐ»":6677,"ÑĩÐ¸Ð»ÑĬÐ¸ÑıÐ»ÑĬÑĥÐ»":6678,"ĠÐ¾Ð¿ÐµÑĢÐ°ÑĨÐ¸ÑıÐ»Ð´Ð°":6679,"ĠÐ¦ÓıÐ°ÐºÑĬÐ³Ð¾":6680,"ĠÐ´Ð°ÑĢÐ°Ð±Ð¸":6681,"VII":6682,"ÑĤÐµ":6683,"ĠÑĨÐ¾Ð½Ð¸Ð³":6684,"Ð°Ð»ÑĬÑĥÐ»ÐµÐ»":6685,"ĠÐ¾Ð¿":6686,"ĠÑĢÐ¾ÑĨÓıÑĨÓı":6687,"Ð¼ÑĥÑıÐ»ÑĬÑĥÐ»":6688,"ĠÑĢÐ¾ÐºÑĬÐ¾Ð±Ðµ":6689,"ÐµÐ³Ð¾ÑĢ":6690,"ĠÐ³ÓıÐ¾Ð»Ð¸Ð»Ð°Ð·Ðµ":6691,"ĠÑĤÓıÐ°Ð³ÓıÑĥÐ½":6692,"ÑĥÐ»Ð°ÑĢÐµÐ²":6693,"ĠÑĢÐ°ÑıÐ»ÑĬÑĥÐ»":6694,"Ð¸Ð±ÐµÐ³Ð¾":6695,"ĠÑĢÐµÐ³Óı":6696,"ĠÐĶÐ°Ð´":6697,"Ð³ÑĥÐ½Ð³Ð¸":6698,"ĠÐ¦Ð¸Ð½":6699,"Ð°Ð±Ð°Ð·ÑĥÐ»Ð³Ð¸":6700,"ÐĶÐ¸Ð»Ð¸Ð¼":6701,"ÐĲÐĽ":6702,"ĠÐ³ÓıÐ°ÑħÑĮÐ°Ð»Ð»ÑĬÑĥÐ»ÐµÐ»":6703,"ĠÐĵÑĮÐµÐ»Ð´Ð°Ð³Ð¾":6704,"ĠÐľÐ°ÑħÓıÐ°Ð¼Ð°Ð´":6705,"ĠÐºÑĥÐ»ÑĮÑĤÑĥÑĢÐ¸ÑıÐ±":6706,"ĠÐľÐ¾ÑģÐºÐ²Ð°ÑıÐ»Ð´Ðµ":6707,"ĠÐ³ÓıÐ°ÑħÑĮÐ°Ð»ÑĩÐ°Ð³ÓıÐ°Ð·ÑĥÐ»":6708,"ĠÐºÐ¸ÑĢÐ¸":6709,"ĠÑħÐ¾Ð±Ð°Ð»":6710,"ĠÐŁÐ°ÑĤÐ°ÑħÓı":6711,"Ð°Ð½Ð°ÑĤ":6712,"ĠÐ´Ð¾ÑĢÐ°":6713,"ĠÑĨÓıÐ¸ÑıÐ²":6714,"ÐµÐ²Ðµ":6715,"ĠÑĢÐ¾ÑģÑĥÐ»ÐµÐ»":6716,"ÑĥÐ´Ð°Ð³Ð¸":6717,"ĠÑħÐ°Ð»ÐºÐºÐ²":6718,"ĠÑħÐ°ÑģÐ»":6719,"ĠÐ´Ð°Ð½Ð´ÐµÑĢ":6720,"194":6721,"Ð£Ð·":6722,"ĠÐºÐ¾Ð¼Ð°Ð½Ð´Ð°Ð±Ð¸":6723,"ĠÐ²ÑĥÐºÓıÐ¸Ð½ÑĩÓı":6724,"ĠÑįÐ¼ÐµÐ½Ð³Ð¸":6725,"ĠÐ³ÑĮÐ¸ÐºÑĬÑĥÐ½":6726,"Ð´Ð°Ð¹Ð¸Ð½":6727,"ĠÑĥÐ½Ð¸Ð²ÐµÑĢÑģÐ¸ÑĤÐµÑĤÐ°Ð»ÑĬÑĥÐ»":6728,"ÐĺÑģÐ»Ð°Ð¼Ð¸ÑıÐ±":6729,"ĠÑĤÓıÐ°Ð´ÐµÑĨÑĥÐ¹":6730,"ÐµÑĢÐ°Ð»Ð´Ð°":6731,"ÑĨÓıÐ°Ð»":6732,"ĠÑĢÐµÐ¹":6733,"ĠÐ¡Ð°Ð¼":6734,"ĠÐ¡Ð°ÑģÐ¸ÐºÑĮ":6735,"ĠÐ³ÑĬÐ¾ÑĤÓı":6736,"ĠÐ¸Ð½ÑĤ":6737,"ĠÐ¸Ð½Ð³Ð¸Ð»Ð¸Ñģ":6738,"ĠÐĶÐ°Ð³ÑĬÐ¸ÑģÑĤÐ°Ð½Ð°Ð»ÑĬÐµ":6739,"Ð°Ð³ÓıÐ°Ð»Ð¸Ð»":6740,"ĠÐ³ÓıÑĥÑĢÑĩÑĩ":6741,"ĠÑĢÐµÑĤÓıÑĥÐ½":6742,"ĠÐ´Ð¸Ð²Ð°Ð½Ð°Ð»ÑĬ":6743,"ĠÑıÑĩÓıÐ°Ð½Ð°":6744,"ĠÐ³ÑĬÐ¸ÑĢÐ°ÑıÐ»Ð´Ð°":6745,"ĠÐ½Ð°ÑĢÐºÐ¾ÑĤÐ¸ÐºÐ°Ð»":6746,"ÑĢÐ°Ñħ":6747,"ÑĬÐ¼Ð¸Ð½":6748,"Ð°ÑģÐµÐ²":6749,"Ð°ÑħÑī":6750,"Ð°Ð¹ÑĤ":6751,"ĠÑģÐ¾ÑİÐ·Ð°Ð»ÑĬÑĥÐ»":6752,"ÐµÐ·Ð´":6753,"ĠÐ±Ð¾ÐºÑģ":6754,"ĠÑģÑĥÐ°Ð»Ð³Ð¸":6755,"ĠÐ³ÓĢÐ°Ð´Ð¸Ð½":6756,"ĠÑĢÐ¸ÑħÑĮÑĥÐ»ÐµÐ»":6757,"Ð¥ÓıÑĥÑĢÐ¼Ð°ÑĤ":6758,"Ð£ÑıÐ»ÑĬÑĥÐ»":6759,"ĠÐ½Ð¸Ð³ÓıÐ¼Ð°ÑĤÐ°Ð·ÑĥÐ»":6760,"ĠÑħÐ¸Ð½Ð»ÑĬÐ¸":6761,"ĠÐ¾ÑĤÐ´ÐµÐ»ÐµÐ½Ð¸ÑıÐ»ÑĬÑĥÐ»":6762,"ĠÑĩÓıÐµÐ³ÓıÐµÑĢÐ°Ð±":6763,"Ð¥Ð°Ð´ÑĥÐ±":6764,"ĠÐ·Ð¸ÑıÑĢÐ°ÑĤ":6765,"Ġ0":6766,"ĠÐ±Ð°Ð»ÐµÐ»":6767,"Ð¶Ð¸Ð²":6768,"ĠÐºÑĮÐµ":6769,"ĠÐļÐ¾ÑĢ":6770,"ÑĢÑĥÐ¶":6771,"ĠÑħÑĬÐ²Ð°Ð»ÐµÐ»":6772,"ĠÐ³ÑĮÐµÑĩÓıÐ¸Ñī":6773,"ĠÑĢÐ°Ð³ÓıÐ°ÑĢÐ°Ð²":6774,"ĠÐ¸ÑĪÐ³Ð¸":6775,"ĠÐ¹Ð¾ÐºÑĮ":6776,"Ð¸ÐµÐ²Ð¸Ñĩ":6777,"Ġ31":6778,"ĠÐ¦Ð¾Ð¹Ð³Ð¸":6779,"ĠÐ±ÐµÑĢÐ³ÑĮÑĥÐ½":6780,"ĠÑħÓıÑĥÐºÐ¼ÑĥÑıÐ»Ð´Ð°":6781,"ĠÐ±ÑĥÑħÓıÑĥÐ½":6782,"ĠÐ³ÓıÑĥÑĢÐ°Ð»":6783,"ĠÑĤÐ¾Ð»":6784,"ĠÐ¥Ð²":6785,"ĠÑįÐºÐ¾Ð»Ð¾Ð³":6786,"ĠÐ³ÑĮÐ°Ð±ÑĥÐ½Ð¸Ð½":6787,"ĠÐĵÓıÐ°Ð»Ð¸Ð¼":6788,"ĠÐ´Ð°ÑĢÐ°Ð½":6789,"ĠÑĢÐ°ÑĤÑĥÐ»Ð°":6790,"ĠÐĵÓıÐ°Ð»Ð¸ÐµÐ²Ð°Ñģ":6791,"ĠÐĽÐµÐ½Ð¸Ð½Ð°ÑĥÐ»":6792,"ĠÐ±ÑĥÑģÑģÐ¸Ð½Ð°Ð±ÑĥÐ½Ð°":6793,"Ð»ÑĬÐµ":6794,"Ð°Ð³Ð°":6795,"Ð°Ð·Ð°Ð¼":6796,"ĠÑĩÐ¸Ð»ÑĬÑĥÐ½":6797,"ĠÐĶÐ¸Ð½":6798,"ĠÐłÐ¾ÐºÑĬ":6799,"ĠÐ±Ð¸ÑħÑĮÐ¸Ð½Ð°Ð»":6800,"ĠÑĢÑĥÐ³ÐµÐ·":6801,"ĠÑħÐ°ÑģÐ»ÑĬÐ¸":6802,"ĠÐ³ÑĮÐ¾ÑĢÐºÑĮÐ¾Ð±Ðµ":6803,"ĠÐ»ÑĬÑĥÐ³ÓıÐ¸Ð·ÐµÐ³ÓıÐ°Ð½":6804,"ĠÐºÐ²ÐµÑĢÐ´Ðµ":6805,"ĠÐ³ÓıÐ¾Ð´Ð¾ÑĢÑĩÓı":6806,"ÐĺÐ¼":6807,"ĠÑħÓĢÐ°ÐºÑĬ":6808,"ĠÐ³ÑĮÐ¸ÑĤÓıÐ¸Ð½Ð³Ð¾":6809,"ĠÐ²Ð°ÑĤÐ¸Ð»Ð°ÑĢÐ¾":6810,"ĠÑĥÑĩÐ¸ÑĤÐµÐ»ÑĮÐ½Ð¸ÑĨÐ°":6811,"ĠÑĤÑĥÑĢÐ½Ð¸ÑĢÐ°Ð»Ð´Ð°":6812,"ĠÑĩÑĥÑıÐ»":6813,"ĠÐĲÐ²Ð°ÑĢÐ°Ð³Ð°ÑģÑĥÐ»":6814,"ĠÐ¿Ð¸ÑĪÐ°":6815,"ĠÑģÐ°Ð´Ð°ÐºÑĬ":6816,"ĠÑīÐ²ÐµÐ»Ð°Ð»Ð´Ðµ":6817,"ĠÐ³ÑĮÐ°Ð¹Ð±Ð°ÑĤÐ°Ð±":6818,"ĠÐ¿Ð°Ð»Ð°ÑĤÐ°ÑıÐ»ÑĬÑĥÐ»":6819,"Ð½Ð°Ð±Ð¸":6820,"ÐºÐ¸":6821,"ĠÐ±ÑĥÑĢÑĤ":6822,"ĠÐ³ÓıÐ°Ð·Ð°Ð±":6823,"ĠÐ¼Ð¸Ñģ":6824,"ĠÐ³ÑĮÐ°Ð±Ð¸Ð»Ð¸Ð½":6825,"ĠÐ±ÑĥÐ³Ð¾ÑħÐ°":6826,"ĠÑħÓıÐ°Ð»Ð¸ÑħÑĮ":6827,"Ð°ÑĨÓıÐ°Ð»":6828,"ĠÐļÓıÐ°Ð»":6829,"Ð¸ÑģÑĤÐ°Ð·":6830,"Ð²Ð°ÑĢÐ¸ÑģÐ°":6831,"ĠÐ³ÑĮÐ°ÑĢÐ¸ÑıÐ»Ð´Ð°":6832,"ĠÐ²ÑĥÐºÓıÐ°Ð½Ð¸Ð³Ð¸":6833,"ÐµÐ³Ð¸Ð»":6834,"ĠÑħÐ°Ð´ÑĥÐ¹":6835,"ĠÐ»ÑĬÑĥÐ³ÑĮÐ°ÑĢÐ°Ð»":6836,"ĠÑĢÐ°Ð³ÓıÐ°ÑĢÐ°Ð»":6837,"ĠÑĢÐ°ÐºÑĮÐ°Ð·ÑĥÐ»":6838,"Ð¢Ðļ":6839,"ĠÑĨÓĢÐ°ÐºÑĬ":6840,"ĠÐ¸Ð¼Ð°Ð¼Ð°Ñģ":6841,"ĠÐ²ÑĥÐºÓıÐ¸Ð½Ð°Ð»ÑĬ":6842,"ĠÑģÐ¾Ð²ÐµÑĤÐ¸ÑıÐ±":6843,"ĠÐĲÑħÐ¸ÑĢÐ°Ð±":6844,"ĠÐ¿Ð°Ð¹Ð´Ð°ÑıÐ»":6845,"ĠÑĦÐ¸Ð»Ð¸Ð°Ð»":6846,"ĠÐ½ÐµÐºÓıÑģÐ¸ÑıÐ±":6847,"Ð¥ÓıÐ°Ð»ÑĤÓı":6848,"!Â»":6849,"77":6850,"ĠÑĢÐ°Ð´":6851,"ĠÐ¿Ð»Ð¾ÑīÐ°Ð´":6852,"ĠÐºÑĮÐµÑĩÓıÐ¾":6853,"ĠÐĶÐ°ÑĢ":6854,"ĠÐĶÐĲ":6855,"ĠÐļÐ°Ð»":6856,"ĠÐĳÐ°ÑĪ":6857,"ĠÐ±Ð°ÐºÓıÐ°Ð·ÑĥÐ»":6858,"ĠÐ±Ð¸ÑħÑĮÐ¸Ð·Ð°Ð±ÑĥÐ»Ð°":6859,"Ð°Ð½Ð°Ð»Ð´Ð°ÑģÐ°Ð½":6860,"Ð°Ð»Ð¸Ð¼ÑħÐ°Ð½":6861,"Ð»ÑĬÐ¸ÑıÐ»ÑĬÑĥÑħÑĬ":6862,"ĠÑĥÑĩÐ¸ÑĤÐµÐ»ÑĮÐ·Ð°Ð±Ð°Ð·ÑĥÐ»":6863,"ĠÐ´Ð¸ÑĢÐµÐºÑĤÐ¾ÑĢÐ°ÑģÑĥÐ»":6864,"ĠÐ°ÐºÑĨÐ¸Ñı":6865,"ĠÑĩÐµÐ¼Ð¿Ð¸Ð¾Ð½Ð°ÑĤÐ°Ð»Ð´Ð°":6866,"ĠÑįÐºÐ¾Ð½Ð¾Ð¼Ð¸ÐºÐ°ÑıÐ»ÑĬÑĥÐ»":6867,"ĠII":6868,"ĠÑħÓıÐµÑħÑĮÐµÐ·Ðµ":6869,"ĠÐ¼ÑĥÐ³ÓıÑĢÑĥÐ·Ð´Ð°":6870,"Ð°ÑĢÐ°ÑģÐµ":6871,"ĠÑĢÐ°Ð½Ð°":6872,"Ð»ÑĬÐ°ÑĢÐ°Ð²":6873,"Ð¾Ð½Ð´":6874,"Ð°Ð¸Ðº":6875,"ĠÐŀÐľ":6876,"ĠÐľÐ°ÑħÓıÐ°ÑĩÑħÑĬÐ°Ð»Ð°ÑıÐ»Ð´Ðµ":6877,"ĠÐºÐ¾Ð»ÑħÐ¾Ð·Ð°Ð»Ð´Ð°":6878,"ĠÐ³ÓıÑĥÑĢÑĥÑģÐ°Ð·ÑĥÐ»":6879,"Ð¢ÓıÐ°Ð´":6880,"ÐĽÑĬÐ¸Ð¼Ð°Ð»":6881,"ĠÑģÐ°Ð³ÓıÐ°ÑĤÐ°Ð»ÑĬ":6882,"ĠÐºÑĥÑĩÓıÐ´ÑĥÐ·":6883,"ĠÐ³Ð¾ÑĩÑĥÐ½":6884,"ĠÐ²ÐµÑĤÐµÑĢÐ¸Ð½Ð°ÑĢ":6885,"ĠÐ¼ÑĥÐ½Ð¸ÑĨÐ¸Ð¿Ð°Ð»":6886,"ĠÑħÑĥÐ´Ð¾Ð¶Ð½Ð¸Ðº":6887,"ĠÐ³ÓĢÐ°ÑģÑĢÑĥÑıÐ»ÑĬÑĥÐ»":6888,"ĠÑħÓĢÐ¸ÑģÐ°Ð±Ð°Ð»Ð´Ð°":6889,"Ð°Ð½Ð¸ÑıÐ»ÑĬÑĥÐ»":6890,"ÑģÐµÑģÑĤ":6891,"ĠÐºÑĬÐ°ÑĢÐ°Ð±":6892,"ÐºÑĬÐ¾Ð½Ð¾":6893,"ĠÑħÑĬÐ°Ð¼":6894,"Ð°ÑĩÓĢ":6895,"ĠÑıÐ»Ð°Ð³ÑĮ":6896,"ĠÐĵÓıÐ°Ð±Ð°Ñģ":6897,"ĠÐ±Ð°ÑĤÑĥÐ»ÐµÐ±":6898,"ĠÑĥÐ½ÑĤÐ°ÑĢÐ°Ð²":6899,"ÐµÐ»ÑĬÐµ":6900,"ĠÐ¦ÓıÐ¾ÑĢ":6901,"ĠÐ³ÑĮÐ°Ð´Ð¸Ð½Ð³Ð¾":6902,"ĠÐºÐ¾Ð½ÑĦÐµÑĢÐµÐ½":6903,"ĠÐ¼ÑĥÐ³ÓıÐ°Ð»Ð¸Ð¼Ð·Ð°Ð±Ð°Ð·":6904,"Ġ2013":6905,"ĠÑĢÐ¸ÑīÐ½Ð¸":6906,"Ð°Ð»Ð°ÑĤÓıÐ°Ð»":6907,"ĠÐĲÐ³ÑĬÐ²Ð°Ð»":6908,"ĠÐ°Ð¿Ð¿Ð°ÑĢ":6909,"ĠÐ¼Ð¸Ð½Ð¸ÑģÑĤÑĢÐ°ÑģÑĥÐ»":6910,"ĠÐĿÑĥÐ¶ÐµÑĢ":6911,"ĠÑĩÐ¾ÑĢÑħÐ¾Ðµ":6912,"ĠÐ¥Ð¸Ð·ÑĢ":6913,"ĠÐ±Ð°Ð´Ð¸Ð±":6914,"Ð¸Ð¸":6915,"ÐµÐ±ÐµÐ´":6916,"ĠÐ´Ð¸Ð´Ð°Ð³Ð¾":6917,"ÐºÑĬÐ¸Ð¼Ð°ÑĤ":6918,"Ð¸ÑıÐ»Ð³Ð¾":6919,"ÐµÐºÐº":6920,"ĠÐĿÐ°Ð¿":6921,"ĠÑĢÐ¾Ð³Óı":6922,"Ð°Ð±Ð°Ð·ÑĥÑħÑĬ":6923,"ÐĶÐ¸Ðµ":6924,"ĠÐ±Ð°ÑħÑĬÐ¸":6925,"ĠÐºÑĮÐ¾Ð»ÐµÐ²":6926,"ĠÐļÑĬÐ²Ð°ÑĤÓı":6927,"ĠÐĲÐ±Ð¸Ð·Ðµ":6928,"ĠÑħÓĢÐ°ÑĢ":6929,"ĠÑħÓıÐ°Ð´ÑĥÑĢÐ»ÑĬÐ¸ÑıÐ»ÑĬÑĥÐ»":6930,"ĠÑħÓıÑĥÐ¶Ð¶":6931,"ĠÐ·Ð°ÑħÓıÐ¼Ð°Ð»ÑĬÐ¸":6932,"ÑĥÐ½Ð³Ð¾ÑıÐ²":6933,"ÑıÐ±ÑĢÐ°Ð»ÑĬÑĥÐ»":6934,"Ð¸Ð»ÐµÐ»Ð´Ðµ":6935,"ĠÑĨÓıÑĥÐ½ÑĥÐ»ÐµÐ·ÑĥÐ»":6936,"ĠÐ¿ÐµÐ´Ð°Ð³Ð¾Ð³Ð¸Ðº":6937,"ĠÑĤÓıÑĥÐ³ÑĮÐ´ÑĥÐ»":6938,"ĠÐ°ÑįÑĢÐ¾Ð¿Ð¾ÑĢÑĤ":6939,"Ð¸Ð·Ð¾ÑĢ":6940,"ĠÐ½Ð°Ð³Ð°Ð³ÑĮ":6941,"ÑıÑĪÐ°Ð²":6942,"ĠÑĤÓıÐ¸Ð½":6943,"ĠÐļÐ²Ð°Ð½":6944,"ĠÑıÑĩÓıÑĥÐ½":6945,"ĠÑĢÐ°Ð¹Ð±":6946,"ĠÐ±Ð°ÑĤÐ¸ÑĩÓıÐ¾":6947,"ĠÑħÓıÐ°Ð´ÑĥÑĢÐ°Ð²":6948,"Ð¢Ð°Ð´Ð±Ð¸ÑĢ":6949,"ĠÑģÐ°ÑħÐ°Ð²Ð°ÑĤ":6950,"ĠÐ±Ð¸ÑĩÑĩÐ°Ð½Ð°":6951,"ĠÐ³ÓıÐ¾Ð»Ð¸Ð»Ð°Ð·":6952,"ÐŃÐ±ÐµÐ»":6953,"ĠÐºÑĥÑĨÐ°Ð»ÑĬ":6954,"ĠÑħÐ°Ð±Ð°ÑĢÐ³Ð¸":6955,"ĠÑģÑĥÐ½Ð´ÑĥÐ»":6956,"ĠÐºÐ¾Ð¼Ð¸ÑģÑģÐ¸ÑıÐ»ÑĬ":6957,"Ð°ÑĢÐ°Ð»ÑĬÑĥÐ±":6958,"ĠÑĤÐµÑĢÑĢÐ¾ÑĢÐ¸Ð·Ð¼Ð°Ð»Ð´Ðµ":6959,"ĠÐ¢ÓıÐ¸ÑģÑģÐ¸":6960,"Ð°Ð¹ÑĢ":6961,"Ð¾ÑĢÐ¾Ð½":6962,"ĠÐºÑĬÐ°Ð³ÓĢÐ¸Ð´":6963,"ĠÑĩÐ¸Ñı":6964,"ÑĥÑģÐµÐ¹Ð½":6965,"ĠÑĩÓıÐ°ÑĢÐ°Ð²":6966,"ĠÐºÓıÑĥÐ´Ð¸ÑıÐ¹":6967,"ĠÑĢÐ°Ð³ÑĮÐ°ÑĢÐ°Ð»":6968,"ĠÐļÓıÐ¸":6969,"ĠÐĵÓıÑĥÐ¼Ð°ÑĢÐ¸ÑĨÐ°":6970,"ĠÐ¥ÑĬÐ°Ð·Ð°Ð½":6971,"ĠÐ¼Ð¸Ð½Ð°ÑıÐ»ÑĬ":6972,"ĠÑĩÓıÑĥÐ½ÑĤ":6973,"ĠÐ±ÐµÑĩÐµÐ»ÑĬ":6974,"ĠÑĢÐµÐ»ÑĬÐ»ÑĬÐ°ÑĢÐ°Ð±":6975,"ĠÐ²Ð¸Ð´ÐµÐ¾":6976,"ÑĮÑİÑĤÐµÑĢ":6977,"ĠÐ¾Ð±ÑīÐµÑģÑĤÐ²Ð¾":6978,"ĠÐ°Ð½Ð¸":6979,"Ð´Ð¸Ð»":6980,"ĠÐ¼ÑĥÑĤ":6981,"Ð¾Ð½Ð°Ð»Ð´Ð°":6982,"Ð¸ÑħÐ°Ð½":6983,"Ð°Ð³ÑĬÑĥÑĢ":6984,"ĠÐĵÓıÐ¸ÑģÐ°Ð»":6985,"ĠÐľÑĥÑħÓıÐ°Ð¼Ð°Ð´Ð¾Ð²Ð°ÑģÑĥÐ»":6986,"ĠÑĢÐ¾ÑĨÓı":6987,"ĠÑĢÑĥÐ³ÐµÐ»Ð°Ð»Ð¸":6988,"ĠÑħÐ°Ð»ÐºÑĬÐ¸ÑıÐ»":6989,"ÐµÑĩÓıÐµÐ²":6990,"ĠÐºÐ»Ð°ÑģÑģÐ°Ð»Ð´Ð°":6991,"ĠÐ²Ð°ÑĤÐ°Ð½Ð¸":6992,"ĠÐ¸Ð´Ð°ÑĢÐ°Ð±Ð°Ð·Ð´Ð°":6993,"ĠÐĲÑģÑħÓıÐ°Ð±":6994,"ĠÐ°Ð·Ð°":6995,"ĠÑĢÐ°ÑĨÓıÑĨÓıÐ°Ð»ÑĬÐ¸":6996,"ĠÑģÐ°Ð»Ð°ÑĦ":6997,"ĠÐºÐ¸Ð²":6998,"ĠÑĤÐµÐ¹":6999,"ĠÑģÐ°Ð»Ð°ÑĤ":7000,"ĠÐ¿ÑĥÐ½ÐºÑĤ":7001,"ĠÑħÓıÐ°ÑıÐ»ÑĬÑĥÐ»":7002,"Ð³ÑĮÑĥÐ½Ð°ÑĢ":7003,"ÐµÐ²Ð¸Ðº":7004,"ĠÑĩÐ°Ð½ÑĨÓı":7005,"ĠÐĶÐ°ÑĢÐ±":7006,"ĠÐ²ÑĥÐºÓıÐ°Ð³Ð¾":7007,"ĠÑħÑĬÐ²Ð°Ð´Ð°ÑĢ":7008,"ĠÐ°ÑħÐ¸ÐºÑĮ":7009,"ĠÑĤÓıÑĥÐ±Ð°Ð»ÐµÐ±":7010,"Ð°Ð½Ð´Ð¸Ð»":7011,"ĠÐ¼Ð°Ð³ÓıÐ°ÑĢÑĥÐ»Ð°Ð·":7012,"ĠÑģÐ°ÑħÐ»ÑĬ":7013,"ĠÐľÑĥÑħÓıÐ°Ð¼Ð°Ð´Ð¾Ð²Ð°Ð»ÑĬ":7014,"ĠÐĲÑħÓĢ":7015,"ÐĵÑĮÐµÐ»Ð´Ð°ÑģÐ°":7016,"ĠÑĤÐ°Ð¼Ð°Ñħ":7017,"ĠÑĢÐµÐ»ÑĬÐ»ÑĬÐ°ÑĢÐ°Ð»":7018,"ĠÑīÐ²ÐµÐ·Ð°Ð±Ð¸Ð·Ðµ":7019,"ĠÐ³ÑĢÐ°Ð¼Ð¾ÑĤÐ°Ð±Ð°Ð·Ð´Ð°Ð»ÑĬÑĥÐ½":7020,"ĠÐ¿Ð°ÑģÐ¸ÑħÓı":7021,"ÐľÐ°ÑħÓıÐ°ÑĩÑħÑĬÐ°Ð»":7022,"ĠÑĪÑĤÐ°Ð±":7023,"Ð±Ð°ÑĤÓĢÐ¸ÑıÐ»":7024,"ĠÑĪÐ¾ÑĦÐµÑĢ":7025,"Ð³Ðµ":7026,"Ð±Ñĥ":7027,"ÑħÑĬÐ°":7028,"ĠÐ»ÑĬÐ¸Ð¼Ð³Ð¸":7029,"ĠÐ´Ð¸ÑĢÐ³Ð¸":7030,"Ð¸Ð·Ð°ÑĢÑĥÐ»Ð°":7031,"ĠÐļÓıÐ²Ð°Ð½":7032,"ĠÑĤÐ°Ð´Ð±Ð¸ÑĢÐ°Ð·Ð´Ð°":7033,"ĠÑħÓĢÑĥÐºÑĥÐ¼":7034,"ĠÐ±ÑĥÑĤÓıÐ°ÑıÐ»ÑĬÑĥÐ»":7035,"ĠÐ§ÓıÐ¾ÑħÑĬ":7036,"ĠÑĤÑĥÑĢÐ¸Ð·Ð¼Ð°Ð»ÑĬÑĥÐ»":7037,"ĠÑĢÐ°Ð´Ð¸Ð¾ÑıÐ»ÑĬ":7038,"Ð°ÑĢÐ¸ÑīÑħÐ°":7039,"ĠÑħÐ°ÑģÐ¸ÑıÑĤÐ°Ð±":7040,"ĠÐ±Ð°ÑħÓıÐ°ÑĢÑĩÐ¸ÑıÐ±":7041,"ĠÐ´ÐµÐºÐ°Ð±ÑĢ":7042,"ĠÑģÐ°Ð½Ð°Ð³ÓıÐ°Ð»ÑĬÐ¸":7043,"ĠÐĲÐ»ÐµÐºÑģÐ°Ð½Ð´ÑĢ":7044,"ĠÐĵÓıÐ°Ð±Ð´ÑĥÑģÐ°Ð»Ð°Ð¼":7045,"ÑĢÐ´":7046,"Ð¼ÑĥÐ»":7047,"Ð°ÑģÑģ":7048,"ĠÐºÑĮÐµÑıÐ½":7049,"ĠÐºÑĮÐ¸Ð±Ð¸Ð»":7050,"ĠÐ¡Ð°Ð»Ð¸ÑħÓı":7051,"ĠÐ³ÓıÐ¾Ð»ÐµÐ»":7052,"ĠÐŁÐ°Ð¹":7053,"ĠÑĢÐ°Ð³ÑĬÐ¸Ð·Ðµ":7054,"ÑĦÐ¾ÑĢÐ¼Ð°ÑĤ":7055,"ĠÐĵÑĮÐµÐ»Ð´Ð°Ð»ÑĬÑĥÐ½":7056,"ĠÐļÑĬÐ²Ð°ÑĢ":7057,"ĠÐĹÐ°ÑĢ":7058,"ĠÐºÐ¸Ð½Ð°Ð»ÑĬÑĥÐ»Ð³Ð¾":7059,"ĠÑĤÓıÑĥÐ±Ð°ÑıÐ»Ð´Ð°":7060,"ĠÑĢÑĥÐºÓıÐ¸Ð½Ð°Ð»ÑĬÑĥÐ»":7061,"ĠÐ¯Ñģ":7062,"ĠÑĤÑĢÐ°ÐºÑĤÐ¾ÑĢ":7063,"ĠÑĢÐ°Ð»Ð°Ð³ÑĮÐ¸Ð·Ðµ":7064,"ĠÑĤÐ°Ð²Ð°ÐºÐº":7065,"ĠÐ°ÑĢÑħÐ¸ÑĤ":7066,"ĠÐ¥ÑĬÐ²Ð°Ð´Ð°ÑĢÑĥÑħÑĬ":7067,"ÐĳÐ°ÑĢÐºÑĥÐ»Ð°":7068,"ÑģÐ¸Ñħ":7069,"Ð¼Ð°Ð·":7070,"Ð¼Ð°Ð³Óı":7071,"ĠÑħÓıÐ°Ð»ÑĤÓıÐ¸Ð·Ð°Ð±ÑĥÐ½":7072,"ĠÑĩÓıÐµÐ¹":7073,"ĠÐĿÐ°Ñģ":7074,"ĠÐºÑĥÐ¼ÐµÐºÐ°Ð»ÑĬÑĥÐ»":7075,"Ð»ÑĬÐ¸ÑıÐ»ÑĬÑĥÐ»Ð°Ð±":7076,"ĠÑĩÐ¸ÑıÑģÐ´Ðµ":7077,"ĠÐ¼Ð°Ð³ÓıÐ°ÑĢÑĥÐ»Ð°Ð²":7078,"ĠÑĢÑĥÐºÓıÐ¸Ð½Ð°Ð»Ð´Ð°":7079,"ĠÑĢÐ°ÑĩÑĥÐ½ÐµÐ»":7080,"ĠÐ¸Ð½ÑģÐ°Ð½Ð°ÑģÐµ":7081,"ĠÐºÐ²Ð°Ð½Ð°Ð½":7082,"ĠÑĤÓıÐ°Ð³ÓıÐµÐ»":7083,"ĠÐ¼Ð°Ð¶Ð³Ð¸ÑĤÐ°Ð»Ð´Ðµ":7084,"ĠÐĺÐ½ÑģÐ°Ð½":7085,"ĠÐ±Ð¾ÑĨÓıÑĥÐ»":7086,"ĠÑĩÓıÐµÐ·Ð°ÑĢÐ¸Ð·Ðµ":7087,"ĠÐ³ÓıÐ°Ð½ÐºÓı":7088,"ĠÐ±Ð°ÑģÑĢÐ¸ÑıÐ±":7089,"ĠÐ¢Ð°ÑĢÐ¸Ñħ":7090,"Ð»Ð°Ð±":7091,"ĠÐ´Ð°Ð»":7092,"ĠÐºÑĬÑĥÑĢÐ±Ð°Ð½":7093,"ĠÑĨÓıÐ°Ð¼":7094,"ÑħÑĬÑĥÐ»ÑĥÑħÑĬ":7095,"ĠÑħÑĬÑĥÐ±":7096,"ĠÐ·Ð°Ð¼Ð°":7097,"ĠÐĿÐ°Ð³Ð°Ð³ÑĮ":7098,"ĠÐ³ÓıÐ°Ð³Ð°ÑĢÐ°Ð²":7099,"ĠÐ¿Ð¸ÐºÑĢÑĥÐ³Ð¸":7100,"Ġ400":7101,"ĠÐºÑĬÐ°Ð´Ð°ÑĢÐ³Ð¸":7102,"ĠÐ±ÑĥÐºÓĢÐ¸Ð½":7103,"ĠÐ´Ð°Ð³ÑĮÐ°Ð±Ð½Ð¸Ð³Ð¸":7104,"ĠÐ±Ð°ÐºÓĢÐ°Ð»Ð´Ð°":7105,"ĠÐ³ÓıÐ°ÐºÐ°":7106,"ĠÑģÑĥÑĢÑģÐ°ÑĤ":7107,"ÐĲÑģÑģÐ°Ð»Ð°Ð¼Ñĥ":7108,"Ð»Ð¸Ð»":7109,"Ð¸ÑıÐ¼":7110,"ĠÑħÐµÑĢÐ°Ð»":7111,"ĠÐ¼Ð¸Ðº":7112,"ĠÑĤÓıÐ°Ð»ÑĬÐ¸":7113,"Ð¸ÑģÑĤÑĢ":7114,"ĠÑĩÓıÐ²Ð°ÑĢ":7115,"Ð°ÑģÑĥÐ»Ð³ÑĥÐ½":7116,"ĠÐºÑĬÐ¾ÑĤÓĢ":7117,"ĠÐ³ÑĬÐ°Ð»Ð°ÑĤÓıÐ°Ð»":7118,"Ð¾Ð¼Ð°Ð½":7119,"ĠÐ½Ð¸Ð¶Ð³Ð¸":7120,"ĠÐ¹Ð¾Ñħ":7121,"ĠÐĲÐ»Ð¼Ð°ÑħÑĬ":7122,"ÑĩÐ°Ð³ÓıÐ°Ð·Ðµ":7123,"ÐĵÑĮÐµÐ´Ð¸Ð½Ð°Ð»":7124,"ĠÑĢÑĥÑĩÑĩÐ°Ð±Ð°Ð·":7125,"ĠÐ´Ð¸ÑĢÐµÐºÑĤÐ¾ÑĢÐ»ÑĬÑĥÐ½":7126,"ĠÑĤÐ°Ð¼Ð°ÑĪ":7127,"ĠÐ¥ÓıÐ°Ð¶Ð¸Ð¼ÑĥÑĢÐ°Ð´Ð¸Ð»":7128,"ĠÑĤÓıÐ°Ð»ÑĬÐ¸ÑıÐ»Ð´Ð°":7129,"ĠÐ£Ð½Ð³Ð¾":7130,"ĠÑħÓıÐ°ÐºÐ¸Ð¼Ð·Ð°Ð±Ð°Ð·":7131,"ĠÑĢÑĥÐºÓĢÐ°ÑĢÐ°Ð»":7132,"ĠÐºÑĢÐ¸Ð·":7133,"ĠÐ±Ð¸Ð±Ð»Ð¸Ð¾ÑĤÐµÐºÐ°ÑıÐ»ÑĬÑĥÐ»":7134,"ĠÐ¸Ð½Ð¶Ð¸ÑĤ":7135,"ĠÐĲÐ·ÐµÑĢÐ±Ð°Ð¹":7136,"ĠÑĦÐ¸Ð·ÐºÑĥÐ»ÑĮÑĤÑĥÑĢÐ°ÑıÐ»ÑĬÑĥÐ»":7137,"Ð»ÐµÐ³":7138,"Ð°ÐºÐ¸":7139,"ĠÐºÑĬÐ¾Ð»Ð¾":7140,"Ð¾Ð²Ð³ÑĥÐ½":7141,"ĠÐĲÑĪ":7142,"ĠÑħÓıÐ°Ð»ÑĤÓıÑĥÐ»Ð°":7143,"Ð¸ÐºÑĢÑĥ":7144,"ĠÐĶÐ°Ð³":7145,"ĠÐ´Ð°Ð½Ð´ÐµÐ»ÑĬÑĥÐ½":7146,"ĠÐ³ÓıÑĥÑĨÓıÐ¸ÑıÐ»ÑĬ":7147,"ĠÑĢÐ°Ð·Ð¸Ð³Ð¾":7148,"ĠÐ±Ð°Ð¶Ð°ÑĢÐ¸Ð³Ð¸":7149,"ÐĵÑĮÐµÐ±Ð³Ð¾":7150,"ĠÑģÐ°Ð½Ð¸ÑĤ":7151,"Ð¾Ð»Ð¾Ð³Ð¸ÑıÐ»":7152,"ĠÑĤÓıÐ°Ð±Ð¸Ð³ÓıÐ°ÑĤÐ°Ð»ÑĬÑĥÐ»":7153,"ĠÐ³Ð°Ð·Ð°Ð»ÑĬÑĥÐ»":7154,"ĠÑĥÐ½ÐºÑĬÐ°Ð±Ð¸Ð»ÐµÐ±":7155,"ĠÐ¥ÑĥÑĪÐµÑĤ":7156,"ĠÐ¼Ð¸Ð»Ð¸ÑĨ":7157,"ĠÑĨÐµÑĢÐµÑĢÐ°ÑħÑĬÐ¸Ð½":7158,"ĠÐ¡ÐĴÐŀ":7159,"ĠÐºÐ°ÑĤÐµÐ³Ð¾ÑĢ":7160,"ĠÐĻ":7161,"ÑĢÐ°ÐºÑĬ":7162,"ÑĢÐ°ÑıÐ»ÑĬÑĥÐ»":7163,"ĠÐºÐºÐµÐ·Ð°ÑĢ":7164,"ĠÐĵÓıÐ°ÑĢÐ°Ð±":7165,"ÑĨÓıÐ°":7166,"ĠÑīÐ²ÐµÑıÐ»Ð´Ð°":7167,"ĠÐĺÑĢ":7168,"Ð°Ð¿ÑĥÑĢ":7169,"ĠÐ§ÑĥÐ¿":7170,"ĠÐ±Ð°ÐºÓıÐ°Ð»Ð³Ð¸":7171,"ĠÐ´Ð°Ð³ÑĮÐ°Ð»ÑĬ":7172,"ĠÐºÐ²ÐµÑĢÐ³Ð¸":7173,"ĠÐ³ÓıÐ°Ð»Ð¸Ð¼Ð·Ð°Ð±Ð°Ð·ÑĥÐ»":7174,"ĠÐ¼ÐµÐ´ÑģÐµÑģÑĤ":7175,"ĠÐ±Ð¾Ð»ÑĮÐ½Ð¸ÑĨÐ°ÑıÐ»Ð´Ðµ":7176,"ĠÑħÓıÐ°Ð´Ð¸ÑģÐ°Ð»Ð´Ð°":7177,"ĠÑĢÑĥÐ³ÑĬÑĥÐ½":7178,"98":7179,"ĠÐ²Ð¸Ð¶":7180,"ĠÐĵÐ¾ÑĢ":7181,"ĠÐ¼Ð°Ð²Ð»":7182,"ĠÐ³ÑĮÐ°Ð±ÑĥÐ»ÐµÐ¹":7183,"ĠÐļÐ°Ð¼":7184,"ĠÐĳÐ°Ð»":7185,"ÑĥÐ´Ð°Ð³Ð¾":7186,"ĠÐ³ÑĬÐ°Ð½ÐºÑĬ":7187,"ĠÐ·Ð°Ð¼Ð°Ð½Ð°ÑıÐ»ÑĬÑĥÐ»":7188,"ĠÐ°ÑģÐºÓĢ":7189,"ĠÑĦÐ¸Ð½Ð°Ð»":7190,"ĠÐ±Ð°Ð¹Ð±Ð¸ÑħÑĮÐ°ÑĢÐ°Ð»Ð´Ð°ÑģÐ°":7191,"Ð¦ÓıÐ°Ð»":7192,"ĠÐ¦ÓıÐ°Ð´Ð°":7193,"ĠÐ¼ÑĥÑĢÐ°Ð´Ð»ÑĬÑĥÐ½":7194,"ĠÐ³ÑĮÐ¸ÑĤÓıÐ¸Ð½Ð°Ð»":7195,"ĠÐ±Ð¾Ð¶Ð¸":7196,"ĠÐ·Ð°Ð¼ÐµÑģÑĤÐ¸ÑĤÐµÐ»ÑĮÐ»ÑĬÑĥÐ½":7197,"Ð°ÑĤÑĥÑĢÐ°":7198,"ĠÐ¾Ð¿ÐµÑĢÐ°ÑĨ":7199,"ĠÑħÓıÐ°Ð»ÑĤÓıÐ¸Ð·Ð°ÑĢÐ¸Ð·Ðµ":7200,"ĠÐ³Ð¾ÑħÓı":7201,"ĠÐ¼Ð°Ð¹Ð´Ð°Ð½Ð°Ð»Ð´Ð°":7202,"ĠÐ¿ÑĢÐµÐ¼ÑĮÐµÑĢ":7203,"Ð³Ð°Ð»ÑĤÐµÑĢ":7204,"ÐºÐ¸Ð±ÐµÐ³Ð¾":7205,"ĠÐ±Ð°Ð·Ð°Ð±":7206,"ĠÐºÐ°Ð´":7207,"Ð¸Ð·Ð¸Ð»ÑİÑĢÑĤ":7208,"ĠÐ»ÑĬÑĥÑĢÐ°Ð²":7209,"Ð°Ð²Ð³Ð¾":7210,"ĠÑĢÑĥÐº":7211,"Ð°ÑħÑĬÐ°Ð½":7212,"ĠÐľÐ°Ð´Ð¸Ð½":7213,"ĠÑĢÐµÑĨÓı":7214,"ÑĥÐ¼Ð°ÑĢÐ¾Ð²":7215,"ĠÐļÐŁ":7216,"ÑĥÑĤÓıÐ°":7217,"ÐĲÑĢ":7218,"ÑĥÑĩÑĩ":7219,"ĠÑħÐ°Ð»ÐºÑĬÐ°Ð»":7220,"ĠÑĪÐ°Ð³ÑĮÐ°ÑĢÐ°Ð»":7221,"ĠÐ±Ð¸ÑĩÓıÑĩÓıÑĥÐ»Ð°":7222,"ĠÑĢÐ¾ÐºÑĬÐ¾ÑģÐ°":7223,"ĠÐ°ÑģÐ»Ñĥ":7224,"ĠÑĩÓıÐ²Ð°ÑĢÐ°Ð±":7225,"ĠÐ´Ð°Ð½Ð´ÑĩÓıÐ²Ð°Ð»Ð°":7226,"ĠÑĢÐ¾ÐºÑĮÑĥÐºÑĬ":7227,"ĠÐºÑĬÐ²Ð°ÑĢÐ¸Ð³ÓıÑĥÐ½Ð°":7228,"ĠÑħÑĮÐ²Ð°Ð´ÑĥÐ»ÐµÐ±":7229,"ĠÑĢÐ¾ÑħÑĮÐ¸Ð»":7230,"Ð¸ÑĦÐ¸Ðº":7231,"ĠÐºÑĬÐµÑĢÐºÑĮÐµÐ¹":7232,"ĠÐ¡Ð¸ÑĢÐ°Ð¶ÑĥÐ´Ð¸Ð½":7233,"ĠÑħÑĬÐ²Ð°Ð´Ð°ÑĢÑĥÑħÑĬÐ°Ð±Ð°Ð·ÑĥÐ»":7234,"ĠÐ³ÓıÐµÐ´ÐµÐ³Óı":7235,"ĠÑĦÐ¸Ð»ÑĮÐ¼":7236,"ÐłÐµÑģÐ¿ÑĥÐ±Ð»Ð¸Ðº":7237,"Ð¸Ð·Ð°ÑĨÐ¸ÑıÐ»ÑĬÑĥÐ»":7238,"ĠÐ½Ð°Ð¿":7239,"ĠÐºÑĬÐ°Ð½Ð°":7240,"ĠÑģÐ¾Ð½Ð°Ð»Ð´Ð°ÑģÐ°Ð½":7241,"ĠÐĳÑĢ":7242,"ÐłÐ°ÐºÓıÐ°Ð»":7243,"ĠÑĢÐ°Ð³ÑĬÑĥÑħÑĬÐ°Ð½":7244,"ĠÐĹÐ°Ð¼Ð°Ð½":7245,"ÑħÑĮÑĥÐ»":7246,"ĠÐ¿Ð¾Ð»Ðº":7247,"Ġ45":7248,"ĠÑĥÑĢÐ³ÑĮ":7249,"ĠÑħÓıÐ¸Ð½ÐºÑĬÐ¸Ð³ÑĮÐµÑĩÓıÐ¾Ð»ÑĬÐ¸":7250,"ÑħÑĬÐ²Ð°ÑıÐ»":7251,"Ð³ÑĮÐ°Ð±Ð¸ÑıÐ»ÑĬÑĥÐ»":7252,"ĠÐºÐºÐµÐ»Ð¸Ð½":7253,"ÐĶÐ°Ð½Ð´ÐµÐ»ÑĬÐ¸":7254,"ĠÐŁÑĥÑĤÐ¸Ð½Ð¸Ð»":7255,"ĠÐºÐ¾ÑĩÓıÐ¾ÑħÑĬ":7256,"ĠÐ¶Ð¸Ð¹Ð³Ð¾":7257,"ĠÐĳÐ°ÑħÓıÐ°ÑĢÑĩÐ¸":7258,"ĠÐ¢ÓıÐ¾Ð»Ð³Ð¾ÑĢÐ¾ÑģÑģÐ¸ÑıÐ»ÑĬÑĥÐ»":7259,"ĠÐ±Ð¸ÑħÑħÑĥÐ½":7260,"ĠÑĢÐµÐ²Ð¾Ð»Ñİ":7261,"ÐµÐ»ÑĬÐ¸Ðµ":7262,"ĠÐºÑĬÐ²Ð°Ð»":7263,"Ð¸ÑıÐ»Ð´Ð°Ð³Ð¾":7264,"Ð°ÑħÓıÐ¼Ð°Ð´":7265,"ĠÑħÑĬÐ°Ð»Ð°":7266,"ĠÑħÑĬÐ°ÑħÓıÐ°Ð±":7267,"ĠÐ¨Ð°Ñħ":7268,"ĠÐĺÐ½ÑĤÐµÑĢÐ½":7269,"ĠÑĨÓıÐ¸ÐºÓıÐºÓıÐ°Ð½Ð°":7270,"ĠÐ³ÑĮÐµÐ»ÑĬÑĥÐ»ÑĬ":7271,"ĠÐ±Ð°ÐºÑĬÐ°Ð½":7272,"ĠÐºÑĬÑĥÐ²Ð°ÑĤÐ°Ð»":7273,"ĠÑĢÑĥÑĩÑĩÐ°Ð±Ð°Ð·Ðµ":7274,"ĠÑĤÓıÐ¾ÐºÓıÐ°Ð²":7275,"ĠÑĤÓıÐ°Ð±Ð¸Ð³ÓıÐ¸ÑıÐ±":7276,"ĠÑĢÐ°Ð³ÓĢÐ°Ð»Ð´Ð°":7277,"ĠÑħÓıÐ°Ð»ÑĥÑĨÐ°ÑĢÐ°Ð±":7278,"ĠÐ¸Ð½Ð²ÐµÑģÑĤ":7279,"Ð»ÐµÐ´":7280,"Ð°Ð±Ð°ÑģÐ°ÑĢ":7281,"ĠÐ»ÐµÐ·":7282,"ÑĩÐºÓı":7283,"ĠÐ¥Ð°ÑĩÐ°Ð»":7284,"ĠÐłÐ°Ð¼":7285,"ĠÐĳÐ°Ðº":7286,"ĠÐĳÐ¸ÑĤÓıÐ°ÑĢÐ°Ð±":7287,"ĠÐ³ÑĬÐ¾Ñģ":7288,"ĠÐ³ÑĮÐµÐ»Ð³Ð¾":7289,"ÑĨÐ¾Ð³Ð¸":7290,"ĠÑĢÐ°ÑĩÓıÐ¸Ð½":7291,"ĠÑĢÐ°ÐºÓıÐ³Ð¸":7292,"ĠÐ°ÑħÓĢ":7293,"ĠÑĢÐµÑħÐ¸Ð·Ðµ":7294,"ĠÑĢÑĥÐºÑĬÐ³Ð¸":7295,"ĠÑģÐ¿Ð¾ÑĢÑĤÐ·Ð°Ð»":7296,"ĠÐ¼Ð°ÑħÑīÐ°Ð»Ð¸Ð´Ð°":7297,"ĠÐºÑĬÐ°ÑĩÓıÐ°ÑĢÐ°Ð±":7298,"ĠÐ¿Ð¾Ð»Ð¸ÑĤÐ¸ÐºÐ°":7299,"ĠÐºÐºÐµÐ»Ð°ÑĢÐ¾":7300,"ĠÑħÓıÐ°Ð¹ÑĢÐ°Ð½":7301,"ĠÐ³ÑĮÑĥÐºÑĬÐ°ÑĢÐ°Ð±":7302,"ĠÑģÐ¿ÐµÑĨÐ¸Ð°Ð»Ð¸ÑģÑĤÐ°Ð»":7303,"ĠÑĢÐ°ÑħÑĬÐ¸Ð½Ð°ÑĢÐ¸Ð·Ðµ":7304,"ĠÑĪÐ°ÑĢÑĤÓıÐ°Ð·Ð´Ð°":7305,"ĠÐ¾Ð±ÑĬÐµÐºÑĤÐ°Ð»":7306,"ĠÑĩÐ°ÑĩÐ°Ð½Ð°Ð·ÑĥÐ»":7307,"ĠÐ¢ÓıÐ°Ð½ÑĥÑģÐ¸":7308,"ĠÐĴÐµÑĩÐµÐ´Ð¾Ð²Ð°Ñģ":7309,"ÑĥÐ¼Ð³ÑĮÑĥÑĢÐ¸ÑıÑĤÐ°Ð»ÑĬÑĥÐ»":7310,"Ð°ÐºÐ°Ð½":7311,"ĠÑĤÓıÑĥÑĢÐ°Ð±":7312,"Ð¸ÑĨÐ¸":7313,"ÐµÐ´ÐµÑĢÐ°Ð»":7314,"ĠÐ¡Ð²ÐµÑĢ":7315,"ĠÐľÑĥÑħÓıÐ°Ð¼Ð°Ð´Ð³Ð¸":7316,"ĠÑĢÐµÑģÐ°Ð»Ð´Ð°":7317,"ĠÐ°ÑģÐ°ÑĢÐ°Ð·ÑĥÐ»":7318,"ĠÐ°Ð±ÑĥÐ½Ð¸Ð³Ð¸":7319,"Ð¸ÑıÐ»Ð´ÐµÐ³Ð¸":7320,"ĠÐĹÐ°ÑĥÑĢ":7321,"ĠÑĥÑĩÐ¸Ð»Ð¸Ñī":7322,"ĠÐ³ÑĮÐ°Ð²ÑĥÑĢÐ°Ð»Ð´Ð°ÑģÐ°":7323,"ĠÐ³ÑĮÐ°Ð»Ðµ":7324,"ĠÐºÑĬÐ¾ÑĤÓıÐ¸ÑĩÓıÐ¾Ð³Ð¾":7325,"ĠÑĥÐ»Ð±ÑĥÐ»":7326,"ÐºÑĬÐ¾ÑĤÓıÑĥÐ½":7327,"ĠÐĵÓıÐµÐ¼ÐµÑĢÐ°Ð±":7328,"ĠÐ³ÓıÐ°ÑħÑĮÐ°Ð»ÑĩÐ°Ð³ÓıÐ°Ð·":7329,"ĠÐĳÐ°ÑĢÐºÑĥÐ»Ð°":7330,"ĠÐ±ÐµÑĤÓıÐµÑĢÐ³ÑĮÐ°Ð½Ð°Ð±":7331,"ĠÐļÐ°ÑĢÐ¸Ð¼":7332,"ĠÑģÑĥÐ½Ð´ÑĥÐ»ÑĬÐ³Ð¾":7333,"Ð°Ð±ÑĢÐ°Ð³ÓıÐ¸Ð»":7334,"ĠÐ³ÐµÐºÑĤÐ°ÑĢ":7335,"ÑģÐ¾Ð¼Ð¾Ð»":7336,"ĠÐºÑĢÐ¸Ð·Ð¸Ñģ":7337,"Ð°ÑĢÐ°Ð½":7338,"Ð»ÑĬÐ°Ð±Ð°Ð·ÑĥÐ»":7339,"ÑģÐ¸Ð´":7340,"Ð°Ð·Ð´Ð°ÑģÐ°Ð³Ð¸":7341,"ĠÐ¿Ð¾ÑģÑĤ":7342,"ĠÐ³ÓıÐ°Ð´Ð°Ð²":7343,"ÑıÐ»Ð´Ð°Ð³Ð¸":7344,"ĠÐ±Ð¾ÑģÐ¸ÑĩÓıÐ¾Ð³Ð¾":7345,"ĠÑħÓıÐ°Ð»ÑĤÓıÑĥÑħÑĬÐ°Ð±Ð¸Ð³Ð¸":7346,"ĠÐºÐ²ÐµÑĢÐ°Ð»ÑĬ":7347,"ĠÑĤÐ°Ð´Ð±Ð¸ÑĢÐ°Ð»ÑĬÑĥÐ»":7348,"Ð°Ð¼Ð°Ð»Ð¸Ð³Ð¾":7349,"ĠÑĢÐµÑħÑģÐ°Ð½Ð°":7350,"ĠÐ±Ð°ÑħÓıÐ°ÑĢÐ·Ð°Ð»":7351,"ÑĨÐ¾ÑıÐ·Ðµ":7352,"ĠÐ¨Ð°Ð¼Ñģ":7353,"Ð²ÐµÑĪ":7354,"ĠÐºÑĬÐ°Ð½ÑĥÐ½Ð°Ð»Ð´Ð°":7355,"ĠÐ¹Ð¸Ð³Ð¸Ð½":7356,"ĠÐ´Ð°Ð½Ð´ÐµÑĩÓıÐµÐ¹":7357,"ĠÐĳÐ¾ÐºÑĮÑĥÐ½":7358,"ĠÑĩÐ°Ð±ÑħÑĬ":7359,"Ð¼Ð¸ÑıÐ±":7360,"ĠÐĵÑĮÐµÑĩÓıÐ¾":7361,"Ð³ÓıÐ°Ð´Ð¸Ð½":7362,"ĠÑĩÐ°ÑģÑĤ":7363,"Ð´Ð°Ð»Ð³Ð¸":7364,"ĠÑĨÓıÐ°Ð»Ð°ÑĢÐ°Ð»":7365,"ĠÑĢÐ°Ð³ÓıÐ°":7366,"ÑİÑģÑģ":7367,"ĠÐºÐ¸Ð½ÑħÐ°":7368,"ĠÐ½Ð¸Ð»ÑĬÐµÑħÑĬÐµ":7369,"ĠÑıÑģÐ°Ð·ÑĥÐ»":7370,"ĠÑįÐ±ÐµÐ»Ð³Ð¸":7371,"ĠÐļÓıÑĥÐ´":7372,"ĠÑĢÐ¾ÐºÑĮÑĥÐ»":7373,"ÐµÑĤÐµÑĢÐ±ÑĥÑĢÐ³":7374,"Ð¨ÐºÐ¾Ð»":7375,"ĠÐ±Ð°Ð³ÑĮÐ°Ð´ÑĥÑĢ":7376,"ÐļÓıÐ¸Ð°Ð±Ð¸Ð»ÐµÐ±":7377,"ĠÐĲÑħÐ¸ÑĢÐ°Ð»Ð´Ð°":7378,"ĠÑĨÐµÐ±ÐµÑĤÓıÐµÐ·Ð°Ð±Ð¸ÑıÐ»ÑĬÐµ":7379,"ĠÐļÐ¾Ð½ÑģÑĤÐ¸ÑĤÑĥÑĨ":7380,"ĠÐĹÐ°Ð¹Ð½Ð°Ð±":7381,"ĠÑĨÐµÑĢÐµÑħÑĬÐ°Ð±Ð¸":7382,"ĠÐľÐµÐ»Ð¸ÐºÐ¾Ð²Ð°Ñģ":7383,"ĠÐºÑĬÐ¾ÑĤÓıÐ½Ð¾Ð±":7384,"ĠÐĳÐ°ÐºÑĮÐ°Ð³ÑĮÐµÑĩÓıÐ¸":7385,"ÐºÐ°Ð½Ð°Ð»":7386,"ĠÐ¼Ð°Ð»ÑĬÑĥÐ»Ð°":7387,"Ð¾ÑģÐµÐ½":7388,"Ð¾Ð²ÑħÐ¾Ð·":7389,"ĠÐľÐ°ÐºÑĬ":7390,"Ð¸Ð¼ÑĥÑĢÐ°Ð´":7391,"ĠÑĢÐµÐ¶":7392,"ĠÐ°Ð±Ð¸Ð»ÐµÐ»":7393,"ĠÐ¡Ð¸Ð»":7394,"ĠÑĢÑĥÐ³ÐµÐ»ÑĬÑĥÐ»":7395,"ĠÐĲÐ»Ð¶Ð°Ð½":7396,"ĠÐļÓıÑĥÐ´Ð¸ÑıÐ²":7397,"ĠÐŃÐ¼":7398,"ĠÑĤÓıÐ°Ð¼ÑĥÐ»ÐµÐ±":7399,"ĠÑĤÓıÐ°Ð¼ÑĥÐ»Ð°":7400,"ĠÑĢÐ°ÑĤÑĥÐ»ÐµÐ»":7401,"ĠÐ´Ð°Ð½Ð´ÑĩÓıÐ²Ð°ÑıÐ»Ð´Ð°":7402,"ĠÑĨÐµÐ±ÐµÐ³Ð¸":7403,"ĠÐ½Ð¾Ð¼Ð¸Ð½":7404,"Ð°Ð½ÑģÑĥÑĢ":7405,"ĠÐ¿ÑĢÐ¾ÐµÐºÑĤÐ°Ð»Ð´Ð°":7406,"ĠÑħÓıÐ°ÐºÐ¸Ð¼Ð·Ð°Ð±Ð¸":7407,"ĠÐ³ÓıÐ°Ð½Ð°ÑģÐµÐ±":7408,"90":7409,"Ð°Ð°Ð½":7410,"ĠÐ±Ð¸Ð»ÑĬ":7411,"ĠÐ±ÐµÑģÑģ":7412,"ĠÑĤÐ°Ð½Ð¸":7413,"Ð¸Ð»Ð°ÑĢÐ¸Ð½":7414,"ĠÐ³ÑĮÐ°Ð±Ð¸Ð³Ð¸":7415,"ĠÑĩÐ¸ÑĢÐ°ÑħÑĬ":7416,"Ð¸ÑıÐ»ÑĬÑĥÐ»Ð³ÑĥÐ½":7417,"Ð°ÐºÑĬÐ¸":7418,"ĠÐ²ÑĥÐºÓıÐ°ÑĢÐ°Ð±":7419,"ÐĶÐ°Ð³":7420,"ĠÐ³ÓıÑĥÑĨÓıÐ°Ð±Ð°Ð·Ð´Ð°":7421,"ĠÐĹÐ¸ÑıÐ²":7422,"ĠÐ°Ð½Ñģ":7423,"ÐĳÐ°Ð³ÓıÐ°ÑĢÐ°Ð±":7424,"ĠÑĢÐ°ÐºÑĮÐ³Ð¸":7425,"ÑĥÐ³ÐµÐ³Ð¸":7426,"ĠÑĢÐ°Ð·Ð¸Ð»ÑĬÑĥÐ½":7427,"ĠÐľÐ°ÑħÓıÐ°ÑĩÑħÑĬÐ°Ð»Ð°ÑıÐ»Ð´Ð°ÑģÐ°":7428,"ĠÐ³ÓıÐ°Ð³Ð°ÑĢÐ»ÑĬÐ¸ÑıÐ»Ð´Ð°":7429,"ĠÐľÑĥÑħÓıÐ°Ð¼":7430,"ĠÐ±ÐµÑĩÐµÐ´Ð°Ð»":7431,"ĠÐ±ÑĥÑģÑģÐ¸Ð½Ð°Ð±ÑĥÐ½":7432,"ĠÑĩÐµÐ¼Ð¿Ð¸Ð¾Ð½Ð°ÑĤ":7433,"ĠÑħÓıÐ°ÐºÑĬÐ¸ÐºÑĬÐ°ÑĤÐ°Ð»Ð´Ð°Ð³Ð¸":7434,"ĠÑīÑĥÐ°Ð±Ð¸Ð»ÐµÐ±":7435,"ĠX":7436,"Ð±Ð¸ÐºÑĬ":7437,"Ð²ÐµÐ´":7438,"ĠÐ´Ð¸Ð´Ð°Ð³Ð¸":7439,"ÑĥÐ¼ÑĥÐ·ÑĥÐ»":7440,"ĠÐ¥ÑĥÑĤÓı":7441,"ĠÐĵÓıÐ¸ÑĨÓıÐ³Ð¾":7442,"ĠÐ³ÓıÐµÐ¼ÐµÑĢÐ¸Ñģ":7443,"ĠÑĪÐºÐ¾Ð»Ð»ÑĬÐ¸Ð¼Ð°Ð»":7444,"ĠÐ³ÓıÐ°ÑħÑĮÐ°Ð»Ð»ÑĬÐ°ÑĢÐ°Ð±":7445,"Ð°ÑĢÑĥÐ»ÐµÐ²":7446,"Ġ1920":7447,"ĠÐºÑĬÐ¾ÑıÐ»ÑĬÐ³Ð¸":7448,"ĠÐ²Ð°ÐºÐº":7449,"ĠÐ±Ð¸Ð³ÑĮÐ°":7450,"ĠÐ³ÑĥÐ³Ð°ÑĢÑĥÑħÑĬÐ°Ð½":7451,"ÐļÓıÐ°Ð»ÑĬÐ°Ð·Ðµ":7452,"ĠÐ´Ð°Ð³ÑĬÐ¸ÑģÑĤÐ°Ð½Ð¸ÑıÐ·":7453,"ĠÐ³ÓıÐµÐ»Ð¼Ð¸ÑıÐ»":7454,"ĠÑĨÓıÐ°ÑĢÐ°Ð»Ð³Ð¸":7455,"ĠÐ±Ð°Ð¶Ð°ÑĢÑĥÐ»Ð°ÑĢÐ¾":7456,"Ġ2023":7457,"ĠÐ±Ð°ÑĢÐ°ÑħÑī":7458,"ĠÐ²Ð°ÑĤÓıÐ°Ð»ÑĬÐ°Ð½Ð°":7459,"Ð´Ð°Ð½":7460,"Ð²Ð¾Ð´":7461,"ÑĤÐ¸Ð±":7462,"ĠÑħÐ¸Ð¼":7463,"Ð°Ð¼Ð°ÑĤ":7464,"ĠÑģÐ°ÐºÑĬÐ°ÑĤ":7465,"ĠÐºÑĬÐ°Ð»":7466,"Ð¾ÑģÐ¾ÑĦ":7467,"Ð³ÓıÑĥÑĨÓı":7468,"ĠÐĶÐµÐ½":7469,"ĠÐ»ÑĬÐ¸ÐºÓıÐ°Ð¹":7470,"ĠÐ´Ð°Ð½Ð´ÐµÐ»ÑĬÐ¸ÑıÐ»ÑĬÑĥÐ»":7471,"ĠÐ³ÑĮÐ°Ð±ÑĥÐ½Ð¸Ð³Ð¸":7472,"ĠÐ³ÓıÐ°ÑĢÐ·Ð°Ð»":7473,"ÑĥÐºÐ¼Ñĥ":7474,"ĠÐ´Ð°Ð³ÑĮÐ»ÑĬ":7475,"ÐºÑĬÐ¾ÑıÐ»ÑĬ":7476,"ĠÐ¤ÑĢÐ°Ð½":7477,"ĠÐ±Ð¾ÑĢÑħÐ°Ð½Ð°":7478,"ĠÐºÑĬÑĥÐ²Ð°ÑĤÐ³Ð¸":7479,"ĠÐ½ÑĥÐ¶ÐµÑĢÐ³Ð¾":7480,"ĠÐ±Ð¾ÑĢÑħÑĥÐ½":7481,"ĠÐºÐ°Ð½ÑĤÓı":7482,"ĠÐ¢ÓıÐ°Ð´Ð³ÑĮÐ°ÐºÐ²Ð°ÑĢÐ¸":7483,"ĠÐ¡Ð°Ð³ÓıÐ°Ð´":7484,"ĠÑħÓıÐ°Ð»ÑħÑĮÐ¸":7485,"ĠÐ±ÑĥÑħÐ³Ð°Ð»ÑĤÐµÑĢ":7486,"ĠÐ¼ÑĥÑĢÐ¸Ð´":7487,"ĠÐ±Ð°ÑĢÐ°ÐºÐ°ÑĤÐ°Ð±":7488,"ĠÑħÐ¾Ð»":7489,"Ð°ÑĩÐ°Ð³ÑĬ":7490,"ĠÑĢÐ°Ð¹Ð¾Ð½ÑĨÐ¾ÑıÐ»":7491,"ĠÐºÐ²Ð°Ñĩ":7492,"ĠÑĢÐ°Ð³ÑĬÐ´Ð°ÑģÐ°":7493,"Ð¸ÑıÑģÐ´Ð°":7494,"ĠÑĢÐ°Ð³ÓıÐ°ÑĢÐ°Ð±":7495,"ĠÐĲÐ¼Ð¸ÑĢÐ¾Ð²":7496,"ÐĳÑıÐ»ÑĬÑĥÐ»":7497,"ĠÐºÐºÐ¾Ð»ÐµÐ±Ð°Ð»Ð¸":7498,"Ð¦Ð¸Ð½Ð³Ð¸":7499,"ĠÐ¼ÑĥÑģÑĤÐ°ÑħÓıÐ¸ÐºÑĬÐ°Ð¹":7500,"Ð¸Ð½ÑĩÓıÐµÐ±":7501,"ĠÐ¥ÓıÐ°Ð¶Ð¸ÐµÐ²Ð°Ñģ":7502,"ĠÐ¼Ð¾ÑĨÓĢ":7503,"ĠÐ¥Ð¸Ð·ÑĢÐ¸":7504,"ĠÑģÐµÐºÑĢÐµÑĤÐ°ÑĢÑĮÐ»ÑĬÑĥÐ½":7505,"ĠÐ±ÑĢÐ¸Ð³Ð°Ð´":7506,"ĠÐ³Ð¾Ð´ÐµÐºÓıÐ°Ð½":7507,"ĠÑħÓıÐ°Ð½ÑĩÓı":7508,"ĠÐĲÐ³":7509,"ĠÐłÐ°Ð´Ð°Ð»":7510,"ĠÑıÐ·":7511,"Ð¸Ð·Ð°Ð±Ð¸ÑıÐ»ÑĬÑĥÐ»":7512,"ĠÐ¸ÑĪÐ°Ð»ÑĬÑĥÐ»":7513,"ĠÑĢÐ¾ÑģÑĥÐ»ÑĬÐ³Ð¸":7514,"ĠÐłÐ¾ÑģÑģÐ¸ÑıÐ»ÑĬ":7515,"ĠÐ±ÑĥÐºÓıÐ°ÑĢÐ°Ð±Ð°Ð»Ð¸":7516,"ĠÑĥÐ½ÑĤÐ°ÑĢÐ°Ð·ÑĥÐ»":7517,"Ð°ÑĢÐµÐ±Ð»ÑĬÐ¸":7518,"ĠÐ¤ÐµÐ´ÐµÑĢÐ°ÑĨÐ¸ÑıÐ»ÑĬÑĥÐ»":7519,"Ð£ÐĽ":7520,"ĠÐ°Ð»Ð¶Ð°Ð½":7521,"ĠÑĩÓıÐµÐ·Ð°Ð±Ð¸ÑıÐ»ÑĬÑĥÐ»":7522,"ĠÑīÐ²Ð°ÑĢÐ°Ð±Ð³Ð¾":7523,"ĠÐºÐ¾Ð¼Ð¿ÑĮÑİÑĤÐµÑĢ":7524,"ĠÐºÑĮÐ²Ð°ÑĢÐ°ÑĢÐ°Ð±":7525,"ĠÐ±Ð°Ð³ÓıÐ°ÑĢ":7526,"ĠÐĺÐ½ÑħÐ¾ÐºÑĬ":7527,"ĠÐĳÑĥÑĢÑĤÑĥÐ½Ð°Ð¹":7528,"ĠÐ¼Ð°ÑĢÑĪÑĢÑĥÑĤ":7529,"ÐµÐ´ÐµÐ½":7530,"ÐºÐ°Ð»":7531,"ĠÐ½ÑĥÑĢ":7532,"ĠÐ½Ð°Ðº":7533,"ĠÐ³ÑĮÐ°Ð±Ð¸ÑĩÓıÐµÐ±":7534,"ĠÐ·Ð¾Ð´":7535,"ĠÑĢÐ¾ÑģÐ°ÑģÐµ":7536,"ĠÐ¡Ð¸Ð´":7537,"ĠÐ¢ÐµÑĢ":7538,"Ð³ÓıÐ°Ð½Ð°Ð±":7539,"ĠÐ°ÑħÓıÐ°ÑĢÐ°Ð»":7540,"Ð¥Ð¸ÑĢ":7541,"ĠÐ´Ð°Ð³ÑĮÐ°Ð²":7542,"ĠÐĵÑĮÐµÐ½Ð¸ÑģÐ°Ð½":7543,"ĠÐ±Ð¸ÑĤÓıÐºÐº":7544,"Ġ150":7545,"Ð°Ð·ÑĥÑħÑĬÐ°":7546,"ĠÑħÐ²ÐµÐ·Ð°Ð±ÑĥÐ»ÐµÐ±":7547,"ĠÐ³ÓıÐ¾Ð»Ð¾ÑħÑĬÐ°Ð½Ð°Ð²":7548,"ĠÐºÑĮÐµÐ¹Ð³Ð¸":7549,"ĠÑĥÑĩÐ°ÑģÑĤÐºÐ¾Ð²":7550,"ĠÐ³ÑĮÑĥÐºÑĬÑĥÐ½":7551,"ĠÑĨÓıÐ¾ÑĢÐ¾ÑĢÐ°Ð±":7552,"ĠÑĢÐ°Ð¹ÑĨÐµÐ½ÑĤÑĢÐ°Ð»Ð´Ð°":7553,"ÐµÐ³ÓĢÐµÑĢ":7554,"ĠÐĴÐ°ÑĢÐ¸Ñģ":7555,"Ð½Ð°Ð´":7556,"ĠÑĤÐ°Ð»":7557,"ĠÐľÐ°Ð½ÑģÑĥÑĢ":7558,"ĠÑĨÓıÑĨÓı":7559,"ĠÐļÐ¸ÑĢ":7560,"ĠÐĵÓıÐ°Ð³Ð°ÑĢÐ°Ð±":7561,"ĠÐ±ÐµÑĤ":7562,"ĠÐ¢Ð°Ð¶ÑĥÐ´Ð¸Ð½":7563,"ĠÐ³ÓıÐ°ÑħÑĮÐ°Ð»Ð»ÑĬÑĥÐ½":7564,"ĠÐ¼ÑĥÐ·Ðµ":7565,"Ð¸ÑĪÐ°ÑĤ":7566,"Ð¸ÑĩÑĩÐ°Ð½ÑĤÐµ":7567,"ĠÑĤÓıÑĥÐ±Ð°Ð»Ð°":7568,"ĠÐĵÑĮÐµÐ½Ð¸ÑģÐ°":7569,"ÑħÓıÐ°Ð¶Ð¸ÑıÐ²":7570,"ĠÑĤÓıÐ¾ÐºÓıÐ»ÑĬÐ¸":7571,"ĠÐ¾Ð¿ÐµÑĢÐ°ÑĨÐ¸ÑıÐ»ÑĬÑĥÐ»":7572,"ĠÐ£Ð½ÐºÑĬ":7573,"ĠÐ°ÑĢÐ¼Ð¸ÑıÐ»Ð´Ð°":7574,"ĠÐ¡Ð¸ÑĢÐ¸ÑıÐ»Ð´Ðµ":7575,"ĠÐĲÐ´Ð¼Ð¸Ð½Ð¸ÑģÑĤÑĢÐ°ÑĤÐ¸Ð²Ð¸ÑıÐ±":7576,"ĠÐ¿ÑĢÐ¸Ð·ÐµÑĢ":7577,"ĠÐ±ÑĥÑĤÓĢÐ°":7578,"Ð£Ð·ÑĥÑħÑĬÐ´Ð°":7579,"ĠÐ¥ÑĬÐ²Ð°Ð´Ð°ÑĢÑĥÑħÑĬÐ°Ð±Ð°Ð·ÑĥÐ»":7580,"Ð¾Ð³ÑĬ":7581,"Ð½Ð¸ÑĨ":7582,"ĠÐ±Ð°ÑıÐ»ÑĬÑĥÐ»":7583,"ĠÐ³ÓıÐ°Ð¶":7584,"ĠÑĤÐ¾Ð»ÐµÐ»":7585,"Ð¾Ð½Ñģ":7586,"Ð¾Ð½Ð¾ÑħÑĬ":7587,"ĠÐ½Ð°ÑĢÑĤ":7588,"ĠÐ¶Ð°Ð»Ð³Ð¸":7589,"ĠÐºÓıÑĥÑĤÓı":7590,"ĠÐ·Ð°Ð¼Ð°Ð½Ð°":7591,"ĠÐŁÐµÐ½Ñģ":7592,"ĠÐ½Ð°ÑħÑĬÑĩÓıÐ²":7593,"ĠÐ³ÓıÑĥÑĨÓıÐ¸ÑıÐ»ÑĬÐµ":7594,"ĠÐ°Ð½Ð°Ð»":7595,"ĠÑĨÓıÐ¸ÐºÓıÐºÓıÐ°ÑĢÐ°Ð²":7596,"ĠÐ´Ð°Ð³ÑĮÐ»ÑĬÑĥÐ½":7597,"Ð»ÑĬÐ¸ÑıÐ»ÑĬÑĥÐ»Ð³Ð¸":7598,"ĠÐ¥ÓıÐ°Ð¶Ð¸Ð»":7599,"ĠÐ¼ÑĥÑħÑĬÐ°Ð·ÑĥÐ»":7600,"ĠÑĢÐ¸ÐºÓıÐºÓıÑĥÐ½ÐµÐ»":7601,"ĠÐºÓıÐ°Ð»ÑĬÐ°Ð½":7602,"ĠÐ±ÑĥÐºÓıÐ¸Ð½ÐµÐ³Ð¸":7603,"ĠÑĢÐµÑģÐ¿ÑĥÐ±Ð»Ð¸ÐºÐ°ÑıÐ»ÑĬÑĥÐ»Ð°Ð±":7604,"ĠÐ°Ð´Ð¼Ð¸Ð½Ð¸ÑģÑĤÑĢÐ°ÑĨÐ¸ÑıÐ±Ð°Ð·ÑĥÐ»":7605,"ĠÐºÑĬÐ¸Ð¼Ð°ÑĤÐ°Ð±":7606,"ĠÐ¼Ð°ÑħÑīÐµÐ»Ð³Ð¸":7607,"ĠÑĨÓıÐµÑħÐ¾Ð½":7608,"Ġ1999":7609,"ÑĩÐ¸ÑıÑģÐ´Ð°":7610,"Ð±Ð°ÐºÐºÑĥÐ»":7611,"Ð¿Ð¾Ð»ÑĩÐµÐ½":7612,"ĠÑģÑĥÑĢÑģÐ°ÑĤÐ°Ð»":7613,"ĠÐ±Ð°ÐºÑĬÐ±Ð°ÐºÐºÑĥÐ´ÐµÑħÑĥÐ½":7614,"ĠÑĢÐ¾ÑĢÐ¶":7615,"ĠÐĳÐ°Ð±Ð°ÑİÑĢÑĤ":7616,"ĠÐ¸ÑģÑĤÐ¾ÑĢ":7617,"29":7618,"Ð´Ð°ÑĤ":7619,"Ð°Ð±Ð°Ð»ÑĬ":7620,"Ð°ÑĢÐµÐ¹":7621,"Ð°ÑĢÐµÐ´ÑĥÑħÑĬ":7622,"ĠÑĢÑĥÑħÑĮ":7623,"Ð»ÑĬÐ°Ð±Ð³Ð¾":7624,"ĠÐ½Ð°ÐºÓıÐºÓı":7625,"ÑĤÓıÐµ":7626,"ĠÐľÐ°Ðº":7627,"ÐµÐ²Ð¸Ñĩ":7628,"ĠÐ³ÑĬÐ°Ð·":7629,"ĠÐ³ÑĮÐµÐ»Ð³ÑĥÐ½":7630,"ĠÐ³ÑĮÐµÐ·ÑĥÑħÑĬÐµ":7631,"ĠÑĥÐ½Ð°ÑĢÐ¾":7632,"ĠÐ±Ð¸ÑĨÑĥÑħÑĬÐµ":7633,"ĠÑĨÓıÐ°Ð»ÑĥÐ»Ð°Ð³Ð¾":7634,"ÑĦÐ¾ÑĢÐ¼":7635,"ÐĲÐŁ":7636,"ĠÐºÑĮÐ¾Ð»Ð°ÑĢÐ¾":7637,"ĠÐĹÐ°Ð´":7638,"ÑħÑĮÐ¸ÑĤ":7639,"ĠÑħÑĥÑĤÓıÑĥÐ»ÐµÐ±":7640,"ÑĩÐ¸Ð»ÑĬÐ¸Ð³Ð¸":7641,"ĠÐŀÐŀ":7642,"ĠÑĥÑĩÐ¸ÑĤÐµÐ»ÑĮÐ»ÑĬÑĥÐ½":7643,"ĠÐ±ÑĥÑģÑĥÑĢÐ¼Ð°Ð½":7644,"ĠÐ³ÓıÐ¾ÑĢÑĨÓı":7645,"ĠÐĲÑģÐ°Ð´":7646,"ĠÐ¿ÑĢÐ¾ÑĦÐ¸Ð»":7647,"ĠÐ¡Ð¸ÑĢÐ¸ÑıÐ»Ð´Ð°":7648,"ĠÑĢÐ°Ð»ÑĬÐ°Ð´":7649,"ĠÑĢÐ°Ð¹ÑĨÐµÐ½ÑĤÑĢ":7650,"ĠÐłÐ°Ð¸ÑģÐ°ÑĤ":7651,"ĠÑĢÐ°Ð¹Ð±Ð¾Ð»ÑĮÐ½Ð¸ÑĨ":7652,"ÑĢÐ°Ð»ÑĬÐµ":7653,"ĠÐ±Ð¸Ð´ÑĥÐ»":7654,"ĠÑĢÐ°ÑĤÓıÐ°":7655,"Ð¸Ð½ÑĤ":7656,"Ð°ÑĤÐ°Ð²":7657,"ĠÐ³ÓıÑĥÐ¼":7658,"ĠÐĵÑĥÐ½Ð¸":7659,"ĠÐ¼ÐµÐ¼Ð¾ÑĢ":7660,"Ð´ÐµÐºÑģ":7661,"Ð°Ð¹Ð²Ð°Ð½":7662,"ĠÐ¿ÑģÐ¸Ñħ":7663,"ĠÑħÓıÐµÐ»":7664,"Ð¸Ð¼Ð°":7665,"ĠÐĵÓıÐ°Ð¼Ð¼Ð°Ð±":7666,"ĠÑĩÓıÐ²Ð°Ð»ÐµÐ»":7667,"ĠÐ¡Ð°Ð´":7668,"ĠÐ¡Ð¸Ð²":7669,"ĠÐĴÐ°ÑģÐ¸Ð»":7670,"ĠÑħÐ°ÑģÐµÐ»":7671,"ĠÐ¢ÓıÐ¾ÐºÓı":7672,"ĠÑĢÐµÑħÑħÑĥÐ½":7673,"Ġ38":7674,"ĠÑħÓıÐ°ÐºÑĬÐ°Ð»ÑĬÑĥÐ»ÑĬÐ³Ð¸":7675,"ĠÑįÐ±ÐµÐ»Ð°Ð»Ð´Ð°":7676,"ĠÐ¹Ð¸ÐºÓıÐ¸Ð½":7677,"ĠÑĥÐ¼Ð¼Ð°ÑĤ":7678,"ĠÐºÐ°Ð¼Ð¿Ð°Ð½":7679,"ĠÑħÑĬÐ¸Ð·Ð°Ð¼Ð°Ð»Ð´Ð°":7680,"ÑĢÐ°ÐºÑĮÐ°Ð½Ð´Ðµ":7681,"ĠÐ»ÑĬÐ°Ð³ÓıÐµÐ»Ð°Ð»ÑĬ":7682,"ĠÐ°ÑĢÑħÐ¸Ð²":7683,"ÑĥÐ»Ð³Ð¾ÑħÓı":7684,"ÑģÑĥÑĢ":7685,"Ð·Ð°Ð»Ð³Ð¸":7686,"ÑıÐ¼":7687,"Ð¾Ð²Ð°Ð»ÑĬÐµ":7688,"Ð¸Ð±Ð°ÑĤÓı":7689,"ĠÐĶÑĥÐ´Ð°":7690,"Ð°ÑĩÓıÐµÐ±":7691,"ÑīÐ°Ð»":7692,"ĠÐ³ÑĮÐµÐ½Ð¸Ð¹":7693,"Ð¥ÑıÐ»ÑĬÑĥÐ»":7694,"ÑĢÐ¾Ð¹":7695,"ĠÐ¶ÐµÐ³Ð¸Ð³Ð¸":7696,"ĠÑĤÓıÐ°Ð»Ð°Ð±Ð°Ð·Ð´Ð°":7697,"ĠÑĢÐ°ÑĤÑĥÐ½":7698,"ĠÑĨÐ¾Ð³Ð¸Ð´Ð°Ð·":7699,"ĠÑģÐ²ÐµÑĢÑĥÑħÑĬÐ»ÑĬÐ¸":7700,"Ġ2012":7701,"ĠÐĵÓıÐ°Ð±Ð´ÑĥÑĢÐ°ÑĪÐ¸Ð´":7702,"ĠÐ¥ÓıÐ°Ð»Ð¸Ð¼Ð°ÑĤ":7703,"ĠÐ³ÓĢÑĥÑĨÓĢÐ¸":7704,"Ð±Ð°ÑħÑĬÐ¸Ð½Ð°Ð·ÑĥÐ»":7705,"ĠÐ¨Ð°Ð³ÓıÐ±Ð°Ð½":7706,"Ð´Ð¸ÑĢ":7707,"ÑģÐ°Ð³ÓıÐ¸Ð´":7708,"Ð°Ð»ÑĬÐ°Ð½Ð°":7709,"ĠÐ´Ð¸Ð´Ð°ÑģÐ°":7710,"ĠÑģÐµÑĢ":7711,"ĠÐ½ÑĥÑĨÐ°Ð»":7712,"Ð³ÑĮÐ°ÑĢ":7713,"Ð°ÑħÓıÐ°Ð¶":7714,"Ð¸ÐºÐ¾Ð»":7715,"ÐµÐ¹Ð¸Ð»Ð°":7716,"ĠÑħÑĬÐ²Ð°Ð»":7717,"ĠÐºÑĬÐ²Ð°ÑĤÓıÐ°Ð»":7718,"ĠÐ´Ð°Ð³ÑĮÐ°":7719,"ĠÐ³ÓıÐ°Ð´Ð¸Ð½Ð°Ð½":7720,"ĠÐ²Ð°ÑĩÓıÐ¸Ð½":7721,"ĠÐ³ÓıÐ¾Ð´Ð¾Ð¹":7722,"ĠÐ¿Ð¾Ð»ÐºÐ¾Ð²Ð½Ð¸Ðº":7723,"ĠÑĤÐ°ÑĢÐ¸ÑħÐ³Ð¸":7724,"ĠÐ¸Ð¼Ð°Ð¼Ð·":7725,"Ġ2011":7726,"ĠÐ¼Ð¸ÑģÐ°Ð»Ð°Ð»":7727,"ĠÐĲÑĢÑģÐµÐ½":7728,"ĠÐ¿Ð°Ð¹Ð´Ð°Ð³Ð¸":7729,"ĠÑĤÑĥÑĢÐ¸Ð·Ð¼":7730,"ĠÐĵÓıÐµÐ¼ÐµÑĢÐ¸ÑģÐµÐ»":7731,"ÐĶÐ°Ð³ÑĬÐ¸ÑģÑĤÐ°Ð½Ð°Ð»Ð´Ð°":7732,"ĠÐĵÑĮÐ¸ÑĤÓıÐ¸Ð½Ð°Ð±":7733,"ĠÑĤÓıÑĥÑĢÐ°Ð·Ð°ÑĢÐ¸Ð·Ðµ":7734,"ĠÑĢÐ°Ð³ÑĬÑĥÑħÑĬÐ°Ð±Ð¸":7735,"ĠÑĦÐ¾ÑĢÐ¼Ð°":7736,"ĠÑīÑĥÑīÐ°ÑħÑĬ":7737,"ĠÑĢÐ°ÐºÓıÐ°Ð»Ð´ÐµÑīÐ²":7738,"ĠÑĢÐ°ÐºÓıÐ°Ð»Ð´ÐµÑīÐ²Ðµ":7739,"ĠÐĽÑĬÐ°Ð±Ð°Ð±Ð¸Ð»ÐµÐ±":7740,"ĠÑĢÐ¾ÑĢÑĤ":7741,"ĠÐ²Ð¸Ð»":7742,"ÑĥÑĢÐµ":7743,"Ð¸Ð·ÑĥÐ»":7744,"ĠÐ»ÑĬÐ°ÑĢÐ°Ð»":7745,"ĠÐľÐ°Ð½":7746,"ĠÑħÓıÐ°Ð½":7747,"ĠÐ±ÑĥÐºÓıÐ°Ð½Ð¸Ð»Ð°Ð½":7748,"ĠÐłÐµÐºÓı":7749,"ĠÐĵÓıÑĥÑĢ":7750,"ĠÐĵÓıÐµÐ·ÐµÐ³ÓıÐ°Ð½":7751,"ĠÐ¡Ð¾ÑĨ":7752,"ĠÐ±ÑĥÐ³ÐµÐ±Ð»ÑĬÑĥÐ½":7753,"ĠÐ´Ð°Ð½Ð´ÐµÐºÐºÐ¾Ð»":7754,"ĠÑĢÐ°Ð³ÓıÐ°Ð¹Ð³Ð¸":7755,"ÑĥÑĩÐ¸Ð»Ð¸Ñī":7756,"ĠÐ£Ñĩ":7757,"ÑĭÐ¼":7758,"ĠÐĲÐ±ÑĥÐ»":7759,"ĠÐĲÑħÓıÐ¼Ð°Ð´Ð¾Ð²Ð°Ñģ":7760,"ĠÑīÐ°Ð¹Ð¸Ð½":7761,"ĠÐºÐ¾Ð¼Ð°Ð½Ð´Ð°ÑıÐ»Ð´Ð°":7762,"ĠÐ±ÐµÐ³ÑĮÑĥÐ»Ð°ÑĢÐ¸Ð½":7763,"ĠÑĢÐµÐ³Ð¸Ð¾Ð½Ð°Ð·Ð´Ð°":7764,"ĠÐ±Ð°ÑĩÑĩÐ¸Ð·Ðµ":7765,"ÐĵÑĮÐµÐ´Ð¸Ð½Ð»ÑĬÐ¸Ð´Ð°Ð»":7766,"ĠÐºÐ²Ð°ÑĤÓıÑĥÐ½":7767,"ĠÐ³ÓĢÐµÐ¼ÐµÑĢÐ°Ð»":7768,"ĠÐ±Ð°ÑħÑĩÑĥÐ½":7769,"ĠÑĤÐµÐ°ÑĤÑĢÐ°Ð»ÑĬÑĥÐ»":7770,"ĠÐ¡ÐĴÐŀÑıÐ»ÑĬÑĥÐ»":7771,"ÐĵÓıÐ°Ð´Ð°Ð¼":7772,"ĠÑģÑĥÐ±Ð±Ð¾ÑĤÐ½Ð¸Ðº":7773,"ĠÑĥÐ³Ð¾":7774,"ÑĥÐ°Ð»":7775,"ÐµÑı":7776,"Ð³ÐµÐ½":7777,"ĠÐ³ÑĮÑĥÑĢ":7778,"Ð°Ð»ÑĬÑĥÐ²":7779,"ĠÑĤÐµÐ½":7780,"ĠÑģÐ¾":7781,"ĠÐ¶ÑĥÐ¶":7782,"ÑĩÓıÐ°Ð³Ð¾":7783,"ĠÑĨÓıÐ¸Ð»ÑĬ":7784,"ĠÑĩÓıÐµÐ»":7785,"ĠÑĢÑĥÐºÓıÐ°Ð½Ð¸Ð»Ð°":7786,"Ð¸Ð½ÐµÐ³Ð¸":7787,"Ð¾ÑħÑĬÐµÐ±":7788,"ĠÐĺÐ¼Ð°Ð½":7789,"ĠÐ±Ð¾ÐºÑĮÑĥÐ»Ð°Ð°Ð½":7790,"ĠÐĵÑĮÐµÐ»Ð³Ð¸":7791,"ĠÑģÑĥÐ°Ð»Ð°Ð»Ð³Ð¸":7792,"ÐĳÐ°ÐºÑĬ":7793,"ĠÐĽÑĬÐ¾Ð½Ð´Ð¾":7794,"ÐµÐ»ÑĬÐµÐ»":7795,"ĠÐºÑĮÐµÐ·ÐµÐ³Ð¸":7796,"ĠÑĤÓıÐ°Ð¼ÑĥÐ»ÐµÐ»":7797,"ĠÐ³ÓıÑĥÑĢÑĥÐ»":7798,"Ð¾Ð»ÑĬÐ°":7799,"ĠÐ³ÓıÐ¸Ð»Ð»Ð°Ð³Ð¸":7800,"ĠÑģÐ°Ð½Ð°Ð¹Ð¸Ð»":7801,"ĠÑĤÑĥÑħÑĥÐ¼Ð°Ð»ÑĬÑĥÐ»":7802,"ĠÐ°Ð²ÑĤÐ¾Ð¼Ð°ÑĪ":7803,"ĠÐ°Ð±ÑĥÑħÑĬÐµÐ³Ð¾":7804,"ĠÑĤÐ²Ð¾ÑĢÑĩÐµÑģÑĤÐ²Ð¾ÑıÐ»ÑĬÑĥÐ»":7805,"ĠÐļÐ¾Ð»ÑħÐ¾Ð·":7806,"Ð»Ð¸ÑĨ":7807,"ÑĢÐ¾Ð¼":7808,"Ð°ÑĢÐ°ÑĤÓıÐ°":7809,"Ð¸Ð»ÐµÐ²":7810,"ĠÐ³ÑĮÐ°Ð±ÐµÐ³Ð¸":7811,"ĠÐºÐºÐ¾Ð»ÐµÐ»ÑĬÑĥÐ»":7812,"ĠÐĵÓıÐ°ÑħÑĮÐ²Ð°ÑħÑĬ":7813,"ĠÑĢÐ°ÑħÑĬÐ°Ð·ÑĥÐ»":7814,"ĠÐ±ÐµÑĤÓıÐµÑĢÐ»ÑĬÐ¸":7815,"Ð¸ÑıÑģÐµ":7816,"ĠÑĢÐ°Ð³ÓıÑĥÐ»ÐµÐ±":7817,"ĠÑĨÓıÑĥÐ½Ð°ÑĢÐ°Ð±":7818,"ĠÐĴÐµÑĢÑħ":7819,"ĠÐ³ÓĢÑĥÑĢ":7820,"ĠÐļÑĬÐ¾ÑĢ":7821,"ĠÑħÑĮÐ¾Ð½":7822,"ĠÐ±Ð°ÑĩÑĥÐ½Ð°":7823,"ĠÐ³ÓıÐ¾Ð´Ð¾Ð²Ðµ":7824,"ĠÑĢÐ°ÑĤÐ°ÑĢÐ°Ð»":7825,"ĠÑħÐ¸ÑģÐ¸Ð·Ð°Ð±Ð¸Ð·Ðµ":7826,"ĠÐ´Ð°Ð½Ð´ÑĩÓıÐ²Ð°ÑıÐ»":7827,"ĠÐ³ÑĮÐ¾ÑĢÐºÑĮÐ¾ÑĢÐ»ÑĬÐ°Ð±Ð¸":7828,"ĠÐ´Ð¸Ð½Ð°Ð»Ð´Ð°":7829,"ĠÐ³ÓıÐ°Ð´Ð°ÑĤÐ¸ÑıÐ²":7830,"ĠÑĤÐµÐ»Ð°":7831,"ĠÑħÓıÑĥÑĢÐ¼Ð°ÑĤÐ¸ÑıÐ±":7832,"ĠÐĵÓıÐ°Ð»Ð¸ÐµÐ²Ð°":7833,"ĠÐ»ÑĬÐ°Ð»Ð°ÑĢÐ¾Ð³Ð¾":7834,"ĠÑģÐ°Ð¿Ð°ÑĢÐ°Ð»ÑĬ":7835,"ĠÐ½Ð°Ð»Ð¾Ð³Ð°Ð·ÑĥÐ»":7836,"ĠÐ¼ÑĥÐ·ÐµÐ¹":7837,"ĠÐ¥Ð°ÑģÐ°Ð²ÑİÑĢÑĤÐ°Ð»Ð´Ð°":7838,"ĠÑĤÓıÑĥÐ±Ð°Ð·Ð°Ð±Ð¸Ð·Ðµ":7839,"ĠÐ»ÑĬÐ¸ÐµÐ½Ð¸Ð³Ð¸":7840,"ĠÐĺÑĢÐ°Ð½Ð°Ð»ÑĬÑĥÐ»":7841,"Ð°Ð¼Ð±Ð»":7842,"ĠÑĩÐ°Ð½ÑĨÓıÑĥÐ»Ð³Ð¾":7843,"ĠÑĢÐ°Ñī":7844,"ĠÑĢÐ°ÑĨÓıÑĨÓıÐ°Ð´":7845,"ÑĤÐ°Ð»ÑĬÑĥÐ»":7846,"Ð¸Ð½Ð¸":7847,"ĠÑħÐ¸ÑıÐ»":7848,"ĠÑĤÓıÐµÑĢÑħÑĮ":7849,"ĠÐºÐºÐ°Ð½Ð°Ð½Ð¸":7850,"ĠÐ°Ð±Ðµ":7851,"Ð°Ð¶Ð°Ð¸Ð½":7852,"ĠÐ±ÐµÑĩÓı":7853,"ĠÐ±ÐµÐ³ÓıÐµÑĢ":7854,"ĠÐĳÐ°Ð³":7855,"ĠÑīÐ²Ð°Ð»Ð´Ðµ":7856,"ĠÐ±Ð¸ÑħÑĮÐ¸Ð´Ð°Ð»":7857,"ĠÑĢÑĥÐ³Ð¸Ñī":7858,"ĠÐ¨ÑĥÑĢ":7859,"ĠÐ¶Ð¸Ð½Ð´Ð¸ÑħÑĬ":7860,"ÐļÐ¾Ð¼":7861,"ĠÐĸÐ¸Ð½Ð´":7862,"ĠÐ²ÑĥÐ³Ð¾Ð½Ð¸":7863,"ÐµÑģÑĤÐ°Ð½":7864,"ĠÐ¼Ð°ÑĨÓıÐ°Ð·Ð´Ð°":7865,"ĠÑģÐ°ÑħÐ°Ð±":7866,"ĠÐ¯ÐºÑĬ":7867,"ĠÑīÐ¸Ð²Ð°Ñģ":7868,"ĠÐ¸ÑĢÐ³Ð°":7869,"ĠÐ±Ð¾ÑĢÑĩ":7870,"ĠÑĪÐ°ÑĢÐ¸Ð³Óı":7871,"ĠÐĳÐ°Ð¹ÑĢÐ°Ð¼":7872,"ĠÐ¼Ð°Ð¹Ð´Ð°Ð½":7873,"ĠÐ¾ÐºÑĢÑĥÐ³Ð°Ð»ÑĬÑĥÐ»":7874,"ĠÐ¦ÓıÑĥÐ½ÑĤÓıÐ°":7875,"26":7876,"ÑĢÐ¾Ð´":7877,"ÐºÐ°Ð³Ð¸":7878,"Ð°Ð³Ð¸ÑĨÐ¸Ð½":7879,"Ð°ÑĤÐ¸ÑĢ":7880,"ÐµÐ»Ð´Ðµ":7881,"ĠÐ´Ð¸ÑħÑĬ":7882,"ĠÐ½Ð¸ÑıÑĤ":7883,"ÓĢÐ°":7884,"Ð°ÑħÑĬÐ°":7885,"Ð°ÐºÑĬÐ»Ñĥ":7886,"ÐµÐ´Ð°Ð³Ð¸":7887,"ĠÑħÑĬÐ°ÑĩÓı":7888,"ĠÐĳÐ°Ð³ÑĬ":7889,"ĠÑĢÐ°ÑħÑĬÐ³Ð¸":7890,"ĠÐ¿ÑĢÐ¾Ð¼ÑĭÑĪÐ»ÐµÐ½":7891,"ĠÐ³ÓĢÐ°ÑĢ":7892,"ÐµÐ»ÑĮÐ´":7893,"ĠÐ³ÓıÐ°Ð´Ð°Ð¼Ð°Ð»Ð³ÑĥÐ½":7894,"ĠÑģÐ¿ÐµÐºÑĤ":7895,"ĠÑħÓıÐ°ÑģÐ¸Ð»Ð°Ð·ÑĥÐ»":7896,"ĠÐºÑĬÐ¾ÑĤÓıÐ°Ð½Ð°":7897,"ĠÐºÑĬÐ¾ÐºÑĬÐ°ÑıÐ»ÑĬÑĥÐ»":7898,"ĠÐĵÓĢÐ°Ð±Ð´ÑĥÐ»":7899,"Ð¾Ð»ÑĮÐ½Ð¸ÑĨÐ°":7900,"Ð¦ÓıÐ¸ÑıÐ±":7901,"ĠÐ¥ÓıÐ°ÑģÐ°Ð½Ð¾Ð²":7902,"ĠÐ³ÑĬÑĥÑĤÐ°Ð´Ð°":7903,"ĠÐĽÐµÐ½Ð¸Ð½Ð³ÑĢÐ°Ð´":7904,"ĠÐ³ÓĢÐ°Ð´Ð°Ð¼Ð°Ð»":7905,"ĠÐĲÐ¹ÑĤ":7906,"ĠÑĤÑĢÐ°Ð½ÑģÑĦÐ¾ÑĢÐ¼Ð°ÑĤ":7907,"ĠÐľÐ¾ÑĩÓıÐ¾":7908,"ĠÐ¼Ð°ÑĤÐµÐ¼Ð°ÑĤÐ¸ÐºÐ°ÑıÐ»ÑĬÑĥÐ»":7909,"Ð¸ÑıÐ¼Ð°ÑģÐµÐ±":7910,"ĠÐļÐŁÐ¡Ð¡":7911,"Ð»Ð°Ð»":7912,"ÐºÐ°Ð½":7913,"ÑĥÐ½Ð³":7914,"ÑĥÐ½Ð´":7915,"Ð¸Ð½ÑĨ":7916,"ĠÑħÓıÐµÑĤÓı":7917,"ĠÑĩÐ°Ð¼Ð°Ð»Ð¸Ð³Ð¾":7918,"ĠÐ¥Ð°Ð·Ð°Ð¼":7919,"ÑĥÑħÓıÐ°Ð¼Ð¼Ð°Ð´":7920,"ĠÐ³ÑĮÐµÐ·ÑĥÑħÑĬ":7921,"ĠÐ»ÑĬÑĥÑĤÑĥÐ½":7922,"ĠÐ³ÑĮÐ°Ð±ÑĥÐ½Ð³Ð¸":7923,"ÐļÐ¾Ð½":7924,"ÐļÐ°Ð²ÐºÐ°Ð·":7925,"ĠÑĢÐ°ÐºÑĮÐ°Ð·Ð´Ð°":7926,"ĠÑĪÐ°Ð³ÑĮÐ°ÑĢÐ°Ð»Ð´Ð°ÑģÐ°":7927,"ĠÑħÑĬÑĥÐ»ÑĥÑħÑĬÐ°Ð»":7928,"ĠÐ±Ð°ÐºÑĬÑĥÐ»":7929,"ĠÐ¥Ð°Ð´ÑĥÐ²":7930,"ĠÐ±Ð¾ÑĢÑħÐ°Ð»ÑĬÐ¸":7931,"ĠÑĤÓıÐ°Ð³ÓıÐ°Ð¼":7932,"Ġ2018":7933,"ĠÐĲÐ½ÑĨÓı":7934,"ĠÑĢÐµÐ´Ð°ÐºÑĨÐ¸ÑıÐ»ÑĬÑĥÐ»":7935,"ĠÐºÑĮÑĥÑĩÓıÐ°Ð»Ð´Ð°":7936,"ĠÐ»ÑĬÐµÐ»Ð³Ð¾":7937,"ĠÐºÐ°ÑĢÐ°Ð½Ð´Ð°":7938,"ĠÐĵÓıÐ¾Ð±Ð¾Ð´Ð°":7939,"ĠÐ³ÑĮÑĥÐ¸Ð½Ð»ÑĬÐ¸":7940,"ÑĢÑıÐ´":7941,"ĠÐ³ÓıÐ°Ð¼Ð¼":7942,"ÐºÑĬÐ°Ð´Ð¸ÑĢ":7943,"Ð¿Ð¸ÐºÑĬ":7944,"ĠÐļÑĥÑĢ":7945,"Ð°ÑıÐ»Ð¸":7946,"Ð°ÑıÐ»ÑĬÑĥÐ»Ð°Ð±":7947,"ĠÐĽÐ°Ð±Ð°Ð·":7948,"ĠÐļÑĬÐµÐ±ÐµÐ´":7949,"ÐľÐĲ":7950,"ĠÐ¦ÓıÐµÑħ":7951,"ĠÐºÓıÐ²ÐµÐ»":7952,"ĠÐ³ÓıÐ°Ð³Ð°ÑĢÐ»ÑĬÐ¸ÑıÐ»ÑĬÑĥÐ»":7953,"ĠÐ±Ð¾ÑĢÑħÐ¸Ð·Ðµ":7954,"ĠÐºÑĬÑĥÐ½ÐºÑĬ":7955,"ĠÑĪÐ¸Ð¼Ð°Ð»Ð¸ÑıÐ±Ð³Ð¸Ð½":7956,"ĠÐ³ÓıÐ°ÐºÓıÐ°":7957,"27":7958,"Ð´Ð°Ð³ÑĮÐ°Ð±":7959,"Ð¼ÑĥÑģÐ»Ð¸Ð¼":7960,"Ð°Ð´Ð°Ð³Ð¸":7961,"Ð°ÑħÐ°Ð»ÑĬÑĥÐ»":7962,"Ð°Ð²Ð°":7963,"ĠÐľÐĴÐĶÑıÐ»ÑĬÑĥÐ»":7964,"ĠÑħÓıÐ°Ð»ÐºÓı":7965,"Ð°ÑĨÐ°Ð³Ð¸":7966,"ĠÑģÐ¾Ð½Ð³Ð¸":7967,"ĠÐ¡Ðľ":7968,"ĠÐ¸Ð½Ð´Ð°Ð»":7969,"ĠÐ¾Ð¿Ð¾Ð»ÑĩÐµÐ½":7970,"ĠÑĦÐ°Ð¼Ð¸Ð»":7971,"ĠÐ¹Ð¸Ð³Ð¸":7972,"ĠÐĵÑĬÐ¸ÑĢ":7973,"ĠÐ¢ÓıÐ¾ÑĨ":7974,"ĠÐ±Ð°Ð¹Ð±Ð¸ÑħÑĮÑĥÐ»ÐµÐ±":7975,"ÐĿÐ°Ð»ÑĬÑĥÐ»":7976,"ĠÐ³ÑĮÐµÐ´Ð¸Ð½Ð°Ð²":7977,"ĠÑħÑĮÐ²Ð°Ð³Óı":7978,"ĠÐ°Ð»ÑĮ":7979,"ĠÐ¼Ð°ÑĨÓĢÐ°Ð»ÑĬÑĥÐ»":7980,"ĠÑĩÓıÐ°Ð³Ð¾ÑıÐ±":7981,"ĠÐ³ÑĬÑĥÑĤÐ°Ð½Ð°Ð»Ð´Ð°":7982,"ĠÐ³ÓıÐ°ÑģÑĢÑĥÑıÐ»Ð´Ð°":7983,"ĠÐºÑĮÐ°Ð±ÑĥÐ½":7984,"ĠÐ¨ÐºÐ¾Ð»Ð°Ð»Ð´Ð°":7985,"ĠÐ³ÓıÐ¸Ð½ÑĤÓıÐ°Ð¼":7986,"ĠÐ·Ð°Ð²ÐµÐ´ÑĥÑİÑīÐ¸Ð¹":7987,"ĠÐĵÑĬÐ°Ð»Ð±Ð°ÑĨÓı":7988,"ĠÐ¼Ð¸Ð»Ð»Ð¸Ð°ÑĢÐ´":7989,"ĠÐ´Ð°Ð½Ð´ÐµÑĢÑĥÑģÑģ":7990,"ÑĥÐ»Ð°ÑĢÐ¸Ð½":7991,"ÑģÐ¾Ð²ÐµÑĤ":7992,"ĠÐºÑĮÐµÑıÐ»ÑĬÐµ":7993,"ĠÐĳÐ°ÑĢ":7994,"ĠÑĤÓıÐ¾Ð±Ð¸ÑĤÓıÐ¸ÑıÐ»ÑĬÐµ":7995,"ĠÐºÑĬÐ²Ð°ÑĤÓıÐ¸ÑģÐ°":7996,"ĠÑĥÐ½ÑĤÐ°ÑĢÐ°Ð·Ðµ":7997,"ĠÐ¼Ð°Ð³ÓıÐ¸ÑĪÐ°ÑĤÐ°Ð·Ð´Ð°":7998,"Ð´Ð¸Ð½Ð¾Ð²":7999,"ĠÐĲÐ½ÐºÑĮ":8000,"ĠÐ´Ð°ÑĢÐ°Ð¶Ð°ÑıÐ»Ð´Ðµ":8001,"Ð¾Ð³ÑĢÐ°Ð¼Ð¼":8002,"ĠÐĺÑģÑĢÐ°Ð¿":8003,"ĠÐĳÐµÐ³ÑĮ":8004,"ĠÐĳÐ°ÑĤÐ¸ÑĢ":8005,"ĠÑĤÐµÐ»ÐµÐ²Ð¸Ð·Ð¾ÑĢ":8006,"ĠÑħÐ²Ð°Ð»ÑĩÐµÐ½":8007,"ĠÑĥÑĩÐ¸ÑĤÐµÐ»Ð°ÑģÑĥÐ»":8008,"ĠÑĨÑĨÐ¸Ð¼":8009,"ĠÐĶÑĥÐ¼Ð°ÑıÐ»ÑĬÑĥÐ»":8010,"ĠÐ¿Ð¾ÑģÐµÐ»Ð¾Ðº":8011,"35":8012,"ĠÐ³ÑĥÐº":8013,"Ð±Ð¸Ð³Ð¸":8014,"ĠÐºÐ¸ÑĢÐµ":8015,"ĠÐ´Ð¸Ð°Ð»":8016,"ĠÐ´Ð¸ÑĨÐ°Ð³Ð¾":8017,"ÐµÐ½Ð¸ÑıÐ»ÑĬÑĥÐ»":8018,"ĠÐ°Ð±Ð¸Ð´Ð°Ð»":8019,"ĠÐłÐ°Ð¹":8020,"Ð³ÓıÐ°Ð½Ð°Ð²":8021,"ÐĵÑĮÐµÐ»ÑĬÐ¸Ðµ":8022,"ĠÐ¿ÑĢÐ¾ÑĤ":8023,"ĠÐ³ÓıÐµÐ¼ÐµÑĢÐ¸ÑģÐµÐ·":8024,"ĠÐĲÐ»ÑĮ":8025,"ĠÐ§Ð°Ð½Ð³Ð¸":8026,"ĠÐĽÑĬÐ°Ð»Ð°ÑĢÐ¾":8027,"ĠÑĢÐ¸ÐºÓıÐºÓıÐµÐ½":8028,"ĠÐ³Ð°Ð·ÐµÑĤÐ°Ð»":8029,"ĠÐºÐ²ÐµÐºÓı":8030,"ĠÐ±Ð°ÐºÑĬÐ²":8031,"ĠÐ¼ÑĥÐ³ÓıÐ°Ð»Ð¸Ð¼Ð»ÑĬÑĥÐ½":8032,"ĠÐ¥ÑĬÐ°ÑħÓıÐ°Ð±":8033,"ĠÐºÐ°ÐºÐ°Ð»":8034,"ĠÐ³ÑĮÐ¾ÑĢÐºÑĮÐ¾ÑħÑĬÐµÐ»":8035,"ĠÑĢÐ°ÑħÑĩ":8036,"ĠÐ²Ð°ÑĩÓĢ":8037,"ĠÐ·Ð°ÑħÓıÐ¼Ð°Ð»ÑĬÐ°Ð±Ð°Ð·ÑĥÐ»":8038,"ĠÐºÑĬÐµÑĢÐºÑĮÐµÐ·Ðµ":8039,"ĠÐ³ÑĮÐ¾ÑĢÐºÑĮÐ¾ÑģÐµÐ»":8040,"Ð¥ÓıÐ°ÐºÑĬÐ¸ÐºÑĬÐ°ÑĤÐ°Ð»ÑĬÑĥÐ»":8041,"ĠÐ³ÓıÑĥÐ½Ð³ÑĥÑĤÓıÐ¸":8042,"ĠÑĩÐ²Ð°ÑħÑĥÐ»ÐµÐ±":8043,"ĠÐ¿ÐµÑĢÐµÐ´":8044,"ĠÐłÐ°Ð³ÑĬÑĥÐ»":8045,"ĠÐ¸Ð½Ð¶ÐµÐ½ÐµÑĢ":8046,"ĠÐ³ÓĢÐ°ÑĤÓĢÐ¸Ð»ÑĬÐ¸":8047,"Ð´Ñĥ":8048,"Ð²ÐµÑĤ":8049,"Ð¼ÐµÑĢ":8050,"Ð¸ÐºÐ»Ð¸Ð½":8051,"ĠÐĳÐ°ÐºÓı":8052,"ÐĵÑĮÐ°ÑĢ":8053,"ĠÑĨÓıÐ¸ÐºÓıÐºÓıÐ¸Ð½Ð°Ð±":8054,"Ð¸Ð³ÐµÐ½":8055,"ÑıÐ·Ðµ":8056,"Ġ33":8057,"ĠÐ±Ð°ÑĩÐ°ÑĢÐ°Ð±":8058,"ĠÐºÑĬÐ°Ð´Ð°ÑĢÐ°Ð»ÑĬÑĥÐ»":8059,"ĠÐºÑĬÐ¾ÐºÑĬÐ°Ð±Ð³Ð¾":8060,"ĠÐ¥Ð°Ð´ÑĥÑĢ":8061,"ĠÐ³ÓıÐ°Ð´Ð°ÑĤÐ»ÑĬÑĥÐ½":8062,"ĠÐºÓĢÐ°Ð»ÑĬ":8063,"ĠÐĴÐ°ÑĤÓıÐ°Ð½Ð°Ð»ÑĬÐµ":8064,"ĠÐ¥Ð°ÑģÐ°Ð±":8065,"Ġ2000":8066,"ĠÐ²Ð°ÑĩÐ°Ð½Ð°":8067,"ÑħÐ°Ð»Ð¸ÐºÑĬ":8068,"ĠÐºÑĢÐ¸ÑĤ":8069,"ĠÐ¼ÑĥÐ·ÐµÑıÐ»ÑĬÑĥÐ»":8070,"ĠÐ¾ÑĦÐ¸ÑĨÐµÑĢ":8071,"ÐºÑĬÐ°Ð´Ð³Ð¸":8072,"ĠÐ±ÑĢÐ¸Ð³Ð°Ð´Ð¸ÑĢ":8073,"ĠÐ½Ð°ÑĢÐºÐ¾ÑĤÐ¸Ðº":8074,"ĠÐ³Ð²Ð°Ð½Ð³ÑĬÐ°ÑĢÐ°Ð±":8075,"ĠÐ¿ÑĢÐ¾ÑĦÐµÑģÑģÐ¸Ð¾Ð½Ð°Ð»Ð¸ÑıÐ±":8076,"Ð»Ð¸Ñĩ":8077,"ÑĥÐ»Ð¸":8078,"ÐºÐ¾Ð½Ð¾Ð¼":8079,"Ð°Ð½Ð³":8080,"ÑħÑĥÑĢ":8081,"Ð¸Ð½Ð°ÑĤ":8082,"ĠÐĵÐ°Ð·":8083,"ĠÐ¼Ð°Ð»ÑĬÑĥÐ»ÐµÐ±":8084,"ĠÑģÐ°ÑĢ":8085,"ĠÐ½Ð°Ð·":8086,"Ð³ÑĮÐ¾ÑĢÐºÑĮ":8087,"ÑĥÐ±Ð°ÑĢ":8088,"Ð¸ÑģÑĤÐ¸ÑıÐ±":8089,"Ð¾Ð±ÑĥÑģ":8090,"ĠÐłÑĥÐ³ÑĬ":8091,"ĠÐ³ÑĬÐ°ÑĢ":8092,"ÐłÐ°ÑħÑĮÐ´Ð°Ð»":8093,"ĠÐ¸ÑĪÐ»ÑĬÑĥÐ½":8094,"ĠÐ³ÓıÐ°ÑħÑĮÐ°Ð»Ð»ÑĬÑĥÐ»Ð°":8095,"ĠÐļÑĬÑĥÑĢÐ±":8096,"ĠÑħÓıÐ°Ð¶Ð°Ð»ÑĬÑĥÐ»Ð°":8097,"ĠÑģÐ°ÑħÐ°Ð²":8098,"ĠÐŃÑĢ":8099,"ĠÐŃÐ¼ÐµÐ½":8100,"ÑĥÑīÐ¸":8101,"ĠÐ¥ÓıÐ°Ð¼Ð·Ð°ÑĤÐ¸ÑĨÐ°":8102,"ÑĤÐµÑĢÐ½":8103,"ĠÐĴÐ°ÑĤÓıÐ°Ð½Ð°Ð»ÑĬÑĥÐ»":8104,"ĠÐºÐ¾Ð¼Ð°Ð½Ð´Ð°ÑıÐ»ÑĬÐµ":8105,"Ġ2008":8106,"ĠÑĤÐ¾ÑħÑĤÑĥÑĢÐ·Ð°Ð±Ð¸":8107,"Ð±Ð°ÑģÐ¸ÑĢ":8108,"ĠÐ±Ð¸ÑĩÑĥÐ»ÐµÐ±":8109,"ĠÑħÐµÑĢÐ°Ð²":8110,"ĠÐ±Ð°ÐºÓıÐ°ÑĢÑĥÐ»ÐµÐ±":8111,"ĠÑĤÐ°ÐºÑĬÑģÐ¸ÑĢÐ³ÑĮÐ°Ð±Ð¸ÑıÐ»ÑĬÑĥÐ»":8112,"ĠÐĵÓıÐ°Ð±Ð´ÑĥÐ»Ð°ÑĤÓıÐ¸Ð¿Ð¾Ð²Ð°ÑģÑĥÐ»":8113,"ĠÑīÐ²ÐµÐ·Ð°Ð±ÑĥÐ½Ð°":8114,"ÑĩÐ¸ÑıÑģÐµ":8115,"ĠÐ³ÓıÐµÐ½ÐµÐºÐºÐ¸Ð·Ðµ":8116,"ĠÐĶÐ°Ð½Ð´ÐµÐ»ÑĬÐ¸ÑıÐ»Ð´Ð°":8117,"ĠÐºÐ°ÑĢÑĤÐ¾ÑĪ":8118,"ĠÐºÑĬÑĥÑĢÐºÑĮ":8119,"ĠÐĶÐ°ÑĢÐ±Ð¸ÑĪ":8120,"ĠÐºÐ¾Ñģ":8121,"ÑĤÓıÐ°Ð»":8122,"Ð°Ð²Ð°ÑĢ":8123,"ÐµÐ½Ð³Ð¸":8124,"ĠÑħÓıÐ°Ð·Ðµ":8125,"ÐºÑĮÐµÐ¹":8126,"ĠÐºÓıÐ¸ÑıÐ»Ð³Ð¾":8127,"ĠÐºÐºÐ¾Ð»ÐµÐ´ÑĥÑħÑĬ":8128,"ĠÑĩÓıÐµÐ³Óı":8129,"ĠÑĩÓıÐ²Ð°ÑĢÐ°Ð²":8130,"ĠÐ³ÑĮÐ°ÑĢÐ¸ÑĩÓıÐ¾Ð³Ð¾":8131,"Ð´Ð°ÑģÐ°Ð½Ð³Ð¾":8132,"ĠÑĢÐ°Ð³ÑĬÑĥÐ»ÐµÐ»":8133,"Ð¥ÑĮ":8134,"ĠÐ±Ð°ÑĤÓıÐ¸Ð±Ð°ÑĤÓı":8135,"ĠÐ£Ð¿":8136,"ĠÐ¸Ð½ÑģÑĥÐ´Ð°":8137,"ÐµÑĩÓıÐ¾Ð½Ð¸Ð³Ð¸":8138,"ĠÐ³ÑĬÑĥÑĢÑĥÑĪ":8139,"ĠÐºÐ²ÐµÐ³Óı":8140,"ĠÐ¼Ð°ÑģÐ»":8141,"Ġ65":8142,"ĠÑĤÓıÐ°Ð³ÓıÐ¸Ð½Ð°ÑĢ":8143,"Ð¨ÐĲ":8144,"Ġ2017":8145,"ÐĽÑĬÐ°Ð±":8146,"ĠÐ³ÑĮÑĥÐ½Ð°ÑĢÐ³Ð¸":8147,"ĠÑĪÐ°ÑĢÑĤÓıÐ°Ð»Ð³Ð¸":8148,"ÐĵÑĬÐ¾ÑĢÐºÑĮ":8149,"ĠÑĢÐ¸Ð³ÑĮÐ¸Ð½":8150,"ĠÐ¦Ð¾Ð³Ð¸Ð´Ð°Ð»":8151,"ĠÑĢÐ°ÑģÐ³Ð¸":8152,"ĠÐĵÓıÐ°Ð»Ð¸Ð±ÐµÐ³Ð¾Ð²":8153,"ĠÐ½ÐµÐºÓıÑģÐ¸ÑıÐ»":8154,"ĠÐºÑĬÐ²Ð°ÑĤÓıÐ¸ÑĢÐµÑħÑĥÐ½":8155,"Ð±Ð°ÐºÓıÐ°Ð·Ð´Ð°":8156,"ĠÐ¸ÑħÐ´Ð°Ð»Ð¸Ð»":8157,"ĠÐºÐ°Ð¿Ð¸ÑĤÐ°Ð»Ð¸ÑıÐ±":8158,"ĠÐ¶Ð°Ð½ÑĥÐ±Ð¸ÑıÐ±Ð³Ð¸Ð½":8159,"ĠÐ³Ð°ÑĢÐ³Ð°Ð´":8160,"Ð½Ñı":8161,"ĠÐ±Ð°Ð³ÓıÐ°ÑĢÐ°Ð±":8162,"ĠÐ³ÑĮÐ°Ðº":8163,"ĠÐ³ÓıÐµÑĩ":8164,"ĠÐłÑĥÑģÑĤ":8165,"ĠÑĩÓıÑĩÓı":8166,"ĠÑĢÐ°ÑħÑĬÐ¸":8167,"ĠÑĥÐ½ÐµÐ¹":8168,"ÑıÐ»ÑĬÑĥÑħÑĬ":8169,"ĠÐ»ÑĬÑĥÐ³ÑĮÑĥÐ½ÐµÐ»":8170,"ĠÐ¸ÑĪÐ°Ð»Ð´Ðµ":8171,"ĠÐ°ÑħÓıÐ´":8172,"ĠÑĢÑĥÐ³ÐµÐ»Ð³Ð¸":8173,"ĠÐ§ÑĥÑĢ":8174,"ĠÑĢÐ°ÐºÓıÐ°Ð»ÑĬ":8175,"ĠÐ±ÑĥÐºÓıÐ°ÑĢÐ°Ð±Ð»ÑĬÐ¸":8176,"Ð¸Ð¿Ð¿":8177,"ĠÑĢÐ°Ð³ÑĮÐ¸ÑıÐ»ÑĬÑĥÐ»":8178,"ĠÐ¸Ð´Ð°ÑĢÐ°":8179,"ĠÑĥÑĢÐ³ÑĬÑĥÐ½Ð³Ð¾":8180,"ĠÐ¼Ð°Ð³ÓıÐ¸ÑĪÐ°ÑĤÐ°Ð·ÑĥÐ»":8181,"Ð¾ÑĢÑĩÓıÐ°Ð¼Ð¸":8182,"ĠÑĩÓıÐ²Ð°Ð½ÐºÑĬÐ¾ÑĤÓı":8183,"ĠÐ±Ð°ÑĩÑĩÑĥÐ½":8184,"ĠÐºÑĮÐ¾Ð³Óı":8185,"ĠÐ¿ÐµÐ½ÑģÐ¸Ñı":8186,"ĠÑģÑĤÐ¾Ð»Ð°Ð»Ð´Ð°":8187,"ĠÐĳÐ°Ð´ÑĢÑĥÐ´Ð¸Ð½":8188,"ĠÐ¿ÑĢÐ¾ÑĦÐ¸Ð»Ð°ÐºÑĤ":8189,"ĠÑĥÐ³ÑĮ":8190,"Ð´Ð°ÑħÑĬ":8191,"Ð´Ð°Ðµ":8192,"ÐºÐ¸Ð½":8193,"Ð¸Ð½ÑĤÓı":8194,"ĠÑĨÐµÑħ":8195,"ÑĥÑĢÐ°Ð»ÑĬÑĥÑħÑĬ":8196,"Ð¾ÑģÐµÐ»":8197,"ÐµÐ½Ð·":8198,"ĠÐºÓıÐ¸ÑĨÓı":8199,"ĠÑĢÐ¾ÑģÑģÐ¸ÑıÐ»ÑĬÑĥÐ»":8200,"ĠÐłÐ°Ð¼Ð·":8201,"ĠÑĩÓıÑĥÑħÑĮ":8202,"ĠÐ¡Ð¾Ð½":8203,"ĠÑĢÑĥÐºÓıÐ°Ð³Ð¾":8204,"ĠÐ½Ð¸Ð»ÑĬÐ³Ð¾":8205,"ĠÐºÐ²Ð°Ð½Ð°Ð»":8206,"ĠÐ±ÐµÑĤÓıÐµÑĢÐ³Ð¸":8207,"ĠÐºÑĮÑĥÐ½Ð¸":8208,"ĠÐ²Ð°ÑĩÓıÑĥÐ½Ð°":8209,"ĠÐ±Ð°ÐºÑĬÐ²Ð°ÑĢÐ°Ð±":8210,"ĠÐ±Ð°Ð¶Ð°ÑĢÑĥÐ½":8211,"ĠÐ¥ÑĥÐ½Ð·Ð°ÑħÑĬÐµ":8212,"ĠÑĨÐµÐ±ÐµÑĤÓıÑĥÑĢÐ°Ð±":8213,"ĠÐ³ÓıÐ°ÐºÑĬÐ»":8214,"ĠÐºÑĮÐµÑıÐ»ÑĬÑĥÐ»ÑĬ":8215,"ĠÐĲÑħÐ¼ÐµÐ´":8216,"ĠÐ±Ð¸ÑĩÐ¸Ð·Ðµ":8217,"ĠÐ¿Ð¸ÑħÑĬÐ¸Ð»":8218,"ĠÐ¼Ð¸Ð»Ð¸ÑĨÐ¸ÑıÐ»ÑĬÑĥÐ»":8219,"ĠÐ³ÑĥÑĢÐ¶Ð¸ÑıÐ·ÑĥÐ»":8220,"ĠÐ²Ð¾ÐµÐ½":8221,"ĠÑģÐ¿ÐµÐºÑĤÐ°Ðº":8222,"ĠÐ³Ð°":8223,"ĠÐºÐ°Ð²ÐºÐ°Ð·":8224,"ÑĤÓıÐ°ÑģÐ°":8225,"ĠÐ¶ÑĥÐ½":8226,"ĠÑĤÓıÐ°Ð³ÑĬÑĥÑĢ":8227,"Ð¸ÑħÐ°Ð½Ð¾Ð²":8228,"Ð¸ÑĤÐ¾Ð²":8229,"ĠÐĵÓıÐµÐ»":8230,"Ð¸Ð´Ð¸":8231,"ÐµÐ¼ÐµÐ½":8232,"ĠÐ¡Ð°Ð²":8233,"ÐµÑħÐ½Ð¸Ðº":8234,"ÑĪÐµÑĢ":8235,"ĠÐ½ÑĥÑħÐ°Ð»ÑĬÑĥÐ»":8236,"ĠÐ³ÓıÐ°Ð´Ð°Ð¼Ð°Ð·Ð´Ðµ":8237,"Ð¸ÑģÑĤÐ°Ð½Ð°Ð»Ð´Ð°":8238,"ĠÐ¦ÐµÑĢÐµ":8239,"ĠÑĢÑĥÐ³ÐµÐ·ÑĥÐ»":8240,"ÐłÐ°ÑģÑĥÐ»":8241,"ĠÑĨÓıÑĥÐ½Ð¸ÑıÐ»Ð´Ðµ":8242,"ĠÐ»ÑĬÐ¸Ð¼Ð°Ð»Ð³ÑĥÐ½":8243,"ĠÐ³ÑĮÐ°Ð½Ð¸Ð²Ðµ":8244,"ĠÑĢÐ°ÐºÑĮÑĨÐ¾ÑıÐ»":8245,"ÑıÐ±ÑĢÐ°Ð»ÑĬ":8246,"ĠÐ³Ð°Ð·ÐµÑĤÐ°Ð»ÑĬÐµ":8247,"Ð¿ÑĢÐµÑģÑģ":8248,"ĠÑįÐºÐ¾Ð½Ð¾Ð¼Ð¸ÐºÐ°":8249,"ĠÑĤÓıÐ¸Ð±Ð¸ÑĤÓıÑĥÐ½":8250,"ĠÐ¥ÓıÑĥÑģÐµÐ½Ð¾Ð²":8251,"ĠÐļÑĬÑĥÑĢÑĬÐ°Ð½Ð°Ð»Ð´Ð°":8252,"ĠÐ»ÑĬÑĥÐºÑĬÑĥÐ½":8253,"ĠÐ°Ð³ÑĢ":8254,"ĠÐĽÑĬÐ¸Ð¼Ð°Ð»Ð°Ð·ÑĥÐ»":8255,"ĠÐ¿ÑĢÐµÐ´Ð¿ÑĢÐ¸ÑıÑĤ":8256,"ĠÐ¸ÑģÐ°Ð½Ð°Ð³Ð¸":8257,"ĠÐ±Ð¾Ð»Ð¶Ð°Ð»":8258,"ĠÐĶÐĲÐ¡Ð¡Ðł":8259,"ĠÐ¥ÑĬÐ°Ð·Ð°Ð½Ð±":8260,"ĠÐ°ÑıÑĤ":8261,"Ð°Ð±Ð°":8262,"ÑĤÐ¾Ð²":8263,"ÐºÓıÐ¸":8264,"ÐºÓıÐ°ÑĩÓı":8265,"Ð¾Ð½Ð°Ð½Ð¸":8266,"Ð°Ð³ÑĮÐ¸Ð»":8267,"ĠÐľÐ¸Ð½":8268,"ĠÐ¿Ð¾ÑĢÑĤ":8269,"Ð°ÐºÑĬÐ¸ÑĢ":8270,"Ð»ÑĬÐ¸ÐºÓı":8271,"ĠÐĶÐ°Ð¼Ð°Ð´":8272,"ĠÑīÐ²ÐµÑıÐ»ÑĬÑĥÐ»":8273,"Ð¾Ð´Ð¸Ð½":8274,"ĠÑħÐ°Ð»Ð°Ð»ÑĬÐ¸":8275,"ĠÐĺÐ²Ð°Ð½":8276,"ÐĳÑĥÐºÓı":8277,"ĠÑħÐ²Ð°Ð¶Ð°Ð¸Ð½":8278,"ÑĥÐ³ÐµÑıÐ½":8279,"ĠÑĢÐµÑħÑģÐ¾Ð»ÐµÐ±":8280,"ĠÐ±Ð¸ÑĩÑĩÐ°ÑĩÓıÐ¾Ð³Ð¾":8281,"ĠÐ´Ð¸ÐµÐ³Ð¸":8282,"ÑħÐ°Ð½Ð¾Ð²Ð°Ñģ":8283,"ĠÑĩÓıÐ²Ð°Ð»Ð°":8284,"ĠÐŁÐ°ÑĤÓıÐ¸Ð¼Ð°ÑĤÐ¸Ð»":8285,"Ð¢ÓıÐ¾ÑĨÐµÐ±Ðµ":8286,"ĠÐ±Ð°Ð³ÑĮÐ°Ð½":8287,"ĠÐºÐºÐ²ÐµÐ¹":8288,"ĠÐºÐ¾Ð¼Ð¸ÑģÑģÐ¸Ñı":8289,"ĠÑĩÓıÐ°Ð³Ð¾Ð»ÑĬÐ¸":8290,"ĠÐĵÓıÐ°Ð±Ð´ÑĥÐ»Ð°Ð³ÑĮÐ¸ÑĨÐ°":8291,"Ð©Ð¸Ð²":8292,"ĠÐ³ÓĢÑĥÑĨÓĢÐ¸ÑıÐ»ÑĬÑĥÐ»":8293,"ĠÐ±ÑİÐ´Ð¶ÐµÑĤÐ°Ð»ÑĬÑĥÐ»":8294,"ĠÑĤÓıÐ°ÑĤÓıÐ°Ð»":8295,"ĠÐľÑĥÑħÓĢÐ°Ð¼Ð¼Ð°Ð´":8296,"Ð»Ð¸Ð¼Ð¿Ð¸ÑıÐ»ÑĬÑĥÐ»":8297,"ĠÑĤÓıÐ°ÑħÑĮÐ°Ð·ÑĥÐ»":8298,"ĠÐ·Ð°Ð¼ÐµÑģÑĤÐ¸ÑĤÐµÐ»Ð°Ð»":8299,"ĠÐ¸Ð½ÑģÐ¿ÐµÐºÑĤÐ¾ÑĢ":8300,"Ð´Ð°Ð³ÑĮÐ¾ÑĢÐºÑĮÐ¾ÑģÐµÐ±":8301,"ÑĥÐ»Ð¸Ñī":8302,"ĠÐºÐ¸Ð±Ð³Ð¾":8303,"ĠÑĢÐµÐ·":8304,"Ð°Ð·Ð¸Ð·":8305,"Ð¸ÑĢÐ°ÐºÑĮ":8306,"ĠÑĤÓıÐµÐ·Ðµ":8307,"ĠÐ»ÑĬÑĥÐ³ÓĢ":8308,"ÐĵÑĮÐ¸ÑĤÓı":8309,"ĠÐĸÐ°Ð±ÑĢÐ°Ð³ÓıÐ¸Ð»":8310,"ĠÑĨÓıÐ¸ÐºÓıÐºÓıÐ¸Ð½Ðµ":8311,"Ġ36":8312,"ĠÑħÑĥÑĢÐ·Ð°Ð»":8313,"ĠÑĢÐ°Ð³ÑĬÑĥÐ»Ð°Ð²":8314,"Ġ2019":8315,"ĠÐ¼Ð°ÑĪÐ¸Ð½Ð°Ð±":8316,"ĠÐĵÓıÑĥÐ¼Ð°ÑħÐ°Ð½Ð¾Ð²":8317,"ĠÐ¤ÐµÐ´ÐµÑĢÐ°Ð»Ð¸ÑıÐ±":8318,"ĠÐºÐ¾Ð½Ñģ":8319,"ÑħÓıÐ°Ð¶Ð¸ÐµÐ²":8320,"ĠÐ§ÓıÐ¸ÐºÓı":8321,"ĠÐ±Ð°ÐºÓıÐ°ÑĢÐ°ÑĢÐ°Ð±":8322,"ĠÐ¼Ð¸Ð½Ð¸ÑģÑĤÐµÑĢÐ»ÑĬÐ¸ÑıÐ»ÑĬÑĥÐ»":8323,"ĠÐ³ÑĮÐ°Ð½Ð¶ÐµÑģÐµÐ»":8324,"ĠÐ¥ÑĮÑĥÐ»":8325,"ĠÑĦÐ¸Ð»Ð¾ÑģÐ¾ÑĦ":8326,"ĠÐ´Ð¸Ð²Ð°Ð½Ð°Ð»Ð´Ðµ":8327,"ÐĲÑħÐ¸ÑĢÐ°Ð±":8328,"ĠÐ»Ð¸ÑĤÐµÑĢÐ°ÑĤÑĥÑĢÐ°ÑıÐ»ÑĬÑĥÐ»":8329,"ĠÐ¥ÓıÐ°Ð¹Ð±ÑĥÐ»":8330,"ÐĲÐ³ÑĬÐ²Ð°Ð»Ð¸":8331,");":8332,"Ð½ÑĥÑħ":8333,"ĠÐ±Ð¸ÑĩÓı":8334,"ĠÑħÑĥÐ½Ð·":8335,"Ð°Ð¼Ð°Ð»Ð³Ð¸":8336,"ĠÐ´Ð°":8337,"ĠÐ±ÑĥÐ³Ð¾Ð»ÑĬÐ¸ÑıÐ»ÑĬÑĥÐ»":8338,"ĠÑĩÐ²Ð°Ð½":8339,"ĠÐºÑĮÐ°Ð±Ð¸":8340,"Ð¾Ð±Ð°":8341,"ĠÐĳÑĥÑĨÓı":8342,"ĠÐ¥ÓıÐ¸Ð½ÐºÑĬ":8343,"ĠÐ¥ÓıÐ°Ð´Ð¸Ñģ":8344,"ĠÐ±Ð°ÐºÓıÐ°Ð»ÑĬÑĥÐ»Ð°Ð±":8345,"ĠÐ»ÑĬÑĥÐ³ÑĮÐ°Ð±Ð°ÑħÑĬ":8346,"ÐĲÑģ":8347,"ĠÐ±Ð°ÑĤÐ¸ÑĩÓıÐ¾Ð½Ð¸":8348,"ĠÐ°Ð½ÑĨÓĢ":8349,"ĠÑĤÓıÐ¾ÑĨÐµÑĢÐµ":8350,"Ð°Ð»Ð¸ÐºÑĮ":8351,"Ð¦ÑıÐ»ÑĬÑĥÐ»":8352,"ÐĺÐĽ":8353,"ĠÑħÐ¸ÑģÐ¸":8354,"ĠÐ²Ð°ÑĨÐ³ÓıÐ°Ð»":8355,"ĠÐĵÓĢÐ°ÑĢÐ°Ð±":8356,"ĠÐ¯ÑħÓı":8357,"ĠÐ³ÓıÐ°ÑĢÑĨÑĥÑħÑĬ":8358,"ĠÐ©Ð¸Ð±ÑħÐ°":8359,"ĠÑĤÓıÐ°Ð±Ð¸Ð³ÓıÐ¸ÑıÐ»":8360,"ĠÐ±ÑĥÑģÑĥÑĢÐ±Ð°Ð½":8361,"ĠÐĵÓıÐ°ÑĢÐ°ÑĨ":8362,"ĠÑħÓıÐ°ÑĢÐ¿":8363,"ĠÐ²Ð°ÑħÓıÑĪÐ¸ÑıÐ±":8364,"ĠÑĩÓıÐ¾ÑĢÐ¾Ð³Ð¾":8365,"ĠÐ¼Ð°Ð³ÑĬÐ°Ð»Ð¾":8366,"Ð¸Ñİ":8367,"Ð°Ð±Ð¸ÑĢ":8368,"Ð°ÑĢÑħ":8369,"ĠÐ±ÑĥÑħÑĬ":8370,"ĠÐĳÐµÐ¶":8371,"ĠÐ³ÑĮÐµÐ»Ð´Ð°ÑģÐ°Ð½":8372,"ĠÐ¸Ð½Ð°Ð»ÑĬÐµ":8373,"ÑĦÐµÑĢ":8374,"ĠÑĨÓıÑĥÐ½Ð°Ð½Ð°":8375,"Ð°ÐµÐ²Ð°ÑģÐµ":8376,"ĠÐºÑĥÐ¼ÐµÐºÑĩÐ¸":8377,"ĠÐ³ÑĮÐµÐ·ÑĥÐ»Ð³Ð¸":8378,"ĠÐ³Ð°Ð·ÐµÑĤÐ°Ð»ÑĬ":8379,"Ð¸ÑıÐ·Ð´Ð°ÑģÐ°":8380,"ĠÐŃÑĢÐºÐµÐ½Ð»ÑĬÐ¸":8381,"ĠÑĢÐ°ÑĩÑĥÐ½Ð°":8382,"ĠÐºÐ»Ð°ÑģÑģÐ°Ð·Ð´Ð°":8383,"ĠÑİÑģÑģ":8384,"ĠÑĨÐ¾Ð¹Ð³Ð¸Ð´":8385,"ĠÐ³ÓıÐ°ÑĢÑĨÑĥÐ»Ð°Ð±":8386,"ÐļÓıÐ¸Ð³Ð¾":8387,"ĠÐ³ÑĮÐ°Ð½Ð¶ÐµÐ»ÑĬ":8388,"Ð¸Ð½ÑģÑĥÐ´Ð°":8389,"ĠÑĨÐµÑĢÐµÑĤÓıÐµÐ·Ð°ÑĢ":8390,"ĠÑĤÓıÐ°Ð´Ð²ÑĥÑģÑģÑĥÐ½":8391,"ĠÐ¼Ð°Ð¶Ð»Ð¸ÑģÐ°Ð»ÑĬÑĥÐ»":8392,"ĠÑİÑĢÐ¸Ð´":8393,"ĠÐ¡ÑĥÑĢÑħÐ°Ð¹":8394,"ĠÐŀÐľÐĴÐĶÑıÐ»ÑĬÑĥÐ»":8395,"ĠÐĴÐµÑĢÑħÐ¾Ð²":8396,"96":8397,"ÑĥÑıÐ»ÑĬÑĥÐ»":8398,"Ð³Ð¸ÑıÐ½":8399,"Ð¸Ð·Ð°":8400,"ĠÐ´Ð°Ð»Ð¸Ð»":8401,"Ð¾Ð²Ð¸Ðº":8402,"ĠÐ¥Ð°ÑĤ":8403,"ĠÐºÑĮÑĥÑĩÓĢ":8404,"ĠÐ¡Ð°Ð¶Ð¸Ð´":8405,"ĠÑħÐ°Ð»Ð³ÑĮÐ°Ð±Ð¸":8406,"ÑĤÓıÐµÑĢÑħÑĮÑĥÐ»":8407,"ĠÐ¸ÑĪÐ°Ð»Ð³Ð¸":8408,"ĠÑħÐ°Ð»ÐºÑĬÐ°Ð·":8409,"ĠÐĽÑĬÐ°Ð³ÓıÐ¸Ð»":8410,"ĠÑģÐ¿Ð¾Ð½Ñģ":8411,"ĠÐ±Ð¸ÑĩÓıÑĩÓıÐ¸Ð·Ð°Ð±Ð¸Ð·Ðµ":8412,"ĠÐ¼ÐµÑħÐ°Ð»ÑĬÐ³Ð¸":8413,"ÐĽÐµÐ½":8414,"ĠÐ±Ð°ÑħÑĥÐ½ÐµÐ±":8415,"ĠÐ¼Ð¸Ð½Ð°ÑıÐ»ÑĬÑĥÐ»":8416,"ĠÐĺÐ½Ñģ":8417,"ĠÐ³ÑĮÐ¸ÐºÑĬÐ¸Ð´Ð°Ð»":8418,"Ġ1941":8419,"ĠÐ¼Ð¾ÑĨÓıÐ°Ð»":8420,"ĠÐĽÐµÐ½Ð¸Ð½Ð¸Ð»":8421,"Ġ2022":8422,"ĠÑīÐ²ÐµÐ·Ð°ÑĢÑĥÐ½Ð°":8423,"ĠÐ±Ð°ÑĢÑī":8424,"ĠÑĢÐ¸Ð¸Ð´Ð°Ð»Ð¸Ð»":8425,"ĠÐ¡ÑĥÐ³ÑĬÑĢÐ°Ð»ÑĬÐµ":8426,"ĠÐ´ÐµÐ»ÐµÐ³":8427,"ĠÑĨÐ¾ÑħÓıÐ¾Ð³Ð¾":8428,"ĠÐ²ÑĭÐ¿ÑĥÑģÐºÐ½Ð¸Ðº":8429,"ÑĩÐºÓıÐ°":8430,"Ð´ÑĥÐ»Ð°":8431,"Ð°ÑĢÐ°Ð¼":8432,"Ð¸Ð½ÑģÑĤÐ¸ÑĤÑĥÑĤ":8433,"ĠÐ²Ð°Ð»":8434,"Ð¸Ð·Ð¸Ð½":8435,"Ð¸ÑħÓĢ":8436,"Ð¸ÑĨÐµ":8437,"ĠÐºÓıÑĥÐ½":8438,"Ð°ÑĢÐ°Ð»Ð»ÑĬÑĥÐ½":8439,"ĠÑħÑĬÐ¸Ð·Ð°Ð±":8440,"ĠÑĪÑĥÑĢ":8441,"ĠÐĳÐ°ÑĩÓı":8442,"ĠÐ³ÑĮÐµÑģÐ´Ð°ÑģÐ°":8443,"ĠÐ¢Ð°Ð²":8444,"ĠÐ±Ð¾Ð»ÑĬ":8445,"Ð°Ð½Ð¸Ð¹":8446,"ĠÐ±ÐµÑĤÓıÐµÑĢÐ±Ð°ÑħÑĬ":8447,"ÐĲÐ²":8448,"ĠÐĹÑĥÐ»":8449,"Ġ34":8450,"Ð¦ÐµÐ±Ðµ":8451,"Ġ55":8452,"ĠÑĤÓĢÐ¾ÑĨÐµÐ±ÐµÑģÐµÐ±":8453,"ĠÑĤÐ°ÑĢÐ¸ÑħÑĩÐ¸":8454,"ĠÐ±Ð°ÑħÐ°Ð½Ð°":8455,"ĠÐ»ÑĬÐ°Ð±Ð°Ð±Ð³Ð¾":8456,"ĠÐºÐ¾Ð¼Ð°Ð½Ð´Ð°ÑıÐ»ÑĬÑĥÐ»":8457,"ĠÑĩÑĥÑĢÐ¸Ð·Ðµ":8458,"ĠÐ¿Ð¾Ð»Ð¸ÑĤÐ¸ÐºÐ¸ÑıÐ»":8459,"ÐłÐ¾ÑģÑĥÐ»ÑĬ":8460,"ĠÐºÐ¾Ð´Ð¾ÑĢ":8461,"Ð¦ÓıÑĥÐ¼Ð°Ð´Ð°":8462,"Ġ1944":8463,"ĠÑĤÓıÐ°Ð´ÐºÑĬÐ°Ð¹":8464,"ĠÑıÑĨÐ°Ð»":8465,"ĠÑĥÑĩÐ°ÑģÑĤÐºÐ°ÑıÐ»ÑĬÑĥÐ»":8466,"ĠÐĳÐ¾ÐºÑĮÐ¸Ð»Ð°Ð°Ð½":8467,"ĠÑĤÓıÐ¾ÑĨÐµÐ²Ðµ":8468,"ĠÑĤÐµÐ¼Ð°ÑıÐ»Ð´Ð°":8469,"ĠÐºÐ¾ÑĩÓıÐ¾Ð»ÑĬ":8470,"ĠÐĵÐµÐ½ÑĥÐ±":8471,"ĠÑĨÐµÐ±ÐµÐºÐºÑĥÐ½Ð³Ð¾":8472,"ĠÐ±Ð°ÐºÑĬÑĤÓĢÐµÑĢÑħÑĮÑĥÐ´ÐµÑħÑĥÐ½":8473,"ĠÐĽÑĬÐ°ÑĢÐ°ÑĤÓĢÐ°":8474,"ĠÐļÐŁÐ¡Ð¡Ð°Ð»ÑĬÑĥÐ»":8475,"):":8476,"in":8477,"ĠÐ±Ð¾Ð»ÑĮÐ½Ð¸ÑĨÐ°":8478,"ĠÐ´Ð¾ÑĢ":8479,"ĠÑģÐ°Ð³Óı":8480,"Ð¿Ð¸ÑĤ":8481,"Ð°Ð·ÐµÐ³ÑĥÐ½":8482,"ĠÐĵÓıÐ¾Ð»":8483,"ĠÐĵÓıÑĥÑĨÓı":8484,"Ð»ÑĬÑĥÐ½Ð³Ð¾":8485,"ÐµÐ¼Ð°":8486,"ĠÐĳÐ¸ÑĩÓıÑĩÓı":8487,"ĠÑĢÐ°Ð¹Ñģ":8488,"ĠÐ³ÑĮÐµÑĩÓıÐ¾Ð»ÑĬÐ¸ÑıÐ»Ð´Ð°":8489,"ĠÐ»ÑĬÐ¸Ð¼Ð°Ð´ÑĥÐ»":8490,"ÑİÐ±":8491,"ĠÐ°Ð½Ð¸Ð½":8492,"ÐĳÐ¸ÑħÑĮ":8493,"ĠÑħÓıÐ°Ð¶Ð°Ð»ÑĬÑĥÐ»ÐµÐ±":8494,"ĠÑĪÐ°Ð³ÑĮÐ°ÑĢÐ°Ð·ÑĥÐ»":8495,"ĠÐ°ÑħÐ¸ÑĢÐ¸ÑģÐµÐ»":8496,"ĠÐŃÐ»":8497,"ĠÑĢÐ°ÑĤÐ°Ð½Ð¸Ð³Ð¸":8498,"Ġ75":8499,"ĠÐºÑĬÑĥÐ²Ð°ÑĤÐ°Ð±":8500,"ĠÐ½Ð°ÑĩÐ°Ð»ÑĮÐ½Ð¸ÐºÐ°ÑģÑĥÐ»":8501,"ĠÐĿÑĥÐ¶ÐµÑĨÐ°":8502,"ĠÐ¡Ð°Ð¹Ð³Ð¸Ð´Ð¿Ð°ÑĪÐ°":8503,"ĠÐ¸ÑģÐºÑĥÑģÑģÑĤÐ²Ð¾ÑıÐ»ÑĬÑĥÐ»":8504,"ĠÑĩÓıÐ²Ð°Ð»ÐµÐ±":8505,"ĠÐ¼ÑĥÐºÑĬÑģ":8506,"ĠÐ¿ÑĢÐ¾Ð´ÑĥÐºÑĨÐ¸Ñı":8507,"ĠÐºÐ°Ð»ÐµÐ½Ð´":8508,"ĠÑħÓĢÐ°ÑĢÐ¿":8509,"ĠÐ°ÑĢÑħÐ¸ÑĤÐµÐºÑĤ":8510,"Ð»ÐµÐ»":8511,"Ð°Ð·ÑĥÑħ":8512,"Ð¸Ð»Ñı":8513,"ĠÐ¼Ð°Ð»ÑĬÑĥÐ½":8514,"ĠÐ»Ð°Ð±":8515,"ĠÐ»ÑĬÐ°Ð»ÑĬ":8516,"ĠÐºÐºÐ°Ð½Ð¸Ð½":8517,"ĠÑħÓıÐ°ÑıÐ»":8518,"Ð¸Ð»ÑĬÐ¸ÑıÐ»ÑĬÑĥÐ»":8519,"ĠÐĳÐ¸ÑĤÓıÑĥÐ½":8520,"ĠÐ¥ÓıÐ°Ñģ":8521,"Ð¸ÑıÐ»ÑĬÐ°Ð¶":8522,"ĠÐľÑĥÑħÓıÐ°Ð¼Ð°Ð´Ð¸Ð´Ð°":8523,"ĠÐ±ÐµÑĤÓıÐµÑĢÐ»ÑĬÐ¸ÑıÐ»Ð´Ð°":8524,"ÐļÐ¸Ð½Ð°Ð»Ð³Ð¾":8525,"ĠÐ°ÑħÓıÐ¸ÑıÐ»ÑĬÑĥÐ»":8526,"ÑĥÐºÑĢÑĥ":8527,"ĠÐļÑĬÐµÐ´Ð¸":8528,"ĠÐ³ÑĮÐµÐ·ÑĥÐ»Ð³ÑĥÐ½":8529,"ĠÐ¥ÓıÐ°Ð¶Ð°ÑĤ":8530,"ĠÐŀÐ±":8531,"ĠÐ¥ÑĬÐ²Ð°ÑĢ":8532,"ĠÐºÓĢÐ²Ð°ÑĢ":8533,"ĠÐ¥Ð°ÑģÐ°Ð»":8534,"ĠÐ¼Ð¸Ð½Ð¸ÑģÑĤÐµÑĢÐ»ÑĬÐ¸ÑıÐ»ÑĬ":8535,"ĠÐ¿Ð°ÑĪÐ¼Ð°Ð½Ð°Ð±":8536,"ĠÐ¥Ð°ÑģÐ°Ð²ÑİÑĢÑĤÐ°Ð»ÑĬÑĥÐ»":8537,"ĠÐĵÓıÑĥÑģÐ¼Ð°Ð½Ð¾Ð²":8538,"ĠÐĶÐ¸Ð±Ð¸ÑĢÐ¾Ð²":8539,"ĠÑħÓıÐ°Ð»ÑĤÓıÐ¸Ð·Ð°Ð±ÑĥÐ»Ð°":8540,"ĠÑĤÓıÐ°Ð´Ð²ÑĥÑģÑģÐ°Ð½Ð°":8541,"ÐĺÐ½ÑģÐ°Ð½":8542,"ĠÑĤÑĥÐ¼Ð°Ð½ÐºÓı":8543,"Ð¾Ð»ÑĮÑĪÐµÐ²Ð¸Ðº":8544,"Ð°Ð»ÑħÓıÐ°ÑģÐ¸Ð»":8545,"ĠÐ´ÐµÐ¼Ð¾ÐºÑĢÐ°ÑĤ":8546,"ĠÑĥÐ³Ð¾Ð»Ð¾Ð²":8547,"Ð³Ð°Ð½":8548,"ÐºÐµÑĢ":8549,"Ð±ÐµÑĢÐ±":8550,"ĠÐºÑĥÐ¼":8551,"ÑģÐ¸":8552,"ĠÐ³ÓıÐ°Ñĩ":8553,"Ð¸ÑĢÐ³Ð¸":8554,"ĠÐ°Ð±Ð¸ÑĩÓıÐ¾Ð³Ð¾":8555,"ĠÐłÑĥÑħÓı":8556,"ĠÐ³ÑĬÐµÐ¶":8557,"ĠÐ³ÑĮÐ°ÑĢÐ¸ÑıÐ»ÑĬÐµ":8558,"ĠÐ±ÑĥÐºÓıÐ¸Ð½Ð¸Ð½":8559,"ĠÑħÐ°ÑģÐ°Ð»Ð¸Ð»":8560,"ĠÑĤÓıÐ¾Ð±Ð¸ÑĤÓıÑĥÐ½":8561,"ĠÐºÑĬÐ°Ð´Ð°Ð»":8562,"Ð¸Ð·Ð°ÑĢÑĥÑĢÐ°Ð»":8563,"ĠÐ¼Ð°Ð³ÓıÐ°ÑĢÑĥÐ»Ð°Ð·Ð´Ð°":8564,"ĠÐ¦ÓıÐ°ÑĢ":8565,"ĠÐ¿Ð°ÑĩÐ°Ð»Ð¸ÑħÑĬÐ°Ð·ÑĥÐ»":8566,"ĠÑħÓıÑĥÐºÐ¼Ð°Ð±Ð¸":8567,"ĠÐĿÐ¸Ð»ÑĬÐµÐµ":8568,"ĠÑĢÑĥÐºÓıÑĥÐ½Ð°ÑĢÐ¾":8569,"ĠÐ®Ð½ÑĥÑģ":8570,"ĠÐ·Ð°ÐºÐ°Ð³ÓıÐ°ÑĤ":8571,"ĠÑĢÐµÐ»ÑĬÐ»ÑĬÑĥÐ½":8572,"Ġ1943":8573,"ĠÐ±Ð¸ÑīÐ¸Ð·Ðµ":8574,"ĠÐľÐ°Ð»Ð°Ñĩ":8575,"ĠÐ´Ð°Ð½Ð´ÐµÑĩÓıÐ°ÑĢÐ°Ð±":8576,"ĠÐºÐ²Ð°ÑĢÐ°Ð½Ð°Ð±":8577,"ĠÐ¦ÐµÐ½ÑĤÑĢÐ°Ð»ÑĬÑĥÐ»":8578,"Ð°ÑĤÑĮÑıÐ½":8579,"ĠÑħÐ¾Ð»Ð°":8580,"Ð°ÑĤÑĢÐ°Ð»Ð´Ð°":8581,"ÑĥÑĢÐ°Ð·ÑĥÐ»":8582,"ĠÐ»ÑĬÐ»ÑĬ":8583,"ĠÐ»ÑĬÐ°Ð²":8584,"ĠÐ»ÑĬÐ¸Ð´Ð°Ð³Ð¾":8585,"Ð¶Ð¸Ð´":8586,"ĠÑĩÐ²ÐµÑĢ":8587,"ĠÑĩÐ°Ð³ÓĢ":8588,"Ð¸ÑıÐ»ÑĬÑĥÐ»Ð°Ð»":8589,"ĠÐĳÑĥÐ³":8590,"ĠÑįÐ¿":8591,"ĠÐ½Ð°ÑħÑĬÐ°ÑģÐ°Ð½":8592,"ĠÑĢÐ¸ÐºÓıÐºÓıÐ°Ð´Ðµ":8593,"ÑģÐºÐ¸ÑıÑģÑĥÐ»":8594,"ĠÐºÐ²ÐµÑĢÑī":8595,"ĠÐ¿Ð¸ÐºÑĢÑĥÑıÐ»ÑĬÑĥÐ»":8596,"ĠÑģÐ¿Ð¾ÑĢÑĤÑĪÐºÐ¾Ð»":8597,"ĠÐĿÐ¸Ð¶ÐµÐ´Ð°":8598,"ĠÑĩÓıÐµÐ·Ð°Ð±ÑĥÐ»ÐµÐ±":8599,"ĠÐ»ÑĬÐ¸Ð¼ÐµÑĢÐ°Ð»ÑĬÐµ":8600,"ĠÐºÐ°Ð¼ÑĥÐ»Ð°ÑĢÐ¾":8601,"ĠÐľÑĥÐ½Ð°Ð³ÑĮÐ°Ð»":8602,"ĠÑģÐ¿Ð¾ÑĢÑĤÑģÐ¼ÐµÐ½Ð°Ð»":8603,"ĠÐ¿ÑĢÐ¾ÐºÑĥÑĢÐ°ÑĤÑĥÑĢÐ°ÑıÐ»ÑĬ":8604,"Ð¸ÑĩÓĢÐ¾Ð³Ð¾":8605,"ĠÐ²Ð°Ð³ÓıÐ·Ð°":8606,"ĠÐ¥ÓıÐ°ÐºÑĬÐ¸ÐºÑĬÐ°ÑĤÐ°Ð»Ð´Ð°Ð³Ð¸":8607,"ĠÐ¿ÐµÐ´Ð°Ð³Ð¾Ð³Ð¸ÐºÐ¸ÑıÐ±":8608,"ĠÐºÐ½":8609,"ĠÑĤÐ°ÑĤ":8610,"Ð°ÑĢÐ°Ð±Ð³Ð¸":8611,"ÑĩÐ¸Ð³Ð¸":8612,"ÑĥÐ´Ð¸ÑıÐ·ÑĥÐ»":8613,"ÑħÓıÐµÑħÑĮ":8614,"ĠÐ¢ÐµÐ»":8615,"ĠÐĿÐ°ÑģÑĢÑĥ":8616,"ÐĶÑĥÑĢ":8617,"Ð¼Ð°Ð½Ð°Ð¿":8618,"ĠÐļÑĬÐ°Ð½":8619,"ĠÐļÑĬÐ°Ð´Ð¸":8620,"ĠÐ²Ð°ÑģÐ°ÑģÐµ":8621,"ĠÐĽÑĬÐ°Ð»ÐµÐ±":8622,"ĠÑĪÐ°Ð³ÑĮÐ¸Ð´":8623,"ĠÐ»ÑĬÐ°Ð¹Ð³ÑĥÐ½":8624,"ĠÐ±Ð°Ð»Ð°Ð³ÑĮÐ°Ð»":8625,"ĠÐ±Ð¸ÑĩÓıÑĩÓıÑĥÐ»Ð°ÑĢÐ¾":8626,"ÐĵÓıÑĥÐ¼ÑĢÑĥ":8627,"ĠÑħÓıÐ°Ð´ÑĥÑĢÐ¸Ð·Ðµ":8628,"ĠÐ´Ð¸ÐµÐ³Ð¾":8629,"ĠÐ²Ð°ÐºÑĨÐ¸Ð½":8630,"ĠÑĢÐ¾ÑħÐµÐ»Ð³Ð¸":8631,"ĠÑĩÓıÐµÐ·Ð°Ð±ÑĥÐ½Ð°":8632,"ĠÐ§ÓıÐ°ÑĢ":8633,"ĠÑīÐ¸Ð²Ð°ÑģÐµ":8634,"Ð¾Ð»Ð¾Ð³Ð¸ÑıÐ±":8635,"Ġ2006":8636,"Ð¤Ð¡":8637,"ĠÐ±ÑĥÑħÑĮÐµÐ½Ð°Ð»":8638,"ĠÐ³ÓıÐ¸ÑģÐ¸":8639,"Ð½ÑĥÑģÐ³Ð¾":8640,"ĠÐ°Ð³ÐµÐ½ÑĤ":8641,"ĠÐ¼Ð°Ð³ÓıÐ°ÑĢÐ´Ðµ":8642,"ĠÐľÐ°ÑħÑĥÐ»":8643,"ĠÐłÑĥÐºÓıÐ°Ð½Ð°":8644,"ĠÐ°Ð·Ð±Ð°ÑĢÐ°Ð»Ð´Ð°":8645,"ĠÑģÐ¸ÑıÑģÐ°ÑĤ":8646,"ÐĲÑħÓıÐ¼Ð°Ð´":8647,"ÐĸÐ¸Ð½Ð´Ð¸ÑĢÐ³Ð¾":8648,"Ð³Ð°":8649,"ÑĥÐ»ÐµÐ·Ð´Ð°":8650,"ĠÐ³ÓıÐ°Ð±":8651,"Ð¸Ð»Ð¾Ð²Ð°Ñģ":8652,"Ð¸Ð·Ð°Ñİ":8653,"ÑĨÐ¸Ð¾Ð½":8654,"Ð¾ÑĢÐ¾Ð´":8655,"ĠÐľÐ¸Ñħ":8656,"Ð¿Ð¾Ð·Ð¸ÑĨ":8657,"ÑıÐ»Ð¸":8658,"ĠÐ¢Ð°Ð¼":8659,"ĠÐ¢Ð°ÑĤÑĮÑıÐ½":8660,"ĠÐ±Ð¾ÑıÐ»ÑĬÑĥÐ»":8661,"Ð¸Ð·Ð°Ð±Ð¸ÑıÐ»Ð´Ð°":8662,"ĠÐ°ÑģÑģ":8663,"ĠÐ¨Ð¸ÑĢ":8664,"ĠÐĹÐ°Ð³ÑĬÐ°Ð»":8665,"ĠÑĢÐµÑħÐ°Ð½Ð°":8666,"ĠÐ³ÑĮÐ°Ð²ÑĥÐ»Ð°":8667,"Ð°Ð³ÓĢÐ°ÑĤ":8668,"ĠÑĤÓĢÐ°Ð¼":8669,"ĠÑĥÐ»ÐºÐ°Ð±Ð°Ð·ÑĥÐ»":8670,"ĠÐ³ÓıÐ¸Ð»Ð»Ð°Ð±Ð¸":8671,"ĠÐ±Ð¸Ð³ÑĮÐ°Ð»ÑĬÐ¸":8672,"ĠÐ±ÑĥÐºÓıÐ¸Ð½ÑĩÓıÐ¸Ð½":8673,"ĠÐĵÓıÐ¸ÑģÐ°ÐµÐ²Ð°Ñģ":8674,"ĠÐ¿ÐµÐ½ÑģÐ¸Ð¾Ð½ÐµÑĢ":8675,"ĠÑħÓıÑĥÑħÑĮÐ±Ð°ÑħÑĬÐ¸":8676,"ĠÑıÑĢÐ³ÑĬÐ¸Ð´Ð³ÓıÑĥÑĨÓı":8677,"ĠÐ¾Ð±Ð»Ð°ÑģÑĤÐ°Ð»ÑĬÑĥÐ»":8678,"ĠÑĢÑĥÐºÓıÐ¸Ð½ÑĩÓıÐµÐ»":8679,"ĠÐĵÓıÐ°ÑħÑĮÐ°Ð»ÑĩÓıÐ¸":8680,"ĠÐŃÑĩÐµÐ´Ð°":8681,"ĠÐ¡ÐĴÐŀÑıÐ»Ð´Ð°":8682,"ÑĢÐ°Ð¹":8683,"Ð°Ð³Ð¸ÑıÐ½":8684,"Ð°ÑģÐ¸ÑıÐ±":8685,"Ð°ÑģÐ´Ð°Ð³Ð¸":8686,"ÐºÓıÐ°Ð½ÑĨÓı":8687,"ĠÑĤÐ°Ð½Ðº":8688,"ĠÐ´Ð¾ÑĢÐµ":8689,"ĠÐ¿Ð¾":8690,"Ð³ÑĮÐµÐºÑĬ":8691,"ĠÑĨÓıÐ²Ð°":8692,"ÐºÑĮÐ°Ð»":8693,"ÑĥÑħÑĬÐµÐ³Ð¸":8694,"Ð¹Ð¸Ð´Ðµ":8695,"ĠÐĳÐ¸Ñĩ":8696,"ĠÐ·Ð°Ð¼Ð°Ð½Ð°Ð»Ð´Ð°ÑģÐ°":8697,"ĠÐ°ÑģÑħÓıÐ°Ð±":8698,"ĠÐ´Ð°Ð½Ð´ÐµÐ»ÑĬÐ¸ÑıÐ»Ð´Ðµ":8699,"ĠÐ½Ð°ÑħÑĬÑĢÑĥÑģÑģ":8700,"ĠÑĢÐ°Ð³ÓıÐ¸Ð·Ðµ":8701,"ĠÑīÐ¸Ð±Ð´Ð°Ð¹":8702,"ĠÐ¼ÐµÑħÐ°Ð½":8703,"ĠÐ¼ÐµÑħÐ°Ð»Ð´Ð°Ð³Ð¸":8704,"ĠÑĢÐ°ÐºÓıÑĩÓıÑĥÐ½":8705,"ĠÐºÑĬÐ²Ð°ÑĤÓıÐ¸Ð²":8706,"ĠÑĢÐ°ÑħÑĬÐ°Ð»ÑĬÐ³Ð¸":8707,"ĠÐ°ÑħÐ¸ÑĢÐ³Ð¸":8708,"ĠÑĢÑĥÐºÑĬÐ·Ð°Ð±Ð°ÑħÑĬ":8709,"Ġ44":8710,"ĠÑĨÐ¾Ð³Ð¸Ð´Ð°Ð·Ðµ":8711,"ĠÐ³ÑĮÐµÐºÑĬÐ¾Ð½":8712,"ĠÐĳÐ°ÑĢÐºÐ°Ð»Ð°ÑıÐ»ÑĬÑĥÐ»":8713,"ĠÐºÐ°Ð¼Ð¸Ð»Ð°Ð±":8714,"ĠÑĤÐ°Ð²Ð¿Ð¸ÐºÑĬ":8715,"ĠÐºÐ°Ð³ÑĬÑĤÐ¸Ð´Ð°":8716,"ÐĲÐ»Ð»Ð°Ð³ÑĮÐ°ÑģÑĥÐ»":8717,"ĠÑģÑĥÐ±ÑģÐ¸Ð´":8718,"ĠÐ³ÐµÐºÑĤÐ°ÑĢÐ°Ð»Ð´Ð°":8719,"ĠÐ±Ð°ÐºÑĬÐ±Ð°ÐºÐºÑĥÐ»":8720,"ĠÑįÐ½ÐµÑĢÐ³":8721,"ĠÐĲÐ·ÐµÑĢÐ±Ð°Ð¹Ð´":8722,"ĠÐĹÐ°Ð»Ð¼Ñĥ":8723,"ĠÐ±Ð¸Ð»ÑĬÐ»ÑĬÐ°Ð½ÑħÑĬ":8724,"Ð¾ÑĤÑĢÐµÐ±":8725,"ĠÐ£Ð¿ÑĢÐ°Ð²Ð»ÐµÐ½":8726,"ÑĢÐ¸Ð±":8727,"ÑĢÐ¸Ðº":8728,"Ð½Ð°Ð»Ð´Ð°":8729,"ĠÐ³ÑĥÐ¼":8730,"ÐºÐ°ÑıÐ»ÑĬ":8731,"Ð±Ð¾ÐºÑĮ":8732,"Ð²Ð°Ðº":8733,"ĠÐĵÐ¸Ð½":8734,"ĠÐ¼Ð°":8735,"ĠÐºÓıÐ²Ð°Ð½":8736,"Ð°ÑĨÐ¾":8737,"ĠÐ·Ð°Ð³ÑĮ":8738,"ĠÐļÐº":8739,"ĠÐļÐµÑĢ":8740,"ĠÐļÐ²Ð°ÑĤÓı":8741,"ĠÐłÐ°Ð´Ð¸Ð¾":8742,"ÑĨÓıÑĥÐ½":8743,"ĠÑĩÓıÐ¾Ð»ÐµÐ±":8744,"ĠÑĨÓıÑĥÐ½Ð°Ð³Ð¸":8745,"ĠÐ°ÑħÓıÐ°ÑĢÐ°Ð±":8746,"ĠÐ§Ð°ÐºÐ°ÑĢ":8747,"ĠÐºÐ¾Ð¼ÑģÐ¾Ð¼Ð¾Ð»":8748,"ĠÐĵÓıÐ°Ð±Ð´ÑĥÐ»Ð»Ð°Ð³ÑĮ":8749,"ĠÐĵÓıÐ°Ð±Ð´ÑĥÐ»ÑħÐ°Ð»Ð¸ÐºÑĬ":8750,"ĠÑĥÐ½ÑĤÐ°ÑĢ":8751,"ĠÑħÓıÐ°ÑģÐ¸Ð»Ð°Ð·Ð´Ð°":8752,"ÐĵÓıÐ°ÑĢ":8753,"ĠÐ±Ð¸ÑĤÓıÐ¸Ð·Ðµ":8754,"ÐĸÐ°Ð¼":8755,"ĠÑĨÓıÐµÑħÐ°Ð½Ð°":8756,"ĠÑĢÑĥÑĩÑĩÐ°Ð±Ð°Ð·Ð´Ð°":8757,"ĠÑĢÐ°ÑħÐ¸Ð½ÑĩÓıÐµÐ»":8758,"ĠÐ¼Ð¸Ð½Ð¸ÑģÑĤÐµÑĢÑģÑĤÐ²":8759,"ĠÐ³Ð¾ÑĩÐ¸Ð½Ð°ÑĢ":8760,"ĠÐ±Ð°Ð»ÑĥÐ³ÑĬ":8761,"ĠÑĦÐµÑĢÐ¼ÐµÑĢ":8762,"ÐĲÐ²Ð°ÑĢÐ°Ð³":8763,"ĠÐ¼Ð¸Ð½Ð¸ÑģÑĤÐµÑĢÑģÑĤÐ²Ð¾ÑıÐ»ÑĬ":8764,"ĠÐ¨Ð°Ð¿Ð¸Ð³Óı":8765,"ÐĵÑĮÐ°Ð±ÑģÐ°Ð³ÓıÐ°ÑĤÐ°Ð»Ð´Ð°":8766,"ĠÐºÓıÐ¸ÐºÑĬÐ¾ÑıÐ»Ð´Ð°":8767,"ĠÐ²ÑĭÑģÑĤÐ°Ð²Ðº":8768,"ĠÐĴÐ°ÑģÐ¸Ð»ÑĮ":8769,"Ð³Ð¸ÑıÐ·ÑĥÐ»":8770,"Ð°Ð±Ð°ÑĨÐ°":8771,"ĠÐ³ÑĮÐ¸ÑĤÓĢ":8772,"ÑģÐµÑĤ":8773,"ĠÐ³ÓıÐ¸Ð´Ð°Ð»ÑĬÑĥÐ»":8774,"ĠÑģÑĩÐµÑĤ":8775,"ĠÐĵÑĮÐ°Ð´Ð¸ÑĢ":8776,"ĠÐļÑĢÐ°Ñģ":8777,"ÑĨÓıÐ¸ÑıÐ»":8778,"ĠÑĩÓıÐ°Ð¼":8779,"ĠÑĤÓıÐ°Ð´Ð±ÑĥÑģÑģ":8780,"ÑīÐ¸":8781,"ÐĵÑĮÐµÐ·Ð´Ð°":8782,"ĠÐ¦Ð¾ÑĨ":8783,"ÑĦÐ¸ÑĢ":8784,"ĠÑĦÐµÐ»ÑĮÐ´":8785,"ĠÐĵÓıÐ°Ð±Ð´ÑĥÐ»Ð³Óı":8786,"ÑĭÐ½":8787,"ĠÐ¿Ð¾Ð»Ð¸ÐºÐ»Ð¸Ð½":8788,"ĠÑĤÓĢÐ°Ð³ÓĢ":8789,"ĠÐ¿ÑĢÐµÐ´Ð¼ÐµÑĤ":8790,"ĠÐºÑĬÐ¾ÐºÑĬÐ°ÑıÐ»ÑĬ":8791,"Ġ2007":8792,"ÑĢÐ°ÑħÑĬÐ¸Ð½Ð°Ð»ÑĬÑĥÐ»":8793,"ĠÑĢÐµÑĩÓıÑĩÓıÑĥÐ½":8794,"ĠÐ¸Ð½ÑĤÐµÑĢÐ½ÐµÑĤÐ°Ð»Ð´Ð°":8795,"ĠÐ¡Ð°Ð³ÓıÐ°Ð´ÑĥÐ»":8796,"ÐĵÓıÐµÐ¼ÐµÑĢÐ°Ð»":8797,"ĠÐ³ÑĢÐ°Ð¶Ð´Ð°Ð½":8798,"ĠÐ¦Ð°Ð´Ð°ÑħÑĬÐ°Ð±":8799,"ĠÐ¼Ð°ÐºÑĮÑĥ":8800,"ĠÐľÐ°Ð³ÑĮÐ´":8801,"ĠÐĸÐ¸Ð´ÐµÑĢÐ³Ð¾":8802,"ĠÐłÐ°Ð¼Ð·Ð°Ð½":8803,"ĠÑĥÐº":8804,"ĠÐ±Ð°ÑĢÐ°Ð¹":8805,"Ð°ÑĢÐ¾Ð´":8806,"ĠÐºÐµÑĢÐµÐ½":8807,"Ð°ÑģÐµÐ³Ð¸":8808,"ÐµÐ»Ð°Ð·ÑĥÐ»":8809,"Ð¾Ð»Ð°Ð³Ð¾":8810,"Ð¾Ð»Ð°ÑĢÐµÐ»":8811,"ĠÐ´Ð°Ð²":8812,"ÑĤÓıÐ¸":8813,"ĠÑĨÓıÐµÑĢ":8814,"ĠÑĢÐµÑĪ":8815,"ĠÐ¥ÑĥÐ½":8816,"ĠÐļÐ²ÐµÑĪ":8817,"ĠÐ³ÑĮÐ°ÑĢÑĥÐ»Ð°Ð³Ð¾":8818,"ĠÑħÑĬÐ²ÐµÐ·Ðµ":8819,"ĠÐĺÑħ":8820,"ĠÐ³ÓĢÐ°ÑħÑĮÐ°Ð»":8821,"ĠÐĵÓıÐ°Ð±Ð´ÑĥÐ»ÐºÑĬÐ°Ð´Ð¸ÑĢ":8822,"ĠÐ½Ð°ÑħÑĬÐµÐ³Ð¾":8823,"Ġ37":8824,"ĠÑĨÓĢÐ°ÑĢÐ°Ð»":8825,"ĠÑĢÐ¸ÑĤÓıÐ°Ð½Ð°":8826,"ĠÐ¸Ð½ÐµÐ³ÓıÐ°Ð½":8827,"ĠÐºÐ²ÐµÑĪÐ»ÑĬÐ¸":8828,"ĠÐºÐ°Ð¼ÑĥÑĢÐ°Ð±":8829,"ĠÑĩÓıÐ°ÑħÓıÐ¸ÑıÐ±":8830,"ĠÑĢÐ¸ÑħÑĮÐ¸Ð·Ð°ÑĢÐ¸Ð·Ðµ":8831,"ĠÑĢÐ¸ÑĩÑĩÐ°ÑĢÐ°Ð»":8832,"ĠÐ»ÑĬÐ°Ð»Ð°ÑĢÐ¾Ð°Ð½":8833,"ĠÐ²Ð¸ÑĤÓıÑĥÐ»Ð°":8834,"ĠÐ³ÓıÐ¾ÑĢÑħÑĬÐ¾Ð´Ð°":8835,"ĠÐĵÑĬÐ¾ÑĢÐºÑĮÐ³ÑĮÐ°ÐºÐ²Ð°ÑĢÐ¸":8836,"ĠÐ³ÓıÐ°Ð»Ð°Ð¼Ð°ÑĤÐ°Ð»":8837,"ĠÐ¥ÓıÐ°Ð»ÑĤÓıÐ¸":8838,"ĠÑĨÓıÐ¸ÐºÓıÑĥÐ½":8839,"ĠÐľÑĥÑĢÑĤÐ°Ð·Ð°Ð³ÓıÐ°Ð»Ð¸ÐµÐ²":8840,"ĠÐ¼Ð°Ð»Ð°Ð¸Ðº":8841,"ĠÐ¡ÑĤÐ°Ð»Ð¸Ð½":8842,"ĠÐ¥ÓıÐ°Ð¹Ð´Ð°ÑĢÐ±":8843,"ĠÑĩÓıÐ°Ð»Ð³Óı":8844,"ĠÐĴÐµÑĢÑħÐ¾Ð²Ð½ÑĭÐ¹":8845,"ĠÑĢÐ¸ÐºÑĬ":8846,"ÑĤÐ¸ÑĢ":8847,"Ð°ÑıÐ¹":8848,"ĠÐĲÑģÑĤÑĢ":8849,"ĠÑĢÐ¾ÑģÐ°Ð±Ð°Ð·Ð´Ð°":8850,"ĠÐĵÓıÐ¸ÑģÐ°":8851,"Ð¸Ð´Ð¸Ð½":8852,"ĠÐĳÐ¾Ð¶":8853,"ĠÐĳÐ°ÑģÐ¸ÑĢ":8854,"ĠÐ³ÑĮÐ¾ÑĢÐºÑĮÐ¾":8855,"Ð¾ÑĨÐ¸":8856,"ĠÐ±Ð°ÑħÑĬÐ¸Ð½Ðµ":8857,"ÐµÐ»ÑĮÑħÐ¾Ð·":8858,"ÑģÐºÐ¾Ðµ":8859,"ÐµÑĨÐ°Ð³Ð¸":8860,"ÑĥÐ³ÑĬÐ°Ð¹":8861,"ĠÐ¹Ð¸ÐºÓıÑĥÐ½Ð°":8862,"ĠÐ²Ð°ÑĨÐ°ÑģÑĥÐ»":8863,"ĠÐ·Ð°ÐºÐ°Ð·":8864,"ĠÑĢÐ¸ÑħÑĮÐ¸Ð·Ð°ÑĢÑĥÐ»ÐµÐ»":8865,"Ð¦ÓıÐ°ÐºÑĬ":8866,"ĠÑħÓıÐ¸ÑģÐ°Ð±Ð°Ð»Ð´ÐµÐ³Ð¸":8867,"ĠÐ±Ð¸ÐºÑĮÑĥÐ½":8868,"ĠÐ³ÓıÐ°ÐºÑĬÐ»ÑĥÐ³Ð¸":8869,"Ð°Ð»ÑĮÑĤ":8870,"ÐĿÐ¸Ð¶ÐµÑĨÐ°":8871,"ĠÑĤÐ²Ð¾ÑĢÑĩÐµÑģÐº":8872,"ĠÑıÑħÑĬÐ°Ð½Ð°":8873,"ĠÐ¼Ð°Ð³ÓıÐ°ÑĢÐ´Ð°":8874,"ĠÐ¿Ð°ÑĢÐ»Ð°Ð¼ÐµÐ½ÑĤÐ°Ð»ÑĬÑĥÐ»":8875,"ĠÐ³ÑĮÐ°Ð»Ð±Ð°Ð´ÐµÑĢÐ¸Ðµ":8876,"ĠÑģÐ°Ð¹Ð¸Ð³ÑĬÐ°ÑĤ":8877,"ĠÐļÑĬÑĥÑĢÐ±Ð°Ð½Ð¾Ð²":8878,"39":8879,"Ð»Ð¾ÑĤ":8880,"Ð´Ð°ÑıÐ½":8881,"Ð°Ð½Ð°ÑħÐ°":8882,"ĠÐ²Ð¾ÑĢÑĤ":8883,"ĠÐ¿Ð°Ð»":8884,"ĠÐ±ÑĥÐºÓıÐ°Ð³Ð¾":8885,"ĠÑĨÓıÑĥÑĢÐ°Ð»":8886,"Ð¸ÐºÐ¾Ð»Ð¾":8887,"ĠÐ¡Ð¸Ð±Ð¸ÑĢ":8888,"ĠÐ¡Ð¨ÐĲ":8889,"ĠÐĳÑĥÑħ":8890,"Ð¾Ð¼Ð±":8891,"ÑĥÐ»ÑĬÐ³Ð¸":8892,"Ð¸Ð·Ð°Ð±ÑĥÐ»ÐµÐ»":8893,"ĠÑĨÓıÐ°Ð»Ð°ÑĢÐ°Ð²":8894,"ĠÐĶÐ°Ð³ÑĬÐ¸ÑģÑĤÐ°Ð½Ð°Ð»Ð´Ð°Ð³Ð¸":8895,"ĠÐ³ÑĮÐ°Ð±ÑĥÐ½Ð¸Ð»Ð°":8896,"ĠÐ±Ð¾ÑģÐ°ÑĢÐ°Ð»":8897,"ÐĶÑĥÑĨÐ°":8898,"ĠÐĸÑĥÑĢÐ½Ð°Ð»":8899,"ĠÐ°Ð²Ð¸":8900,"ĠÐ³ÑĮÐ°Ð½Ð°Ð»":8901,"ÑģÑĤÑĢÑĥÐº":8902,"ÐĳÐ¸ÑĨ":8903,"ĠÐ¥ÓıÐ°Ð¶Ð¸ÑıÐ²":8904,"ĠÑħÑĬÑĥÐ»ÑĥÑħÑĬÐ°Ð·ÑĥÐ»":8905,"ĠÑĢÐ¾ÑģÑĥÑĨÐ¾ÑıÐ·ÑĥÐ»":8906,"ÑģÐºÐ¸ÑıÑģ":8907,"ĠÐ¼Ð°Ð³ÓıÐ¸ÑĪÐ°ÑĤÐ°Ð»":8908,"ÐŁÐµÑĤÐµÑĢÐ±ÑĥÑĢÐ³":8909,"ÑĥÐºÑĬÐ°Ð»":8910,"ĠÐ´Ð¸Ð½Ð³Ð¸":8911,"ĠÐºÑĬÐ¾ÐºÑĬÐ°Ð±Ð¸":8912,"ĠÐ³ÓıÐ°Ð´Ð°Ð¼Ð°Ð·Ð³Ð¸":8913,"ĠÑĥÑĩÐ¸ÑĤÐµÐ»ÑĮÐ·Ð°Ð±Ð°Ð·":8914,"ÐļÑĬÐ¾ÐºÑĬ":8915,"ĠÐ³Ð¾ÑĩÐ°Ð½Ð°":8916,"ĠÑĢÐ°Ð¹Ð°Ð´Ð¼Ð¸Ð½Ð¸ÑģÑĤÑĢÐ°ÑĨÐ¸ÑıÐ»Ð´Ð°":8917,"ÐµÑĢÑĤÐ¼Ð°":8918,"ĠÑĤÓıÐ°Ð´ÐºÑĬÐ°ÑıÐ»":8919,"ĠÐ³ÑĮÑĥÐ¸Ð½Ð°Ð±":8920,"ĠÐ±Ð°ÑĢÐºÐ°Ð»Ð°ÑıÐ»ÑĬÑĥÐ»":8921,"ĠÑħÓıÐ¸ÐºÐ¼":8922,"ĠÐ´Ð¾Ñı":8923,"ĠÐ»ÑĬÐµÐ±ÐµÑĢÐ³Ð¾":8924,"ĠÑĦÐ°ÐºÑĥÐ»ÑĮÑĤÐµÑĤÐ°Ð»Ð´Ðµ":8925,"ĠÐ³ÑĮÐ¸ÑĤÓıÐ¸Ð½Ð°Ð¹":8926,"Ð¢ÓıÐ°Ð´ÐµÐ³ÓıÐ°Ð½Ð°Ð²":8927,"ÐµÐ´ÐµÑĢÐ°Ð»Ð¸ÑıÐ»":8928,"!!":8929,"us":8930,"ĠÐ±Ð¸ÑĤÓĢ":8931,"ĠÐ³ÑĮÐµÑĢÑģ":8932,"Ð»ÑĬÐ¸ÑıÐ»Ð´Ð°Ð»ÑĬÑĥÐ½":8933,"Ð¸Ð½Ð¸Ð½":8934,"Ð°ÑħÐ¸ÐºÑĮ":8935,"ÐµÐ»Ð°Ð»ÑĬ":8936,"Ð¸Ð»Ð¸":8937,"ĠÐ»ÑĬÐ°ÑĢÐ°Ð±":8938,"ĠÐ¥ÑĥÑĩ":8939,"ĠÐ¡Ð°Ð±":8940,"ĠÐ¡Ð¾Ð±ÑĢÐ°Ð½":8941,"ĠÐ½Ð¸Ð»ÑĬÐ³Ð¸":8942,"ĠÐ±Ð¾ÐºÓı":8943,"ĠÐ³ÓıÐµÐ¼ÐµÑĢÐ»ÑĬÑĥÐ½":8944,"ĠÐ¶Ð¾ÑıÐ»ÑĬÐµ":8945,"ĠÑĢÐ°Ð³ÓıÐ°Ð±Ð°Ð·Ð´Ð°Ð»ÑĬÑĥÐ½":8946,"ĠÐ±Ð¾ÐºÑĮÐ°Ð½Ð°":8947,"ĠÑĨÓıÐ¸ÐºÓıÐºÓıÐ¸Ð½Ð°Ð±Ð¸Ð·Ðµ":8948,"ĠÐ»ÑĬÑĥÐ³ÓıÐ¸Ð·Ð°Ð±Ð¸Ð·Ðµ":8949,"ĠÐ»ÑĬÐ¸ÐºÓıÐ°Ð±ÑīÐ¸Ð½Ð°Ð±":8950,"ĠÐ»ÑĬÐ°Ð·Ð°Ð±ÑĥÑĢÐ°Ð±":8951,"ĠÑħÓıÐ°ÑģÐ¸Ð»Ð°Ð»Ð³Ð¸":8952,"ĠÐŀÑĢ":8953,"ĠÐ°ÑģÐ»Ð¸ÑıÐ±Ð»ÑĬÑĥÐ½":8954,"ĠÐ¾ÑĤÐ´ÐµÐ»Ð°Ð·ÑĥÐ»":8955,"ĠÐ§ÓıÐ°ÑĢÐ°Ð´Ð°":8956,"ĠÐ¸Ð¼Ð°Ð¼Ð»ÑĬÑĥÐ½":8957,"ĠÐ±ÑĥÑħÓıÑĥÐ»ÐµÐ±":8958,"ĠÑĤÐ°ÐºÑĬÑģÐ¸ÑĢÐ°Ð»":8959,"ĠÐĵÓıÐ°Ð´Ð°ÑĤ":8960,"ĠÐĵÑĮÐµÐ´Ð¸Ð½Ð°Ð±Ð³Ð¾":8961,"Ġ1990":8962,"ĠÐ³ÓıÐ°Ð¶Ð°Ð¸Ð±Ð³Ð¾":8963,"ĠÑģÑĥÐ½Ð½Ð°ÑĤÐ°Ð±":8964,"ĠÐ¥ÓıÐ°Ð¹Ð´Ð°ÑĢ":8965,"ĠÐķÐ³Ð¸Ð¿ÐµÑĤÐ°Ð»ÑĬÑĥÐ»":8966,"ĠÐ²Ð¸Ð»Ð°ÑıÑĤ":8967,"ĠÐ³Ð¸ÑĢ":8968,"ĠÑĢÐ°Ð¼Ð°Ð·Ð°Ð½":8969,"Ð¸Ð½ÑĩÓĢ":8970,"ĠÐ¼Ð¾Ð±Ð¸Ð»":8971,"ĠÐ³ÑĮÐ°Ð±ÑĥÐ³Ðµ":8972,"Ð¸ÑĢÐºÑĬ":8973,"ĠÐľÐ¸Ðº":8974,"ĠÐľÐµÑĤÑĢ":8975,"ĠÐ¿ÑĥÑĢ":8976,"ĠÐ¸ÑĤ":8977,"Ð´Ð°ÑģÐµÐ±":8978,"ÐµÐ¹Ñħ":8979,"ÑħÓıÐ°ÐºÑĬ":8980,"ĠÐĿÐ¾Ð²":8981,"Ð°Ð±Ð°Ð·ÑĥÐ»ÑĬ":8982,"ĠÐ¿ÑĢÐ¸Ð²":8983,"ĠÐ·Ð°Ð¼Ð°Ð½Ð°Ð»Ð´Ð°Ð³Ð¸":8984,"ĠÐ±Ð¾ÑģÐ¸":8985,"ĠÐ±Ð°ÑħÑĬÑĥÐ½ÐµÐ±":8986,"ĠÑĦÐ°ÑĢ":8987,"ĠÑĢÐ°ÑĩÓıÑĥÐ½Ð°Ð°Ð½":8988,"ĠÐ±Ð°ÑĩÐ¸Ð½Ð°Ð»ÑĬÑĥÐ»":8989,"ĠÐ¼ÑĥÑħÑĬÐ°Ð·Ð´Ð°":8990,"ĠÑĢÐ¸ÐºÓıÐºÓıÐ°Ð´Ð°":8991,"ĠÐºÐ¸Ð´Ð°Ð³":8992,"ÑĥÑĪÐµÑĤ":8993,"ĠÑģÑĤÐ°ÐºÐ°Ð½":8994,"ĠÑĢÐ¾ÐºÑĮÑĥÐ»ÐµÐ»":8995,"Ġ85":8996,"ÑħÓıÐ°Ð¶Ð¸ÑıÑģ":8997,"ĠÐ¶Ð°Ð¼Ð³ÓıÐ¸ÑıÑĤÐ°Ð»ÑĬÑĥÐ»":8998,"ĠÐĲÐ½Ð´ÑĢ":8999,"ĠÑĢÐ°Ð´Ð¸Ð¾ÑıÐ»ÑĬÑĥÐ»":9000,"ĠÑĤÑĥÑĢÐ½Ð¸ÑĢÐ°Ð»ÑĬÑĥÐ»":9001,"ĠÐ¿Ð°ÑĪÐ¼Ð°Ð½Ð»ÑĬÐ¸":9002,"ĠÐ¶ÑĥÐ±Ð°Ð½":9003,"ĠÑĤÓıÐ°Ð´ÐºÑĬÐ°Ð½Ð°":9004,"ĠÐ¼Ð»ÑĢÐ´":9005,"ĠÑħÐ¸Ð½ÐºÓı":9006,"ĠÐ³ÑĮÑĥÐ¼ÐµÑĢÐ°Ð»Ð´Ð°":9007,"ĠÐ¼Ð°Ð³ÓıÐ½Ð°ÑıÐ»ÑĬÑĥÐ»":9008,"ĠÐ¨ÐºÐ¾Ð»Ð°Ð»ÑĬÑĥÐ»":9009,"ĠÐºÑĬÐ²Ð°ÑĤÓıÐ¸Ð±ÐµÑħÑĥÐ½":9010,"ĠÐºÑĬÐ°Ð²Ð¼":9011,"ĠÐ¥Ð°Ð´ÑĥÑģÐµÐ±":9012,"ĠÑħÐ°Ð·Ð¸Ð½Ð°":9013,"ĠÐ¯ÑĢÐ°Ð³ÑĬ":9014,"Ð¥ÓıÑĥÑĢÐ¼Ð°ÑĤÐ¸ÑıÐ»":9015,"ÐĺÐ¼Ð°Ð¼":9016,"ĠÐĽÑĬÐ¾Ð½Ð´Ð¾Ð´Ð°":9017,"Ð³Ð°ÑĢ":9018,"ÑĥÐ»Ð³Ð¸":9019,"ĠÐ±Ð°ÑĢÐ°Ð»":9020,"ÐµÐ»Ð¸":9021,"ÑĩÐ°Ð»":9022,"ĠÑħÓıÐ°Ð¼Ð°Ð´":9023,"ĠÑĨÐ¾Ð»ÑĬÑĥÐ½":9024,"Ð°ÑħÓıÐ¼":9025,"Ð¾Ð±Ð°Ð»":9026,"ĠÐłÐµÑħÑģ":9027,"ĠÐºÑĬÐ¾ÑħÓıÐµÑħÑĮ":9028,"ĠÑĢÐ°Ð¹Ð¾Ð½Ð°Ð·Ð´Ð°ÑģÐ°":9029,"ĠÐ¸Ð½Ð°":9030,"ĠÐŁÐµÑĤÑĢ":9031,"ÑĦÑĦ":9032,"ÐļÐ¾Ð»":9033,"ĠÐ¶Ð°Ð½Ð¸ÑģÐ°Ð½":9034,"ÐľÐ°ÑĪ":9035,"ĠÐĵÓıÐ°Ð»Ð¸ÑĨÐ°":9036,"ĠÐĲÑħÓıÑĥÐ»Ð³Ð¾ÑħÓı":9037,"ĠÑĨÐµÑĢÐµÐ³Ð¾":9038,"ÑĩÐ°Ð³ÓıÐ¸Ð³Ð¸":9039,"Ġ46":9040,"ĠÑĢÐ°ÑĩÑĩ":9041,"ĠÐ¸Ð¼Ð³ÓıÐ°Ð»":9042,"ĠÐºÑĬÐ¾ÐºÑĬÐ³Ð¾":9043,"ĠÑħÓıÐ°ÑĢÐ°ÐºÐ°ÑĤÑĩÐ°Ð³ÓıÐ¸":9044,"ĠÐ¿Ð°ÑĢÑģ":9045,"ĠÐĵÓıÐ°Ð»Ð¸ÐµÐ²Ð°ÑģÑĥÐ»":9046,"ĠÐºÐµÑĩÓıÐ³Ð¸":9047,"ĠÑĨÓıÐ°Ð¹Ð¸":9048,"ĠÐ¶ÑĥÐ±Ð°ÑĢÐ°Ð±":9049,"ĠÑĨÐµÐ±ÐµÑĤÓıÐµÐ·Ð°Ð±Ð¸Ð·Ðµ":9050,"ĠÑĩÓıÑĥÐ¶ÑĥÐ³ÓıÐ°Ð´Ð°Ð½Ð°Ð»ÑĬÑĥÐ»":9051,"ĠÐ¿ÑĥÐ»Ð°Ð½Ð°Ð²":9052,"ĠÐ¼Ð°Ð³ÓıÐ°ÑĢÑĥÑħÑĬÐµ":9053,"Ð´ÑĥÐ·Ð´Ð°":9054,"ĠÐ¼Ð°Ð½Ð·Ð¸Ð»Ð°Ð»ÑĬ":9055,"Ð°Ð·Ð´Ð°Ð³ÑĥÐ½":9056,"ĠÑįÑħÐµÑĤÑĥÐ½":9057,"ĠÐĲÐ¼ÐµÑĢÐ¸ÐºÐ°ÑıÐ»ÑĬÑĥÐ»":9058,"ĠÐļÑĬÐ°ÑģÑĥÐ¼":9059,"ÐłÐ°Ð¹Ð¾Ð½Ð°Ð»Ð´Ð°":9060,"ĠÐ¿ÐµÑĢÐµÐ´Ð°Ñĩ":9061,"45":9062,"ÑĢÐ°Ð³ÑĮ":9063,"Ð½Ð°Ñģ":9064,"ĠÐ³ÑĮÐ°ÑģÑĥÐ»":9065,"ĠÑĢÐ°Ð¾":9066,"Ð°Ð³Ðµ":9067,"Ð°Ð·Ð³Ð¾":9068,"ĠÐ²Ð°Ð³ÑĮÐ°Ð±":9069,"ĠÐ»ÑĬÐµÐ¹":9070,"ĠÑģÐ°Ñģ":9071,"ĠÐļÑĥÐ¼":9072,"Ð¸Ð»ÑĬÐ»ÑĬÐ°Ð½Ð°":9073,"ÑıÐ»Ð³Ð¸":9074,"ÑĥÐ´Ð¸ÑıÐ»":9075,"ĠÐ±Ð¸ÑĨÐ¸Ð½Ð°":9076,"ĠÐ¿ÑĢÐ¾Ð²":9077,"ĠÐ°Ð´ÑĢÐµÑģ":9078,"Ð°Ð¸Ð´Ð°":9079,"ĠÐ±ÑĥÐºÓıÑĥÐ½Ð¸Ð½":9080,"ĠÑĢÐ¾ÑģÑĥÑĨÐ¾ÑıÐ²":9081,"ĠÑĤÓĢÑĥÐ±":9082,"ĠÐ¤Ð¡":9083,"ĠÐ³ÓıÐ°Ð´Ð°Ð¼Ð°Ð·ÑĥÐ»Ð³ÑĥÐ½":9084,"Ġ600":9085,"ĠÐ¾ÑĤÐ´ÐµÐ»Ð°Ð»ÑĬ":9086,"ĠÑĢÐ¾ÑħÐ°Ð»Ð¸Ð»":9087,"ĠÐ±Ð°Ð¹ÑĢÐ°Ð¼Ð°Ð»ÑĬÑĥÐ»":9088,"ĠÐ³ÑĮÐ°Ð±ÑĥÐ»Ð°ÑĢÐµÐ±":9089,"ĠÐ²ÑĥÑģÑģÐ°Ð½Ð°":9090,"ĠÐ¦ÓıÐ°Ð»Ð´Ð¾ÑħÑĬ":9091,"ĠÐ»Ð¸ÑĤÐµÑĢÐ°ÑĤÑĥÑĢÐ¸ÑıÐ±":9092,"ÑĥÐ¼Ð°Ð´Ð¸ÑģÐµÐ·ÑĥÐ»":9093,"Ð¾Ð¿ÐµÑĢ":9094,"ÑĤÐµÐº":9095,"Ð¸Ð½Ð´Ð°":9096,"ĠÐ±ÑĥÐ³ÑĮ":9097,"Ð°ÑĤÐ°Ð·":9098,"ĠÐºÑĬÐ°Ð»Ð¸":9099,"Ð¸ÑıÐ»Ð´Ð°ÑģÐ°Ð³Ð¸":9100,"Ð¸ÑıÐ±Ð°Ð·Ðµ":9101,"ĠÑĢÐµÐºÓĢ":9102,"ĠÐĲÐ¢Ðļ":9103,"ĠÐłÐ¾Ñħ":9104,"ĠÐĵÓıÐ°Ð½Ð´Ð°Ð»":9105,"Ð¸Ð½Ð°Ð±ÑĥÐ»Ð°":9106,"ĠÑīÐ²ÐµÐ»Ð°":9107,"ĠÐ¢ÑĥÑĢÐ½Ð¸ÑĢ":9108,"ĠÐ²ÑĥÐºÓıÐ°Ð½Ð¸Ð»Ð°":9109,"ĠÐ²ÑĥÐºÓıÑĥÐ½Ð°Ð°Ð½":9110,"ĠÐ±ÐµÑĤÓıÐµÑĢÐ°Ð»Ð´Ð°":9111,"ĠÐ±ÐµÐ³ÑĮÐ¸Ð»Ð°ÑĢÐ¾":9112,"ĠÐĹÐ°Ð¼":9113,"ĠÐ½ÑĥÑħÐ¼Ð°Ð»ÑĬÑĥÐ»ÐµÐ·Ð´Ð°":9114,"ĠÐ¼ÑĥÐ½Ð³Ð¸":9115,"ĠÐľÐ°ÑħÓıÐ°Ð¼Ð°":9116,"ĠÑĢÐ°Ð³ÑĮÑĥÐ»ÐµÐ±":9117,"ĠÑıÐ½Ð²":9118,"ĠÐ±Ð¸ÑĤÓıÐ°Ð½Ð°":9119,"ĠÑĢÐ¸ÑħÑĮÑĥÐ»Ð°":9120,"ĠÐ¼Ð°Ð³ÓıÐ¸ÑĪÐ°ÑĤÐ³Ð¸":9121,"ĠÐ³ÓıÐ°Ð´Ð°Ð¼Ð°Ð·ÑĥÑħÑĬÐµ":9122,"ĠÑĨÐµÐ²ÐµÑħÑĥÐ½":9123,"ĠÐĶÑĥÐ½Ð³Ð¸":9124,"ĠÐ¶ÑĥÑĢÐ½Ð°Ð»Ð°Ð»ÑĬÑĥÐ»":9125,"ĠÐ³ÑĮÐ°Ð±Ð¸ÑıÐ»ÑĬÑĥÐ»ÑĬ":9126,"ĠÐ±Ð°Ð»Ð»":9127,"ĠÐºÐ¾Ð½ÐºÑĥÑĢÑģÐ°Ð»ÑĬÑĥÐ»":9128,"ĠÑĢÐ°ÑħÓıÐ¼Ð°ÑĤ":9129,"ÐĵÑĮÐ°Ð½Ð¸Ð±":9130,"ĠÑħÐ°ÑģÐ¸ÑıÑĤÐ°Ð»":9131,"ĠÑĤÐ°Ð²Ð±Ñĥ":9132,"ÐµÑıÐ»Ð´Ð°Ð»ÑĬÑĥÐ½":9133,"ĠÑħÑĥÐ´Ð¾Ð¶ÐµÑģÑĤÐ²ÐµÐ½":9134,"ĠÐ¢ÐµÐ¼Ð¸ÑĢÑħÐ°Ð½":9135,"ÑĢÑĥÐºÑĤÑĥÑĢ":9136,"Ð»Ð°ÑĤÐ¾Ð½":9137,"ĠÐĵÑĮÐ°Ð¼ÑĥÑīÐ¸":9138,"ĠÐºÓıÐ°Ð»Ð³ÓıÐ°ÑıÐ»Ð´Ð°":9139,"ĠÐ±Ð°ÑĤÓıÐ¸Ð±Ð°ÑĤÓıÐ¸ÑıÐ»":9140,"Ð²ÑĢÐ¾Ð¿":9141,"Ð·Ð°Ð²":9142,"ÑħÐ°ÑĢ":9143,"Ð°ÑģÐ¸":9144,"Ð¾ÑģÐ°ÑĢÐ¾":9145,"Ð¿Ð¸ÑĢ":9146,"Ð´Ð°Ð»ÑĢÐ¾Ñģ":9147,"ĠÐ¡Ð°ÑĤ":9148,"ĠÐ¿ÑĢÐµÐ¿":9149,"ĠÐ¶Ð¸Ð½Ð´Ðµ":9150,"ĠÑĢÐ¾Ð»ÑĬ":9151,"Ð¡Ð¨":9152,"ĠÐĸÐļ":9153,"ĠÑĨÐµÑĢÐµÐºÐºÑĥÐ½":9154,"ĠÐ¤ÐĲÐŁ":9155,"ĠÑħÐ¸ÑĢÑĥÑĢÐ³":9156,"ĠÑĥÑĩÐ¸ÑĤÐµÐ»ÑĮÐ·Ð°Ð±Ð°Ð·Ðµ":9157,"ĠÑģÑĥÑĢÐ°ÑĤÐ°Ð»Ð´Ð°":9158,"ĠÑĩÑĥÑĢÑĥÐ½":9159,"ĠÑĤÐ¾ÑħÑĤÑĥÑĢÐ°ÑģÑĥÐ»":9160,"ĠÐĺÑģÐ°Ð½":9161,"ĠÐ¿ÑĢÐµÐ·Ð¸Ð´ÐµÐ½ÑĤÐ°Ñģ":9162,"ĠÐºÑĮÐ²Ð°Ð³ÑĮÐ¸":9163,"ĠÐ²ÐµÑĤÐµÑĢÐ°Ð½Ð°Ð»":9164,"ĠÐ¸Ð½ÑĦÐ¾ÑĢÐ¼Ð°Ð»Ð°ÑĤ":9165,"ĠÐ¼ÑĥÐ½Ð¸ÑĨÐ¸Ð¿Ð°Ð»Ð¸ÑıÐ»":9166,"ĠÐ³ÓıÐ¾ÑĢÑħÑĬÐ°Ð±Ð¸":9167,"ĠÐĲÐ´Ð°Ð¼":9168,"ÐĶÑĥÐ½ÑıÐ»":9169,"ĠÑģÐ¸ÑıÑħÓĢ":9170,"ĠÐ³Ð¸Ð¼Ð½Ð°Ð·Ð¸ÑıÐ»Ð´Ð°":9171,"ĠÐ³ÓıÐ°Ð»ÑħÑĥÐ»":9172,"ĠÐ¸ÑĢÑģÐ°Ð»ÑĬÐµ":9173,"Ġ2021":9174,"ĠÑĤÐµÐ¼Ð°":9175,"ĠÑĢÐ°ÐºÐºÑĥÐ½":9176,"ĠÑģÐ°Ð¹ÑĤÐ°Ð»Ð´Ð°":9177,"ĠÐ±Ð°ÑħÓıÑģ":9178,"ĠÑħÓĢÐ°ÐºÑĬÐ°Ð»ÑĬÑĥÐ»ÑĬ":9179,"Ð½Ð°Ð´Ð·":9180,"Ð»Ð¾Ð¶":9181,"ĠÐ³ÑĮÐ°Ð·":9182,"ĠÑħÑĥÐ»":9183,"Ð°ÑħÐ°Ð»Ð´Ð°":9184,"ĠÐ³ÓıÐ¸ÑıÐ»ÑĬÐ°Ð¶":9185,"ÑĥÑĢÐ°Ð·Ðµ":9186,"Ð°Ð¼Ð¸Ð·":9187,"Ð¶Ð°Ð½Ð°Ð»Ð´Ð°":9188,"Ð°Ð³ÑĮÐ¸Ð´":9189,"Ð³ÑĮÐ¸":9190,"Ð¸Ð±Ð¸ÑĤÓĢ":9191,"Ð¸ÑģÑĤÐ°Ð·Ðµ":9192,"ĠÑģÐ¾Ð½Ð¸Ð»Ð°Ð±":9193,"ĠÐĵÓıÑĥÐ±":9194,"ĠÐĳÐ¾Ñģ":9195,"ĠÐĳÑĥÑĤ":9196,"ĠÐ¥ÓıÐ¾ÑģÐµÐ½":9197,"ĠÑĢÐ°ÑħÑĬÑĥÐ½ÐµÐ»":9198,"Ð°Ð³ÓĢÐ¸ÑĢ":9199,"ĠÐ²Ð°ÑĩÓıÐ°ÑĢÐ°Ð±":9200,"ĠÑĢÐµÐºÓıÐµÑħÑĬÐµ":9201,"ĠÑĢÑĥÐºÓıÐ¸Ð½Ð³Ð¸":9202,"ĠÑħÓıÐ°Ð´ÑĥÑĢÐ°ÑĢÐ°Ð±":9203,"ĠÑĢÐ¸ÑħÑĮÑĥÐ½":9204,"ĠÐ½ÑĥÑħÐ°Ð»ÑĬÐ³Ð¸":9205,"ĠÐ±Ð°Ð¹ÑĢÐ°Ð¼Ð°Ð»Ð´Ð°":9206,"ĠÑĩÓĢÐµÐ»":9207,"ĠÐ±Ð°ÑīÐ°Ð´":9208,"ĠÐ³ÓıÐ°ÑĤÓıÐ¸Ð»ÑĬÐ¸":9209,"ĠÐ³ÓıÐ°ÑĤÓıÐ¸ÑĢÐ°ÐºÑĮ":9210,"ĠÐ©Ð°Ð¹Ð¸Ð½":9211,"ĠÐĳÐ°ÐºÑĬÐ»ÑĬÑĥÐ»":9212,"ĠÑĢÐ¸ÑĩÑĥÐ½":9213,"ĠÐ¼Ð°ÑĤÐµÑĢÐ¸Ð°Ð»Ð¸ÑıÐ±":9214,"ĠÑĢÐ°Ð·Ð¸Ð»ÑĬÐ°Ð½Ð°":9215,"ĠÑĨÓıÐ¾Ð´Ð¾ÑĢÐ»ÑĬÐ¸":9216,"ĠÐĵÑĮÐ¸Ð³ÑĮÐ°Ð»ÑĬÐ°":9217,"ĠÐ¸ÐºÑĬÐ»Ð¸Ð¼":9218,"ĠÑįÐºÑģÐ¿ÐµÑĢÑĤÐ°Ð·":9219,"ĠÐłÑĥÐºÑĬÐ¸ÑıÑĤ":9220,"ĠÐ½Ð°ÑģÐ»ÑĥÑıÐ»ÑĬÑĥÐ»":9221,"ÐĳÐ°Ð¹Ð±Ð¸ÑħÑĮ":9222,"ĠÑĢÐ°ÐºÓıÑĩÓıÐ°ÑĢÐ°Ð±":9223,"ÑĥÑĤÓıÐ°Ð»Ð¸Ð±":9224,"ĠÐ¿Ð»Ð°Ð½Ð°Ð»":9225,"ÑĢÐ°Ð³Óı":9226,"Ð³Ð°ÑĤ":9227,"Ð»ÑĬÐ°Ð³Ð¸":9228,"Ð·Ñİ":9229,"Ð¸Ð½ÑĤÐµÑĢÐ½":9230,"ĠÑģÐ¾Ð±ÑĢÐ°Ð½Ð¸ÑıÐ»ÑĬÑĥÐ»":9231,"ĠÐ³ÑĮÐ°Ð±Ð¸ÑıÐ»ÑĬ":9232,"ĠÑĨÓıÐ°ÑĤ":9233,"Ð³ÓıÐ°ÑĢ":9234,"ĠÑīÐ¸Ð½Ð°Ð±":9235,"ĠÐĶÐ°Ð³ÑĮÐ°Ð»":9236,"ĠÐļÐ²":9237,"Ð¸Ð´Ð°Ð»ÑĬÑĥÐ½":9238,"ĠÐ±ÐµÐ¶":9239,"ĠÐ¡Ð°Ð³ÓĢ":9240,"ĠÑįÑĢ":9241,"ĠÐ±Ð¸ÑħÑĮÑĥÐ»Ð°ÑĢÐ¾":9242,"ĠÐ³ÓıÐ°ÑĢÐ°Ð´":9243,"Ð¸ÑĩÑĩÐ°Ð½":9244,"ĠÑıÑģÐ°Ð»ÑĬ":9245,"ĠÐ»ÑĬÑĥÐ³ÓıÐ°ÑĢÐ°Ð²":9246,"Ġ32":9247,"ĠÐ¼ÑĥÑħÑĬÐ°Ð»Ð´Ð°ÑģÐ°":9248,"ĠÑĢÐ°Ð³ÑĮÑĥÐ»Ð°Ð³Ð¾":9249,"ĠÐºÓıÐ°Ð»ÑĬÐ°Ð»":9250,"ĠÐ±Ð¸ÑĩÓıÑĩÓıÐ¸Ð·Ð°Ð±ÑĥÐ½Ð°":9251,"ĠÐºÑĬÐ¾ÑĤÓıÐ°ÑĢÐ°Ð±":9252,"ĠÐ³ÑĬÐ¾ÑĢÐºÑĮÐµÑħÑĥÐ½":9253,"ÐĴÐ°":9254,"ĠÐ¼ÑĥÑĢÐ°Ð´Ð³Ð¸":9255,"ĠÐ¼ÑĥÐ³ÓıÐ°Ð»Ð¸Ð¼Ð·Ð°Ð±Ð°Ð·Ðµ":9256,"ĠÑĨÐ¾ÑĨÐ°Ð·ÑĥÐ»":9257,"ĠÐ±ÑĥÑģÑģÑĥÐ½":9258,"ĠÑĢÑĥÑģÑģÐ¸Ð½Ðµ":9259,"ĠÐ·Ð°ÐºÐ¾Ð½Ð°Ð»ÑĬÑĥÐ»":9260,"ĠÐ±Ð¾ÑĢÐ¶":9261,"ĠÐ³ÑĢÐ°Ð¼Ð¼":9262,"Ð¸Ð½ÑģÑĥÐµ":9263,"ĠÐºÑĬÐ¾Ð¹Ð¸Ð´Ð°ÑģÐ°":9264,"ĠÐ°ÐºÑĤÐ¸Ð²":9265,"ĠÐľÐ°Ð¶Ð³Ð¸ÑĤ":9266,"ĠÐľÑĥÐ³ÓıÑĢÑĥÐ·ÑĥÐ»":9267,"ĠÐ³ÐµÐ¾Ð³ÑĢÐ°ÑĦ":9268,"65":9269,"95":9270,"Ð¸Ð°Ð½":9271,"ÑĥÑı":9272,"Ð±Ð°Ð³Óı":9273,"Ð±Ð°ÐºÓıÐ°Ð»":9274,"Ð»ÑĬÑĥÐºÑĮ":9275,"ĠÐ²ÐµÑĤ":9276,"ĠÐ²Ð¸ÑĨÐµ":9277,"ĠÑĨÐµÐ½ÑĤÑĢÐ°Ð»Ð´Ð°":9278,"Ð¸Ð»Ð°ÑĤ":9279,"ĠÐ¼Ð°Ð»ÑĬÑĥÐ»":9280,"ĠÐ½Ð¾ÑħÑĬ":9281,"ĠÐ½ÐµÐºÓĢ":9282,"ĠÐ¶Ð¾Ð³Ð¾":9283,"Ð¸ÑĢÐº":9284,"ĠÐºÑĬÐ°Ð¿":9285,"ĠÑħÓıÐ¸Ð»Ð»Ð°":9286,"ĠÐ¸Ð¶Ð°ÑĢ":9287,"ÐĵÐ°Ð·ÐµÑĤ":9288,"ÐĵÑĥÐ¼Ð±ÐµÑĤ":9289,"ĠÐ¥ÓıÑĥÑģÐµÐ¹Ð½":9290,"ĠÑĪÐºÐ¾Ð»Ð°Ð»Ð´Ð°ÑģÐ°":9291,"ĠÐ½Ð°ÑħÑĬÐ¾Ð¹Ð³Ð¸":9292,"ĠÐ±Ð°ÑĤÐ°":9293,"ĠÐĸÐ°Ð»Ð°Ð»":9294,"ĠÐĸÐ¸Ð±Ð³Ð¾":9295,"ĠÐºÑĬÐ²Ð°ÑĤÓıÐ°ÑħÑĬ":9296,"ÐĿÑĥÑħ":9297,"ĠÑĢÐ°Ð³ÑĮÐ¸":9298,"ĠÐºÓıÐ²Ð°ÑĢÐ³Ð¸":9299,"ĠÑĤÑĥÐ½Ðº":9300,"Ð³ÑĥÑĤÓıÐ¸ÑıÐ»ÑĬÐµ":9301,"ĠÐºÑĬÐ²Ð°ÑĢÐ¸Ð³ÓıÑĥÐ½ÐµÐ±":9302,"ĠÐĿÐ¸Ð¶ÐµÐµ":9303,"Ð»ÑĬÐ¸ÑıÐ»ÑĬÐ³Ð¸":9304,"ĠÑģÐ°Ð±Ð°Ð±":9305,"ĠÑħÐ°Ð½Ð¶Ð°ÑĢ":9306,"ĠÐ±Ð¸ÐºÑĮÐ¸Ð·Ðµ":9307,"ĠÑĤÓıÐ¸Ð±Ð¸ÑĤÓıÐ°ÑĢÐ°Ð±":9308,"ĠÐ°ÑĢÐ¼Ð¸ÑıÐ»ÑĬÑĥÐ»":9309,"ĠÐ¼ÑĥÐ·ÐµÑıÐ»Ð´Ð°":9310,"ÑħÓĢÐ°Ð¶":9311,"ĠÐĿÑĥÑĢÐ¼ÑĥÑħÓıÐ°Ð¼Ð°Ð´Ð¾Ð²":9312,"ĠÐ³ÑĮÐµÑĩÓĢÐµÐ±":9313,"ĠÐĶÐµÑĢÐ±ÐµÐ½ÑĤÐ°Ð»Ð´Ð°":9314,"Ð³ÑĮÐ°ÐºÐ²Ð°ÑĢÐ¸ÑģÐ°":9315,"ĠÐºÑĬÑĥÐ»ÑĥÐ½":9316,"ÐºÑĬÐ¾ÑĤÓıÐ¸":9317,"ĠÑįÑĤÐ°Ð¿":9318,"ĠÐłÐ°ÑĩÓıÐ°":9319,"ĠÐ°Ð½Ð°Ð»Ð¸Ð·":9320,"ĠÐľÐ¾ÑĩÓıÐ¾ÑħÑĬ":9321,"ĠÐºÐ¸Ð±Ðµ":9322,"Ð°Ð»ÑĬÐ¸Ð·Ðµ":9323,"ĠÑĨÑĥÐ½":9324,"ÑĨÐ°Ð»":9325,"ÑıÑħÓı":9326,"ĠÐºÑĬÑĥÑĢÐ±":9327,"ĠÐľÐµÑģÐµÐ´":9328,"ĠÐ¥Ð°Ñĩ":9329,"ÐµÐ¼Ð»":9330,"ĠÐ¡Ð°Ð»Ð¸Ð¼":9331,"ÐµÐºÑĨÐ¸Ñı":9332,"ĠÑĤÓıÐ°Ð´Ð°Ð³ÑĮÐ°Ð±":9333,"ĠÐ±ÑĥÐ³ÐµÐ±ÑīÐ¸Ð½Ð°Ð±":9334,"ĠÑīÐ²Ð°Ð½Ð¸Ð³Ð¸":9335,"ÐĵÑĮÐ°Ð¹":9336,"ĠÐ³ÑĮÐµÑĩÓıÐ¾Ð°Ð½":9337,"ĠÐ¶Ð¸Ð½Ð´Ð¸ÑĨÐ°":9338,"ĠÐ¸ÑĪÐ°Ð·Ð´Ð°":9339,"ĠÐ³ÓıÑĥÑĨÓıÑĥÐ»ÐµÐ±":9340,"Ð¡ÑĥÐ³ÑĬ":9341,"ĠÐĹÑĥÐ»ÑĮ":9342,"ĠÑĤÐ°ÑĢÑĤÐ¸Ð±":9343,"ÑĩÐ°Ð³ÓıÐ°Ð·Ð´Ð°":9344,"ĠÑĢÐ¸ÑħÑĮÐ°Ð½Ð°":9345,"ĠÐºÐ¾Ð½ÑĦ":9346,"Ġ63":9347,"ĠÑħÓıÐ°ÑĢÐ°ÐºÐ°ÑĤÑĩÐ¸Ð»ÑĬÐ¸":9348,"ĠÐ±ÐµÑĢÐ³ÑĮÐµÐ½Ð»ÑĬÐ¸Ð³Ð¸":9349,"ĠÐ³ÓıÐ°ÑĢÑĨÑĥÐ´Ð°Ð»ÑĬÑĥÐ½":9350,"Ð¾ÑģÑĤÐ°Ð½":9351,"ĠÐ¶ÑĥÑĢÐ½Ð°Ð»Ð¸ÑģÑĤÐ°Ð·ÑĥÐ»":9352,"ĠÑħÓıÐ°ÑĢÐ°Ð¼":9353,"ĠÐ³ÓıÐ°ÑħÑĮÐ°Ð»Ð»ÑĬÐ°ÑĢÐ°Ð·Ðµ":9354,"ĠÑĤÑĥÐºÐµÐ½":9355,"ĠÐ¨Ð°Ð¼ÑħÐ°Ð»Ð¾Ð²Ð°ÑģÑĥÐ»":9356,"ĠÑĩÑĩÑĥÐºÓı":9357,"ĠÐ³ÑĮÑĥÑĢÐ¼Ð°Ð·Ð´Ð°":9358,"Ð®Ð¡Ð¨":9359,"ĠÐ½ÐµÐ¼ÑĨÐ°Ð·ÑĥÐ»":9360,"ĠÐ°ÑĢÑħÐ¸ÑĤÐµÐºÑĤÑĥÑĢ":9361,"ÑĥÑĦ":9362,"Ð³ÐµÑĢ":9363,"ĠÐ³ÑĮÐ¾ÐºÑĮ":9364,"Ð¼Ð¸ÑĤ":9365,"Ð¼Ð°Ð±Ð°Ð·ÑĥÐ»":9366,"Ð¸Ð½ÐºÓı":9367,"ĠÐ³ÓıÐ°ÑħÑĮ":9368,"Ð¸Ð»Ð°ÑģÑĥÐ»":9369,"ĠÐ»ÑĬÐ¸Ð´Ð°":9370,"ĠÑģÐ¸ÑĢ":9371,"ĠÑģÐ¾Ð²ÑħÐ¾Ð·":9372,"Ð¾ÑĢÐ³Ð¸":9373,"Ð¸ÑıÐ»Ð³ÑĥÐ½":9374,"ĠÐłÐ¸ÐºÓıÐºÓı":9375,"Ð°ÑĩÐ°Ð½Ð°Ð»":9376,"ĠÐ¡Ð°Ð»Ð°ÑĤ":9377,"ĠÐľÑĥÑħÓıÐ°Ð¼Ð°Ð´Ñģ":9378,"ĠÐ±Ð¸ÑĨÐµ":9379,"ĠÐ±Ð¸ÑħÑĮÐ¸ÑĩÓıÐ¾":9380,"ĠÑħÐ°Ð»Ð¸Ñĩ":9381,"ĠÐ±ÑĥÐºÓıÐ¸Ð½ÐµÑģ":9382,"ĠÑĤÓıÐ°Ð´ÐµÐºÓıÐ°Ð½ÑĨÓı":9383,"ĠÑĢÐ°ÑĩÓıÐ°ÑĢÐ°Ð·Ðµ":9384,"ĠÐĵÑĬÐ¾Ð·":9385,"ĠÑħÑĮÐ¾Ð»Ð±":9386,"ĠÐĹÐ°Ð»Ð¸Ð¼ÑħÐ°Ð½":9387,"ĠÑħÑĥÑĤÓıÐ°ÑĢÐ°Ð²":9388,"ÐĿÐ¾Ð²":9389,"ĠÐ¶Ð¸Ð´ÐµÐ´Ðµ":9390,"ĠÐ¶Ð¸Ð´ÐµÑħÑĬÐµ":9391,"ĠÑĤÓıÐ°Ð¼ÑĥÑĢÐ°Ð±":9392,"ĠÑĤÓĢÐ¸Ð±Ð¸ÑĤÓĢ":9393,"Ð¾Ð»Ð°Ð°Ð½":9394,"ĠÐ¹Ð¸ÐºÓıÐ¸Ð½Ðµ":9395,"ÑĥÐ´Ð¸Ð½Ð¸Ð»":9396,"ĠÐ¸Ð½ÑģÐ°Ð½Ð°Ñģ":9397,"ĠÑĨÓıÐµÑħÐµÐ·Ðµ":9398,"ĠÐ³ÑĮÐµÐ´Ð¸Ð½Ð°Ð»Ð³Ð¾":9399,"ĠÐ²Ð¸ÑħÑĮÐ¸Ð·Ðµ":9400,"ĠÐ¥ÓıÐ°Ð¶Ð¸ÐµÐ²Ð°":9401,"ĠÐ¥Ð°Ð»ÐºÑĬÐ°Ð·Ð´Ð°":9402,"ĠÐĵÓıÐ°Ð´Ð°Ð¼Ð°Ð»":9403,"ĠÑĥÑĩÐ°ÑģÑĤÐº":9404,"ĠÐĽÐµÐ½Ð¸Ð½":9405,"Ð·Ð°Ð±Ð°ÑħÑĬÐµ":9406,"ĠÑĤÐ¾Ð½Ð½":9407,"ĠÐ¡Ð°Ð½ÐºÑĤ":9408,"ÑĢÐ¸ÐºÑĬ":9409,"Ð´ÑĥÑħ":9410,"Ð´Ð°Ð´Ð°":9411,"ĠÐ±Ð°":9412,"Ð°Ð¼Ð±ÑĥÐ»":9413,"ĠÐ¼Ð°Ð½Ð´":9414,"ĠÑģÐ¼":9415,"ĠÐ½Ð°Ð»ÑĬÑĥÐ»":9416,"ĠÐ³ÑĮÐ°Ð±Ð¸Ð»":9417,"ĠÐľÐ°Ð¼":9418,"ĠÐľÐ¤":9419,"ĠÑħÓıÐ°Ð»Ð³Ð¸":9420,"ĠÐĲÐ¿":9421,"ÑĥÑģÑĥÑĢÐ±":9422,"ĠÐĵÓıÐ¾Ð´":9423,"ÐµÐºÐ¾Ð²":9424,"ĠÐĿÐ°ÑħÑĬÐµ":9425,"ĠÐ¶Ð¸Ð½Ð´Ð¸ÑħÑĬÐµ":9426,"ĠÑĨÓıÑĥÐ½Ð°ÑĢÐ°Ð»":9427,"ĠÐ³ÑĮÐ°Ð½Ð¸ÑģÐ°":9428,"ĠÑħÐ°Ð»ÐºÑĬÐ³Ð¸":9429,"ĠÐ»ÑĬÑĥÐ³ÓıÐ°ÑĢÐ°Ð»":9430,"ĠÑģÐ²ÐµÑĢÐ°Ð½Ð°":9431,"ÐµÑĩÓıÐ¸Ð½":9432,"ĠÐ¿Ð°ÑĩÐ°Ð»Ð¸ÑħÑĬÐ°Ð·Ð´Ð°":9433,"Ð°Ð±Ð°Ð·ÐµÐ³Ð¸":9434,"ĠÑĢÐ¸ÑĤÓıÐ°ÑĢÐ°Ð»":9435,"ĠÐĲÐ»Ð»Ð°Ð³ÑĮÐ°ÑģÐ´Ðµ":9436,"ĠÑĢÑĥÑĩÑĩÐ°Ð±Ð¸Ð³Ð¸":9437,"ÐĽÑĬÐ°ÑĢÐ°ÑĤÓıÐ°":9438,"ĠÐ±ÑĥÑħÑĮÐ°Ð½Ð°":9439,"ĠÑĢÑĥÑħÓıÑĩÓıÐ°Ð³Ð¾":9440,"Ġ2009":9441,"ĠÑĤÐ¾ÑħÑĤÑĥÑĢÐ·Ð°Ð±Ð°Ð·":9442,"ĠÑĩÓĢÐ²":9443,"ĠÐ°Ð²ÑĤÐ¾Ð½Ð¾Ð¼":9444,"ĠÐ¸Ð´Ð°ÑĢÐ°ÑıÐ»Ð´Ð°":9445,"Ġ1942":9446,"ĠÑģÐ°Ð¹Ð³ÑĬÐ°ÑĤÐ°Ð·Ð´Ð°Ð»ÑĬÑĥÐ½":9447,"Ð±Ð¾ÑĨÓıÑĥÐ»":9448,"ĠÐ³ÑĮÐ°Ð»Ð¼Ð°Ð³ÑĬÐ·Ð°Ð±Ð¸":9449,"ĠÐ±Ð¸Ð±Ð»Ð¸Ð¾ÑĤÐµÐºÐ°ÑıÐ»Ð´Ð°":9450,"Ð±ÑĥÐ·Ð´Ð°":9451,"ĠÐ¥Ð¸Ð·ÑĢÐ¾":9452,"ĠÐ²Ð¾ÑħÐ°ÑĢÐ°Ð²":9453,"ĠÑĤÓıÐ°ÑĢÐ¸ÐºÑĬ":9454,"ĠÐ¸Ð½ÑĤÐµÐ»Ð»":9455,"ĠÐ±Ð¸ÑĤÓıÐºÐºÐµÐ¹":9456,"ĠÐºÐ²ÐµÐ³ÓıÐµÐ½":9457,"ÑĥÐµÐ³Ð¸":9458,"ÐºÐ²ÐµÑĢ":9459,"ĠÑĢÐ¸ÑīÑĥÐ½":9460,"ĠÐºÐºÐµÑıÐ»Ð´Ð°":9461,"Ð¸Ð±Ð»":9462,"ÑĥÑħÑĬÐ¼Ð°ÑħÑĬ":9463,"ĠÐļÐ¸Ð·Ð¸Ð»ÑİÑĢÑĤ":9464,"ÐµÐ¼ÑĮÐµÑĢ":9465,"ĠÐ³ÑĮÐµÐ·Ð´Ð°Ð³Ð¾":9466,"ĠÐ¸Ð½ÑĩÓı":9467,"ĠÐľÑĥÑħÓıÐ°Ð¼Ð°Ð´ÑħÓıÐ°Ð¶Ð¸":9468,"ĠÐ¢Ð°Ñħ":9469,"ĠÐ·Ð°Ð¼Ð°Ð½Ð°Ð»Ð´Ðµ":9470,"ĠÐ±ÑĥÐºÓıÐ¸Ð½Ð°ÑĢÐ¾":9471,"ĠÐ½Ð°ÑħÑĬÑĢÐ°ÑĤ":9472,"ÐĲÐ·":9473,"ĠÐ»ÑĬÐ°Ð»ÑħÑĬ":9474,"ĠÐĵÓıÐ°Ð±Ð´ÑĥÐ»Ð±Ð°ÑģÐ¸ÑĢ":9475,"ĠÐłÐ¾ÑģÑģÐ¸ÑıÐ»Ð´Ðµ":9476,"ÑĭÐ²":9477,"ĠÐºÑĬÐ²Ð°ÑĤÓıÐ°Ð·Ð´Ð°":9478,"ĠÐ±Ð¸ÑħÑĮÐ¸Ð·Ð°Ð±ÑĥÐ»ÐµÐ»":9479,"ĠÐ³ÑĮÐµÐ½Ð¸Ð±Ð³Ð¾":9480,"ĠÐ¿Ð°ÑĩÐ°Ð»Ð¸ÑħÑĬÐ°Ð»ÑĬÐµ":9481,"ÐĺÑıÐ»ÑĬÑĥÐ»":9482,"Ġ57":9483,"ĠÑħÐ¸ÑģÑĥÐ»ÐµÐ²":9484,"ÐĸÐ°ÐºÑĬ":9485,"Ð¸Ð½Ð´Ð°ÑħÑĬ":9486,"Ð¾Ð»Ð¾Ð³Ð¸Ñı":9487,"ĠÐ±Ð¸ÑĩÐ°":9488,"ĠÐ½Ð°ÑģÐ¸Ð±":9489,"ĠÑħÐ°Ð½Ð»ÑĬÐ¸":9490,"ĠÐĲÑģÐ°Ð´ÑĥÐ»":9491,"ĠÑħÑĥÐ½Ð´ÐµÑĢÐ¸Ð»":9492,"ĠÐ±ÑİÐ´Ð¶ÐµÑĤÐ°Ð»Ð´Ðµ":9493,"ĠÐ²ÑĥÐºÓĢÐ°ÑĢÐ°Ð²":9494,"ÑĢÐ°Ð½ÑģÐ¿Ð¾ÑĢÑĤ":9495,"ĠÑīÐ°ÐºÐ°Ð±":9496,"ĠÑıÑĢÐ°Ð³ÑĬÐ³Ð¸":9497,"ĠÐ¿ÑĢÐ¸Ð·Ð°Ð»ÑĬÑĥÐ»Ð°Ð»":9498,"ĠÑĢÐ¸ÑĩÑĥÐ»ÐµÐ»":9499,"ĠÐ³ÓıÐ°Ð¶Ð°Ð¸Ð±Ð»ÑĬÐ¸":9500,"ĠÑħÓıÐ°ÑĢÐ°Ð¼Ð°Ð±":9501,"ĠÑĢÐ°ÑĨÓıÑĨÓıÐ°":9502,"ĠÐºÑĮÐµÐ»ÐµÐ±":9503,"ĠÑĨÓıÑĥÐ¼Ð°Ð´":9504,"ĠÐ´Ð¾Ð·ÑĥÐ»":9505,"ĠÐ·Ð°Ð²ÐµÐ´ÑĥÑİÑīÐ°Ñı":9506,"ĠÐĿÐ°Ð¿Ð¸ÑģÐ°ÑĤ":9507,"ĠÐºÑĬÐ°Ð³ÓĢÐ¸Ð´Ð°ÑıÐ»ÑĬ":9508,"ĠÐĹÐ°Ð´Ð¸ÐµÐ²Ð°Ñģ":9509,"ĠÐºÓıÐ¸ÑĨÓıÑĥÐ»":9510,"ĠÐºÐµÑģ":9511,"ĠÑĢÐ¸Ð·":9512,"Ð°ÑħÐ¼Ð°ÑĤ":9513,"ĠÑħÓıÐ°Ð»Ð°Ð»Ð´Ðµ":9514,"ĠÐļÐ¸ÑĤ":9515,"ĠÐĵÓıÐ°Ð½Ð´":9516,"ĠÐĵÓıÐ°Ð¶Ð°Ð¸Ð±":9517,"ÑĢÑĥÑĨ":9518,"Ð°ÑıÐ»ÑĬÑĥÐ»Ð³ÑĥÐ½":9519,"ÑīÑĥÐ½":9520,"ĠÐ¨Ð¾ÑĤ":9521,"ĠÐ±Ð°ÐºÓıÐ°Ð±":9522,"ĠÐ±Ð¾ÐºÑĮÐ°Ð½Ð¸Ð³Ð¸":9523,"ĠÐ±ÐµÐ³ÑĮÑĥÐ»Ð°Ð°Ð½":9524,"ĠÑģÑĥÐ°Ð»Ð°Ð»ÑĬÑĥÐ»":9525,"ĠÐ°ÑħÐ°Ð»ÑĬÑĥÐ»":9526,"Ð¸ÑĢÐµÐ³Ð¾":9527,"ĠÐ±Ð¸ÑĤÓıÐ°ÑħÑĬÐµ":9528,"ĠÐºÓĢÐ¸Ð°Ð±Ð¸Ð»ÐµÐ±":9529,"ÑģÑĤÐ²Ð¾ÑıÐ»Ð´Ð°":9530,"ÑĥÐ½Ð³Ð¾ÑıÐ»":9531,"ĠÐ¼Ð°ÑĨÓĢÐ°Ð»":9532,"ĠÐºÑĥÑĩÓıÐ´ÑĥÐ»Ð³Ð¸":9533,"ĠÑĢÑĥÐ³ÑĮÑĥÐ½Ð»ÑĬÑĥÐ½":9534,"ĠÐłÐµÑģÐ¿ÑĥÐ±Ð»Ð¸ÐºÐ°ÑıÐ»Ð´Ð°":9535,"ĠÑĢÐ°Ð³ÓĢÐ¸":9536,"ĠÐ±Ð°Ð¶Ð°ÑĢÑĥÐ»ÐµÐ²":9537,"ĠÑĨÐ¾ÑıÐ²Ð»ÑĬÑĥÐ½":9538,"ĠÑĨÐµÑĢÐµÑĤÓıÑĥÑĢÐ°Ð»":9539,"ĠÐ¼ÐµÑĤÑĢÐ°Ð»ÑĬÑĥÐ»":9540,"ĠÐ¿Ð°ÑĢÐ°ÑħÐ°Ð»ÑĬÐ¸":9541,"ĠÐºÑĮÐ¸Ð¶ÑĥÐ½":9542,"ĠÑħÓıÐµÑĢÐµÐ½Ð°Ð±":9543,"ĠÐ³ÑĮÐ°ÑĢÐ·Ð°ÑıÐ±":9544,"ĠÐ¾ÑĢÐ³Ð°Ð½Ð¸Ð·Ð°ÑĨÐ¸ÑıÐ±Ð°Ð·ÑĥÐ»":9545,"ĠÐ»Ð°Ð³ÐµÑĢ":9546,"ÐľÐ¸Ð»Ð»Ð°ÑĤ":9547,"ĠÑĢÐ¾ÑĨÐµÐ½":9548,"ĠÑĤÐ°ÑĢÐ¶Ð°Ð¼Ð°":9549,"ĠÐ¼ÑĥÑĤÐ°Ð³ÓıÐ¸Ð»":9550,"ĠÐ¡Ð¸Ð²ÑĥÑħÑĬ":9551,"94":9552,"ÐµÐµÐ²":9553,"ÑĢÐ¸ÑıÐ±":9554,"Ð»ÑĬÐ°":9555,"Ð°Ð¼Ð¾":9556,"ĠÐ´ÑĢÐ°Ð¼":9557,"Ð¸ÑģÐµÐ²":9558,"Ð°Ð²ÑĢ":9559,"Ð¿Ð°ÑĢÐ°ÑĤ":9560,"ĠÑĩÐ¸Ð½Ð¾Ð²":9561,"ĠÐ¥Ð²Ð°ÑĢ":9562,"ĠÐĶÐ°Ð½Ð´":9563,"ĠÐļÑĥÐ»ÑĮÑĤÑĥÑĢÐ°ÑıÐ»ÑĬÑĥÐ»":9564,"ÐµÑģÐ´Ð°":9565,"ĠÐłÐ¾ÑĢÑĩÓıÐ°Ð¼Ð¸":9566,"ĠÐĳÐ¸ÑĩÑĩÐ°Ð½ÑĤÐµ":9567,"ĠÐ¥ÓıÐ°ÑĤÑĤÐ°":9568,"ĠÐ±Ð¾Ð³Ð¾":9569,"ĠÐºÐ²Ð°Ñģ":9570,"ĠÑĨÓıÐ°Ð»ÑĥÐ»Ð°":9571,"ĠÐ²Ð°ÑģÐ°ÑģÐ´Ð°":9572,"ĠÑĨÓıÐ¸ÐºÓıÐºÓıÑĥÐ½ÐµÐ»":9573,"ĠÐ³ÑĮÐµÑģÑĥÐ»Ð³ÑĥÐ½":9574,"ĠÐļÓıÐ¸Ñĩ":9575,"Ð¾Ð²Ð°ÑģÑĥÐ»Ð³ÑĥÐ½":9576,"ĠÐ¨Ð°Ð¼Ð¸Ð»Ð¸Ðµ":9577,"ĠÑħÐ¸ÑĢÐ¸ÑıÐ¹":9578,"ĠÐ³ÓıÐ°Ð´Ð°Ð¼Ð°Ð·ÐµÐ³Ð¸":9579,"Ġ2002":9580,"ÐĿÐ¸Ð»ÑĬÐµÑĨÐ°":9581,"ÐĹÐ°ÑħÓıÐ¼Ð°ÑĤ":9582,"ĠÑĢÐ¸ÑĩÑĩÐ°Ð·Ðµ":9583,"ÑĤÐ¸Ð½Ð³":9584,"ĠÐ³ÑĥÐ³Ð°ÑĢÐ¸":9585,"ĠÐ¼Ð°ÑĨÓĢÐ°Ð·ÑĥÐ»":9586,"ĠÐ¶Ð°ÐºÑĬÐ°ÑģÐµÐ»":9587,"Ð¸ÑĨÐ¸Ð¿Ð°Ð»Ð¸ÑıÐ±":9588,"ĠÐ±ÑİÐ´Ð¶ÐµÑĤÐ°Ð»Ð´Ð°ÑģÐ°":9589,"ĠÐºÑĬÐ¸ÑģÐ¼Ð°ÑĤÐ°Ð»ÑĬÑĥÐ»":9590,"ĠÐ³Ð¾ÑĢÐ´":9591,"ĠÐ´Ð°Ð½Ð´ÐµÐ»ÑĬÐ°Ð±Ð°Ð·ÑĥÐ»":9592,"ĠÑģÐ¸ÑģÑĤÐµÐ¼Ð°ÑıÐ»Ð´Ð°":9593,"ĠÐ¡ÑĥÐ»ÐµÐ¹Ð¼Ð°Ð½Ð¾Ð²":9594,"ĠÑĢÐ¸ÐºÓĢÐºÓĢÑĥÐ½Ð°":9595,"ĠÑıÑħÑĬÑĥÐ½":9596,"ĠÑħÓıÑĥÑħÑĮÐ±Ð°ÑħÑĬÐ¸ÑıÐ»ÑĬÐµ":9597,"ĠÑĨÓıÐ¸Ð³ÑĮÐ°Ð±":9598,"ĠÐ±ÐµÑĤÓıÐµÑĢÐ³ÑĮÐ°Ð±Ð¸":9599,"ĠÐ¶Ð°Ð¼Ð³ÓıÐ¸ÑıÑĤÐ°Ð»Ð´Ð°":9600,"ĠÐĵÓıÐ°Ð±Ð°ÑĪÐ¸Ð»Ð¾Ð²":9601,"ĠÐĳÐµÑĤÓıÐµÑĢÐ³ÑĮÐ°Ð½Ð°Ñģ":9602,"ĠÑģÐ°Ð¼Ð¾Ð»ÐµÑĤ":9603,"ĠÐ¼ÐµÐ¼Ð¾ÑĢÐ¸Ð°Ð»Ð¸ÑıÐ±":9604,"ĠÐ´Ð¸Ð°Ð»ÐµÐºÑĤ":9605,"ra":9606,"Ð»Ð¾Ðº":9607,"Ð»Ð¸Ð¼Ð°ÑĤ":9608,"Ð´ÑĥÐ»ÑĬ":9609,"ÑĥÐ½ÐµÐ²":9610,"ĠÑĨÐ°Ð±Ð¸":9611,"Ð¸Ð»Ð±":9612,"ĠÐĵÑĢÑĥÐ·":9613,"ĠÐ»Ð°Ð·":9614,"ÓĢÑĩÓĢ":9615,"ĠÐ±ÐµÑĨ":9616,"ĠÑĢÐ°ÑħÑĬÐ¸Ð½":9617,"ĠÐºÐ²Ð°Ð½Ð°":9618,"ĠÐ¨ÑĥÐ³Óı":9619,"ĠÐ±ÐµÑĤÓıÐµÑĢÐ°Ð¹":9620,"ĠÐ³ÑĮÐµÐ²Ð³ÑĥÐ½":9621,"ÐľÐ°ÑĢ":9622,"ĠÑĨÓıÐ°ÑĢÐ°ÐºÐ¸":9623,"ĠÐºÑĬÐ²Ð°ÑĤÓıÐ¸Ðµ":9624,"ĠÑĢÐµÐºÓıÐµÐ´Ð°":9625,"ĠÐºÑĬÐ°Ð´Ð°ÑĢÐ°Ð»ÑĬ":9626,"ĠÑĢÐ¸ÑĤÓıÑĥÐ»ÐµÐ»":9627,"198":9628,"ĠÐºÐ°Ð³ÑĬÐ°ÑĤÐ³Ð¸":9629,"ĠÐ±ÑĥÑħÑĮÐ°ÑĢÐ°Ð±":9630,"ĠÑĩÓĢÐ°ÑħÓĢ":9631,"ĠÑĤÓıÐ¾ÐºÓıÐ°Ð»":9632,"Ð§ÐµÑĢÐ½":9633,"ĠÐľÐ¾ÑģÐºÐ²Ð°ÑıÐ»Ð´Ð°ÑģÐ°":9634,"ĠÐ´Ð¸Ð²Ð¸Ð·":9635,"ĠÐ¿ÑĢÐ¾ÐµÐºÑĤÐ°Ð»":9636,"ĠÐĵÑĥÑĢÐ¾Ð½Ð¸":9637,"ĠÐ¿Ð¸ÑĪÐ°ÑĨÐ¾":9638,"ĠÐĳÐ¸ÑĨÐµÐ½":9639,"ĠÐ¼ÑįÑĢÐ°ÑģÑĥÐ»":9640,"ĠÐĳÑĥÐºÓıÐ°Ð½Ð°":9641,"ĠÐ±Ð°ÑģÐ¼Ð°ÑıÐ»Ð´Ð°":9642,"ĠÐ°ÑĤÑĤ":9643,"ĠÐ©Ð¸Ð²Ð°Ð²":9644,"ĠÐ¸ÑģÐ°Ð½Ð°ÑģÐµÐ±":9645,"ĠÐ»ÑĬÐ¸ÐºÓĢÐ°Ð±":9646,"ĠÐĹÑĥÐ±Ð°Ð¸ÑĢ":9647,"ĠÐĳÑĥÐ»Ð°ÑĤ":9648,"VIII":9649,"ĠÑĢÐ°Ð¹ÑģÐ¾Ð±ÑĢÐ°Ð½Ð¸ÑıÐ»ÑĬÑĥÐ»":9650,"Ð·ÑİÐ´Ð¾":9651,"Ð¾ÑĤÓıÐ°":9652,"Ð°Ð»Ð¾Ð²":9653,"ÑĥÐ»Ð¸Ð»Ð°Ð½":9654,"Ð±Ð°Ð·Ð°ÑĢ":9655,"ĠÐ±Ð¾ÑĢÐºÑĮ":9656,"ÑĤÐ°Ð½Ð¾Ð²":9657,"ÑģÐ±":9658,"Ð¸ÑıÐ³ÑĥÐ½":9659,"Ð°Ð´Ð°ÑģÐ°Ð½":9660,"ĠÐ²Ð¸Ð»ÑĬÐ»ÑĬ":9661,"ĠÑģÐ¸Ð»":9662,"ĠÐºÐºÐ°ÑĢÐ°Ð·Ðµ":9663,"Ð¶Ð¸":9664,"ÑĩÐ°Ð³ÓĢ":9665,"Ð¿Ð°ÑĪ":9666,"ĠÐ¥ÐµÑĢ":9667,"Ð°Ð±Ð¸Ð´":9668,"ÑĥÑģÐ°Ð½":9669,"ĠÐ³ÑĮÐ¾ÑĢÐºÑĮÐ¾Ð¹":9670,"ĠÐ¨Ð°Ð¹":9671,"ÑıÐ»ÑĬÐ³Ð¸":9672,"ĠÐŁÐ°Ñħ":9673,"ĠÐ¶Ð¸Ð½Ð´Ð¸Ð»ÑĬ":9674,"Ð°ÑıÐ»ÑĬÐµÐ³Ð¸":9675,"ĠÐ¶Ð°Ð½Ð¸ÑģÐµÐ±":9676,"ĠÐ³ÓıÑĥÑĨÓıÐ°Ð±Ð°Ð·":9677,"Ð¸Ð³ÑĢ":9678,"ĠÐ±Ð°ÑĩÐ¸Ð½":9679,"ĠÐ³ÓıÐµÐ»Ð°Ð»ÑĬ":9680,"Ġ2020":9681,"ĠÐ¼Ð°ÑħÑħ":9682,"ĠÐĲÑħÓıÐ¼Ð°Ð´Ð¸Ð»Ð¾Ð²":9683,"ĠÑĤÓĢÐµÑħÑĮ":9684,"ĠÐ±ÐµÑĢÐ³ÑĮÐ°ÑĢÐ°Ð±":9685,"ĠÐ±ÑĥÑĤÓıÐ°ÑıÐ»Ð´Ðµ":9686,"ĠÐľÑĥÑģÐ°ÐµÐ²Ð°ÑģÑĥÐ»":9687,"ĠÐ³ÑĮÐ°Ð½Ð¶ÐµÐ³Ð¾":9688,"ĠÑĤÐµÑĢÐ°Ð¿":9689,"ĠÐ»ÑĬÐ¸Ð¼ÐµÑĢÐ»ÑĬÐ¸":9690,"ĠÐĵÑĮÐµÐ»ÑĬÐ³Ð¸":9691,"ĠÑĩÓıÑĥÑħÓıÐ°ÑĢÐ°Ð»":9692,"ĠÐ´Ð¾ÐºÑĥÐ¼ÐµÐ½ÑĤÐ°Ð»Ð³Ð¸":9693,"ĠÑħÓıÐ°Ð»ÑĤÓıÐ¸Ð·Ð°ÑĢÑĥÐ½":9694,"ĠÐºÐ¾ÑĢÐ¿ÑĥÑģ":9695,"ĠÐ²Ð¸ÑīÐ¸Ð·Ðµ":9696,"ĠÑĢÐ¸ÐºÑĮÑĥÐ½":9697,"ĠÐ¸Ð½ÑģÑĤÐ¸ÑĤÑĥÑĤÐ°Ð»Ð´Ð°":9698,"ĠÐľÐ°ÑħÓıÐ¼ÑĥÐ´Ð¸Ð»":9699,"ĠÑĢÐµÐºÑĤÐ¾ÑĢ":9700,"ĠÐ°Ð²ÑĤÐ¾ÑĢÐ°Ñģ":9701,"ĠÑģÐ°Ð»Ð°Ð¼Ð³Ð¸":9702,"ĠÐĵÓıÐ°Ð¼Ð¸ÑĢÑħÐ°Ð½":9703,"ĠÐ³ÑĮÐ°ÑĢÐ·Ð°Ð³Ð¾":9704,"ĠÐĳÐ°ÑĤÓıÐ¸":9705,"ĠÐĹÐ°ÑħÓıÐ¼Ð°ÑĤÐ°Ð»ÑĬÑĥÐ»":9706,"ĠÐĵÓıÐ°Ð»Ð¸ÑħÓıÐ°Ð¶":9707,"ĠÐ¡Ð¸Ð´ÑĢÐ°ÑĤ":9708,"ĠÐ¯ÐºÑĬÑĥÐ±":9709,"ĠÑħÓıÐµÑĤÓıÐµ":9710,"ĠÐ°ÑĢÐ°Ð¹":9711,"Ð»Ñİ":9712,"Ð½Ð¾Ð¹":9713,"Ð±Ð°ÑĨÓıÑĨÓıÐ°Ð´":9714,"Ð°ÑĢÐ³Ð¸":9715,"Ð²Ð°ÑĨ":9716,"ÑģÐ°Ð»ÑĬÑĥÐ»":9717,"ÑģÐ¾ÑİÐ·Ð°Ð»ÑĬÑĥÐ»":9718,"Ð¼Ð°Ñħ":9719,"ĠÐ³ÓıÐµÑĤÓı":9720,"ÐµÐ»ÐµÐ½":9721,"ĠÐ»Ðµ":9722,"ĠÐºÐºÐµÑıÐ»Ð´Ð°ÑģÐ°":9723,"ĠÐľÐµÐ»ÑĬÐµÐ»":9724,"ĠÑīÑĥÐ±":9725,"ĠÐºÐºÐ¾Ð»Ð°ÑĢÐ¸Ð½":9726,"ĠÐĳÑĥÐ´":9727,"Ð°ÑıÐ»ÑĬÑĥÐ»Ð³Ð¸":9728,"Ġ120":9729,"ĠÐ³ÑĮÐµÑģÐ³Ð¸":9730,"ĠÑīÐ²ÐµÑĩÓıÐµÐ±":9731,"ĠÐ¿ÑĢÐµÐ·":9732,"ĠÐ½Ð°ÑħÑĬÐ²ÑĥÑģÑģ":9733,"ÐļÐ¸Ð³ÓıÐ°Ð½":9734,"ÐļÐ¸Ð´Ð°Ð³Ð¾":9735,"ĠÐ¹Ð¸ÑĤÓı":9736,"ÐľÐ°ÑģÐ°Ð»Ð°":9737,"ĠÐ²Ð°ÑģÐ°Ð·ÑĥÐ»":9738,"ĠÑħÑĥÑĤÓıÑĥÐ»Ð°ÑĢÐ¾":9739,"ĠÑĢÐµÑģÐ¿ÑĥÐ±Ð»Ð¸ÐºÐ°ÑıÐ»ÑĬÐµ":9740,"ĠÐ»ÑĬÑĥÐ³ÓıÐ°ÑĢÐ°Ð±":9741,"ĠÐ±Ð°ÑĢÐºÑĥÐ»Ð°Ð³Ð¾":9742,"ĠÑħÓıÐ°Ð»ÑĤÓıÑĥÐ»Ð°Ð±":9743,"ĠÐ°Ð´Ð¼Ð¸Ð½Ð¸ÑģÑĤÑĢÐ°ÑĨÐ¸ÑıÐ»Ð´Ðµ":9744,"ĠÑĨÐ¾Ð³Ð¸Ð´Ð°Ð·ÑĥÐ»":9745,"ĠÐºÓıÐ²ÐµÐ·Ðµ":9746,"ĠÐ¼ÑĥÐ³ÓıÐ°Ð»Ð¸Ð¼Ð°ÑģÑĥÐ»":9747,"ĠÐ±Ð°Ð¹ÑĢÐ°Ð¼Ð³Ð¸":9748,"ĠÐ±Ð°Ð¹ÑĢÐ°Ð¼Ð°Ð»Ð´Ðµ":9749,"ĠÐ»ÑĬÐ¸Ð¼ÐµÑĢÐ³Ð¸":9750,"ĠÐ±Ð¾Ð¶Ð¸Ð·Ðµ":9751,"ĠÑĤÐ¾ÑħÑĤÑĥÑĢÐ»ÑĬÑĥÐ½":9752,"ĠÐ·Ð°ÑħÓıÐ¼Ð°Ð»ÑĬÑĥÐ»Ð°":9753,"ĠÐºÑĥÑĩÓıÐ´ÑĥÐ·ÑĥÐ»":9754,"Ð¸Ð»Ð°ÑĢÐ¾Ð°Ð½":9755,"Ð¸Ð½ÑĩÓıÐ¾Ð½Ð¸Ð³Ð¸":9756,"ĠÑħÓıÐ°Ð»ÑĤÓıÑĥÑħÑĬÐ°Ð±Ð¸Ð³ÑĥÐ½":9757,"ĠÐ¥ÓıÐ°Ð¶Ð¸Ð¼ÑĥÑĢÐ°Ð´Ð¸ÑĨÐ°":9758,"ĠÐ±ÐµÐ³Ð°Ð²ÑĥÐ»Ð°Ñģ":9759,"ÐµÑĢÐµÐµÐ²":9760,"ĠÐ³ÑĮÐ¾ÑĢÐºÑĮÐ¾ÑģÐ°Ð½":9761,"ĠÐ¼Ð°Ð´Ð°Ð½Ð¸ÑıÐ±":9762,"ĠÐ³ÑĬÐ²Ð°ÑĢÐ¸Ð´Ð³Ð¾":9763,"Ð·Ð°Ð¼Ð°Ð½Ð°Ð»Ð´Ð°ÑģÐ°Ð½":9764,"ÑįÐ¼ÐµÐ½Ð³Ð¸":9765,"ĠÐĵÓıÐ°Ð´Ð°Ð¼Ð°Ð·ÑĥÐ»":9766,"ĠÐĺÐ½ÑħÐ¾ÑģÐ°":9767,"ĠÐ³ÑĥÑĢÐµÐ²Ð³Ð¸":9768,"ĠÐ³ÑĥÑĩÐ°Ð±":9769,"ĠÐľÐ°Ð³ÓıÐ°ÑĢÑĥÑħÑĬ":9770,"ĠÑħÐ°Ð»Ð°ÑĤÐ±Ð°ÑħÑĬÐ°ÑĢÐ°Ð±":9771,"ĠÑĨÐµÐ½ÑĤÑĢÐ°Ð»ÑĬ":9772,"ĠÐļÓıÐ¸Ð°Ð±Ð¸Ð·Ðµ":9773,"ĠÐĵÑĬÐ¸ÑĢÐ¸Ñģ":9774,"97":9775,"Ð»ÐµÐ¹":9776,"Ð°Ð»Ð°Ð»ÑĬÑĥÐ»":9777,"ÑĥÐ»ÐµÐ·Ðµ":9778,"ĠÐ±Ð¾Ð»ÑĮÑĪÐµÐ²Ð¸Ðº":9779,"ĠÐ²Ð¾ÑĢ":9780,"Ð°Ð²ÑĢÐ¾Ð¿":9781,"Ð¿Ð¾ÑĤÑĢÐµÐ±":9782,"ĠÐĶÐ¸Ð²":9783,"ÐµÑģÐµ":9784,"Ð¸Ð´Ð¸ÑĢ":9785,"ĠÑĢÐ°Ð¹Ð¾Ð½Ð°Ð»":9786,"ÐĵÑĮÑĥÐ´ÑĥÐ»":9787,"ĠÑĢÐ°Ð³ÑĬÐ°Ð»":9788,"ÑĦÐ¸Ñı":9789,"ĠÑĢÐ°ÐºÓıÐ°Ð·Ðµ":9790,"ĠÐºÐ¸Ð½Ð´Ð°Ð¹":9791,"ĠÐºÐ¸Ð½Ð°Ð»ÑĬÐµÐ³Ð¾":9792,"ÐµÑıÐ»ÑĬÑĥÐ»Ð°Ð±":9793,"ĠÑĢÐ¸ÐºÓıÐºÓıÑĥÐ½Ð°Ð°Ð½":9794,"Ð¢ÑĥÑĢÐ½Ð¸ÑĢ":9795,"ÑĩÓıÐ²Ð°Ð´Ð¸":9796,"ĠÐ³ÓıÐ¾Ð»Ð¾ÑħÑĬÐ°Ð±Ð¸Ð³Ð¸":9797,"ĠÑĢÑĥÐºÓıÐ¸Ð½Ð°Ð»ÑĬÐµ":9798,"Ġ48":9799,"195":9800,"ĠÐŀÐ»Ð¸Ð¼Ð¿Ð¸ÑıÐ»ÑĬÑĥÐ»":9801,"ÑĥÐ´Ð¸Ð½Ð¾Ð²Ð°Ñģ":9802,"ĠÐĵÓĢÑĥÐ¼Ð°ÑĢ":9803,"ĠÑĤÓıÐµÑħÑĮÐ°Ð»ÑĬÑĥÐ»":9804,"ĠÐ¥Ð°Ð´ÑĥÐ±ÐºÐºÑĥÐ½":9805,"ĠÐ¼Ð°ÑĪÐ¸Ð½Ð°ÑıÐ»Ð´Ð°":9806,"ĠÐ²Ð°ÐºÐ¸Ð»Ð·Ð°Ð±Ð¸Ð³Ð¸":9807,"ĠÐľÐ°Ð³Ð¾Ð¼ÐµÐ´Ð¾Ð²Ð¸Ñĩ":9808,"ĠÐ³ÓıÐ°ÑħÑĮÐ°Ð»Ð»ÑĬÐ°ÑĢÐ°Ð²":9809,"ĠÑĢÐ¾ÑĢÑħÐ°ÑĤÐ°Ð»":9810,"ĠÑĨÓıÑĥÐ¼ÑĥÑĢ":9811,"ĠÑįÐ»ÐµÐºÑĤÑĢÐ¾Ð½":9812,"ÐĳÐ°Ð¹ÑĢÐ°Ð¼":9813,"ĠÐ°ÑģÐºÐ°ÑĢÐ°Ð»":9814,"ĠÐ¨Ð¸ÑħÑģÐ°Ð³ÓıÐ¸Ð´":9815,"ĠÐ¼ÑĥÐ½Ð¸ÑĨÐ¸Ð¿Ð°Ð»Ð¸ÑĤÐµÑĤ":9816,"ĠÐ°Ð¿Ð¿Ð°ÑĢÐ°ÑĤÐ°Ð»ÑĬÑĥÐ»":9817,"ÑĢÑĥÑĨÐµÐ»Ð»":9818,"Ð¸Ð»ÑĬÐ¸Ð³Ð¸":9819,"ÐµÑıÐ·ÑĥÐ»":9820,"ĠÑĢÐ°ÑĨÓı":9821,"ÑĤÐµÐ½":9822,"ĠÑħÐ¸Ð½Ð°Ð»":9823,"Ð°ÑĤÐ°Ð»Ð³Ð¸":9824,"ĠÑĤÐµÐ¿":9825,"ĠÐ¼Ð°ÑĤÓı":9826,"ĠÐ³ÑĮÐ°Ð±Ð¸ÑĩÓıÐ¾Ð½Ð¸":9827,"Ð°Ð²ÐºÐ°":9828,"ĠÐľÑĥÑħÑĬ":9829,"ĠÐ¿ÐµÑĢÑģ":9830,"Ð³ÑĮÐ°":9831,"ĠÐ¸Ð±Ð½":9832,"ĠÐłÐ°Ð·":9833,"Ð°ÑĩÑħÑĬÐ°Ð»Ð°":9834,"ĠÑĪÐ°Ð³ÓĢÐ¸ÑĢ":9835,"ĠÑıÐ»ÑĬÑĥÐ»":9836,"ĠÐ³ÑĬÐ°Ð½Ñģ":9837,"Ð¸ÐµÐ³Ð¾":9838,"ĠÐĿÑĥÑħÓı":9839,"ĠÐ·Ð°Ð¼Ð°Ð½Ð°Ð»Ð´Ð°ÑģÐ°Ð½":9840,"ĠÐ³ÓıÐ¾Ð»Ð°ÑĢÐµÐ»":9841,"ÐĶÐ°Ð³ÑĬ":9842,"ĠÑĦÐµÐ´ÐµÑĢÐ°Ð»Ð¸ÑıÐ»":9843,"ĠÐ¶Ð°Ð½Ð°Ð·Ð°":9844,"ĠÐ±ÐµÐ³ÑĮÐ¸Ð»Ð°Ð°Ð½":9845,"ĠÐ²ÑĥÐ³Ð¾Ð°Ð½":9846,"ĠÐļÑĬÐµÑĨ":9847,"ĠÐºÐ¸Ð½Ð°Ð»Ð³ÓıÐ°Ð³Ð¸":9848,"ĠÑįÐ±ÐµÐ»Ð°Ð»ÑĬÐµ":9849,"ÐµÑĨÐ°Ð³Ð¾":9850,"ÐĸÐµÐ³Ð¸":9851,"ĠÑĥÐ»ÐºÐ°Ð±Ð°Ð·Ð´Ð°":9852,"ĠÐ¿ÑĢÐ¾Ð¿":9853,"ĠÑĤÓıÐ°Ð´ÐµÐ³ÓıÐ°Ð½Ð°Ð²":9854,"ĠÐ±ÑĥÑģÑģÐ°ÑĢÐ°Ð±":9855,"ĠÐ³ÓıÐ°Ð¼Ð°Ð»Ð°Ð»":9856,"ĠÐ½Ð°ÑĩÐ°Ð»ÑĮÐ½Ð¸ÐºÐ»ÑĬÑĥÐ½":9857,"ĠÐ¢ÑĥÑĢÑĨÐ¸ÑıÐ»ÑĬÑĥÐ»":9858,"ĠÐ±ÑİÐ´Ð¶ÐµÑĤÐ°Ð»Ð´Ð°":9859,"ĠÐºÑĢÐµÐ´":9860,"ĠÑħÐ¸Ð½Ð»ÑĬ":9861,"ĠÐ¿Ð»Ð°Ð½Ð°Ð»Ð´Ð°":9862,"ĠÐĳÐ°ÐºÑĬÐ±Ð°ÐºÐºÑĥÐ»":9863,"ĠÐĵÑĬÐ°Ð·Ð¸Ð¼ÑĥÑħÓıÐ°Ð¼Ð°Ð´Ð¾Ð²":9864,"ĠÐ¿Ð¾Ð»Ð¸ÑĨÐ¸ÑıÐ»ÑĬ":9865,"ĠÐļÐ°Ð¼Ð°Ð»Ð¾Ð²":9866,"ĠÐ³ÓıÑĥÐ¼ÑĢÑĥÑıÐ»ÑĬÐ³Ð¾":9867,"Ð°ÑĥÑĢÐµ":9868,"ĠÑĨÓĢÐ¸ÐºÓĢÐºÓĢÑĥÐ½":9869,"ĠÐ¡Ð°ÑĢÐ¸ÑĢ":9870,"ĠÐ±ÐµÑĩÓıÑĩÓı":9871,"ĠÑģÐ¿Ð¾Ð½ÑģÐ¾ÑĢ":9872,"ĠÑĦÐµÐ»ÑĮÐ´ÑĪÐµÑĢ":9873,"ÑĢÐ°ÑģÐ°":9874,"ÑĬÐµÐ·Ð´":9875,"Ð´ÑĥÐºÑĮ":9876,"ĠÐ³Ð¸":9877,"Ð°Ð½ÑīÐ¸Ð½":9878,"ĠÑĢÐ¾Ð»":9879,"Ð¸Ð½Ð¸Ð±":9880,"Ð°Ð»ÑĬÑĥÑĢ":9881,"ĠÑĤÐ¾ÑĢ":9882,"ĠÑģÑĥÐ»":9883,"ĠÑģÐ¸Ð¿":9884,"ĠÑģÑĥÑħÑĬÐ¼Ð°ÑħÑĬ":9885,"ĠÐĶÑĥÐµ":9886,"ĠÑĩÓıÐ¾Ð»ÐµÐ»":9887,"ĠÑĩÓıÐ¾Ð»Ð°ÑĢÐ¾":9888,"Ð¸Ð½Ð°Ð±ÑĥÑĢÐ°Ð±":9889,"ĠÑĢÑĥÐºÓıÐ¸Ð½Ð°":9890,"ĠÐ¢Ð°Ð±Ð°ÑģÐ°ÑĢ":9891,"Ð³ÓıÐ°Ð½Ð³Ð¸":9892,"ĠÐ³ÑĥÑĢÐ³":9893,"Ð°ÑħÑĮÑĥÐ»":9894,"ĠÑĢÐ°ÑĩÓıÐ°ÑĢÐ°Ð·ÑĥÐ»":9895,"ĠÐĽÑĬÐ°Ð»":9896,"ĠÐĵÓıÐ°Ð»Ð¸ÑģÑĥÐ»":9897,"ÐµÐ»ÑĬÑĥÐ±":9898,"ĠÐ³ÑĮÐµÐ½Ð¸Ð±Ð³Ð¸":9899,"ĠÐ³ÓıÐ¾Ð»Ð¾ÑħÑĬÐ°Ð±Ð°Ð·Ð´Ð°":9900,"ĠÑħÐ¸ÑģÑĥÐ»ÐµÐ±":9901,"ĠÐºÐ²ÐµÑĪÐ³Ð¾":9902,"ĠÐ³ÓıÐ°Ð´Ð°ÑĤÐ°Ð»Ð³Ð¸":9903,"ĠÐ±Ð¸Ð³ÑĮÐ°Ð»ÑĬÐ°Ð±Ð¸":9904,"ĠÑĤÐ¾ÑħÑĤÑĥÑĢÐ·Ð°Ð±Ð°Ð·ÑĥÐ»":9905,"ÐļÑĬÑĥÑĢ":9906,"ĠÑĢÐµÐ´Ð°ÐºÑĨÐ¸ÑıÐ»Ð´Ð°":9907,"ĠÐ±Ð¸Ð¶ÑĥÐ½":9908,"ĠÐĵÑĮÐµÐºÑĬ":9909,"Ð¦ÓıÑĥÐ¼Ð°Ð´Ð¸ÑģÐµÐ·ÑĥÐ»":9910,"ĠÐ³ÓıÐ°ÑĢÐ·Ð°Ð³Ð¸":9911,"ĠÑĤÐµÑĢÑĢÐ¾ÑĢÐ¸Ð·Ð¼Ð°Ð»ÑĬÑĥÐ»":9912,"ĠÑħÓıÐ°Ð¶Ð°ÑĤÐ°Ð±ÑīÐ¸Ð½Ð°Ð±":9913,"ĠÐ´ÑĥÐ½ÑıÐ»Ð°Ð»ÑĬÑĥÐ»Ð³Ð¾":9914,"ĠÐ±Ð°ÑĨÓıÑĨÓıÐ°Ð´Ð³Ð¾":9915,"ĠÐ¿ÐµÑĢÐ²ÐµÐ½":9916,"ĠÑĤÓıÐ°ÑĤÐ¸Ð½Ð°ÑĢ":9917,"ĠÐ±Ð°ÐºÐºÑĥÐ½":9918,"ĠÐ±ÑĥÑģÑģÐ¸Ð½Ð°Ð±ÑĥÐ»ÐµÐ±":9919,"ÑĤÓĢÐµÑĢÑħÑĮÑĥÐ»":9920,"ĠÑĢÐ°Ð³ÑĬÑĥÑħÑĬÐ°Ð±Ð°Ð·ÑĥÐ»":9921,"ĠÑĤÓıÐ°ÑħÑĮÐ°Ð·Ð´Ð°":9922,"ĠÐ²Ð¸ÑĩÑĩÐ°Ð½":9923,"ĠÐ³ÑĥÑĢÐ¶Ð¸":9924,"ÐĽÑĬÐ¸ÐºÓıÐ°Ð±":9925,"ĠÐľÐ°ÑħÓĢÐ¼ÑĥÐ´":9926,"ÐĲÐĽÐª":9927,"ÐłÐ°ÐºÓıÐ°Ð»Ð´Ðµ":9928,"ĠÐĺÐ½ÑħÐ¾ÐºÑĬÐ²Ð°ÑĢÐ¸":9929,"ĠÐ³ÓıÐ°Ð¼Ð¼Ð°Ð»":9930,"ĠÐĽÑĬÐ°Ð³ÓıÐ¸Ð»ÑĥÑħÑĬ":9931,"ÐºÐ°Ð¼Ð¸Ð»":9932,"Ð°Ð½Ð¸Ð±":9933,"ĠÐ»Ð°ÑĥÑĢÐµ":9934,"ĠÐ´Ð¾Ð²Ðµ":9935,"ĠÑĤÓıÑĥÐ½Ð°":9936,"ĠÑĤÓıÐ¾Ð»ÐµÐ±":9937,"ĠÑĤÓıÐµÑĢÐµÐ½":9938,"Ð¸ÑģÐ»Ð°Ð¼":9939,"ĠÐ·Ð°Ð½":9940,"ĠÐ·Ð°Ð¿":9941,"ĠÐļÐ°Ð½":9942,"ĠÐ³ÑĮÐ°ÑĢÑĥÐ»ÐµÐ²":9943,"ĠÐ³ÑĮÐµÐ·ÑĥÐ»ÑĬ":9944,"ĠÐ°ÑģÑĦ":9945,"ĠÐ¨Ð°Ð±Ð°Ð·":9946,"ĠÐ³ÑĮÐµÑĩÓıÐµÐ¹":9947,"ĠÐ±Ð¾ÑģÑĥÐ»ÐµÐ»":9948,"ĠÐ»ÑĬÑĥÐ³ÑĮÐ°ÑĢÐ°Ð²":9949,"ÐĲÐĹ":9950,"ĠÐĴÐ°ÑħÓı":9951,"ĠÐºÐ¸Ð½Ð½Ð¸Ð³Ð¸":9952,"ĠÐºÓıÐ°Ð»ÑĬÐ°Ð»ÐµÐ»":9953,"ĠÑħÑĬÐ¸Ð·Ð°Ð½Ð°Ð»":9954,"ĠÐ¶Ð°Ð²Ð°Ð±Ð³Ð¸":9955,"ĠÑĥÐ»Ð±ÑĥÐ·ÑĥÐ»":9956,"Ġ42":9957,"ĠÑħÓıÐ°Ð´ÑĥÑĢÑĥÐ»ÐµÐ±":9958,"ÐµÐ³ÑĢÐ°Ð¼":9959,"ĠÐ±Ð°Ð¶Ð°ÑĢÐ°Ð½Ð°":9960,"ĠÐ´Ð°Ð½Ð´ÑĩÓıÐ²Ð°ÑĢÐ°Ð»":9961,"ĠÐºÓĢÑĥÐ´Ð¸ÑıÐ²":9962,"ĠÐĵÑĮÐµÐ½Ð¸Ð±Ð³Ð¾":9963,"ÐĽÑĬÐ°Ð³ÓıÐ°Ð»Ð¸Ð»":9964,"ĠÐ±Ð°Ð³ÑĮÐ°Ð±Ð¸":9965,"ĠÐĵÑĬÐ°Ð·Ð¸Ð¼":9966,"ĠÐ½Ð°ÑģÑĢÐ°Ð½":9967,"ĠÑħÓıÐ°Ð»ÑĤÓıÑĥÑħÑĬÐ°Ð½Ð°ÑģÑĥÐ»":9968,"Ð°ÑħÓĢÐ°Ð±":9969,"ĠÑĨÓıÐ°Ð»Ð´Ð¾ÑħÑĬÐ°Ð½Ð°ÑģÐµ":9970,"ĠÐºÑĬÐ¾Ð¹Ð¸Ð´Ðµ":9971,"Ð´ÐµÑĢÐ¸Ðµ":9972,"ĠÐĵÑĮÐ¸ÑĤÓıÐ¸Ð½Ð¾Ð²":9973,"Ð°Ð´Ð¶Ð°Ð±":9974,"ĠÐ¢ÓıÐ¾Ð»Ð±":9975,"ĠÑĢÐ¸ÐºÓĢÐºÓĢÐ°Ð´":9976,"ĠÐ°Ð½Ð¸ÑīÐ°Ð»":9977,"ĠÐ´ÐµÐ»Ð¾":9978,"ĠÐ¥ÓıÐ°ÑĢÐ¸ÐºÐ¾Ð»Ð¾":9979,"ĠÐ¿Ð¸ÑĤÐ½Ð°":9980,"ĠÑĥÐ·ÑĥÑħÑĬÐ´Ð°":9981,"ĠÑħÐ°ÑģÐ»Ð¸ÑħÑĬÐµ":9982,"ĠÐĲÐ³ÑĬÐ²Ð°Ð»Ð¸ÑģÐ°":9983,"ÑĢÐ°ÐºÑĬÐ°Ð»ÑĬÐ¸":9984,"ĠÐ°Ð»ÑĬÑĥÐ»":9985,"ĠÐ°ÑĦ":9986,"Ð°ÑĢÐ³Ð¾":9987,"ĠÐ³ÑĮÐ°ÑģÐ´Ð°":9988,"Ð»ÑĬÐ°Ð±Ð°Ð·Ð´Ð°":9989,"ÑĤÐ°Ð»Ð°":9990,"Ð°Ð·Ð¸ÑĢ":9991,"ĠÐ²ÑĥÑħ":9992,"ĠÑĤÓıÐµÐºÑĬ":9993,"ĠÐºÑĬÐ°Ð±":9994,"ĠÐľÐ°ÐºÑĮ":9995,"ĠÐľÑĥÑģÑĤ":9996,"ÑĥÑħÑĬÐ°Ð±Ð°Ð·ÑĥÐ»":9997,"ĠÑīÐ¾Ð»Ð°ÑĢÐµÐ±":9998,"ĠÐĶÑĥÐ±":9999,"ÐµÐºÑĨÐ¸ÑıÐ»ÑĬÑĥÐ»":10000,"ĠÑĤÓıÐ°Ð´Ð°Ð±Ð»ÑĬÑĥÐ½":10001,"ĠÑĤÓıÐ°Ð´ÑĩÓıÑĥÐ½":10002,"ĠÑĥÐ½ÐµÐ»ÑĬÑĥÐ»":10003,"ĠÐľÑĥÑħÓıÐ°Ð¼Ð°Ð´Ð¾Ð²Ð°ÑģÐµ":10004,"ĠÐºÐ²Ð°ÑĢÐ°Ð»":10005,"ĠÑĨÓıÐ°Ð»ÑĥÐ»ÑĬ":10006,"ĠÐ±Ð°ÐºÓıÐ°Ð»ÑĬÑĥÐ»Ð°Ð»":10007,"Ð²Ð°Ð»ÐµÐ±":10008,"ÐľÑĥÐ³Óı":10009,"ĠÐ¢ÓıÐ¸Ð½":10010,"ĠÑĨÐµÑĢÐµÑĩÓı":10011,"ĠÐ³ÑĮÐ¾ÑĢÐºÑĮÐ¾Ð±Ð³Ð¸":10012,"ĠÐ¥ÓıÐ°Ð¶Ð¸ÑĨÐ°":10013,"ĠÐ±Ð°ÑıÐ½Ð»ÑĬÐ°Ð½Ð°":10014,"ÑĢÐ¾ÐºÑĬ":10015,"ĠÑħÓĢÐ°ÑģÐ¸Ð»":10016,"ĠÑģÐ¿Ð¾ÑĢÑĤÐ°Ð»Ð´Ðµ":10017,"ĠÐ¿ÑĢÐµÐ´Ð»Ð¾Ð¶":10018,"ĠÐ¼Ð¾ÑĨÓıÐ¸Ð´Ð°":10019,"ĠÑĩÓıÐµÐ·Ð°Ð±ÑĥÑĢÐ°Ð±":10020,"ĠÐ´ÐµÐ¿ÑĥÑĤÐ°ÑĤÐ»ÑĬÑĥÐ½":10021,"ĠÑħÓıÑĥÐºÑĥÐ¼Ð°ÑĤÐ°Ð»Ð´Ð°":10022,"ĠÑħÓıÑĥÑĢÐ¼Ð°ÑĤÐ¸ÑıÐ²":10023,"ĠÐ¿Ð°ÑĢÑĤÐ¸Ð·Ð°Ð½":10024,"ĠÐ¼Ð°Ð»ÑĬÐ°ÑĢÐ°Ð±":10025,"ĠÑĢÐ¸Ð³ÑĮÐ°Ð»ÑĬÑĥÐ»":10026,"Ġ1000":10027,"ĠÑħÓıÑĥÑħÑĮÐµÐ»":10028,"ĠÐ¼Ð°Ð´ÑĥÐ³ÑĮÐ°Ð»Ð·Ð°Ð±Ð¸":10029,"ÑħÑĬÐ²Ð°Ð³ÓıÐ°ÑıÐ»":10030,"ĠÑĨÐ¾Ð³Ð¾ÑıÐ±":10031,"ĠÑĤÓıÐ°ÑģÐ°Ð±":10032,"ĠÐ¡ÑĤÐ°Ð»Ð¸Ð½Ð¸Ð»":10033,"ĠÐ³ÓĢÐµÐ»Ð¼Ñĥ":10034,"ĠÐ»Ð¸ÑĨÐµÑıÐ»ÑĬÑĥÐ»":10035,"ĠÐļÑĬÐ°ÑģÐ¸":10036,"ĠÐºÑĬÐ°ÑĢÐºÑĬ":10037,"ĠÐºÐ°Ð·Ð¸ÑıÑĤ":10038,"ĠÐĲÐ±ÑĥÐ»Ð¼ÑĥÑģÐ»Ð¸Ð¼":10039,"ĠÐºÐ²ÐµÑĢÑīÐ°Ð»Ð¸ÐºÑĮ":10040,"ĠÑħÑĮÐ¾Ð»Ð±Ð¾ÑħÑĬ":10041,"ĠÐºÐµÑģÐµÐº":10042,"ÑĢÐ¸ÑģÑĤ":10043,"Ð°Ð»Ð¸ÐµÐ²":10044,"Ð½Ð¸Ð»ÑĬ":10045,"ÐºÐ¸ÑĢÐµÐ³Ð¾":10046,"Ð±Ð°Ð·":10047,"ĠÐºÐ¸ÑģÐ°Ð½":10048,"Ð»ÑĬÑĥÑħÑĬÐµ":10049,"ÑĤÐµÐ»":10050,"ÑģÐ¸Ð»":10051,"Ð°Ð´Ð¸Ð¾Ð½":10052,"Ð°Ð´ÐµÑħÑĥÐ½":10053,"ĠÐ²ÐµÐ³":10054,"ĠÐ²ÐµÑĩ":10055,"ĠÐĵÑĮÑĥÐ´ÑĥÐ»":10056,"Ð¶Ð°Ð»":10057,"ĠÐ±ÑĥÐºÓıÐ¸Ð½Ð°Ð±Ð¸Ð·Ðµ":10058,"ÑĥÐ¼ÑĥÐ·":10059,"Ð°ÑħÓıÐ¸Ð¼":10060,"Ð¸ÐºÑĥÐ»":10061,"ÑħÑĬÐ°Ð±Ð¸":10062,"ĠÐ³ÑĮÐ°ÑĢÐ´":10063,"ĠÐ¸Ð½Ð°Ð»ÑĬÑĥÐ»":10064,"ĠÐ¦Ð¾Ð½Ð¸Ð³Ð¸":10065,"ĠÐ´Ð°Ð½Ð´ÐµÐ³Ð¸":10066,"ĠÐ½Ð°ÑħÑĬÐ±ÑĥÑģÑģ":10067,"ĠÑĢÐ°Ð³ÓıÐ°Ð±Ð¸Ð³Ð¸":10068,"ĠÐ³ÓıÑĥÑĨÓıÐ°ÑĢÐ°Ð»Ð´Ð°ÑģÐ°":10069,"Ð¸Ð·Ð°ÑĢÐ¸":10070,"ĠÐ»ÑĬÑĥÐ³ÓıÑĥÐ»ÐµÐ±":10071,"ĠÑħÑĬÑĥÐ»ÑĥÑħÑĬÐ°Ð»ÑĬÐµ":10072,"ĠÐ¼Ð°Ð³ÓıÐ°ÑĢÑĥÐ»Ð°Ð·Ðµ":10073,"Ð¾ÑĩÐ¾Ð½":10074,"ĠÑĢÐ¾ÐºÑĬÐ¾Ðµ":10075,"ÐĴÐĶ":10076,"ĠÑĢÐ°ÑĩÐ°ÑĢÐ°Ð»":10077,"ĠÐĵÑĮÐ°Ð½Ð¸ÑĢ":10078,"ĠÑĥÐ»ÐºÐ°ÑıÐ»Ð´Ð°Ð³Ð¾":10079,"Ð£Ð¼":10080,"ĠÐ²Ð°ÑĤÐ°Ð½Ð¸Ð³Ð¸":10081,"ĠÑīÐ¸Ð²Ð½Ð¸Ð³Ð¸":10082,"ĠÐĲÐ²Ð°ÑĢÑĤÐµ":10083,"ĠÐ³ÓıÐ°Ð´Ð°Ð½Ð»ÑĬÐ¸ÑıÐ»ÑĬÑĥÐ»":10084,"ĠÐ³ÓıÐ°Ð¹Ð¸Ð±Ð°Ð»":10085,"ĠÐĵÑĬÐ°Ð·Ð¸ÐµÐ²":10086,"ĠÐ³ÑĮÑĥÐ½Ð°ÑĢÐ°Ð»ÑĬÑĥÐ»":10087,"ĠÐ°Ð²ÑĤÐ¾Ð±ÑĥÑģ":10088,"ĠÑħÓıÐ°ÐºÑĬÐ¸ÐºÑĬÐ°ÑĤÐ°Ð»Ð´Ð°":10089,"ĠÐºÐ¸Ð»Ð¾Ð³ÑĢÐ°Ð¼Ð¼":10090,"ĠÐ¿ÑĢÐ¾ÑĨÐµÑģÑģ":10091,"ĠÑĨÐµÐ±ÐµÑĤÓıÐµÐ·Ð°Ð±Ð¸ÑıÐ»ÑĬÑĥÐ»":10092,"ĠÐĳÐ¾ÐºÑĮÐ°ÑĢÐ°Ð±":10093,"ĠÐ£Ð·Ð´Ð°Ð»ÑĢÐ¾Ñģ":10094,"ĠÑĢÐ°ÐºÓıÐ±Ð°ÑĨÓıÑĨÓıÐ°Ð´Ð°Ð±":10095,"ĠÐ±ÐµÑĤÓıÐµÑĢÐ³ÑĮÐ°Ð½Ð°Ð»":10096,"ĠÐ±ÐµÑĨÓıÐ¸Ð·Ðµ":10097,"ĠÐ¨Ð°Ð¼ÑħÐ°Ð»Ð¾Ð²":10098,"ĠÑĩÐ¾ÑĢÐ¾ÐºÐ»ÑĬÐ¸":10099,"ĠÑĨÐµÑĢÐµÑĢÐ°ÑħÑĬÐ¸Ð½Ð°Ð»":10100,"ĠÐ¥ÓıÐ°Ð¹Ð±ÑĥÐ»Ð°ÐµÐ²":10101,"ĠÑģÐ°Ð½Ð°Ð³ÓıÐ°ÑĤÐ°Ð±":10102,"ĠÐ¼Ð¸Ð½ÑĥÑĤÐ°Ð»ÑĬ":10103,"ĠÐ³Ð°Ð½ÑĩÓıÐ¸Ð»":10104,"Ð¼Ð°ÐºÑĬÐ°Ð±":10105,"ĠÐĲÐ±Ð´ÑĥÑĢÐ°ÑħÓıÐ¼Ð°Ð½":10106,"ĠÐ¼Ð¸Ð½Ð°ÑıÐ»ÑĬÑĥÐ±":10107,"ÐłÐµÑģÐ¿ÑĥÐ±Ð»Ð¸ÐºÐ°ÑıÐ»ÑĬÑĥÐ»":10108,"Ð¾ÑģÐ°ÑĢÐ¾Ð»ÑĬ":10109,"Ð§ÐµÑĢÐ½Ð¾Ð²Ð¸Ðº":10110,"ÑĥÐ»ÓĢ":10111,"ÐºÐ°Ð»Ð°Ð¼":10112,"ĠÐºÑĥÐ¹":10113,"ÑĤÐ¸Ð»":10114,"Ð°ÑĤÐ°Ð·Ð´Ð°":10115,"Ð°ÑħÐµÑĤ":10116,"ĠÐ²ÐµÐ´":10117,"Ð°ÐºÐ°Ð»":10118,"Ð¸ÑģÐ°Ð»Ð°":10119,"Ð¸ÑĤÐ°Ð½":10120,"ĠÑĢÐµÑĨ":10121,"ĠÑħÓıÐ°Ð»Ð¸Ð¼":10122,"Ð°ÐºÑĬÐ°Ð±":10123,"Ð°ÑħÓıÐ¸ÑıÐ»":10124,"ĠÐ¡Ð°ÑĢÐ°ÑĤ":10125,"ĠÐ³ÑĬÐ¾Ð·":10126,"ĠÐĶÐ°Ð³ÑĬÐ¸ÑģÑĤÐ°Ð½Ð°Ð»Ð´Ð°Ð³Ð¾":10127,"ĠÐĺÐ»":10128,"ĠÑĨÓıÑĥÐ½ÑĥÐ»Ð°Ð³Ð¾":10129,"ĠÑĤÓıÐ¾Ð±Ð¸ÑĤÓıÐ¸ÑıÐ»ÑĬÑĥÐ»":10130,"ĠÑĨÓıÐ°ÑĢÐ°Ð»ÑĬÐµ":10131,"ĠÐļÓıÐ°Ð»ÑĬÐ°Ð·Ðµ":10132,"ĠÐ±Ð°ÑıÐ½Ð°Ð»Ð´Ð°":10133,"ĠÐ¿Ð¸ÐºÑĢÑĥÐ³ÑĥÐ½":10134,"ĠÑĤÓıÐ°Ð¼Ð¸":10135,
[...]
